11111110
00000010
11111010
00000010
11111101
11111010
11110011
11111110
11110111
00000110
11111000
00000110
11001111
11110111
00011110
00101001
00000010
00000011
00000111
11111111
00000100
11111110
00001101
11111110
00000100
00000111
11111111
11111010
00001101
11110011
00001011
00000011
11111111
00000010
00000001
01001100
01100100
01101000
00101100
10111000
11001011
00110111
01110011
01111111
01111111
01111110
01111110
01100000
01010000
00111001
00011101
11111111
11111010
11110010
00000100
11111101
11111111
00000001
00000001
11111000
00001010
00001010
00010000
01111111
01111110
01111111
01111111
01111111
01111111
01111111
00111100
01111111
01111111
00111000
10100110
11111100
01111111
01010011
00010010
10101011
00101011
00111011
11111011
11111101
00000100
11111010
11110110
00100101
01111011
01111111
01111111
01111111
01111111
01111111
01111111
00100010
01111000
01111111
10111011
10000000
11000011
10000000
10000000
10000000
11000100
01011011
01111111
01101110
01111111
01111111
00000110
11111101
00000111
11111011
11010101
00010010
01111111
01111111
01110010
10101000
11011100
00010010
11110011
10100110
00000001
11100001
00000001
11100110
00100110
01010011
10001001
00000100
01111111
01101100
10000000
11111100
10001111
10000000
00001011
00001000
11111011
00000100
00001011
11101001
10000000
10000000
10000000
10000000
11001110
10100100
11000011
10011101
10111000
11001110
00100101
00101001
00010110
00000100
10101110
10000000
10010000
11100010
11010000
10000000
10000000
10000000
10110111
00001001
11111110
11111101
00100001
10111101
10010110
10000000
10000000
10000000
10011110
11000100
11011110
11010100
10110011
10011011
11010001
11101010
11011100
11010010
11001010
11001001
10000000
10111110
11101110
10000000
10000000
10010001
10000000
10000000
00001101
10010001
11111110
10011101
10100011
10000000
10011111
11111000
00000010
10101100
11010000
10111010
10011000
11101111
10010010
00001111
00011010
10001011
11101011
10001110
10110111
00010111
11111110
11100000
11110000
11001010
10000000
10000000
11111000
10111101
10110001
10000000
10000000
10001101
00010101
01010011
00111010
01100000
00100100
11100101
00000111
00100101
11010010
10111100
10000000
10000000
10111011
10100010
11100100
01100100
11101111
01111111
00011011
10000000
10000000
11001110
00000111
11101000
10000000
10000000
10000000
11101110
01000001
01000010
01111111
01111111
00000110
00000101
00000000
10000000
10000000
10000000
10000000
10000000
10111111
10000000
10000111
00010010
00011000
01111111
10000000
10000000
10000000
10000000
11111111
11110101
10000000
10000000
00000110
00110001
01111111
11100011
01111000
01001100
00101101
10100101
11000011
10110010
11000110
10001111
11010000
11010010
11001001
10100100
10000010
10000000
11010011
01011000
10000000
10000000
10000000
10010011
11111110
11111100
10000000
10000000
00010111
01111111
01011000
11100110
01111111
00111111
11100000
10000001
10100100
10111101
01010100
00010000
00010010
10011011
10110010
11011111
01101010
01010100
01111111
01100010
00000110
10000000
10000000
11111110
11110101
11101100
10000000
10000000
11100000
00011101
00111010
00010100
01111000
11001100
10000000
10011101
00010111
01000011
01111111
01111111
01110111
10111111
10001101
00100001
01011100
01100110
01001000
00000100
01011001
00111011
00011101
00001000
11111110
11101101
10000000
00001110
11000001
11011010
11001010
11101010
00001010
10000101
10000000
00001101
01101100
00010100
01111111
01111111
01111111
00110100
01100101
01111111
01001100
11011101
11000000
10101111
01000010
01111000
01101000
00011010
00000000
10000000
10010011
01011000
10010010
10100001
10000000
10010010
10000000
10000000
01000011
01111111
01000110
01000001
01111101
01111111
01111111
01011100
01010001
00111101
11100010
10000000
10100001
10000000
10000000
01101010
01111111
00010000
11111100
10100111
10000000
01000100
00001111
11110110
10001101
10000000
10101111
01001110
01111111
01111111
01111110
01111101
01111111
01111111
01111111
00111010
00110000
11101100
10000000
10000000
10100100
10001110
10000000
11010100
01010000
11011101
00000100
10000000
10000000
11101000
01001010
01011010
00111111
01010111
01111111
01111111
01111111
01111111
01111111
01111111
01111111
01111111
01100111
00001000
11010110
10000000
10000000
10000000
10000000
00010111
10110111
10111101
01111111
00000100
00000101
10000000
10000000
10000000
00101001
00110001
00101100
01111111
01111111
01111111
01111111
01111111
01111111
01111111
01111111
01111111
11110010
10100001
10000000
10000000
10011111
11101000
10111111
00001011
00110010
11100000
01111111
01111111
11100000
11011011
10000000
10000000
10111010
10100101
11011010
00101101
01001010
01111111
01111111
01111111
01111111
01111111
01111111
11110001
10000000
10100101
10000100
10110100
10011100
10100010
11010010
00000000
00010001
00001101
01111111
01111111
00000100
11011000
10000000
10000000
11010000
11010111
00010100
01000101
01111111
01111111
01111111
01111111
01111111
01111100
11101010
10000000
10100001
00010101
11010110
11100000
10010000
11011000
00001111
00011100
11101100
11111010
01111111
01111111
11111000
00101000
10000000
10000000
00000101
11101111
11110111
01100111
01111111
01001111
00100101
11011110
10011111
10000000
10000000
10100010
11101000
00010101
00000000
01001110
11101101
00100100
11110010
01111111
01110000
01111111
00101111
11111010
00000001
01010000
10101101
11010110
10000101
10110101
10100101
01011110
00100010
00001100
00100011
11111010
10100001
10100001
10000000
10000000
11011011
01001111
01100101
01001110
11110110
00111001
01011011
01110000
01111111
01111111
00010000
11101010
11110111
00000110
10111000
11100011
10101101
10101001
10000000
11000001
11010010
00011010
00010100
11100001
10000000
10100110
11110100
10001010
10110101
11010110
11101000
11100011
00011000
01000110
00100011
00011110
01000101
01001011
11010111
11100100
00000010
11111011
10110010
10010100
10000000
10000000
10000000
10000000
10000000
11011110
11000101
10110100
11011101
01110101
00011111
11010000
11111111
11100001
11110000
01000111
11110011
01011110
01110011
11110110
11010010
10100100
11010100
11110101
11111111
11111101
11011011
10000000
10000000
10000000
10000000
10000000
10000000
10000101
11101001
11101100
11010101
11000010
11010100
00000010
01010011
10000000
00100011
01111111
01110101
01110000
00111100
11010100
11110001
10110101
00000111
11111010
00000011
11111011
00000010
10000000
10000000
10000000
10000000
10000000
10000000
00000100
10110111
10001110
10000000
10100000
01001000
01010001
00100100
11100101
10000000
10000000
10110011
10000000
10110111
11010000
10000000
10100000
11111101
11111011
00000011
11111011
00000000
10101010
10000000
10000000
10000000
10000000
10000000
10000000
10000000
10000000
10000000
10000000
10000000
10000000
10000000
10000000
10000000
10000000
10000000
10000000
10000000
11111010
00001001
00001000
00000100
00000101
00000110
00000101
00000111
11111000
11010111
11011001
10010110
10100000
10010100
10000000
10000000
10000000
10000000
10000000
10000000
10000000
10111010
00011010
11110001
10111110
10111001
10010111
11011101
00000011
00001001
00000110
00001010
11110101
