00000101
11111010
11111000
00001001
00000111
11111110
11111010
00000010
00000111
11111110
11111010
00000000
00000111
00011010
00011111
00001011
00000111
11111111
00000011
00001001
11111001
00000110
00000001
00000010
00000010
00000010
00000000
00000010
11111001
11111101
11111010
00001000
00000001
01111111
01111111
01111111
01111111
01111111
01111111
01111111
01111111
01111111
01110100
01111111
01111111
01111111
01111111
01111111
01111111
00101000
00000101
00000011
11111000
11111000
00001010
00001000
00000101
11111010
00001001
00000101
01001011
01111111
01111111
01111111
01111111
01111111
01111111
01111111
01111111
01111111
01111111
01111111
01111111
01111111
01111111
01111111
01111111
01100111
01000001
01111111
01111111
11111101
11111101
11111011
11111010
00001001
00000111
01011100
11111111
01111111
01111111
01111111
01111111
01111111
01111111
01111111
01111111
01111111
01111111
01111111
01111111
01111111
01111111
01111111
01111111
01001111
00011101
01100001
00110000
00000110
00000100
00001000
11111010
00001101
11111010
01010110
01001001
00101001
01111111
01111111
01111111
01111111
01110011
01011000
01111111
01111111
01111111
01111111
01111111
01111111
01110001
10000000
10000000
10001100
11000010
10000000
10000000
11011001
01011111
00100111
00001000
00000110
00111010
00001101
11111001
10000000
10101101
00101011
11000000
10000000
11110011
00111110
01111111
01111111
01111111
01111111
01111111
01111111
01111111
01111111
01100000
11111000
00010010
10000000
10000000
10000000
01110101
11100100
00000101
00001010
01111111
01110011
01111111
11000001
00100010
01011100
10011011
11111101
00100001
11101011
11110011
01001110
01000110
01011110
00010100
11101101
00101101
01111111
01111010
00010001
11111110
11101101
00011100
00010110
01000110
00000111
00000111
01110001
01010010
11100101
11100001
01000011
01101001
10111110
11010100
00101110
10110111
10100111
10101100
11011100
01001101
01010100
11010100
11111011
11110010
11100001
00001111
01001111
00100011
00110111
01111111
00101100
10010100
00100010
00000100
11101110
10110011
10000000
11011001
11100101
10101110
11001001
00000001
00111100
00011111
00101001
11110011
00000001
11110111
00100010
00010010
10111100
10101001
00010001
00111000
01111000
01001000
01111111
01111111
01111111
01111111
01110001
11111001
11100000
11110010
10000000
00100111
11001010
11110001
00100101
00001111
11100100
11100100
11001110
10011001
11100001
11110011
10100011
11111101
10011111
10101010
00010010
01100000
00100011
00001110
01111111
01111111
01111111
01111111
11010110
11110100
11100000
11010010
10000000
01010001
00011001
00011001
00011000
00011001
10101010
11111111
11101111
00011001
00101010
00111000
10001100
10001110
10010111
11001100
10111011
00000110
10110001
10010100
01111111
01111111
01111111
01111111
00010101
00000101
00110111
11100110
11110010
11010011
11011101
11111110
10110010
10111100
11011011
11000001
10110101
00011011
01111111
01011111
10000000
10000000
10000000
10000000
10010111
11000111
10100011
11111010
01111111
01111111
01111111
01000110
00011001
00001110
01000100
11111111
01000101
10000000
11110001
10010101
10000000
11001010
00010101
11000011
00011010
00110110
01111111
01011011
10010011
10000000
10000000
10001000
10000000
10000000
00001000
10110111
01111111
01111111
01111111
11100001
11100010
11111111
01001110
00100001
11100110
10000000
10000000
10101010
10110111
00000000
11001110
10100110
01010001
01111111
01111111
11100101
10000000
10010101
10000000
10110110
10000000
10000000
11010011
11000101
01111111
01111111
01111111
10101010
11101000
11110011
11111101
11011101
10000000
10000000
10111010
11101011
11000101
10110000
10110000
11110011
00101111
01111111
01111111
11111110
10011101
10000000
10000000
10000000
10000000
10000000
11100100
10011101
01111111
01010010
10011001
00001011
11100110
11110111
11110110
10001111
10000000
10101111
11110100
11001001
10010001
11101001
11111100
10101011
00010010
01111111
01111111
11111001
10000000
10000000
10000000
10000000
10000000
10000000
00101011
11101000
00001101
00001001
00110110
11111001
00010010
11110111
00000100
10100010
11101101
00010100
01001011
10110111
10011011
10010011
00100100
00001100
01100001
01111111
00110101
10101111
10000110
10000000
10000000
10010000
10100101
10110101
10110100
11000110
10111111
11000000
00111001
11100000
00100100
00000110
00000010
11000101
01101110
01000001
01111111
01010000
10101001
10000000
11010101
01000110
11110110
11001111
10000000
10001100
10000000
10010110
11010101
10111100
01010001
00100100
00000011
01111111
01111111
11100100
00101101
11010001
00000110
11111110
11111101
10111111
01111111
01111111
01111111
01111111
00110100
11011100
00001011
00101001
11101101
11010100
10010011
11001101
10010101
00110111
01110101
01000001
01101111
00110110
01101101
01111111
01111111
01110111
01111111
10111110
11101111
00001010
01010011
01000001
01111111
01101011
01111111
01111111
01111111
01111111
01111111
01111111
01111111
01111111
00110110
00100000
01010000
01111111
01111111
01111111
01111111
01111111
01111111
01111111
01111111
01101110
01110111
10110110
11110010
00001011
01010000
00111001
01111111
01111111
01111111
01111111
01111111
01111111
01111111
01111111
01111111
01111111
01111111
01111111
01111111
01111111
01111111
01111111
01111111
01111111
01111111
01111111
01111111
00011010
01001010
11000100
11111111
11111110
00101110
01111111
01111111
01111111
01111111
01111111
01111111
01111111
01111111
01101001
01111111
01111111
01111111
01111111
01111111
01011110
01111111
01111111
01111111
01111111
01111111
01111111
01111111
00001000
11001101
01111110
11111101
00000100
11110101
01111111
01111111
01111111
01110100
01110000
01111111
00011001
00111000
00101010
01001101
01111111
01111111
01111111
01100011
01111110
01111111
00110110
00011100
00101100
01001111
01111111
01111111
01011010
01011101
01010011
00000001
00000111
11111001
01111111
01111111
01111111
01100101
01000000
01000010
01001011
01110001
00000000
01111111
01111111
01111111
01111111
01111111
01111111
01100001
00110010
01110000
01110000
00000001
10110000
01011110
01101101
01111111
11111111
00001011
00000000
11110111
01111111
01111111
01000010
00001010
00100110
01001110
00101000
01110001
00101000
00000011
01111111
01011010
01111111
01111111
01111111
01110000
01111111
01111111
01111111
10000000
11110111
00000110
01110001
00010101
11111011
11111101
11111010
00000010
01111111
01011101
01110010
10011011
11001100
10110011
11110101
11111101
01111111
01010110
11100101
11100001
00000000
00111000
00010010
11000010
11111010
01111111
11011000
10000000
10000000
11000000
11111010
10111011
00000110
00000101
00000011
11111011
00000011
11010000
10000000
10111011
10000000
10000000
10000000
10000000
10111011
10000000
10000000
10000000
10000000
10000000
10000000
10000000
10000000
10000000
10000000
10000000
10101000
11000110
11111101
00001100
11111011
00000001
00000001
11111011
00000001
00001000
11111001
11101101
11111011
11110101
11111101
11111110
10111111
10110000
10000000
10000010
10011100
11011010
11100100
11011010
11011000
11010100
11111101
11001011
11000000
00000100
00000110
11111101
11111010
11111111
