00000010
00000010
00000010
00001001
00000000
11111110
00001011
11110101
11110101
11110111
11111110
00001110
00000000
00000100
00000010
00000101
11111101
11111111
11111111
00000000
11110011
00000001
00000100
11111100
00000010
00000011
11110111
00001100
00000000
11110110
11111101
00001000
11110101
11100011
11001101
11010100
11010111
00000000
11111000
11111110
11011010
11011000
10000000
11010101
11101001
11011101
00010110
11101101
11110101
00000011
00000001
11111000
00000000
00000001
00000011
11111101
11110101
00001000
00000000
00000111
00000111
11011000
10110011
10001110
10000000
10000000
10000000
10000000
11101100
01000110
01000110
00101101
00001000
01100101
00000111
11000001
10011110
10100110
10100000
11111001
11111011
00000000
00000000
00001001
00000100
11111000
00001100
11111111
00001101
01111111
01111111
01111111
01100100
11001001
10011000
10000000
10101011
11000000
10000000
10011011
10010100
10000000
10111101
01000110
10100001
10000000
10000000
11011001
11010001
00000011
11111001
00000101
11111110
00001001
11110010
00000001
10111010
10000000
10000111
00111001
01111000
11100101
10111001
10101111
10000000
11001001
00001101
00010010
10111110
11000011
11100010
01111111
01111111
01111111
00100100
00101100
10001001
11101111
11010100
11111111
00001011
11111111
11101000
10010010
10000000
10000111
10111111
00111111
00101010
01110000
00110010
01000011
11011110
10001100
00100111
01111011
01010110
11111001
00110010
00101011
01001010
01111000
11011101
00010100
10000000
10011011
10010101
11111100
11111101
11111001
00011110
10001101
10000000
00001000
01111111
01111111
00111110
01100011
11101101
00010100
00011110
10101101
10011100
11101111
11010111
00001110
01011101
01100000
11101010
00101110
11110010
10110010
10000000
10000000
10000000
10010001
11111101
01001010
01111110
11010111
10000000
00101001
01101101
00001100
01001110
01001101
01110101
01011111
11010100
10001000
10000000
10000000
11111100
11110111
00111110
01001111
01111101
01010000
00100101
00010011
10000000
10000000
10000000
10100100
00000100
01001100
01111111
01110111
11001110
01110001
01111111
01111111
01111111
00010111
01111001
01111111
01110010
11011111
11011101
00100010
01000010
01111111
01010100
00100111
00101111
11101010
01010011
11111000
10000000
10000000
10000000
11110110
00000111
00011111
01111111
01011111
10100100
01111111
01111111
01111111
01111000
01001111
01111111
01111111
01111111
01101110
01111111
01111111
01111111
01110110
00011110
11111100
00011011
00101101
11010101
00001110
10000000
10000000
10000000
11111001
11111011
00101010
01111111
00010010
11011000
01111111
01000100
00111111
01001011
01110011
01111100
01111111
01000001
01010110
01111111
01111111
01111111
01100100
11010100
11101100
01000101
01100100
11000110
11011110
10000000
10000000
11000000
11111011
00001111
01111111
01111001
01001110
10010110
10011110
10011111
00100101
11001011
01110000
00111110
01111001
10000011
10000000
10000000
00000001
00100000
00101101
11001000
00011111
01110111
00001101
10000000
10000000
10000000
10000000
10111001
00001001
11111101
01111111
01000000
01011111
11011111
10010001
10000000
00010010
00000010
11101100
11000111
11000011
10000000
10000000
10000000
10111000
11101101
11011010
10110110
11000111
11111110
11101011
10110011
10000000
10000000
10000000
00010010
11110101
00000001
00111101
01111111
00101110
11010110
10000000
11110000
00000110
00001100
10000000
10000000
10000000
10000000
10000000
10000000
10000000
10000000
11000000
10101000
10000110
10000000
10000000
10000000
10000000
10000000
10000000
01001000
11111000
11111010
00000111
01111111
00000001
11101000
10000000
10000000
11111111
10111000
10000000
10000000
10000000
10000000
10001011
10000000
10000000
10000000
11110010
00010100
01101101
11000011
11011000
11100111
10000000
10000000
00110011
01111111
00000101
01110110
00001001
01111111
10111011
10000000
10000000
10000000
10000000
10000000
10000000
10000000
10000000
11111101
11010000
10001110
11000010
10111110
00010111
00111111
01110000
01000000
00101110
01111111
00001010
01111111
01111111
01111111
00101000
01110111
00010110
00110010
10000000
10000000
10000000
10000000
10000000
10000000
10000000
10000000
00000101
00011111
11010001
10010110
00100100
00011000
00000001
01100110
01001100
11011110
11111110
01011011
01111111
01111111
01111111
01111111
01011100
11111011
00100110
01111111
10000000
10000000
10000000
10000000
10000000
10000000
10101101
01000010
01111111
01100000
10100110
10111100
00100000
00010111
01000000
01100101
00001101
10101001
10001110
10011010
01101100
01111111
01111111
01111111
01011010
11111100
00100000
01111111
10000000
10000000
10000000
10000000
10000000
11100000
01100001
00110000
01111111
01111111
00110001
11110110
00011011
11101010
10110100
11101001
11100110
10000000
11100011
10110010
00011010
01111111
01111111
01111111
00000010
11111111
00000110
11011010
10101010
11100110
11011111
00101100
10111011
01000101
01100001
01000100
01111111
01111111
01111111
01101000
01010100
11011100
10000000
10000000
10010100
10111011
11001000
10101011
11110111
01111111
01111111
01111111
11101001
00000111
00101011
11001110
10011111
01110100
11110101
01000010
00011101
01111111
01111100
01001011
01111111
01111111
01110010
00101110
00000110
11011110
11000100
10000001
00000000
11101010
11100000
00001011
00111111
01111111
01111111
01111111
11111101
11001111
11111011
10110110
10000000
01101011
10110011
11000010
11001110
01100000
01111111
01111011
01111110
01000110
00101100
00001000
01010010
00111111
00111011
00100111
00111100
00100100
00101010
00111100
01111111
01111111
01111111
01111111
11111001
11001000
11011010
10000000
10000000
11101000
01111111
00011011
11101111
00010111
01010111
00110101
11011101
11111001
11101101
11011100
01111100
00111110
00000111
00100000
01000110
01111111
01111111
01111111
11111011
00110110
01111111
01111111
00000001
11111110
11111011
10000000
10000000
10000000
01000011
01000011
00101100
10110001
11111110
11011011
10001000
10100000
10001001
10110100
11011110
10001011
10000000
11110000
01001101
01000000
01111111
01001110
11111001
11100110
01000011
01111010
00000010
11111010
00001011
11000111
10000000
10100000
01100001
11111000
10000000
10000000
10000000
10000000
11101111
10100101
10101111
10110100
10110000
10010011
11011100
00111101
00011101
00101111
00100001
10100110
10000000
10000000
11011011
11111100
11111110
00000001
00000100
11001100
00000001
00111100
01011100
11000010
10000000
10111001
01000000
10101011
00111001
01111111
00000000
11111000
11101110
11111100
01111111
01111111
10001011
10000000
10010001
10000000
10000000
10011001
11010101
00000101
11111110
00000110
11111001
11111101
11010110
11001100
01111110
10111110
11100000
01111111
01111111
01111111
01111111
01111111
01111111
01111111
00101111
01111111
01111111
01111111
01010000
10110111
10101001
10101101
10000000
10000000
00000100
00000101
00000001
11111011
11111101
00000000
00001100
11111100
00110011
01010101
01110100
01111111
01111111
01111111
01101000
01111111
01111111
01111111
01111111
01111111
01111111
01111111
01111111
11011111
11101110
01101101
01100111
00000000
11111011
11111011
11111011
