11110011
11110111
11110011
11111000
11110101
00000010
00000111
11111010
11111010
00000000
00000010
11111101
11111000
00000001
00000100
00000111
00001010
00001011
11111010
00000011
11110101
11111001
11111111
00000000
00000111
00001010
11111110
11110111
11111000
11110100
00000111
11111010
11110110
00000111
11001100
00100101
11011110
11011011
00001011
11001011
10101100
11000000
10000000
01001111
01111111
00100011
10011001
10000000
10000000
10000000
00000010
00000001
00000010
00000100
00001001
11111101
11111101
11111011
00000001
00001101
10111001
10100110
10101100
10000000
10000000
10111001
11101000
10110110
10001010
10000000
10000000
10011110
00000011
10000000
10000000
10000000
10000000
10000000
10000000
00001110
01010011
01110100
11111110
00001101
11111111
11110101
11111100
00001010
10001101
11011011
00010001
11000001
10000000
00011100
00110101
01110000
01111111
01111111
01000101
00111111
01110100
00101101
01001000
00001111
01000101
00101100
10111000
10000000
10000100
10000000
00001100
00000101
00001010
00001011
00000011
11111000
00010100
00101100
00001101
01111000
01111111
01111111
01111111
01111111
01111111
01111111
01111111
01111111
01111111
01011010
01101000
00001011
11001101
11000001
11011010
01000100
01111111
01111111
00010001
11110101
00000001
00000101
00011010
01111111
01111111
01111111
01111111
01111111
01111111
01001011
01111111
01110010
01111111
00011110
11100101
00101011
01001001
11001101
11110001
11000110
10000000
10000000
10000000
10010111
00101111
01110010
00000000
11101001
11111111
00011100
00000111
01111111
01111111
01111111
01111111
01111111
01110010
01101011
01110110
01000010
00001011
01001110
01000100
00101000
01001000
11010101
10110011
11011001
11101001
10000000
10000000
10000000
10000000
11011100
00010010
00100001
00110001
01100101
00110001
01111111
01111111
01111111
01111111
01000101
00101010
00111001
01011011
01111000
01110011
01111111
01000001
00100111
00011110
01001101
11110100
00111111
00011110
00011101
10100100
10000000
10000000
10110000
00101011
00000100
00101010
01001110
11000001
01111111
01111111
01111000
00110000
01111111
01111111
01110101
01111111
01110100
00110101
01001101
01111111
01111011
11110110
01000001
01011111
01011110
00101100
00011110
11010101
10000000
10000000
10000101
11100100
00010100
00101001
00101100
11010111
01111111
01111111
01111111
00110101
01111100
01110000
00011011
11010101
10011111
10000000
10000000
00110011
01111000
00011010
00010001
11100001
00100100
11110001
00101001
01010001
10000000
10000000
00000001
11000111
00000001
00000111
01001001
00000101
01111111
11110111
01001111
11011001
10000000
10000000
10000000
10000000
10000000
10000000
10000000
10000000
01010111
01111111
00001110
11110101
11000100
11110100
01001011
11101100
10000000
10010010
01111111
00010001
11111110
11111100
00111110
00000011
11000011
10000000
10000000
10000000
10000000
10000000
10000000
10000000
10000000
10100000
10000000
10110001
00011100
01011000
11001001
10111001
11110000
11100010
10000000
10000000
10000000
10011100
01111111
11111111
11110011
00000110
10111111
10111100
10000000
10000000
10000000
10000000
10000000
10000000
10000000
10000000
10011010
11100001
10010000
10010001
00010000
01011001
11011011
10010000
10111111
10000000
10000000
10000000
10000000
11010100
01111111
01100111
11101101
10000001
10001000
10010110
10000000
10000000
10000000
10000000
10000000
10100011
10111111
11100110
10010111
11011111
00000001
00000110
11011011
00000011
00001010
00101010
10011101
10000000
10000000
10000000
10011011
01111111
01111111
01111111
11111010
11101001
10000110
10001100
10000000
10000000
10000000
11010011
00000000
10110000
11011001
11100100
11110001
00000101
00100011
00101110
11110011
00100101
00100001
01100101
00100010
00010111
00101000
10000000
10000000
00110111
01111111
01111111
11111111
11100110
10000101
11001100
11011011
10011111
01100010
01111111
10110100
00001000
11110011
00011001
00110110
11011100
00000100
11011001
00111011
11111001
01000010
00001111
11111011
00100100
00010110
10001011
10110011
01111111
01111111
01111111
00100111
11111010
11011011
00000111
01110001
01111111
01111111
01111111
11100010
11101001
00001111
11010111
10000111
00010110
00001010
11011100
00001110
11011110
00101111
01101000
11101111
00111100
01111111
01000111
00010001
01110101
01111111
01111111
01000101
00000001
00100011
00110110
01111111
01111111
01111111
01111111
00100110
00001110
10011110
10000000
10000000
11011111
00011010
01000010
00010111
00100111
00011111
11110111
10111100
11101100
01111111
00101111
00010101
00111001
01111111
01111111
01111111
00001011
00111010
00010010
01111111
01111111
01111111
01111111
01110111
00001100
11100000
10111100
10000000
10000000
00110011
01000100
01010111
01111111
01111011
01000011
00101110
11101100
01111111
01110110
01011010
01111100
01111111
00010010
00110111
11110101
00011000
00111010
01111111
01111111
01010110
01111111
01111000
00110101
00100011
11100010
11000001
10011010
11111110
00100101
00101001
01001101
01010000
01111011
00111011
00100111
01111111
01111000
01011001
01111111
01111111
00000110
10110000
00000101
00010100
01111111
01111111
01111111
01101110
01111111
00100010
01000010
00011110
01010011
01010011
00010110
11001100
11110111
10110111
11101011
00101010
01001111
11110110
01001011
01001011
01101101
01010001
01111111
01111111
11101100
00001011
11100011
11100011
01111111
01111111
01111111
01111111
01110110
00010001
01001101
00011010
11111000
10111111
11100011
10101010
10011010
11000010
10111011
11110100
00001110
01010101
01011010
00010100
01111111
01111111
01111111
01111111
01010010
00001011
11101100
11110001
01111111
01111111
01111111
01111111
01111111
01000111
01101100
01100000
00100111
11110011
10100010
10110000
11110101
00101011
00010110
11111100
00001010
01111101
01000011
00110110
01100110
01111111
01111111
00000001
01001110
11111100
00001001
11110100
01100000
01111111
01111111
01111111
01111111
01100001
10110000
11111101
00010001
00010100
10100010
11011011
10010001
10000010
10000000
10000000
11110001
11001110
10111010
10111110
11010111
01101100
01101010
01111111
01000001
11110010
00000001
00000011
01000110
01111111
01111111
01111111
01111111
00111000
00110010
00101010
00110101
11110101
11111000
01101011
01010001
10110110
10000110
11001000
10000000
10000000
10000110
11100000
01111111
01111111
01111111
01110111
11111011
00000000
11111011
00000001
00001000
11010001
01100000
01111111
01111111
01111111
01111111
01111111
01111111
01111111
01001111
01111111
01111111
01111111
01111111
01111111
00010000
11011010
10000000
10000000
10110000
10010010
01010011
11101001
00000111
11111100
00001001
00000010
11111110
11110101
00101011
01001011
01111111
01111111
01111111
01001000
01111111
01111111
01111111
11001000
00100101
00101100
11110100
00011111
11100111
10000000
10000000
10000000
10111010
11011000
11111001
11111101
00000100
11110100
00001011
00000101
00000101
11111110
11111001
00000111
00110100
00110101
01000110
11111000
10000000
10000000
10100011
11110111
00100100
01111111
00011100
00110101
01111001
00101100
00001101
11011000
11011100
00000001
11111100
11111000
00000011
00000101
