11111100
11111000
00001100
00000001
00000001
00001000
00000001
00001101
11111001
11111000
11111100
00000011
00000101
00000010
11111011
11110011
11111000
00000101
00000011
00001011
11111111
00000110
11111000
00000100
11110010
00000111
11111010
00001011
00001101
00001010
00000011
00000111
11111110
00000010
00000110
00011100
00101010
00011101
11111110
00101110
01000100
00101011
00101010
00110110
01011101
01011100
00000011
11111010
11111111
00000011
01000101
01000000
11111111
00000010
11111111
11111110
00000101
00000011
11111110
00110001
00100101
00011101
01110110
01111111
01111111
01111111
01111111
01111111
01111111
01111111
01111111
01111111
01111111
01111111
01111111
01111111
01111111
01111111
01111111
01111111
00111110
00101000
00001000
00000101
00000011
11111110
00000011
01110010
00011010
00111010
01110110
01111111
01111111
01111111
01111111
01111111
01111111
01111111
01111111
01111111
01111111
01111111
01000010
01111111
01111111
01111111
01111111
01111111
01111111
01111111
00100101
00000101
00000010
11010010
10101101
11110011
00101100
00111100
01111111
01111111
10000000
00010011
01101011
11011000
10000000
11000000
11111101
00001011
00010011
00110011
11000000
10011001
00001000
00000001
01111111
01111111
01111111
01111001
01000101
00111111
11111111
00001100
11100000
10000000
11001010
10011010
10000000
11011010
00001000
11110000
01000001
00011001
11101010
11110001
00100100
00010011
00001001
01000111
01111111
01111111
01110001
00110010
01110101
01111111
01111111
01011010
01000001
01000010
11110101
00001110
10111100
10000000
11001001
10110100
00001000
01000111
11110100
00110101
11111000
00011100
00000010
11011110
11110111
01000010
00010010
11100100
01101010
01111101
11111011
00000101
01001110
10000000
10000000
10000000
10001000
10000000
11111001
00001100
00100101
10000000
10100111
11101001
01000001
00101101
11010111
00000011
11110100
11100011
11100011
11010000
00110100
00000000
11010111
11100100
11101001
10111000
10000000
10001111
10001111
10000000
10000000
10000000
10000000
10000000
00000000
11101111
00111100
10110100
10000000
11000001
10100010
10000100
10000000
11000011
00110001
01001100
11011011
10101101
11100010
11111110
11110010
11010111
10000000
10000000
10000000
10000000
10000000
11011001
10000000
10000000
10000000
10000000
00000011
11101100
11110011
10000000
10000000
11011110
10000000
10000000
10100010
11000000
00110010
01010001
01111010
11011000
11110010
10000000
10000000
10000000
10000000
10000000
10000000
10000000
10010001
00001100
10000000
10000000
10000000
10111010
00000000
11111110
11010110
10000000
10000000
00001010
10000000
10001110
10111111
11100100
10010001
10100111
10111111
10000000
10000000
10000000
10000000
10000000
10000000
10000000
10111000
10000000
10000000
10000000
10000000
10000000
10000000
11001000
11111101
11111010
00000000
10000000
10101010
10110011
10100000
10000000
10000000
10000000
10000000
10000000
10000000
10000000
10000000
10000000
10000000
10000000
10010100
11010111
10000101
10111111
11001100
11011000
10001110
10000000
10000000
11001110
00000001
11110000
00110001
11000011
10000000
11110111
10110011
10000000
10000000
10000000
10000000
11110010
10011100
10000000
10000000
10000000
10000000
10010000
10011111
10000000
10010101
00000000
00111010
01100101
01111111
10000000
10000000
00101011
00001110
11111010
01100011
01010101
10011110
10101101
11110110
11101001
10000000
10000000
00110000
00100111
00000010
10000000
10000000
10000000
10000011
11101000
11011111
10000111
11101110
01111111
01000110
01111111
01111111
10111100
10000000
00101111
00100101
10000000
00101101
01000101
00100111
11000000
01101110
01111111
10100100
11010101
01100100
00011001
10110010
10000000
10000000
10000000
10000000
10000000
10010111
10110000
00101010
11110001
00011101
01111001
01110111
00000101
01111111
01100001
00110011
00001101
10011101
10000000
01001000
01110101
01111111
01111111
01100100
00110110
01100100
01111111
00010001
10000101
10000000
10000000
10000000
10101100
00000100
00100110
00000001
11111000
01001011
00110111
01110100
01111111
01111111
01001000
11111111
00100011
10000000
10000000
01011110
01111111
01111111
01111111
00010010
00110000
01111111
01000000
11110110
10000000
10000000
10000000
10000000
11100011
00001111
00110111
00111111
01000011
01111111
01110110
01111111
01111111
01111111
01111000
11110100
11111110
10000000
10000000
10111011
01101001
01111111
01000101
11111101
01000000
01111111
01111111
11111010
10101110
10001010
10110101
01000011
00111110
00110100
00110011
01010101
00100111
01001101
01011111
01111111
01111111
01110100
01010110
11111000
11010101
10000000
10000000
00011000
00111010
00010110
01001010
01101110
01110001
01111111
01111111
01111111
01010111
00100111
01111101
01111010
01110001
01010010
01011101
00100000
01111111
01111111
01111111
01111111
01111111
10100001
00000000
00000000
01000001
10000000
10000000
00110001
00010110
00101101
01110100
01111111
01111111
01111111
01111111
01111111
01011111
01011001
01111111
01011011
00011100
00000001
00011111
01000111
00110100
01111111
01111111
01111111
01111111
00011010
11111110
11111110
00000000
10000000
10000111
01111111
01111111
01111111
01111111
01101100
01111111
01111111
01111111
01111111
01111111
01111100
01111111
01111111
00010001
00010101
01001000
01111111
00011111
01111111
01111111
01111111
01111111
00011100
11111110
11111100
10100000
10000000
00000010
00101001
00110010
11110011
01101110
01011100
01101111
01111111
01111111
01111111
01111111
01111111
01111111
01111111
01111111
01010111
01110111
01101000
01111111
01111111
01111111
01111111
01100011
01111111
11111111
00001010
00001100
10011110
01111111
00100110
01010100
11101010
10011010
00000100
01010001
01000000
00110000
00100101
11111111
11010000
00100111
01011100
01001110
01111111
01110110
01111111
01111111
01111111
01111111
01111111
01100100
00101100
11111010
00001110
11111110
11001001
01111111
01111111
01001101
00101101
00001110
11000110
00100110
00011000
00000101
11110011
10000000
10000000
10100010
10101010
11001011
01100011
00001011
01010110
01111111
01111111
01111111
11010000
00110111
11010111
00001010
00000000
00000110
11001000
00110011
00100010
11000000
10001011
00000111
00001101
10110000
10000000
10011000
00111010
01001100
11011000
10111000
10011001
10000000
10000000
10000000
00010010
01111111
01111111
01111111
01111111
00010101
00100001
11111001
11110111
11110011
00100001
00000000
11000110
10000000
10000000
10000000
10000000
10000000
10000000
10000000
10000000
10000000
10000000
10000000
10010100
10000000
10000000
11000111
01111010
01111111
01111111
01111111
00111001
00100011
00100000
00000001
00001101
11111011
00001010
11111101
00001101
11010111
10000110
10001100
10000000
10000000
10101011
10000000
10001000
10000000
10101001
01001001
00001110
10110010
11011110
00001111
00011011
11010111
00010100
11001111
11111110
11111000
00000110
11111100
11111011
00001110
00000001
00000011
00000101
00100011
00110101
00111000
00000011
00001010
10110111
10110111
11111011
11000011
10101110
10111010
11111101
00001101
00001011
01101001
01011111
11100011
10110010
10011100
11111111
00001000
00000111
00000100
