11111101
00000111
00000010
11110110
00001010
00000001
00000001
00001101
11111000
00001100
11111101
00000011
11111110
11111011
00000001
11111110
00000000
00001001
00000000
11111110
00000011
11111110
00001001
00001000
00000100
11111101
11111101
00000001
00000000
00000110
00000000
11111100
11111000
11110101
00000110
00010110
11000010
10010100
11100010
01111111
01010111
01111111
01111111
01111000
01000011
00111100
11001010
01111111
01111011
00011101
00010011
00000101
11111111
00001111
11110110
11111011
11111100
00000100
00010011
00000101
00011001
00011111
00011011
00001111
11010111
00110101
01111111
01111111
01111111
01111111
01111111
01111111
01111111
01111111
01111111
01111111
01111111
01111111
01111111
01111111
01111111
00011100
00001011
00000001
00000001
00001010
00010001
00010011
10110100
01111111
01111111
01111111
01111111
01111111
01111111
01111111
01111111
01111111
01111111
01000111
01111111
01101000
00110001
01111111
01111111
01111111
01111111
01111111
01111111
00111001
00000110
00000001
00001001
00000001
01001011
11111110
01101001
01101001
01000101
00100010
01111111
01011101
01111111
00000000
10001111
00010101
01010001
00110111
11110111
11111011
00011111
01111111
01111111
01111111
01111111
00110100
10110110
10000000
00001001
00000000
11111110
00000000
01111111
00110100
01111111
01111111
01111111
01101101
01111111
00010100
01110100
10000100
10010100
10101001
10001001
00010000
01111101
11101111
11000100
01101001
01001010
01010100
10101111
10000000
10000000
10000000
10101100
00001011
00001011
00001001
00101011
01111111
01111111
01111111
01100000
01000111
00010000
11110010
00010110
11010110
11000101
10000000
10000000
10000011
10111110
10000000
10000000
10000000
10000000
10000000
10000000
10000000
10000000
11100111
10100010
11100010
00000100
11011110
11101110
01111111
01101001
01111111
11110000
00110111
00100101
11100111
11011101
11101011
11010100
10000000
10000000
10000000
10000000
10000000
10000000
10000000
10000000
10000000
10000000
10000000
10000000
10000000
10000000
11010001
11111000
11001101
10000000
01111111
01111111
00110110
10111000
10011011
10100111
10010111
10000000
10000000
10000000
10000000
10000000
10000000
10000000
10000000
10000000
10000000
10000000
10000000
10000000
10000000
10000000
10111110
10000000
11100111
11111111
10111110
10000000
01111111
01111111
00000100
11001011
10011101
10000000
10000000
10000000
10010001
11001100
11011000
01100001
10111001
10000000
10000000
10000000
10000000
10011101
11001001
10111100
10000000
10000000
11100011
10110100
11111110
11110110
11000101
00001111
01111111
01111001
00111100
10111010
10011101
10000000
10001111
10110101
11011010
11101101
01111111
01111111
01000101
10000000
10000000
10000000
10000000
11011001
10101001
10000000
11010011
11101110
11100110
10101100
10101111
11111011
00010000
00010101
00101000
01111111
11111100
11000000
10011100
10001001
10010011
11011001
00011111
00110010
01111111
01111111
01001010
11001000
11000111
00101010
00000000
11101101
00100110
11111010
00100101
01111111
11010100
10100010
11111110
11110111
00001101
01010001
00011110
01111111
11111010
00100000
11011000
00001111
11100011
11010011
00011110
00110000
01111111
01111111
01001001
11011101
00010001
00101011
00100100
01011100
00011001
00100101
01100001
01111111
00001111
00011011
01101011
00111110
00101010
11110000
00000100
01110010
10110101
00001011
11101110
00101010
11010111
11110000
11011101
00011011
01010011
01111111
01100001
00100101
10111111
10111000
11110101
00100110
01011101
01000110
01111111
01111111
01111111
10000000
01010100
00110001
11111001
00100100
01000000
00001000
10000000
10011110
11110111
00001011
11101110
10100101
10000100
11000000
10110011
01110010
01100000
00110000
10001101
10110110
00001010
01111111
01111111
01111111
01111111
01111111
01110100
10000000
01110000
00001010
00001000
11111000
01001000
10010111
10000000
11011110
00010000
10110111
10001000
10000000
10000000
10000000
00000001
00100101
11111001
10011011
10111110
00110000
01111001
01111111
00111111
01000000
00110001
11010010
01111111
10000000
10000000
10111000
00010100
11010101
01111111
00001000
10000000
11000011
11000011
10000000
10000110
10000000
10000000
11010010
00001011
00111111
10111101
10000000
10000000
01111011
01111111
01000100
00110111
01011001
11111100
11010100
00000111
10000000
10100011
00000001
00010111
10101111
01111111
00101111
10000000
00010011
00000010
11001011
10000000
10111111
10100011
10111000
00010001
11110001
10101100
10000000
00100100
01111111
01111111
01100101
01111001
00111010
01001001
00001010
10110111
10000000
10000000
11111110
11110001
10000000
01111111
11001110
11000010
10010001
10010111
00000101
10101010
11100110
01000100
01111111
01111111
01001111
00011101
01000010
01111111
01111111
01111111
00001111
00011111
00100001
00000001
10000000
10000000
10000000
10001000
11111111
00101100
10101100
01111111
11110101
10011100
10001001
10011010
00101010
11111011
01011100
01111111
01111111
01111111
01011110
01101100
00111100
01111111
01110101
01011001
11111000
11100000
11100101
11001000
10000000
10000000
10000000
11000011
11110111
00101101
10100110
01111111
10000000
10000000
10110100
11101101
00101011
01010110
01100001
01111111
01111111
01111111
01111111
01111111
01010011
00100100
01111111
00011110
11000001
11101010
10000000
10000000
10000000
00110011
10011011
00000010
11110001
00001010
00101000
00110111
10001001
10000000
00110000
11110001
11101111
01010101
01110101
01111111
01111111
01111111
01111111
01111111
00101111
01111111
01111111
00011010
10110110
10000000
10000000
10000000
10000000
11100101
11000000
00000000
00000000
00000101
01111111
00110111
01001010
10100000
00100010
00111100
11111011
01000110
01110001
11101011
00110101
01111101
01111110
01010010
11111101
01011000
01101010
10110011
10000000
10000000
10000000
10000000
10000000
11100011
01111111
00001010
00000110
00001010
01111111
01111111
01000111
11001001
11000110
10000000
10110111
11011100
00111011
00100011
11101110
10111100
10001001
10101110
10011110
10000000
10000011
10000000
10000000
10000000
10000000
10000000
10000000
00101110
01111111
00000110
11111111
00000011
11100010
00001101
00001010
00001100
00011000
01010000
00111001
00010110
01000111
00000010
10000000
10000000
10000000
10000000
10000000
10010110
10000000
10000000
10000000
10000000
10101101
10000000
00100101
00101110
00001000
11110110
00001000
11111100
11110110
11111000
00000101
11101000
01110000
00101100
11000000
10000000
10000000
10000000
10000000
10000000
10000000
10000000
10000000
10000000
10000000
10000000
10000000
11100001
11011011
10000000
11111010
11111110
00001011
11111111
11111111
11111010
00000011
00000010
11111001
00000011
11111000
10111110
10000000
10000000
10110010
10000000
10000000
10000000
10000000
10000000
10000000
10000000
10000000
10000001
10111101
00000110
10010000
10000000
11110010
00000101
11111110
00000011
11111111
00000001
11111101
00001001
00000111
00000100
00000111
11000101
10111110
11010000
11100001
11101111
00101111
00000110
01000101
10101100
10001111
10000000
10000101
10010110
11110100
00000110
00000010
11011010
00001000
00001000
11111111
00000010
