00000100
00000101
00000110
00000110
00000001
11111101
00000000
00000010
11110100
00001000
00001011
11111111
00100100
00101011
00000110
00000001
00000011
11110100
00001000
00000011
11111100
00000111
11111111
00000111
00000001
00000000
00000001
00000010
11111111
00001000
00001001
00001111
00110100
00100000
01111111
01111111
01111111
00111111
00010001
01111111
01111111
01111111
01111111
01111111
01111111
01111111
01111111
01111111
01111111
01010101
00011101
11111101
11110110
11110101
00001101
00001100
00000010
00001110
00010001
11111111
01011000
01111111
01111111
01111111
11011010
10010100
11011001
01111111
01111111
01111001
01111111
01111111
01111111
01111111
01111111
01111111
01111111
01111111
01111001
01111111
00100110
00111011
00000001
00001000
00000010
11111000
00010011
00001000
01001011
11001101
10001011
00011110
10000000
10001010
10011011
10000000
10000000
11100001
11111011
11100000
11101111
00110111
01111111
01111111
01111111
01100000
01111111
01111111
01111111
11110110
00011110
00000001
00000001
00000010
11011101
10010011
10000000
10000000
10000000
10101111
10000000
10000000
10001101
11001010
00000010
10110111
10000000
00001100
01001011
01101110
01100101
00001001
01010110
00100101
01011001
01111111
01111111
01111111
00000011
10101110
11111101
11111001
00100100
10110111
10000000
10000000
10000000
11010110
00010111
11100101
00000000
11111110
11010001
10111111
11011101
11010101
00111000
01010101
00110100
11111110
00011011
00100101
01010101
01111111
01111111
00010110
10000000
10100110
00001000
11110111
00000000
01000000
10000000
10000000
10000000
00101110
10000000
10111100
00010000
11101000
11011111
10101110
00110010
00110100
11110111
00101101
11110001
01111111
01111011
01001001
01100110
01111111
01110101
01111111
11110100
01000111
11111000
11101100
00001110
01000010
10000000
10000000
10001010
11101001
11101101
00001111
01111100
01010000
00100101
11010111
11100001
00000111
00010111
01010100
01010001
01000001
01111111
01111111
01111111
01111111
01111111
01111111
01111111
01000010
11111001
11111011
00010010
10000000
10000000
10000000
11001000
11000011
00101110
11110010
11101001
00011101
00000011
11011010
11110110
00011100
00000101
00111000
01011101
01111111
01111111
01111111
01111111
01111111
01111111
01111111
01111111
00110101
11111111
11110101
00010000
10001010
10000000
10000000
00000001
11001100
01000101
00011100
00100001
01100100
01100110
11010001
10000000
10000000
10000000
10000000
10000000
10111011
01101011
01111111
01111111
01111111
01111111
01111111
01111111
00110110
00000010
11010001
00010100
10000000
10000000
10000001
10101011
11010001
00100111
01000001
11110111
00001110
00010011
10111011
10000000
10000000
10000000
10000000
10000000
10000000
10000000
10000000
10000000
10000000
10000000
01010111
01111111
00010110
11011011
11011110
00010100
10000000
10000000
11010001
00001010
11110110
00001001
00000110
10111010
00001011
11100110
11111111
11101110
10100011
11001101
10010010
10000000
10000000
10000000
10000000
10000000
10000000
10000000
10000000
01110110
00011000
11110101
11001111
00000010
10000000
10000000
10111000
01101000
00110100
00100111
11010101
11101010
00110001
01000100
00010011
10000000
10010101
11010110
00001011
01110000
01101111
10000000
10000000
10000000
10000000
10000000
10000000
11101011
00000001
00000001
11010000
11011010
11101000
10001101
00011001
01101111
00101111
00110100
11001110
11100100
01111111
01100111
00001011
11000000
11101001
10110001
10011001
00000011
01010010
01111111
00111001
10000000
10000000
10000000
10000000
10000000
11011111
11111011
11110101
11100101
11000001
10000000
00010010
01111111
01001100
00111010
00000110
00101010
01001110
00010110
10011011
10111011
11110011
11101001
11110101
00000010
11001101
01110111
00101111
00100110
10000000
10000000
10000000
10000000
11010001
11101011
00000000
00000101
10000000
10011111
10001011
10110100
11001000
11111000
00111011
00110111
00011000
11111011
10000000
10001111
10111100
00000001
00100000
00010110
00001111
01100010
00000100
01010100
00100001
01000110
01001000
10110100
11110100
11011110
00000001
10111110
11010110
11010001
10001010
10000000
10000000
00010111
00010111
00010111
00010100
10010001
10011000
11100010
00110101
11100101
00001000
11011101
11100011
00101011
11000110
00111100
00101011
00011010
10101100
11111011
11101101
11111101
11011101
10000000
01111111
01111111
01000010
11111111
10110111
11100101
11001000
11101001
00110011
11000111
10000101
11100000
00001100
11101111
00111011
00010000
11000111
11101110
11001001
11111111
00101011
01100000
10001000
10000000
11010111
11110111
11001010
10010000
01100011
01111111
11110011
01000110
01111111
00101111
11101010
10000000
10011011
11100010
10110001
11000111
11110111
00001011
00101011
11001110
10101110
00100100
11010011
01100011
01110101
01111111
10000000
10000000
11011111
00000000
11010000
01100010
10111100
01111101
00010010
00101011
01000011
01111111
01101000
11101100
00000110
00110110
00001001
00101000
00111001
11100111
11000011
11010110
11111101
11110011
11101010
01111011
01111000
00100111
10000000
10000000
00000010
00000110
11001000
01001110
11010010
01111111
00011101
00110101
00010010
01101100
10110110
00101010
00010111
00010110
00000000
00111111
11111111
11000111
11011010
00001100
00110001
00000110
11100101
01111111
01111111
10001111
10000001
10100110
11111100
11110111
00000100
10010010
10011001
01111111
01011011
11001011
01100011
00100110
00000011
01100001
01110010
01010011
01101100
00100000
00011100
11111011
00101011
00111010
00101000
01101110
00100011
01111111
01111111
10100001
10000000
10010100
00000011
11111111
00000010
10000000
10000000
01000000
11111101
10010101
11101110
11110110
11100010
00010110
00101100
01101110
00101000
00100011
00101110
00010100
00001100
00111111
01100101
00000001
11100001
01111111
01111111
11011101
10111001
00100111
00000011
11111110
11110110
10110011
10000000
11111010
10101000
11001100
10010001
01000000
00110000
00110000
00100101
00000111
00101001
00110111
11110100
11101000
11101010
11101101
00000000
00001110
11011000
00101100
01101110
01011101
11001001
00010011
00000110
11111110
00000100
10111111
10000000
10000000
10000000
01101011
00000101
10111101
00100111
11110111
00010111
00110010
01100011
00011110
11111101
10111100
00100110
01111111
11010011
00101100
01111011
01101010
11111001
01000001
10000000
10111000
00000001
11110111
11110101
00000000
00011000
10100111
10000000
00110100
01111111
01101010
01111110
01001101
00001010
00010111
01010100
00010001
00011111
00111100
01111111
01110010
11011100
11100111
10010110
00100011
01100101
01101010
00000111
11111111
11111110
00000111
00000000
11111110
11111111
11110111
11111000
11101001
10111111
11010011
11101010
11010111
00100101
11011001
10111101
00110111
01111111
01010011
10011001
10000000
11010110
11110110
11001100
00001101
11000101
11111100
00000001
00000101
00000000
00000110
00001100
11111100
11111111
11110100
11111110
11111101
11111110
00000011
11111011
11111101
11111111
11111110
11110011
11101110
11110100
11101000
11101011
11011011
11101001
11111001
11011011
11101010
11111001
11110101
00000011
00000101
00000101
