11111011
00000111
11111111
00000110
11111100
00000111
00000100
00000000
00000100
11110110
11111000
00000001
00001000
00001101
11111100
11111011
11111111
11111010
11111111
00000010
11111011
00000000
00000100
11111100
00000101
11111010
11110101
00000011
11111111
00001010
00000101
00001111
00000111
00000001
00000101
11110010
00000101
00000010
11111111
00000101
11111010
11100110
11010010
10110110
11001100
11000010
11111001
11111110
11110110
11111111
00000001
00000100
11111110
00000101
11111000
00000011
00000101
00000110
11111011
00100110
00100010
00001011
00000110
00001001
11100011
10110110
10000000
10000000
10000000
10000000
10000000
10000000
10000000
10000000
10000000
10000000
10000000
10000000
10101111
00000001
00000100
00000110
00000011
11111101
11111100
00000101
00000010
00101000
00011010
11001010
11010011
11101100
10001110
10000000
10000000
10000000
10000000
10001100
10000000
10000000
10000000
10000000
10000000
10000000
10000000
10000000
10000000
10000000
10000000
10000000
00000000
11111101
11111101
00001001
11011000
10111010
10000000
10000000
10000000
10000000
10000000
10000000
10000000
10111111
10001000
10000000
10000000
10001000
11011000
00100000
10100011
10001000
10000000
11101001
11011101
10011001
10100111
01011111
11110000
00001010
11111100
00000111
10111011
10001100
10000000
10000000
10000000
10000000
10000000
10011011
00101010
11100111
11000101
11011010
10111101
00011010
00001101
01010100
01110001
01011010
01111111
00111011
01100110
01111111
01111111
01111111
10000000
00000111
00000110
11101101
10100001
10000000
10000000
10000000
10000000
10000000
10000000
11101001
11110101
11001100
00001001
00001101
00110110
11100110
11101010
01000000
00101111
00111100
01010101
01111111
01111111
01111111
01111111
01111111
00011110
00001011
01010100
01111111
10000000
10001101
10000000
10000000
10001010
01000010
00000000
00100011
00011100
01111111
01100010
11101100
11110011
10110001
00011011
01000111
00010010
11100101
00100000
00101100
00011101
00100111
01111111
01111111
01100010
00001000
01001110
01111111
11000001
11010010
10000000
10110110
10111101
00100100
00110100
00010111
01001000
01111111
01011001
00100010
00000000
00010001
01101001
00100011
01100111
11100010
00011010
00000010
11010100
01111111
01111111
01111111
01111111
11110111
01011001
01111111
01111111
01111111
11101100
01111111
11011101
11100001
01100001
01001101
01101111
01111111
01000000
01110110
11010101
11111110
01111111
01110101
01111111
01111111
11111000
00010110
11010110
01111010
01111111
01111111
01111111
01111111
00000000
01111111
01111111
01111111
00100010
01111111
11000011
01101111
01111111
01111111
01111111
01111111
01111111
01111111
10010111
10000000
11011000
11110010
01111111
01110001
00100010
00100010
00100110
00111001
01111111
01111111
01111111
01111111
11111110
01111111
01111111
01111111
01111111
10111010
01111111
01111110
01111111
01111111
01111111
01111111
01111111
01011111
10000000
10000000
10000000
10000000
10000000
10000000
11100010
11101101
11101010
10010101
10000000
11100111
01111111
00000101
00001000
01111111
01111111
01111111
11010100
00100001
01111111
01111111
01111111
00111101
01111111
01111111
01111111
01111111
10000000
10000000
10000000
10000000
10000000
10000000
10101101
11001111
11110011
10000000
10000000
10000000
00100100
11110110
11110100
01111111
01111111
11100000
10000000
11110001
01100001
01101101
00100110
00011111
01111111
00101011
00001111
10010011
10000000
10000000
10000000
10000000
10000000
10000000
11100110
10110100
01011011
01110100
01111111
10000000
10001111
00000101
00100101
01101011
01111111
01011101
10000000
11111111
01111110
00100100
11010110
01100100
01101101
11101000
00101100
10010011
10000000
10000000
10000000
10000000
10001010
10110100
11110001
10000000
00011100
01111111
01111111
11101010
10011111
00000011
00010110
00111001
01000000
00101000
00010100
11001011
00011001
01000111
11010110
00000000
00010010
11011010
10111101
10000000
10000000
10000000
10000000
10000000
11010010
11011000
11101100
10100001
10101011
11001110
11001110
10010110
10000000
00000011
00000001
11111001
00101000
10101001
11011111
10000000
00100001
11110000
11111111
10111111
11100001
10001001
10000000
10000000
10000000
10000000
10000000
10111000
00000110
00110110
00101010
00000100
10100111
11000100
11101111
10000000
10000000
00000001
11111101
00000111
00100101
10000000
11000101
10111110
00101110
11110000
10100110
10000000
10010100
10000000
10000000
10000000
10000000
10111110
10011000
01101001
01111111
11111011
00000010
01001100
10101001
10010100
00001000
10011110
10000000
10010100
11111111
11111110
01111111
10000000
11001100
00110011
01000111
11111100
11001101
10000000
10000000
10000000
10000000
10000000
10000101
00110110
10101101
00011000
00000001
11110001
11011111
01010001
11111110
10011100
10001010
10000000
10000000
10001100
00001000
00101010
11010000
10000000
10001000
10011011
00110111
11111001
01010001
11000001
10010101
11010101
11001101
11110111
00101111
11010000
11010000
10101000
10101100
10101000
11000111
00101101
00110011
11000010
10000000
10000000
10001010
10110011
11110101
00101001
10000110
10000000
10000000
10000100
01001110
11101000
11011000
00101010
01111111
01111111
01111111
01111111
11000010
10000000
10010111
10000101
10010101
00000111
00101100
00110111
00000111
10011111
11011010
10110011
10000010
00000101
00001001
11111100
11111100
10000000
10000000
00001100
00010100
11110001
10111011
01010001
01101010
01111111
01111001
00011010
11000000
10111001
11001111
11011110
10011101
11111110
01010110
01100111
10111000
10000000
11101000
10000000
10010001
00101001
11111101
11111011
10100001
10000000
10000010
00011101
10111011
10000000
10100110
01010000
00110010
01010101
01110010
00010100
00100101
01101011
01001010
11100100
00110000
01001001
00000111
01011011
10111100
10000000
10011110
10011111
10010101
00101001
00000001
11111110
11010011
10000000
10011001
10001101
10000000
10000000
11010100
00101110
00100010
00110100
01111111
01100100
01100110
01111111
01011000
00111110
11110110
11010011
11100010
10000000
10000000
10000000
10000000
00000010
00000010
00000010
11110010
00000110
00100000
11011001
10000000
10000000
10000000
10000000
10101001
11011110
11000000
10000000
00000100
00001100
11001100
11101000
11101111
11010111
10011110
11110010
11100010
10000010
10000000
10000000
10010010
00100011
00001001
00000100
00000011
11111111
11101100
00011000
10000000
10000000
11111001
01111111
00001101
01001010
11100000
01111111
01111111
11100111
10100110
00001111
01111010
01111111
01111111
00111101
00101011
10001101
10111110
10000000
10111110
11111101
00000001
00001100
11110111
11111100
00001101
11110011
01000101
01111111
01111111
01111111
01111111
01111111
01111100
01111110
01111111
01111111
01111111
01111111
01111111
01111111
01111111
01111111
01111001
11011110
01100011
00100011
11110101
01111111
11111111
00000011
11110010
11110101
00000110
11111000
00000011
11111110
00101000
01111111
01111111
01111111
01111111
11110001
01000101
01111111
00011001
01111111
01111111
01111111
01111111
01100110
00111010
11010101
11101101
11101010
00000011
00000001
00000010
11111101
