11111100
00000010
00000011
11111001
11111100
00000011
00000011
00000101
11111100
11110110
11111000
00001001
11111010
00001011
00001001
00001011
11111110
11111101
00001000
11111101
11111010
00001011
00001010
11111010
00000000
11110100
00001000
00001010
11111110
00000100
00000011
00000000
00001000
11010100
11001101
10110000
11110011
01010001
00001000
00101111
00011101
00100100
11000001
11001101
11001101
00101100
00011101
00011000
01010011
01001100
11110101
11111110
00000000
00000110
11111101
00000001
00000101
00000111
11111111
00101010
00101011
00000011
10000000
10000000
10000000
10000000
10000000
10000000
10000000
10000000
10000000
10000000
10000000
10000000
10000000
10000000
00101101
01111111
01111111
01110111
01011101
00100011
11110110
11111111
11111000
11111111
11111010
01011100
01010100
00000001
11011001
01111111
00101011
10000000
10000000
10000011
01111111
01111111
01111111
01000111
11101110
11111110
11110100
11111101
00011000
10001110
10000000
11001111
11010010
01111111
11111011
00001001
00000101
00000010
00110101
01100110
01111111
01111111
01000110
01011101
01111111
01111111
00110101
01101110
00100111
01110101
01001101
01011110
11111011
00010100
01100101
00010111
10011010
10000000
10000000
10000000
10000000
10101110
11010001
11111000
11111110
11111111
11101110
01001001
01111111
01111111
01111111
01111111
01111111
11111111
01111111
00110000
11101001
00111101
01001001
01010101
00111010
00110100
00011111
00101001
11101111
10010111
10000110
10000000
10000000
10000000
10000000
10100000
11111110
00010111
00011000
01111111
01111111
01111111
01111111
01111111
01111111
01001010
00111110
00101011
00110101
01111111
01000011
01101111
01011010
00101011
01110011
00101110
11111111
00010110
10110010
10000000
10000000
10000000
10000000
10000000
11111001
00001001
11100001
01111111
01111111
01111111
01111111
01111111
11111000
11110101
11100101
00000100
11111100
00111001
01111101
01111111
00111111
11110101
11010111
00111001
11100000
10010001
10000000
10000000
10000000
10000000
10000000
10011100
11111100
00110001
10110000
01111111
01111111
01100010
11110100
10001101
10000000
10000000
10000101
10000000
10001110
10010010
01111111
01111111
01111111
00110000
01000001
01100010
01000111
11011110
10000000
10000000
10000000
10000000
10000000
11011011
11111110
01110101
00101110
00111011
00011110
10000000
10000000
10000000
10000000
10000000
10000000
10000000
10000000
10000000
01000110
01111111
01111111
01111111
01111111
01111111
01111111
00101100
10110111
10000000
10000000
10000000
10000000
11010000
00000100
00111010
01111111
01111111
10000000
10000000
10000000
10000000
10000000
10000000
10000000
10000000
10000000
10000000
10010101
11111110
01111111
01111111
01111111
01111111
01111111
01101010
00011000
11101000
10000000
10000000
10000000
11110100
00000001
11001111
00101110
01111111
10000000
10000000
10000000
10000000
10000000
10000100
10101000
10100011
11110100
10111001
10001111
11000101
10011001
11100101
00100000
01111111
01111111
01111111
01111111
01111111
01111111
10000000
10000000
00000001
11111110
10010011
10000000
00010001
10000000
10101001
11100011
10010101
00101001
00110000
00010011
11001101
01010100
00011111
10111101
10010100
10100101
10110100
10100011
10000000
11100110
01111111
01111111
01111111
01111111
10000000
10000000
11111011
11111101
10000000
10000000
10000000
10000000
01101001
01111111
00111001
01011010
00010100
00010000
10010011
00101100
10111100
10010101
10000000
10000000
10000000
10000000
10000000
11111101
00111010
01111111
01111111
01111111
11111110
10110111
00000000
00011100
10011011
11001000
10000000
10000000
01111111
01111111
01111111
01000010
11010100
10111000
11101001
11100100
10110000
10011000
10000000
10000000
10100001
11010000
00011000
01101110
01001111
00010000
01111111
01111111
11010101
10000000
11111011
00011001
10000000
11001101
10000000
00100001
01111111
01101001
00111111
00111111
00001100
11001010
11010100
11100010
10010110
10000000
10000000
10000000
11000001
00001011
00010001
01111111
01111111
00110000
01101000
01011011
10101110
10110001
00000011
00000101
00100010
01111111
00110111
01111111
01111111
01000000
00101001
01101110
01011010
00011101
11000011
10000000
10000000
10000000
10000000
10111011
00111110
01010100
00010110
00100111
01010100
01000101
01010000
00000010
10000010
10000000
01111111
11110101
01011000
01111111
01101100
00101110
01010110
11010110
11110000
00110011
11100101
11100011
10000000
10000000
10000000
10000000
10010000
00011100
01111111
00101111
01111111
00011011
01110011
01111111
01011110
10111001
10000000
10010001
01111111
00000010
00101100
01111111
01000111
11100010
00011100
10111101
11001000
11001100
10000000
11011111
11000000
10000000
10000000
10000000
00111110
01111111
01100101
00110011
01111111
00100100
01111111
00111000
00110010
10000000
10000000
10000000
11010000
11110011
00000001
01111111
01111111
11111111
00010001
10100000
10001010
11011011
10110010
00010100
00110110
01011101
11111110
11010000
00001011
01100110
01111111
01001100
00110011
00011111
00010011
11000001
10000000
10000000
10000000
10000000
11001010
00000000
00111001
01111111
01111111
01111111
01100100
00100001
11001001
11011010
11111111
00111111
00101111
01111000
01010010
00101111
00101010
00001001
11001111
11101100
11100001
11110001
00010001
10110001
10000000
10000000
10000000
10000000
11110110
11110111
01000111
01111111
01111111
01011011
01111111
00100100
00010101
11101110
10000100
11010001
11110101
11111011
01000100
01010100
00001001
10110010
10110011
11100100
11110000
11011000
11110010
10000000
10000000
10000000
10000000
11101010
11111001
00001001
11111000
01111111
01111111
11111011
01111111
01111111
01001111
11001000
00000101
11110110
00101110
11101111
00001000
11000110
11010011
11011100
11011011
10011111
10101101
10000000
10000000
10000000
11010001
10001011
10000000
00110101
00000010
00000111
00000001
01111111
01100000
11010110
01100010
01101100
01111111
00000010
01000000
00011100
11110101
11110001
00110000
00100000
11011110
10000000
10100101
11010001
10000000
10000000
10000000
10000000
10000000
11000110
00100000
01110011
11110100
00000001
00000001
01111111
01111111
01111111
00111111
01001110
01011100
11001010
10110111
11111110
11100011
00011011
01111111
00111100
00001000
11001111
10001110
10000000
10000000
10000000
10000000
10000000
10000000
11110101
11101000
00000010
11111011
11111111
11111010
00100011
00010101
01111111
01000100
11001111
10000000
10010000
00100110
00011111
00101101
10000000
10000000
10000000
10000000
10000000
10000000
10000000
10000000
10000000
10000000
10000000
10000000
11111001
11111111
00000100
11111000
00000001
00000110
00000101
11111111
11101101
00000101
00001111
00100100
00110001
11100111
10000000
10000000
10000000
10000101
10000000
10000000
10100111
01010000
11101111
00100011
10000000
10000000
00100001
00011001
11111101
11111010
00001010
00000001
00001010
11111011
11111100
00000100
11100111
00000100
00000110
01001100
10101110
10000000
10000110
10100101
01001010
00001100
11110001
00110101
01100001
01000110
10010111
11001101
11000110
00110101
00100011
00000111
11111001
00001101
11111110
11111001
