00000011
11111101
11111100
00000011
00000001
00000001
00000000
00000110
11111100
11111011
11111001
11111110
00000001
00000001
00000001
11111000
00000000
11111111
11111000
00000000
00000000
11111100
11111010
11111111
00001011
00001001
11111001
00000010
00000001
00000110
00001010
00000000
00000010
00000110
10010001
10000000
10100000
10110111
10000000
10000000
10000000
10000000
10011111
10000000
10000100
10000000
10000000
10000000
10000000
00001011
11011011
11011001
11111110
11110100
00000101
00000000
00000010
11111000
11111100
11011111
10011001
11111101
10000011
10000000
10000000
10000000
10000000
10000000
10000000
10000000
10000000
10000000
10000000
10000000
10000000
10000000
10000000
10000000
10000000
10010111
10000000
10111111
11111000
11111101
00000011
11111001
00000001
10100100
11101100
00000011
10000000
10000000
10000000
10000000
10000000
10000000
10000000
10000000
10000000
10000000
10000000
10000000
10000000
10000000
10000000
10000000
10000000
10000000
10000000
10110001
11011110
00000110
00000100
11111011
00000100
10101100
11011101
01111111
10000000
10000000
10000000
10000000
10000000
00111011
00000101
00010101
10011111
10000000
11110110
11010111
10110000
01000111
01111111
01111111
01111111
01010101
10000000
10000000
10000000
10000000
11111010
11110111
10110111
10000000
00001100
00001101
10110111
00111100
11011000
00000100
11100100
10101111
10000000
10000000
10011101
11100000
10000000
10000000
10111110
10100011
00111100
01100111
01010011
01100100
11010010
10001010
10000000
10011001
00000001
10100001
00010111
10100111
00001000
00000010
10000000
00010101
00010111
10000000
11101001
10100100
10000000
10000000
11100100
10110000
10011011
10000111
00001011
10001100
00001111
10000000
10111101
01010000
10000000
10100000
01000011
11000100
00000110
10000000
00001010
11100111
00100101
00001101
10110100
11110101
00000100
10010011
11011110
00101111
11110001
00011001
00010000
10011010
11111010
00011001
00000001
11010111
10101010
10010101
11101111
11010011
10000000
10000000
10100000
11000011
11111101
10000000
10100010
10000000
00111110
11010111
10000000
10110010
11000101
11011101
10010100
11010101
11100110
01000001
00110111
11010111
11111101
00001001
00011011
11010110
11001010
00001011
01100001
01001010
00101100
10011100
10000000
11101100
00000110
10000000
10000000
10000000
10101011
10011101
00000111
10101111
10100000
10111011
10101101
10011001
11011011
01001101
10101101
00011100
10110011
10111010
00110111
00001010
10101010
11011010
00100110
00010111
10101001
10000000
10000000
11101111
00000101
10000000
10000000
10000000
10000000
11100011
11010100
10100001
10111000
11010000
11100101
10000000
10111111
10000000
10100001
01000001
11100001
00000001
00000011
11011111
11011110
11000100
11001101
10000000
10000000
10000000
10000000
10011111
00000111
10000000
10000000
10000000
11011100
11100001
11111110
11010011
11010010
11000000
10111101
10000010
10000000
10000000
00110101
00101011
11111100
00100111
00010101
00010101
01010000
00100100
10010011
10000000
10000000
10000000
10000000
10111101
11111111
10000000
10001111
10000000
01000100
11000100
01111111
01111111
01001011
11110000
00110001
01001000
11001110
01111111
01111111
01101000
00100111
00011101
00101100
00110100
00001010
00110001
11000010
10000000
10000000
10000000
11111011
11010000
11111010
10011010
10101000
00001010
01111111
11000111
01101111
01111111
01100011
01101001
01111111
00010110
11100001
01111111
01111111
01111111
01000010
01001101
01011011
01011000
01111111
01111111
11100011
10000000
10000000
10000000
00100101
10100100
11010000
00000111
10000000
00100000
01100110
00001111
01111111
01000010
01010111
01011011
01111111
10101000
00110100
01111111
01111111
01111111
01011011
01100010
01100111
01111111
01111111
00110010
11100101
10011100
10000110
10101111
10000000
11011111
11000101
00001010
10000000
00101001
01100110
01100111
01111111
01111111
01100110
11101111
11011010
11110100
01111111
01111111
01001100
00101111
01111111
01111111
01111111
01111111
00010110
10000000
10101101
00000001
10000000
10000000
10000000
10000000
11101100
00100111
10000000
00010011
01001100
01110011
01110001
01111111
01101010
10000010
11011110
01111111
01111111
01111111
01111111
01010010
01100111
01111111
01110101
00010100
11111011
00110111
00000011
10000000
10000000
10000000
10000000
00100100
00000001
00100001
11010010
10000000
10001110
00010010
00110010
01001001
01001101
11001110
00011111
01101000
01111111
01111111
01111111
01111111
00111100
00011010
11010110
10011001
11101100
10101011
10000000
10000000
10000000
10000000
10000000
10000000
00000110
00100011
10000000
10000000
10000000
10000101
11011000
10100000
00011110
01001001
00011110
11101011
01100111
01100011
01111111
01100010
10110110
10000000
10000000
10110111
10000000
10000000
10000000
10000000
10000000
10000000
10000000
10101110
11111100
11111010
10000000
10000000
10000000
10000000
10000000
10000000
10000000
10000000
10000000
10000000
10100111
00001001
00000001
10110111
10000000
10010010
10000000
10000000
10000000
10000000
10000000
10000000
10000000
10000000
11011110
01010101
11111101
11101101
01111111
00100101
10000000
10000000
10000000
10000000
10000000
10000000
10000000
10000000
10000000
10000000
11001100
11100110
11111111
11100001
10000000
10000000
10000000
10101110
10100001
10000000
10000000
10000000
11111100
11111100
00000000
11110011
01111111
01100000
10000000
10000000
10000000
10000000
10100011
10101001
11001001
10110011
10000000
10000000
00000000
11110010
11000100
10110000
10000000
10100111
10000000
11111011
01001001
01001101
11100110
11000110
10000000
00000001
00000101
11111101
11110000
10011100
10000000
11010000
10100110
00000100
11000100
11000000
10000000
10000000
10000000
10000000
10000000
10000111
11100010
11000101
11110101
01001101
11000101
11100111
01011101
01110000
11011100
11101110
01001110
00000000
00000100
11111111
00001001
00111001
10000000
01000000
00110100
01001000
00101000
11110011
10100011
10000000
11000010
10000000
10000000
10000000
10111010
10111111
00101011
01111111
01111111
01011111
01111111
00101000
00110001
11000010
01111111
11111101
11110111
11111110
00100110
01111111
10000000
10000000
11001111
00010011
10000000
10000000
10000000
10000000
10000001
10000000
10000000
10000000
10011111
10010101
10110111
00011010
00001011
01111111
01111111
01111111
10000000
10000000
10000000
00000010
00000010
00001011
01110011
11101101
10000110
00000110
10000000
10010011
11101000
11011101
11011111
00010001
11010101
00100011
11000000
10000000
00001000
00100010
11110101
00101011
01111111
01111111
01111111
01111111
01111111
10000000
10000000
00000100
00000011
00001001
11111110
00011001
11110110
10000000
11100110
11011110
10000000
10000000
10001001
10000000
10010100
10000000
00101011
10000000
10000000
10000010
10000000
10010011
01011111
11001111
10010000
10000000
00000010
00000001
00000111
00000011
11111100
11111110
11111010
11111100
00001100
11010101
10000000
10000000
10000000
10000000
10000000
10000000
10011010
10000000
10000000
01010111
01111111
00111100
11111001
01010011
10101101
11000101
10110101
00000000
11111000
11110010
00001100
00000000
