11110110
11111001
11111101
00000100
00001000
11110001
11111011
11110111
11111001
11111100
00001001
00000010
11010111
11010010
00001010
00000110
11111101
11111101
11111111
11110111
00000100
00000111
00000001
00000101
11110111
00001001
00000000
11111111
11111111
11110101
11111111
00000101
11111011
11100000
10110001
10110010
10011111
00000111
11111101
10101010
10000000
10000000
10101010
00100111
11111010
10011101
10100001
11111110
00000001
01011100
00111101
00000001
11111101
00000111
00000100
11111000
00001000
11111110
00000010
00000001
00100101
11001111
10000000
10000000
11100001
00110100
10111001
10000000
11000100
10000000
10000000
11111011
00111111
10111011
01101010
10000111
10000100
10000000
10000000
10001101
11110001
01101001
11110111
00000011
00000001
11111110
00000000
11111101
00100001
01111111
01111111
01111111
00101000
00101110
01000101
01011101
00011110
01100010
01101100
01111111
01011010
00010101
10100011
10000000
00001001
10100000
10000000
10000000
10111100
00001111
11000111
11110110
00001001
11111110
01010100
01111111
01111111
00011110
00000111
00110000
01001001
01111001
01111111
01111111
01011001
00010000
01111100
00111110
11100100
10100001
11110010
10111111
11011111
10100001
10000111
10000000
10000000
10000000
11100010
00011111
11111010
00000011
01111111
00111111
11110100
00010000
00010011
01001110
11111110
01001101
01111111
01110011
01011010
01011011
00100101
01100000
01001100
10011001
11011010
11011011
10101100
10101000
10011001
10110111
11111111
10000000
10111100
00100010
00001000
11111111
01111111
01111111
01111111
01010101
01111111
00111101
00011000
00000100
01010101
01101101
01101010
00000010
00101111
01011100
01000111
11101110
00111110
11110101
00110011
10000000
11010000
10110110
10000000
10000000
10111110
00001010
00000000
01111111
01111111
01111111
01111111
00101101
01111111
00100111
00000011
11100101
00000011
01010001
01111111
01000111
00011001
11101001
00001101
00100010
00100000
00001111
11100000
10110110
00111110
10000000
10000000
10000000
00111101
00001011
00010001
01110010
01111111
01111111
01111111
01111111
01110010
01111111
01011011
00101111
00111001
01111111
01101110
01001100
01100001
00000111
11001101
00111011
00111100
00011011
10101000
01111110
11110100
10000000
10000000
10000000
00001010
11111111
00000001
01111111
01111111
01111111
01111111
01111111
01111111
01111111
00111101
01111111
11101111
00110110
01000011
01101111
01111111
01111111
01010111
00100101
11111101
11010000
11001011
00010011
11110101
10000000
10000000
10000000
11100010
00001001
11110110
01111111
01111111
01111111
01111111
01100000
01011001
01111111
01111111
01010111
10111001
10000000
10000000
10000111
01111111
01100101
01111111
01111111
01000010
00100100
11100010
00011000
00000101
10000000
10000000
10111110
01001011
00111010
11110100
01101000
01111111
01111111
10001001
10000000
10000000
10000000
10000000
10000000
10000000
10000000
10000000
10000000
00011110
01111111
01010011
01010000
01000000
01110011
11110110
10111000
11001111
00011100
10000011
10101100
11010011
00001001
00100000
01011111
01111111
00000110
10000000
10000000
10000000
10000000
10000000
10000000
10000000
10000000
10000000
10000000
00001111
11011010
00001000
11000001
01000000
11000110
10011011
10100110
10000000
10000101
01111111
01111111
01111111
00000010
00001101
01111001
01111111
00100000
10000000
10000000
10000000
10000000
10000000
10000000
10000000
10000000
11100011
11010101
01111111
10101001
11001110
11001010
11101110
10011100
10010000
10110000
10000000
10011101
01111111
01111111
01111111
11110111
00000101
01000100
01111111
01000100
10000000
10000000
10000000
10000000
11010001
00100001
00000001
10010000
01000011
00100111
01111111
10110101
00010111
10110001
01100001
00101000
10101011
11100111
10001110
10001010
11110100
11101011
01111111
11110110
11111100
00000011
01111111
01110011
00110101
11100111
01001011
11100011
00111110
00111000
11001100
00010111
11101010
01110101
00110000
00010011
00110100
00101111
01000000
00100110
11100110
00010110
10110011
10000000
01000001
01111111
01111111
00100110
11111010
11111011
01111100
01111111
00001001
01100101
01111111
00111011
00011011
11101011
11011110
11000010
11111100
01111101
00101000
11001011
00110111
00110011
00100110
11010100
11110111
01110011
00100101
11111001
01111111
01111111
01111111
11110110
00000000
11101011
11011000
01111111
00111101
11101011
01111111
00111111
00000011
11000011
10101110
10001100
00011011
01111111
01111111
00101100
00001001
11100111
00011010
00100010
11011011
00100000
00001001
01110010
01011111
01111111
01111111
01111111
11111100
00110001
10000000
01111111
01110100
00111101
00111100
00010000
00011111
11101111
10110001
11000001
11111011
01111111
01111111
00101000
11001111
00000010
00011000
00000111
11110010
01001101
00111100
01010101
01111111
01111111
01111111
01111111
11111101
10101011
10000001
01111111
01111111
01000100
00110001
00101111
00011100
01000110
10101100
11011010
11001110
01101101
00110100
00101010
01001000
00110110
00111101
00100010
00101110
01111111
01111111
00011010
01111111
01111111
01111111
01110000
00000100
10001011
11001001
01001011
01101100
01111011
01111111
01111111
00111100
01101000
01001100
01110001
00010011
11001010
00100010
10111111
00110001
11111001
01101000
10111001
11111011
11011011
11101000
00010000
01111111
01111111
01111111
11111101
00000001
00001010
01111111
10111101
01111111
01111111
01111111
01111111
01111111
11110111
01011000
00010111
10001100
10000000
10101110
00101010
00011100
00100011
10110000
11100010
10100101
10000011
01001001
11111011
00000000
01101011
01111111
00001000
00000011
11110101
01111111
01101100
01111111
01111111
01111111
01111111
00111010
00010010
00110110
11000100
10000000
10000000
11001101
11110000
11110100
11011100
11000010
00110100
11100110
00111111
01100000
00001001
11100101
01111111
01111111
11110100
00000111
00000011
01111111
01111111
01111111
01111111
01101100
00010110
11100010
11110110
11001100
11011011
00000011
11111011
10000000
11100111
11110101
11101101
00101001
11010011
10000000
11010100
00111101
00001110
01111111
01111111
01111111
00000101
00000100
00000111
01011010
01111111
01110100
01111111
01111111
00111111
11010100
10010001
11011000
11001111
00001100
11110010
00000101
11000001
10101001
11110111
10000000
10000000
10000000
11101110
00111011
10110010
01101110
00110011
01101110
11110101
00000101
00000011
11111111
01010111
00111110
00000001
00011111
11111001
01111111
01111111
00011111
11000111
01111111
00101010
00111111
00011110
11111110
10000000
10000000
10000000
10000000
10000000
10000000
10000000
11011110
11110100
11111001
11111000
00000001
00001101
11110111
10101010
11010010
10000000
00111010
01111111
01111111
01111111
00000100
00000101
01111111
00011111
00110010
01100000
00110100
10000000
10000000
10110100
10001100
11000100
10100010
00000101
11110010
00011110
00000001
11111001
00001011
00001000
00001010
00000101
00100100
00111001
01111111
01111111
01111111
01111111
01111111
01111111
01111111
01111111
01111111
01111111
01111111
01111111
01111111
01111111
01010110
11010100
11110011
00000010
00000101
00001001
00001010
11110110
