11111100
00001110
11111111
00000100
00000101
00000101
00000001
00000001
00000001
11111010
00001010
00000010
11011011
11011010
00001101
11111001
11111100
00001100
11111000
00000000
11111100
00000111
11111110
00000001
00000001
11110110
11111101
11110010
00000111
11110101
11111001
00000110
11101010
10000000
10000000
10000000
10000000
10000000
10000000
10000000
10001100
10000111
10000000
10000000
10110110
10000000
10000000
10000000
10000000
10010011
10110110
11011011
11111101
00000011
11111011
11110111
11111010
11110111
00000010
11111001
11101101
10000000
10000000
10000000
10000000
10000000
10000000
10000000
10000000
10000000
10000000
10000000
10000000
10000000
10000000
10000000
10000000
10000000
10000000
10000000
10001101
00001010
11111000
00000110
00000010
00001011
00110100
00000100
00110000
11111001
10000000
10000000
10000000
10000000
10000000
10000000
10000000
10000000
10000000
10000000
10000000
10001111
10000000
10000000
10000000
10000000
10000000
10000000
10000000
11000110
11111111
00000011
00000001
11000101
01000100
00000110
01011000
01111111
10000000
10000000
10000000
10000000
10000000
10000111
10000000
10010110
11011001
10000100
00001101
00111111
11100111
01101000
01111111
11111010
10000000
10000000
10000000
10011001
11001011
00101100
11111100
00001000
10111100
11011111
01111111
01010100
00110101
01010010
01111111
01000001
10110101
00001011
10000000
10000000
10000000
01010000
01110111
11111101
01001100
01110010
11111001
11000110
11010111
01101000
01000010
01111111
00100001
01000000
11111110
11111011
11100101
10110011
01111111
01111111
01111111
01111111
01111111
00001001
10100110
11000101
10000000
10000000
10000000
10000000
10000000
10010111
00011100
00000010
11101110
00100001
00101110
01111111
01110001
11111110
01111111
10110011
11101110
10110000
01011101
11100001
01111111
01111111
01011101
00001101
11000011
11010101
10000000
11010101
10000000
10000000
10000000
10000000
10000000
11000101
00100101
11111011
10111011
00011010
01111111
01100011
00001110
00100101
01111111
10100100
11101001
11010000
11100010
10000000
00110001
00011001
10110000
10000101
10111001
10110011
10100011
10000000
10000000
10110111
10000000
10000000
10010010
00011000
11100010
11111001
00100010
00110010
01111111
01111111
01101100
01111111
00010101
00101111
11101100
01000101
11110001
10000000
11110001
11100001
10000000
10000000
10000000
11001000
10101010
11000010
10100101
10000000
10000000
10000000
01110001
01111111
01010100
01111111
01111111
00100111
00111111
01000010
00010010
00001101
10000000
00110011
11111100
11111101
01011001
11001111
10111000
10010010
10000000
10000000
10100011
10010100
10000000
11000101
11001000
10000000
10000000
11001100
01111111
01111111
01000101
01111111
00111101
00100111
01111111
00011001
10000000
10110000
10000000
00000010
11110101
00000001
11001111
01010000
10000000
10000000
10000000
10000101
11001001
10001010
10111101
11111001
00001100
10000000
10000000
00100011
01111111
01000010
10110010
11101101
10111110
00001111
00011011
10000000
10000000
10000011
11010111
11110011
00100001
00101011
11000000
00001111
10000000
10000000
10000000
10111110
00001100
10111010
00000001
01110110
01011001
10000000
10000000
10000000
00110110
00100010
10000000
11010000
10001101
11011010
11010101
10000000
10000000
01001000
10101000
11011010
00001011
00000101
11101101
11000010
10000000
11101100
00010010
01000010
01100010
01101110
01111111
01111111
01111111
10100010
10000000
10000000
11101001
01111111
11110000
11101001
11001010
11100010
10100101
10000000
10000000
11101011
10001100
11011011
11111000
11111000
00110001
10111101
01011010
00111100
01001101
01111111
01111111
01111111
01111111
01111111
01111111
00010010
10000000
10000000
00001010
01111111
00110111
01000001
01000111
11010011
10000000
10000000
10000000
01001000
11011110
11011010
11111010
10111101
01111011
00111111
01111111
01111111
01101100
01111111
01111111
01111001
01111111
01111111
01010000
00110010
10101100
11010111
01010100
01111111
01111110
01011001
10111011
10000000
00001011
00000101
10010001
00101001
01111011
01101010
00000110
11001011
10000000
00010001
01101000
01110011
01111111
00111010
00010000
11111110
00001010
11111110
01101100
00110101
00011111
01111111
01111111
01111111
01111111
01010010
11100001
00010100
01110001
00100101
10011110
01111111
01111111
10110011
00000111
10100111
10000000
10000011
01001110
01111111
01111111
01111111
00101110
00100001
00000100
11011100
00010010
11110000
01111111
01111111
01111111
01111111
01111111
00010000
11001001
00111011
00100000
11000000
10000000
01010010
01111111
10110000
00000010
11011100
10000000
10000111
01111111
01111111
01111111
01111111
01111111
00101001
10000010
10000000
11100101
01111111
01111111
01111111
01111111
00011000
11110010
10110010
11010101
11001110
10100100
11010001
10101011
00100011
01111111
01001000
00001111
00100110
10000000
00110101
01111111
01111111
01000101
01000101
00100110
11111111
10000000
10000000
10011110
00101001
11101100
00001011
11111010
11001001
00101111
10011110
11110101
00000010
11001111
00110111
01011100
01111111
01111111
00000001
11110010
01001111
10101100
01111111
01111111
00011000
10011110
10110000
11111101
11100110
10011011
10000000
10111010
10000000
10001011
11101111
11010011
11011101
11110111
10110011
10101001
11101010
11010001
01110010
01111111
01000110
01111111
00001001
11111110
00100100
01001001
01111110
01111111
11000111
10000000
10000000
11100011
11110011
10000000
10000000
10000001
10000000
10000000
10000000
11101000
00100001
10111111
10011101
11111110
00101000
01011111
01111111
01111111
00011010
01000000
00001000
00000110
00000001
11000000
00111111
01011111
10000000
10000000
10000000
10000000
10101111
10010010
01110100
10101001
10000000
10000000
11100011
11111100
10010110
11101111
11101100
01100000
01100100
01111111
01111111
01111111
01111111
01010001
11110110
00000010
00000100
11010000
01111111
00101101
10100100
10000000
10000000
10000000
10001000
10110010
11101111
10000000
10111100
00100011
01000110
11100100
11101011
01111111
01100011
01000000
00100101
01010110
00111011
00111110
01111111
10111100
00000110
00000010
00000001
00011111
10001000
10001010
10000000
10000000
10000000
11001001
10111001
10010100
10101001
10100000
00010010
00000101
11101001
11110001
10000000
11101110
11100000
11011100
01001010
10010011
11100001
00000011
00000100
00001000
00000010
11110101
00000010
00011111
00001001
00101000
11000001
10000000
10000000
10000000
10000000
10000000
10000000
10000000
10000000
10000000
10000000
10000000
10000000
10000000
10000000
10000000
10000000
10000000
10000000
11000010
11111001
00000011
11111101
11111101
11111010
00000100
11111101
00000110
00100000
11011101
10000000
10000000
10000000
10000000
10000000
10000000
10000000
10000000
10000000
10000000
10000000
10000000
10000000
10000000
10000000
10000000
10110100
00001011
00001010
11111010
11111011
11111000
11110101
00000111
00001011
00100000
00101010
11001110
10000000
10000000
00000010
10000000
10000000
10000000
10000000
10000000
10000000
10000000
10001010
11010111
00010100
01000110
01000011
01010011
11110010
00000100
00000110
11111101
11111101
