11111011
11111000
11111101
00000010
11111111
11110101
11111111
00001001
00001010
00000001
00001101
00001010
11111110
00000001
00000111
11110100
00001001
11111110
11111111
11111110
11111111
00000101
00000101
00001000
00001000
11111100
00001100
00000101
11110111
11110110
11111110
00000101
00001000
11111101
00000100
00010100
00011110
00100011
11111011
11111100
00001101
11111111
11111000
11000111
10111111
11010101
11111101
11110101
11110100
00000100
00000101
11111101
00000101
11110100
11111110
00001100
11111100
00000101
00000000
00000010
00001010
11111000
11101100
11110011
11111011
11101001
11100111
11110101
00000010
11101001
11100011
11011110
10101111
11101001
11001111
11001100
10111000
11101000
11101111
11111101
00000011
00000011
00000100
11110110
11110010
00000001
11111001
00000011
00000010
00000010
11101010
11101000
11110100
10110110
11000101
10101010
10000000
10000000
10000000
00101011
11010010
00101110
00111101
00101000
11110100
11110001
11101110
11110101
11100110
00000110
00000110
11111001
11111111
00000111
11110100
00000000
11100100
10011010
10010011
11110000
10111000
10000000
10000000
10000000
10000000
10000000
10000000
10000000
10000000
10000000
10000000
10000000
10000000
11101100
11001101
11101000
11111001
11110000
00000000
11111001
00000000
00000110
11111000
10111101
11001101
00111010
10100110
11011101
10000000
10000000
10000000
00111011
00110111
01101011
10110101
00111001
10000000
10000000
10000000
10000000
10000000
10000000
10000000
10000000
11101110
11100010
11100011
11111110
00000010
00000010
00100011
00010011
00100111
10110001
10000000
10000000
10000101
00000111
01111010
01111111
01111111
01111111
01111111
01111111
01111111
01111111
01111111
00011011
11100111
00001011
10000000
10000000
10000000
10000000
10110000
10110011
00000111
11011000
01111111
10001011
10000000
10000000
10111001
10110011
00100111
01111111
01111111
01100000
01111111
01111111
01111111
01111111
01111111
01111111
01111111
00000000
00010011
01010011
10000000
10000000
10000000
10000000
10000000
11000001
00000010
11010110
11011111
11010110
10010100
11000000
10011011
11101011
01111111
01000110
00000100
00101011
00010010
01111100
01111111
01111111
01110001
01011010
01011111
11010101
00101110
00000100
00001001
10101000
10000000
10000000
10000000
11100000
11111000
00010100
10100011
00010011
10111010
10101101
01010100
01011111
00101110
00111101
01101100
01100111
01101001
01111111
01111111
01111111
00111110
01010111
01011111
00000110
00100010
11001111
11001101
10000000
10000000
10000000
10000000
10101001
11111110
11111101
10101001
00110011
10010101
11101101
01111111
11010111
11011110
00000110
01001011
01111111
00111101
01101011
01111111
11101000
00001111
01001110
00100101
11110001
00101110
00101010
11111000
10000000
10000000
10000000
10000000
11001001
00000000
10011100
11000010
11001100
10010110
00101001
01100010
11100001
00000100
10111010
11000111
11111010
10011000
11000000
11010010
11010111
00111000
01111111
01000110
00000001
01111111
01010010
01111111
00011000
10000000
10000000
10000000
11100111
11111010
10111111
10111110
10010001
00010101
00011101
10101101
00101011
00100010
11100001
10000000
10000000
10000000
10000000
00101001
11111000
00101011
01111111
01111000
01100101
01100100
00101000
01111111
01011100
10000000
10000000
10000100
00000011
11100000
10101010
00011010
00010001
01111111
11110010
10001111
00001101
11100111
10001011
10000010
10010101
10000000
00000000
01111111
11101011
00110100
00010110
01000101
01011111
11110000
11111100
11011001
10000000
10000000
11001001
10010100
00000110
10000001
11000001
00110111
01010001
01001101
10101100
11000001
01000010
11000010
10010101
10010111
10000000
10000000
10100101
11111001
11101110
00110001
11111111
00111000
00100001
11011101
11110100
11100100
10000000
10000000
11100110
11100000
00000000
10011111
10111101
10000000
11000011
00011001
11011100
11000111
00011011
10110100
10110011
11011011
11001100
10000011
10000000
10000000
11001000
11100110
01101110
01101101
11111111
10101011
10101101
10000000
10000000
10000000
11110110
11011000
10111101
01010001
11101000
10000000
10010010
01111111
01101100
11100010
11010000
11110111
10110001
00101110
11001111
10000000
10000000
10000000
10000110
11111010
00111110
00111010
10100010
10011111
10000000
10000000
10000000
10000000
10000000
10011001
10110001
00001000
00010100
10000000
10101010
11100000
00101111
00000111
00011101
01101001
00101100
00000111
10100101
10100001
11001000
10101110
10101100
00011010
01000101
11100111
11101101
11110001
10101110
10000000
10000000
10000000
10000000
11000010
10110011
00101010
00010010
11000101
10000000
10000000
10000000
11100110
11011000
00100010
01000111
00000011
10100101
10000000
11101110
11001001
10011101
11010110
00000101
11010010
10110000
00100010
10010010
10000000
10000000
10000000
11110101
11000100
00011101
00001000
10000000
11011010
10000000
10000000
10000000
10000000
10000000
10111001
10110000
10000000
11000111
10000010
10000000
11011011
10010111
11001101
11101111
10000000
11010100
10101010
10000000
10000000
10000000
10000000
00101010
01000011
10110010
00000011
10000000
10000000
10000000
10000000
10000000
10000000
10000000
10000000
10000000
10000000
10000000
10000000
11011000
11100111
10000000
10010010
10000000
10000000
10110001
10000000
10000000
10000000
10000000
10000000
01011101
00011101
11111110
11110101
01010001
01111111
10010000
10000000
10000000
10000000
10000000
10000000
10000000
10000000
10000000
10000000
10001101
10111010
11100101
10000001
10000000
10000000
10100111
10000000
10000000
11000001
00100101
11101011
01000110
10001110
00010001
11110011
00001001
01111111
10110100
11011010
10000000
10000000
10001110
10110011
10110011
11110101
10000000
11010101
10000000
11010010
10100111
10000000
10000000
10101100
10000000
10000000
10000000
01011011
01111111
01011101
01000011
10000000
00001011
11111100
11111111
01011000
01110010
01111111
01011110
01001111
00001010
11101010
10110100
11001100
10000000
10010010
10000101
10110100
10010110
10000000
11110001
10110101
11101010
10000000
00110011
01111111
01111111
01111111
00101000
11011000
11111101
11111110
11110101
00111000
01111111
01111111
01111111
01111111
01111111
01111111
00000101
11010100
10000000
10000000
10011100
10011010
00000101
00010010
01111111
01011110
00100101
01100110
01111111
01111111
01111111
01001011
11110001
11111110
00000111
11111100
00000110
00000011
01110001
01111111
01111111
01111111
01111111
01111111
01111111
01111111
01111010
01100110
00101101
01111111
01011000
01111111
01111111
01111111
01111111
01111111
01111111
01111111
01111111
11010111
11111100
00000111
00000100
11111101
00000001
00000101
00011111
01111111
01111111
01111111
01111111
01111111
01111111
01111111
01111111
01111111
01111111
01111111
01111111
01111111
01111111
01111111
01111111
01111111
01111111
01111111
01111111
11111000
11111111
00001000
11111000
11111100
00001001
00000000
11111011
00001010
00000011
01010010
01000110
01111111
01111111
01000000
01011000
01111111
01111111
01111111
01111111
01111111
01111111
01010111
00001100
00100110
01010111
01111111
01001111
11110101
00001000
11111111
00000000
