00000001
00000100
00000010
00000111
00000101
00001100
00001010
00000000
11111110
00000100
00000101
11111110
00000111
00000110
11110110
00001100
11111010
11111110
00000111
00001010
11110111
11111101
11111110
00000001
00001000
11111111
00001010
11111011
11111100
11110110
11110111
11111010
00000000
00000010
00000100
11011011
11001100
11001001
11000111
11111011
00010101
11011110
10001101
11010001
11010010
11000010
00010011
00000010
00000100
11001011
11111110
11111110
00000011
00000100
11110111
00000000
00000110
00000100
11110100
00000110
11110011
11111110
10011111
10000000
10000000
10000000
10000000
10000000
10000000
10000000
10000000
10000000
10000000
10000000
10000000
10000000
10000000
10000000
11001110
00101010
00010110
00001000
00000101
00001100
11111111
11111111
11111110
11111111
00000101
10001111
10000000
10000000
10000000
10000000
10000000
10001111
10011100
10000000
10000000
10000000
10000000
10000000
10000000
10111110
00001010
10000000
10000000
10000000
10010010
11010111
00000100
11111001
11111101
00001001
00001001
00100111
11000011
10000000
10000000
10000000
10000000
10000000
10000000
10101000
10000000
10000011
10101001
10000000
10000000
11000101
11100110
10110111
10010011
11011100
10100010
00001001
11100110
00010001
00110001
11111111
11111100
00000001
11111000
00010001
10001101
10000000
10000000
10000000
10000000
10000000
10000000
10000000
10000000
10000000
10000000
10000000
11010111
00101111
00000001
10101111
10100001
11100101
11000001
10000000
10010011
01111011
00011111
00000000
11111000
11111011
01111111
11000111
11111000
01011001
10111111
00101001
00111101
01111111
01110110
01010100
11111111
11101001
10111101
10000000
10000000
11001110
10110011
00011000
11000000
01111111
01111111
11001001
01001110
00111000
10000110
01010001
11111110
00011011
01111111
01111111
01111111
00110001
01110000
01101011
01001100
01111111
00110110
01011011
01010000
00101111
11101000
10000000
11010010
01111111
01011000
01110100
00101111
00100010
01010101
01110011
01100101
00101100
10000000
01111111
11111101
01111011
01111111
01111111
01101000
01000101
01111100
01111111
01111111
01001010
01101111
01111000
01011000
11111110
11100001
00000000
00110100
01111111
01111111
01111111
01111111
01011001
01111111
01111111
01111111
01110110
10011111
01001001
00000010
01111111
01111111
01111111
01111111
01111111
01111111
01111111
01000010
01000000
01010101
00011010
01001011
01001100
01111111
01101100
01111111
01111111
01111111
01101011
01111101
01111111
01111111
01111111
01111111
01111111
01110111
01010110
11111111
01100110
01111111
01111111
01111111
01111111
01111111
01111111
01001101
01111111
01001100
01010001
00111111
01111111
01111111
01111111
01111111
01111111
01111101
01011011
01111111
01111111
00111101
01110001
01111111
01111111
01111111
01010111
11111111
01010111
01111111
01111111
01111111
11001111
01111111
01111111
01111111
01010001
01111111
01111111
01111111
01111111
11110010
10111101
00110010
01111111
00010110
00000110
00000001
11011011
10010001
10000000
10000000
01111111
01111111
00010001
00000100
01111111
01111111
00101110
11110010
11100111
00100100
00110101
01111111
00010111
01100011
00101100
11111011
10000000
10000000
10000000
10111010
11000111
10000000
10001001
10000000
10001011
10110010
10000000
10000000
01000110
01010100
00011011
11111100
01111111
01111111
10011111
10000000
11000100
10010011
11110111
00000101
10010101
11100000
10000000
10000000
10000000
10000000
10000000
10000000
10000000
10000000
10000000
10000000
11010011
00011111
10111010
10100010
00010100
11110001
00010100
00001010
11111111
01111111
10000000
10001010
00000100
10000000
10111011
11000011
11010001
00101010
10000000
10000000
10000000
10000000
10000000
10000000
10000000
10000000
10000000
01111011
01111111
01100101
00100111
01010011
11100111
10000000
11111110
11110111
00000110
00101101
10000000
10011011
10000000
10000000
11101101
10010100
11011010
00100110
10000000
10000000
10000000
10000000
10000000
10000000
10000000
10101000
00101011
01111111
01111111
01101101
01111111
01100100
11101101
11001010
00000100
11110111
10101101
00110011
10000000
11010100
10000000
10100000
00001000
00100001
00100110
11101001
10000000
10000000
10000000
10000000
10000000
10011100
11100010
01011010
01111111
01011001
01111111
00010011
01001101
11010010
10000000
10000000
00000111
11111111
10111111
10000000
10000000
10000000
00000111
01100011
11101100
11010110
11110100
10110000
10000000
10000000
10000000
10111000
00001010
01100111
01111111
01111111
01000111
00001011
00111010
11000101
00110001
01101111
10000000
10100011
00000101
00000010
11110101
11111110
10000000
00011010
00111110
01111111
01000001
11010110
10000110
10000000
10000000
10000000
11010000
01000011
00010100
00100100
01101100
01110111
11010110
11001000
01000011
11000110
00101100
01001110
10111110
11011111
00000001
11111011
01010010
01111111
10000000
01010010
01100001
01111111
01001001
01101101
01011011
00011001
11000010
11101001
11111000
11110011
11000100
10110011
11001110
11110100
01010100
10000000
10100101
10110101
10000000
10010100
10011010
10001101
00000001
11111010
00010111
00011000
10000000
11111101
01111111
00101111
00010010
01001100
01111111
01111111
01111111
01111111
00001101
11001000
10111111
11100101
10101000
11101000
11010111
10000000
10000000
10100001
10000000
10100111
10000000
11001001
00110100
00000011
11100100
10000000
10000000
10101111
01001011
11111010
10111000
01001011
01111111
01111111
01111111
01111111
10101101
11000101
00010011
00101011
11001001
11000111
10110000
10000000
10000000
10010011
10101101
11110101
11110110
00010010
00100111
11110110
11101011
10000000
10000000
10000110
01000100
11110001
11101101
01100011
01100100
01000011
00011111
01011010
00100001
01000010
01111010
00100110
11001010
11100100
10011100
10000000
10000000
10001001
10000000
11001111
10101101
10100111
00100101
00000111
00000000
10000000
00000011
00011100
01100000
01111111
00101011
10010110
11110110
00001101
00100010
00000001
11111000
00111001
11010101
11101010
11011010
00100110
10000000
10000000
10000000
10110001
10000000
10000000
10000000
10011101
11111011
11111100
11111011
10101101
01011110
01111111
01111111
01111111
00100100
10011001
10010101
11011001
01011101
11110000
11101010
00010111
10011010
11001111
11111110
10100011
10000000
10000000
10100110
10000110
10000000
10000000
10010001
00001011
11111001
00000100
00001001
10000010
01111111
01111111
01111111
11010010
00101000
00100001
00000001
00000101
01011101
00010101
10101101
11110000
00001100
11001000
10000000
11010110
10000110
10000000
10000000
10000000
10001011
11101001
11111100
00000011
11111101
00000101
00000100
00000000
00000110
11010111
10000000
10000000
10000000
10111111
10001101
10000000
11100101
10000000
10001111
11001111
11100111
11100001
11111000
01111111
01111111
11011000
10000000
11010111
10101100
11100000
00001010
00001010
00000001
00001001
00000101
00000101
00000000
00000011
00001010
00011000
00011110
00000101
01010100
01111111
11110111
11011110
01001000
00010100
11101111
00011000
10000100
10101000
00011101
10000000
10000000
00011111
11111000
11111110
00000010
11111000
00000010
