11111011
11110111
11111011
11111110
00001001
00001001
11110111
00000100
11111010
11110100
11110111
00000111
11111101
11111001
00000101
11111100
00000111
00000001
11111100
00000010
00000101
00000001
00000011
00000000
00001011
00001100
11111111
00001100
00000101
11110110
11111100
11111110
11111100
11111111
11110111
11111000
00001011
11111111
11111111
00000111
11111100
11101101
11100110
11010111
11011000
11111100
11111001
00000001
11110111
00001100
11111010
00001001
11111110
11111010
00000010
11111110
11110111
00000001
00000010
00001101
11111001
00001101
00000001
11110101
00000000
10100101
10100110
10000000
10000000
10000000
10000000
10011010
10000000
11101110
00011001
10011100
10011010
10000100
10010001
00000010
00000011
00000100
11111101
11111111
00000100
00000111
11111001
11111010
11110110
11110101
11011110
10000000
10011010
10000000
10000000
10011001
11010011
10110111
00001001
01001110
01101001
00100101
11110111
00011110
11100010
10000000
10100111
11010000
00010011
10000000
11110111
11111110
11111010
11111110
00000101
01111111
01111111
00100111
00000101
00111010
00111110
11100111
11110110
01111111
00110100
01010111
00011000
01100010
00010101
00101101
01111101
11100110
10100100
11100011
11101111
00011001
01111111
01111111
01111111
11111100
11111110
11111010
00001000
01111111
01111111
01111111
00110101
00111010
00101101
11111011
00100100
00101011
01011111
11101010
11001010
00010111
00111101
01001101
00100101
10111111
00110101
01000010
11110000
00111000
01111111
00111011
00111100
00111001
00000010
00100010
01010001
01111111
01100011
10010110
10000000
11010000
01111110
01010001
00011001
00100010
00001111
01010011
00110110
11100110
00101000
00111001
11110111
00010000
01100011
01101011
11011101
01111111
01111111
01111111
01111111
01111111
11111001
01111111
00100010
00100010
11000001
10000000
10000000
00011100
01001101
00001011
00011010
00111011
01001001
01011000
01001011
00010111
00100100
01101011
00110110
00100010
01111110
01010010
00001010
01100010
01111111
01111111
01111111
01111111
11111100
01010001
11110010
11100111
11011011
10010011
00010100
00000001
01010111
00011111
00111011
00001000
00100100
00111111
01100001
01010111
01010011
01111111
01111111
00011100
01100111
01111111
01111111
01111111
01111111
01111111
01111111
00000010
00000001
11111100
11010001
11111101
01000101
10000000
01000110
11110001
11111110
11110000
00001111
00101000
11100100
00001101
11111010
10011001
10011000
10010101
10100000
10000000
10000000
11100010
00011111
01000110
01111111
01111111
01111111
11111100
00000001
00001001
01001101
01111111
01110000
10000000
00101001
10110011
11111111
10111000
10000000
11011100
11000110
11000011
11101000
10111011
10000000
10000000
10000000
10000000
10000000
10000000
10000000
10000000
10000000
01111111
01111111
11111110
11111101
11101110
11001011
11011010
01111111
00001000
00011100
11100010
11100001
10101011
10100100
00001010
11101010
01010110
01111111
01110001
01000100
10011010
10011111
10000000
10000000
10000000
10000000
10000000
10000000
00001010
00011111
00000011
00000101
11010111
10100111
10000000
00001111
01110001
11010010
00101100
00100111
00000010
01011000
01111111
01111100
01101110
11011110
11101101
01000001
11111110
00101111
11000010
11001001
10000000
10000000
10000000
10000000
10111001
00000001
11111101
00000111
11010011
11000110
10000001
11000010
01111111
00010100
11000111
01100100
00010101
00011111
00111001
01000100
01010001
00000100
10101100
00011011
00001110
01001010
10001110
10110011
10111010
10000000
10000000
10000000
10000000
10100100
00001010
11111111
11111101
11011110
10000000
10000000
10110011
11000010
10100000
00101000
00111010
01010010
11101011
01100011
00101101
11011111
11100110
11000001
10111101
00000000
10000100
11010101
11011010
11100111
01111111
00010000
10000000
10100110
11111111
00000111
11100011
11100101
10000000
10000000
10000000
10000000
10000000
10110110
01010010
01000101
01111111
01111111
00101101
10011010
11011101
11001110
10110000
11111001
00010001
00110001
00000110
00010101
01111111
01111111
10000000
10000000
11111110
00000100
11110101
10110000
10110001
10000000
10000000
10000000
10000000
10000000
10000000
10110110
01111111
01010010
01000001
11001010
10000101
10100101
11001010
00110010
01110110
00110111
00000100
00010011
01111111
01111111
10000000
10000000
11111111
00001101
01010000
11000110
01111110
11110110
10000000
10000000
10000000
10000000
10000000
10000000
10000000
10000000
10000000
10000000
10000000
11101100
11000101
01011100
01001001
00011010
00101101
01000010
01111111
01111111
10000000
10000000
11001001
11111001
01010010
00001111
01111111
01111111
10000000
10111100
10000000
10000000
10000000
10000000
10000000
10000000
10000000
10000000
10000000
00100010
00110000
01111100
01111000
01000110
01111111
01010111
01111111
11011011
10000000
10000000
11000110
00000010
01001011
01111111
01111111
01111111
01111111
01111111
01111000
01011100
01000001
00101100
10110000
10000000
10000000
10000000
11001011
00010110
00100001
00111110
00010100
00001010
01010011
11100010
11011011
10000000
10000000
10011001
11100001
11111111
01001001
10110001
01111111
01111111
01111111
01111100
00011001
01111111
01111111
01100100
01101001
00100001
10111000
11000110
00000001
11100111
11101001
00101010
00011101
00110001
00111110
01101011
00110000
10110010
10000000
10000110
11111100
00000101
01101100
00100010
01111111
01111111
00000101
11111001
00101111
01111111
00111000
00111101
00000000
11111111
00011010
01011000
01001101
10111110
10111011
11111010
00100011
01001110
00001000
00010111
00110110
10000000
10000000
10000000
00001010
11110110
00111011
01010111
01111111
01110110
11111011
11111011
11011111
10111010
11100011
00011101
00110011
00101000
01111111
01010011
00100000
11011001
10110000
11101110
00111010
10111010
10000000
11111100
00100110
10000011
10000000
10100101
00000110
11111000
11111000
01111111
01111111
01111111
01111111
00100111
11111011
00011111
00100000
01010001
01000110
01000111
00001101
11010011
00000111
01011010
01100100
11001011
10000000
10000000
10001100
00000110
01101001
11101100
11010010
01000100
11111001
00000010
00000000
11001000
01111111
01100001
01111111
01111111
01111111
01010001
01111111
01111111
01111111
01111111
01110111
00111000
00011001
00101100
00101011
10111011
10000000
11011110
00110111
01011111
01101101
10000101
11011111
00000110
00000111
00000000
11111011
00110000
00101000
01111111
01111111
01111111
01111111
01111111
01111111
00110100
01011101
01100100
01111111
00010001
00001011
01011001
00001000
01000101
00011001
10110011
00010011
01011110
01110001
10001010
11110101
11110010
00001011
00000001
00000001
00001010
00000110
00100101
00010011
10101110
10000000
10000000
10000000
01001101
11000001
10000110
10110111
10011010
11110111
11001010
11000111
01011001
00011101
01111111
01110010
00111000
01111111
00000101
00000011
00000001
00001000
11111110
11111000
11111001
11111010
00001101
11111111
00000101
11110011
11111111
00000111
11111110
11111010
11100101
11100110
11111100
11111001
00000000
00101010
11001100
10011010
10000000
10110101
10111001
11111110
11110100
00000000
00000100
00000011
