1111111111101000
0000000001010001
1111111111111001
0000000000101011
1111111110101010
0000000000000011
1111111111100001
0000000001010111
0000000000111010
0000000000100011
1111111111110111
0000000000010101
0000000010011011
0000000010100101
1111111111110111
1111111111001110
0000000000011000
1111111111010101
1111111110101000
1111111110110101
0000000001001100
1111111111001000
0000000000111111
0000000000101011
0000000000010011
0000000000100110
0000000000001010
0000000001010100
1111111111010100
1111111111011011
0000000000101110
0000000000100110
1111111111100001
0000000001001000
0000000100011000
0000000100001100
0000000011011010
0000000010111111
0000000001100111
0000000011001110
0000000100000100
0000000011001100
0000000000100101
0000001010111100
0000001000010100
0000000111001010
0000000100010100
0000000111101011
0000001000001110
0000000101011100
0000000011011011
0000000101001010
0000000001010110
0000000001010111
0000000000010110
1111111110111001
1111111111000110
0000000000010100
1111111111001000
0000000110010011
0000000100001111
0000000101110011
0000000110001001
0000001001000011
0000001001010101
0000001001001000
0000001001000010
0000000111111111
0000000110101010
0000000111010100
0000000101110001
0000001001100010
0000000110101111
1111111111010000
0000000001100000
0000000011000011
0000000011011000
0000000110110000
0000000100111110
0000000010111101
0000000111001110
0000000100110111
1111111110111001
1111111111100001
0000000001010000
1111111111110001
0000000100001100
0000000101110001
0000000001000110
1111111100011101
0000000000010111
0000000010000101
0000000001100010
0000001000100100
0000000011100000
0000000010110111
0000000010111010
0000000101110111
0000000010010110
0000000010100101
0000000001111011
0000000000000111
1111111101001000
1111111110011111
1111111100111110
0000000000010100
1111111111111111
0000000010010000
1111111111101111
1111111111110100
1111111111111100
0000000000001101
0000000000010001
1111111111100111
0000000100110001
1111111010101100
1111111110000010
1111111111100100
0000000100001010
0000000000001101
0000000010101110
0000000101001011
0000000011111111
0000000010111101
0000000000001001
0000000010001000
0000000010111101
1111111111010101
0000000001011111
0000000000011111
1111111110100001
1111111111101000
1111111101111100
1111111011001110
1111111010100110
1111111100010100
1111110100010010
1111111100000000
0000000100111010
0000000001110001
1111111111001101
1111111111010000
0000000110110110
1111111000110010
0000000101000010
0000000000000001
0000000001011001
1111111111101010
0000000001010011
0000000000000100
1111111101101110
1111111100010110
1111111110100000
0000000001000110
0000000001110001
0000000001001111
0000000010001111
0000000001000010
0000000000110111
0000000000110001
1111111110100001
1111111111101000
1111111111110011
1111111111010011
1111111101010011
1111111110001111
1111111111101010
1111111100111011
1111111111101111
0000000010010101
1111111010000101
1111111101001011
1111111111111001
1111111101110001
1111111111110100
1111111111010110
1111111010011011
1111111011001010
1111111100100110
1111111111101111
1111111110011101
1111111111001110
1111111111111100
0000000001101110
0000000000100111
1111111110011011
1111111101101010
1111111101110111
1111111101001110
1111111110110011
0000000000000101
1111111100101111
1111111011110000
1111111110110101
1111111011100010
0000000011111110
0000000000100110
0000000011101110
1111111110011001
1111111101010110
1111111111010110
1111111001011010
1111111010101111
1111111110110100
1111111011111110
1111111101101101
1111111111001000
1111111111101111
0000000001001010
0000000000010011
1111111111110001
1111111111010101
1111111110001010
1111111110011100
1111111101100001
1111111111010001
1111111011110110
0000000000010111
1111111110010001
1111111100001100
1111111101011011
1111111110111100
1111111010011001
0000000010100000
0000000011011100
0000000110101010
1111111100110111
1111111111000111
0000000000111001
1111111101110100
1111111011101101
0000000000001010
1111111011101001
1111111110110111
0000000000100110
1111111101110101
0000000001010000
0000000010101000
0000000001010010
0000000000111110
1111111101110101
0000000000011111
1111111011110111
1111111110001011
1111111110111100
1111111101111101
1111111110110110
1111111110110101
1111111010010100
1111111000011000
1111111011101111
1111111111011110
0000000010011101
0000000101100100
1111111101011011
0000000010010110
1111111111100010
1111111101011001
1111111100001100
0000000000100010
1111111110111001
1111111111000001
1111111110101111
1111111101010110
1111111111110110
0000000000110010
0000000010011100
0000000000111111
1111111111001111
1111111111011101
1111111100100010
1111111101100111
1111111110111001
1111111111011110
0000000000000101
1111111101010100
1111111100001101
1111111001011010
1111111001011111
1111111110110010
0000000100011010
0000000010010001
1111111110100011
1111111111000100
1111111100111110
1111111110011010
1111111101101001
1111111111000011
1111111111111101
1111111101000000
1111111101011011
1111111110010110
1111111101100000
0000000100101100
0000000100110101
0000000010110011
0000000010001011
0000000000010110
1111111111001111
1111111101100010
1111111111011010
0000000001100111
1111111101100110
1111111100010101
1111111100100010
1111111000000001
1111111101101001
0000000101111010
0000000011111101
0000000100101111
1111110100101010
1111111101101010
1111111110010100
1111111111110101
1111111111110110
0000000000010010
1111111111001110
1111111110010111
1111111010010001
1111111101001011
1111111101111100
0000000011100101
0000000100001110
0000000000101010
1111111101110010
1111111010100100
1111111011001110
1111111111001011
1111111101110111
0000000001111001
0000000001100001
0000000001101011
0000000000110100
1111111010101110
1111111001101110
0000001000000011
1111111111111111
1111111110101011
1111111111111001
0000000011100011
1111111100010011
1111111111001011
1111111101111011
1111111100010101
1111111110011001
1111111101001011
1111111100000001
1111111110011000
0000000001101000
0000000011100110
0000000011000110
1111111111111000
1111111100101110
1111111101011101
1111111011011010
0000000000001010
1111111111010111
0000000001100010
0000000001100011
0000000000100011
0000001010101001
0000000010100011
1111111101001111
0000000100001111
0000000011000010
0000000000010111
0000000011010111
0000000100111100
1111111001101110
1111111110001010
0000000000110000
1111111011110111
1111111101001100
1111111110010010
1111111100011010
0000000000000111
0000000011010001
0000000101000100
0000000101111011
0000000011000111
1111111111111010
1111111110110001
1111111111010110
0000000000001100
1111111111111100
1111111111101111
1111111110100100
0000000010010011
0000001000101001
0000000100110000
0000000001011010
0000000101110011
0000000010010010
1111111001001010
0000000000110011
0000000010101001
1111110111011001
1111111110111111
0000000001110000
0000000000101010
0000000001001101
1111111111010001
0000000000101010
0000000011001110
0000000100001111
0000000111001011
0000000111011101
0000000011011000
1111111110111010
1111111100111010
1111111110110010
0000000000111000
1111111101111001
1111111110001000
1111111111100110
0000000000100111
0000000110100010
0000000110001001
0000001010100101
0000000110100101
0000000010010101
1111111100010000
0000000011011010
0000000100100100
1111111101000100
0000000010111001
0000000001110010
0000000001100111
0000000000000111
0000000001000011
0000000000010111
0000000010101101
0000000100101010
0000000111110001
0000001000000000
0000000010010011
1111111110110010
1111111101101111
0000000000110100
1111111111111101
1111111100000101
1111111111010001
1111111011101111
1111111111110001
0000001000010110
0000000110011010
0000000001101011
0000001000000010
0000000001010100
1111111010011111
0000000000001000
0000000010111101
0000000000010011
0000000001100010
0000000011001001
0000000001101010
1111111110011000
0000000001000100
0000000001010110
0000000101011101
0000000101001000
0000000110000001
0000000111010001
0000000001101101
0000000001100101
1111111111011001
0000000000000110
1111111110101000
1111111100110011
0000000000001011
1111111110001110
0000000010111000
0000000100101101
0000001010101100
0000001000010010
0000001000010011
1111111110101111
1111111010100000
1111111110000111
0000000011101001
0000000010001110
0000000001001001
1111111110110001
1111111110000111
1111111111100100
0000000001100000
0000000100111101
0000000100100100
0000000101110100
0000000011010101
0000000100010010
0000000001101010
0000000000111101
1111111101000011
0000000000000011
1111111111011100
0000000000110000
1111111111001110
0000000010110010
0000000010010101
0000000100110110
0000001110100011
0000000110001010
0000000111110001
0000000100001101
1111111111000000
1111111000100000
1111111111101100
0000000000001000
1111111110101000
1111111101111110
0000000000011010
0000000001011000
0000000011000011
0000000100001101
0000000001100111
0000000011000011
0000000010101111
0000000000110101
0000000000110110
1111111110101100
0000000001011100
0000000001010111
0000000000000110
0000000001001100
1111111111001100
0000000010000011
0000000011100010
0000001000000010
0000001101010111
0000000101000110
0000001001001111
0000000010110010
0000000010110011
1111111011011100
1111111010001110
1111111110000111
1111111011111001
1111111100111111
1111111111010101
0000000000000111
0000000100010100
0000000100011000
0000000011010110
0000000011000000
0000000100001100
0000000000100011
0000000001111101
0000000010110001
0000000010101010
0000000000001000
1111111111101101
0000000010000101
0000000001000001
0000000101100111
0000000100100010
0000000001100110
0000001010000010
0000001100010111
0000000110111110
0000000000000100
0000000010011011
1111111111110010
1111111011110010
1111111100111000
1111111100001010
1111111111010110
0000000011100000
0000000001000100
0000000010100010
0000000011111011
0000000100001100
0000000101110110
0000000010100101
0000000001110001
0000000001111011
0000000000100110
1111111111101100
0000000010000000
0000000010011110
0000000100110011
0000000011111110
0000000011000100
0000000000000100
1111111111100001
1111111110100001
0000001001001110
0000000010100001
0000000010101111
0000000001111011
0000000001011111
1111111111001000
1111111101011101
1111111101101011
1111111111111001
0000000001011001
1111111111011111
0000000001010000
0000000011010011
0000000000101110
0000000010010010
0000000010110111
0000000010100001
0000000010010010
0000000001101110
0000000010001010
0000000011000100
0000000010010000
0000000011000000
0000000010001010
0000000000000011
0000000001111101
0000000000010101
0000000010111001
0000000101111101
0000000001011000
0000000010100010
0000000010001001
0000000010100110
1111111101111000
0000000000100010
0000000100100100
0000000001100010
1111111111100000
0000000001000111
0000000010100000
0000000001101111
0000000001000001
0000000001000111
0000000000101000
0000000000010111
0000000001000111
0000000001000011
1111111111111010
0000000001110100
0000000000001010
0000000011001111
0000000000000011
1111111110001110
1111111011001100
1111111101000011
1111111111001010
1111111110010000
1111111111011010
0000000000110110
0000000000000100
1111111110111100
1111111000010101
1111111111100011
1111111110010001
1111111101010011
1111111100111111
1111111110001010
0000000011100011
1111111111010001
0000000000011110
0000000011101111
0000000000011011
0000000000011001
1111111111011010
1111111111111111
1111111110010011
1111111101101100
0000000000001010
0000000000011010
1111111110111111
1111111110100000
1111111010000111
1111111001101000
1111111100010110
0000000001010000
1111111110111001
1111111111011001
1111111111101001
1111111011001100
1111110100110100
1111110101100001
1111111011011001
1111111001101101
1111110110000110
1111111000110110
1111111101100110
1111111100111001
1111111110110011
1111111110001110
1111111011100110
1111111101011011
1111111101100001
1111111100001100
1111111101010001
1111111110000010
1111111100000110
1111111011010001
1111111101111010
1111111010000111
1111110111110111
0000000001101110
0000000110110001
0000000011010000
1111111111110000
1111111110111100
0000000000011110
1111111111100001
1111111011111111
1111111000011101
1111110110010111
1111111000010100
1111110001000010
1111101110111001
1111110100010011
1111110100001001
1111110100111010
1111110011101010
1111110010000010
1111110101100100
1111110111001000
1111110010010011
1111110111111110
1111110001001000
1111110000000101
1111110000110101
1111110010100000
1111110100010001
1111111001101110
1111111011100010
1111111101100001
0000000001110110
0000000001011000
0000000000111000
1111111111010001
1111111111110110
1111111101001010
1111111000101000
1111111000111001
1111110111101000
1111110100001001
1111111000111110
1111111000010011
1111110110001101
1111110011011001
1111101110101010
1111101011000001
1111101110001011
1111110111001110
1111110000101111
1111110001101101
1111110010010101
1111110000011011
1111110100100111
1111110100100001
1111110111111000
1111111001110011
1111111110110001
1111111111011001
1111111111000011
1111111111111100
0000000000111100
1111111111001010
1111111111000011
1111111111010110
0000000010000001
0000000001100001
0000000001111100
1111111110100101
0000000011011111
0000000010111110
0000000000100110
1111111011001101
1111111011101010
1111111000000011
1111110101110100
1111111011001100
0000000010110011
1111111100100101
1111111010000000
1111111011000111
1111111111011101
1111111111100101
1111111111011100
0000000000001000
0000000001000010
1111111110110011
0000000000111100
1111111111101011
