11111001
00000110
00000000
00000010
00000101
00001011
00000101
11111111
00000110
00000000
00000000
11111110
11111100
00000101
00000010
11111011
11110110
00001011
00001010
11110110
11111111
11111011
11111111
11110110
11111001
00001000
11111111
11110101
11111111
00001110
00000010
00000101
11111111
11111110
11011100
11101010
10110011
10110011
11100111
11101000
11100101
00000000
11001111
11101110
01100100
01100001
10100000
10100000
10100000
11001011
11101011
00000010
00000100
11110110
11110101
00000110
11110011
11110101
11111001
00000001
11010011
10111101
10011101
10000000
10000000
10001110
10000000
10000000
10111100
10000000
10001001
00100100
00011001
10000000
10000000
10000000
10000000
10000000
10000000
11100000
11101110
00001000
00000110
00000100
00001010
00001001
00000110
00000100
10011001
10000000
10001110
10000000
10000000
00001000
01111111
01111111
01101011
00110101
10101111
11010010
01111111
11001000
10110011
10101110
00000111
01101010
10010001
10000110
10110010
00010100
00000111
11111010
00000011
11111001
00101111
01111111
01111111
11101011
01100011
01111111
01111111
01111111
01111111
01101110
01000111
01110001
01000110
01000100
01111111
01011000
00110000
00010000
00101101
10011010
10000000
10000000
10000000
00010100
00001100
00010011
00001101
00000101
00011011
01100110
01111111
01111111
01111100
01111111
01111111
01111111
01111111
01001111
01000101
01101011
11110001
01000110
01010101
11011000
11010111
11100010
10010100
10000000
10000000
10000000
10000000
00100111
00011000
00001010
11111011
01001111
01010110
01111111
01111111
01111111
01111111
01111111
01111111
01011010
01111111
01100001
01100001
01111111
00111110
00111101
00101110
11010000
00001111
10010001
10000000
10000000
10100101
10000000
10000000
11110011
11110011
00000110
00000101
01011010
00111110
01111111
01111111
01111111
01111110
00011010
00100000
00100011
01001111
01100110
01111111
01111111
01000000
00000010
11110000
11110110
11001010
01011010
11101000
10000000
10000000
10000000
10000000
10000001
11110010
00001101
11111011
01010010
00010100
01111111
01111111
01111111
01111111
00111011
10111000
11110100
01111111
00100001
01111111
01110001
01111111
01111111
11111001
00110010
00110100
01001100
11111100
10111101
11001101
10000000
10000000
10000000
11110101
11111000
11111011
00000000
01010000
01111111
01111111
01111111
01111111
01111111
11110011
00000000
10101011
10000000
10001101
11000011
01111111
01111111
01011000
00110101
01010011
00111011
00110111
00101000
00011100
10000000
10000000
10000000
00100101
00000110
11111111
00001100
00111110
00010001
10111000
01100100
00110110
10000000
10000000
10000000
10000000
10000000
10000000
10000000
00110000
01111111
01111111
01111111
00111000
00001101
00110101
00000100
00000001
10000000
10000000
01110100
00111010
00000010
00000101
00011100
10011011
10110011
10000000
10000000
10000000
10000000
10000000
10000000
10000000
10000000
10000000
10000000
10000000
01111111
01110000
00011111
11110001
00011101
00001001
10100100
10110000
10000000
11010111
01111111
11000000
11111100
11111110
11111111
10000011
10000001
10000000
10000000
10000000
10000000
10000000
10000000
10010001
10000000
10000111
10000000
11000001
00010001
01011010
11011000
00100110
00100010
11110111
10000000
10000000
10000000
11110100
01111111
00011110
11111101
11111101
10111000
10001100
10000000
10000000
10000000
10000000
10010011
00000110
11100001
00010001
11010000
10011010
10110101
11011101
10010100
11110111
00010010
00111100
11010100
10100110
10000000
10000000
10000000
00100001
01111111
00001000
11111010
11111111
10101101
10011101
10010110
10000000
10000000
10000000
00000010
11000000
11010010
11110010
00000001
10100101
10100101
11100010
11000001
00101000
00000100
01011111
00111010
10110001
10110010
10000000
10000000
10000000
01110011
01111111
11110111
11111111
10111010
01001000
11111111
11101001
00110000
01001111
10110011
10111101
10101110
10000000
11010000
00000000
11100111
11011101
00110111
11110101
11110110
00111000
11111100
11011001
11010010
10010000
10010000
01000111
01111111
01111111
00101000
11110110
01111000
01111111
01111111
10111101
01111111
01111111
11000001
10110010
00000000
10110011
10011011
11011000
11110000
11111001
11010001
11111100
00001100
01011100
11100000
10110011
11100001
00110000
01010011
00110011
01111111
01111111
01001000
11111011
01100010
01111111
01111111
01100000
01011000
01111111
01011000
00101001
10110101
10000000
10000000
10001011
00111001
01000011
00100000
00100100
11111001
00001001
11101111
11100101
00110001
01111111
01111111
01100001
01111111
01111111
01111111
11111010
01010110
00011101
01111111
01111111
01110111
01110010
01110111
11110100
11110010
11000101
10000000
10000000
01111100
00100110
11100111
00011000
00110100
00101011
01001010
00100000
01111111
01111111
01111111
01111111
01111111
01111111
01011010
11111001
10100011
00000101
01111101
01111111
01111111
01110010
01010100
11110100
01000001
10111111
10100011
11100011
00001001
10101010
11110011
01101101
01000011
01110001
01111100
01111111
01111111
01111111
01111111
01111111
01111111
01010000
00101101
11110111
10100111
00001100
01111111
01111111
01111111
01111111
01010100
11010001
01101011
00011100
00100000
11010100
10010101
10010110
11111000
01000001
00110010
01111111
01010111
00100101
00110011
01111111
01111111
01111111
01110110
01110011
00000000
01000011
00110101
01111111
01111111
01111111
01111111
01111111
01010110
00000000
00010101
11010010
11011011
11010111
11001101
10010111
10010000
11111000
00010000
00100110
00110000
11110010
11111110
01001111
01111111
01111111
01100001
01111111
00001000
01000101
00101100
01111111
01111111
01111111
01111111
01111111
00101100
00110011
00010100
11100111
11000110
10011100
10111011
11011100
00110001
11110001
11111101
00101111
01111111
00110110
00110110
01010100
01111111
01111111
01111111
01111111
11111001
00000000
11111011
01001111
01111111
01111111
01111100
01111111
00110000
10011100
00101011
11010101
11010010
10101000
10110110
10000010
11011110
11100001
10010100
11000010
01110001
00000110
01010000
11111001
01111111
01111111
01111111
01101100
00000001
11111010
11110111
01000000
01111111
01111111
00111000
01110000
00001110
00001000
11100010
11111110
01010111
00000101
01111111
00101010
11000010
10011110
10000000
10000000
10000000
10000000
11000011
11110111
01001000
01111111
01111111
00101001
11110101
11111001
11111010
00101011
10000000
10000000
00011001
01111111
11111101
01111100
01111111
00100011
01111111
01111111
01110010
01111101
01111111
01111111
00000000
00100111
10010001
10000000
10000000
10000000
10000000
00100111
00101000
00011110
00000011
11111101
11111101
00000010
11011010
10111001
10000000
10011011
01111111
01111111
01111111
01111111
11000001
00100111
10110010
00110111
10101010
10000110
10010100
00001110
00101001
00000001
11000001
10110010
00000001
11111011
00000110
11110111
00000100
00000011
00001010
00000011
11111100
11111010
11110100
10011010
10011110
10000000
10000000
10000000
10000000
10000000
10000000
10000000
10000000
10000000
10000000
10110001
00000110
11111001
11010101
11010001
11111010
11110100
00001010
11111101
00000000
