00000110
11111010
00000110
11111101
11111101
11111100
11111101
00001001
11111000
00000001
00000100
00000111
11110100
11111101
11111111
00000001
00000101
00000000
00000010
11110010
11111010
11111010
11111100
00001110
00001111
11111000
11111011
00000101
00000010
11110111
11111000
00000001
11111111
11111110
11111101
11011010
11011001
11011101
11010111
11111110
11110111
00000111
01111111
01111111
10110011
10000000
00001000
11111110
11111001
00000100
11111000
00000111
11111101
11111001
11111110
11111000
11111011
00000001
00001110
11111110
00000001
11111001
00000110
11011000
11010001
10111010
10100111
10101001
11011111
00001010
01111110
01111111
00110100
10000000
11011100
11001100
11001001
11110010
11111101
00001110
00000100
11110001
00000100
11111111
11110010
11111010
00000010
11110101
00000001
11111011
11111111
11110111
10000000
10000000
10000000
10000000
10000000
10000000
10000000
10111000
00100101
10000011
10000000
10000000
10000000
10000000
10000000
10010101
10000000
10100000
10011110
00000111
11111101
00001001
11111011
11111100
00001001
11111010
00000100
11110001
10000000
10100110
00010110
00110000
11111111
10000000
10000010
11011000
11011110
10000100
11111000
11011100
11001001
10000000
11011111
01111111
10000000
10000000
10001100
11011000
11111101
11111010
00011111
00100101
11111001
00111001
00000101
11110100
10000000
10000000
10010000
10000000
11000010
10000000
11011011
01010010
11000101
10011010
00001110
11000010
11011000
01011011
01010000
01111111
10001101
10000000
10100000
11001111
00000001
00000001
11111011
11100111
11010111
10111111
10000000
10000000
10000000
10000000
10000000
10001011
10000100
10000000
11000011
10000000
10101011
10011101
10101011
10011101
00100001
00011001
11000001
11100000
10000000
10000000
11110110
10111110
00000001
10100001
11010111
11100001
11111001
10011011
10000000
10000000
10000000
10000000
10000000
00101001
11101100
10011100
10101010
10000000
10000000
10010101
10000000
11000011
00001101
00001000
00001110
10100100
10000000
10000000
10011011
10110101
00000110
10010100
11011110
00000110
11101101
10110010
10000000
10000000
10000000
10000000
11100111
11110100
11110011
00111101
11011010
11001001
10000000
11110111
11001000
10111101
00001000
00000101
11011010
10000000
10000000
10000000
10000101
00000011
11111110
11001111
11010011
11111110
11001111
10001101
10000000
10000000
10000000
10000000
10000000
11000011
11001110
01100000
01000011
01111111
01111111
11110111
11100000
10000000
10000000
10001010
10000000
10000000
10000000
10000000
11101001
11010101
11111011
11010001
11011000
11001111
11011010
11000110
10000000
10000000
10000000
10000000
10000000
10000000
01001110
00101110
01111111
01111111
01111111
11101110
10000000
10000000
10000000
10000000
10000000
10000000
10000000
10101011
11111110
00100101
11111100
00000011
00100101
00100101
11010111
11010110
10010011
10000000
10000000
10000000
10000000
10000000
00001110
01100111
01111111
01111111
01110011
10100010
10101111
11010010
10000000
10000000
10011101
10000000
10000000
11111110
00000000
01000011
11111111
11111010
10100001
00100010
00010111
00010100
00000110
10000000
10000000
10000000
10000000
10000000
00110010
01011001
01111111
01111111
01111100
00011000
00011100
10110010
10000000
00011000
00111101
00100000
11111001
11110101
10000000
00101000
00000110
00001000
10110101
01001110
00011011
00111110
00000101
10000000
10000000
10000100
10000000
10000000
01011010
00001010
01111111
01101100
01111101
01111101
10000011
10000000
11011011
10000000
10000000
10000000
10000000
10000000
10000000
00001001
00000000
11111001
00011101
00010011
01111111
00010000
00000111
00010001
00110000
00011110
10000000
10111001
00000111
00110111
01111111
01000110
01111111
11001011
10000000
10000000
10000000
10111111
11011100
10110011
11100111
10001001
10110101
00001001
11110100
00001000
00011011
00000111
01111111
10000000
10000000
00000001
01111111
00100101
10110010
00011001
01100100
01111111
01111111
00100101
01111111
10000000
10000000
10000000
10000000
11001101
10011100
10000000
10000111
10100000
10111111
00000110
00001001
00000000
00011110
00001000
01001001
10000001
10000010
10111111
11110010
00011111
10101011
11100101
10101001
01111111
01111111
00111000
00001100
10000000
10000000
10000000
10010011
01110000
11010110
10000000
10110101
00000000
01100101
11100010
00000111
11111001
11001100
11111110
00010011
10000000
10000000
10000000
10100100
10000000
10001010
10000101
11110101
01111111
01111111
11010100
10000000
10000000
10000000
11011001
00101001
01101011
01010010
10000111
10000000
11110111
01001010
11010010
00000010
11111101
10110011
11101000
10101111
10000000
10000000
10010100
10000000
10101010
11101110
10010110
00011010
01100011
01011001
10000000
10000000
10111000
10000000
00010101
00110111
00100001
11010001
00100011
10001001
01111101
01111111
01101100
11111100
00000110
11111101
11111011
10001011
10000000
10000000
11001011
10000000
11011111
10101101
10111111
00010011
01110101
11001000
10000010
10011001
00001110
10000000
10001010
10000000
10000000
10000000
11110000
00011110
01101001
01110110
01101011
00000110
00000101
00100001
11111000
11000110
00111111
00100010
10111010
01100100
00101111
00001100
00000110
00001010
11000010
00001000
11011001
01100001
01111111
11010100
10101010
10000000
10000000
10010011
11111100
00100101
11110111
01111000
00000010
00001010
00001100
00001100
00110101
00001010
01010110
00001010
11111101
01011010
00010000
01000011
00001001
11011001
10001000
10101111
11000001
11110111
00110011
01000111
10111001
10000000
10000000
11110000
01100011
01110000
11111110
01101101
11111111
11110110
00000001
00001011
01101101
00010110
01111111
00000001
11100110
00000111
11010011
10101111
10000000
10000000
10000000
00100011
11010011
01110100
01111111
01111111
10000000
10000000
10000000
10000000
11001010
00100001
11111111
01000100
00000100
11111001
00000010
11011111
10000000
00001101
01111111
01111111
01011111
01110110
11101110
11011001
11000010
11101010
10011001
11100000
00111101
01111111
01111111
01111111
10000000
10000000
10000000
10110011
11000101
01000000
01000000
01111111
00000001
11111010
00000110
00001001
10000000
10000000
11101101
10000000
10010110
10000000
11011100
10000010
10000000
10000000
10000000
10000000
10111011
11001111
01111111
11111100
10010011
11010000
11001111
00100000
11011101
11111011
11111000
11111111
11110101
00000111
11111110
11111000
11010010
10000000
10000000
10000000
10000000
10000000
10000000
10000000
10000000
10000000
10000000
10000000
10000000
10000000
10000000
10000000
10000000
00001011
11111011
00000000
11010100
11011010
00000100
11111101
11111101
00001011
00000111
11111001
11111100
11100000
11011010
10000000
10000000
10000000
10000000
10000000
10000000
10000000
10000000
10000000
10000000
10000000
10000000
10000000
10010111
11111110
11111100
00000111
11111001
11110110
00000110
11111001
00000111
11110110
11110010
00001110
11111110
00000011
00000111
11111000
11111110
11110010
00001110
00101010
11001001
10000111
10000000
10000001
11111101
11110110
11001000
10100011
10100010
11111110
11111000
11111111
00000100
11111100
00000100
11111010
11110100
