00001001
00000010
00000011
00000010
11110111
00000110
11111010
00000100
11111010
11111011
00000101
00001001
00001001
00000010
00001101
11111111
11111001
00000100
00000100
11111110
00000110
00000100
00000100
00000110
00000110
00001010
11111111
11111101
11111100
11111000
11111010
00001001
11111111
00001000
00001101
00001101
11111001
11111010
11110110
11100001
11100001
11010000
11111001
11111000
11111001
00000100
11100111
11011111
11100111
00001011
00001010
11111111
00000010
00000010
11111000
00000101
11111100
11111110
11111111
00000010
11111100
00001011
11111000
11111100
00000111
11110001
00000010
11101110
11011101
11100111
00001001
00000000
00001101
00000101
11111100
00001101
00000001
00001100
00001011
11111011
11111111
11110110
11111111
00000000
00000110
00000100
11110010
11110100
11111110
00000111
00000111
11101010
00011101
00100001
00110010
00100001
01010011
01100010
00100111
00101011
00010011
11110010
11010110
11010000
11111001
11111001
11111101
11111101
00001000
00000000
00000111
00000110
00000011
00000111
00000110
11111010
01101100
01010001
00100100
00010011
00011000
01111111
01111111
01111111
01111111
01111111
01111111
01111111
01111111
01111111
01111111
01111111
01111111
01111111
01111111
01111111
00110000
00000100
00000000
11111111
00000000
00000100
11110110
11010000
01111111
00000000
01111111
01111111
01111111
01111111
01110000
00000100
01111111
01111111
01111111
01111111
01111111
01111111
01111111
01111111
01111111
01111111
01111111
01111111
01111111
00000011
11110011
00000000
00001011
00011010
10001110
10001010
11100001
00011000
00000101
11111011
00101011
01111111
11100000
10111000
11001011
10100011
10000000
10000000
10010111
11010101
10101000
11100001
11111011
11011000
01111111
01111111
01111111
01111001
01111111
01010101
00000011
10001001
10010111
11010110
11001100
01100100
00100111
00100101
11000110
00011101
00010100
11011110
10000000
10000000
10000000
10000000
10000000
10000000
10101011
11011011
10111000
00111100
01111111
01111111
01111111
01011111
01101111
01100101
11111101
10000000
10000011
10000000
10000000
11010000
00010110
11010011
10000000
10111001
00000111
10110101
10000000
10000000
10000000
10000000
10000000
10000011
11001111
11111101
00111010
01011101
01110110
01111111
01111111
01111111
01011101
00100010
00000001
10111011
10000111
10000000
10000000
11110100
11100011
00001011
10110101
10101011
10010001
10000000
10000000
10000000
10000000
10000000
10011110
11000011
11000011
11011010
11100011
00110110
00100110
01101100
01111111
01111111
01111111
00011110
11111101
10110011
10100011
10000000
00100101
00000101
10110110
00000001
10110100
10000000
10011010
10000011
10000000
10000000
10000000
10000000
10001100
11000111
10011010
10100110
10000000
10001010
10100010
01111111
01111111
01111111
01111111
01110100
00001001
00000111
10000000
10000000
01101001
10111101
00010110
10101100
11101010
11010010
01010100
10111010
00111001
10000000
11010111
10000000
10111100
10000000
10000000
10000000
10000000
10000000
11000011
00111100
01111111
01101100
01111111
01111111
11111111
11010001
10000000
10000000
10000011
10000000
11111101
10000000
11010101
00001010
01111111
01111111
01111111
01111111
00010101
11100111
11110010
10000000
10000000
10000000
10000000
10010001
10001100
01001011
01111111
01111111
01111111
00001010
00100011
11100000
10010000
10000000
10000000
10000000
11110110
11110110
00011010
01010000
01011010
01111111
01111111
01111111
11011000
11100111
11001010
11000011
10011001
10100001
11110100
00000011
00001000
01111111
01111111
01111001
01111111
11111110
00101110
11010011
11011110
10000000
11000100
01111111
00100110
01010000
01011011
01000110
01111111
01110100
01111111
01111111
01110010
11010100
10100110
10111011
10100011
10000100
10011010
11010111
00101000
01111111
01111111
11111111
01111111
11111101
00101101
11111110
01111111
10100011
00000000
01111111
00011111
01100000
01001111
00100001
01001011
00000111
01001000
01111111
01111111
11000011
10011010
10000000
10100001
10110011
00011011
11101101
01011011
01111111
01011011
01111111
01111111
01111111
00000010
11101001
00110011
00111110
00010000
00001100
00100111
11000101
00100110
01010110
00100100
11011111
00111101
01111111
01111111
00100000
11011000
10001110
11011111
00110010
00001101
00010110
01111111
01111111
01111111
01111111
01111111
01111111
00000011
11111000
10110100
01111111
01101000
00111010
00101000
00010110
11110001
11010001
00010101
00011110
00011101
00101111
01011100
00010011
11011111
10100001
11100010
11111100
11001111
00110101
01100000
01100101
01111111
01111111
01111111
01111111
11010010
11111001
11011001
01111111
01111111
01111111
01111111
01111111
01011101
00000000
11101010
11100010
11100001
10101000
11110111
00011111
01000001
01000110
11010100
00000011
00111000
01111111
01111111
01111111
01111111
01101001
01111111
00000001
00000001
11011100
11001101
01100001
01011010
01111111
01111111
01111111
01111111
01111111
01111111
00010010
11111110
01010101
01100000
01111111
01111111
01000101
01111111
01011001
01111111
01111111
01111111
01111111
01111111
01101111
01111111
11111100
00000001
00001110
00101001
01111111
01111111
01111111
01111111
01111111
01111111
01111111
01111111
01000111
01011001
01010111
01111100
01111111
01111111
01111111
01111111
01110110
01111111
01111111
01111111
01111111
01111111
11100110
01111111
00000110
00001010
01000100
01111111
01111111
01111111
01111111
01111111
01111111
01111111
01111001
01000111
01011001
01110001
01111111
01111101
01111111
01111111
01111111
01111111
01111111
01110100
01101000
01111111
01111111
10110111
10000000
01110101
00000101
00000011
00110110
01111111
01111111
01111111
00000001
01111111
00010111
01000011
01111101
01000111
01111111
01101001
01101100
01001011
01001111
01111111
01111111
01111111
01111111
01011101
01111111
00010010
10010110
10000000
11000111
01111111
00000011
00000010
11111001
01111111
01111111
11010110
10000000
01000011
11001001
00111101
01111111
01100100
01111111
00110010
01110010
01111111
01101011
01111111
00101000
01111100
01010111
01100111
01010011
10000000
10000000
10000000
01010111
01111111
00000110
00001110
11111010
00011010
01111111
10000000
10000000
10010101
11010010
10101011
01100000
01001101
01111111
01111001
01101101
01111111
01111111
01111111
10011001
11111000
00011101
11101111
10001001
10000000
10011011
10000000
00011100
00101000
11110111
11111101
11111010
00000111
00100111
10000000
10000000
10000000
10111001
00101111
11000101
10101111
11100011
10001111
11011111
11000001
11010110
10000000
10000000
10000000
10000000
10000000
10000000
10000000
11111100
10000000
11101111
00100011
00000010
11111001
00000000
00001001
11111011
10000000
10000000
10000000
10000000
10000000
10000000
10000000
10000000
10000000
10000000
10000000
10000000
10000000
10000000
10000000
10000000
10000000
10000000
10100010
01111111
01111111
11111011
11111100
11111011
11110011
00000101
11111001
11110111
11111000
00000011
11001111
11001010
11001111
11011110
10000001
10000111
10010001
10000000
10000000
10000000
10000000
10000000
11000110
11000000
10010011
10000000
10000000
10000110
00000100
00001000
11111101
11111011
