11111111
11111000
11111110
11111100
11110100
00001010
11111100
00001000
00000111
11111100
00001111
11111010
00000101
11111100
00000101
00001001
00000000
11111101
00000100
00000100
00000010
11111000
00000000
11111000
00000001
11111100
00000010
00000001
00000000
00001100
11111000
00000000
00000111
11111011
00000110
00000110
00111110
01010001
01101110
01010111
00101010
00111001
01111111
01110011
00101111
11110011
00101010
01001101
01111111
01111111
01101011
00000101
11110111
11111011
00001010
00000010
00000100
11111111
11111011
11110111
00011110
00100001
11110110
01000011
00100011
11100010
01111111
01111111
01111111
01111111
01111111
01111111
01111111
01111111
01111111
01111111
01111111
01111111
01111111
01011010
00011001
11011101
11111101
00000100
11111110
00000010
11111101
00000010
01001011
00011100
10000000
10000000
10000000
10000000
11001111
11000100
00010101
10111001
01100000
01101010
00001011
01100000
01111111
01111111
01111111
01111111
01111111
01111111
01111111
00001111
00011000
00000001
00000010
11110111
11110010
01110101
01111111
01111001
01000000
01000001
11111010
10000000
10000000
10000000
10000000
10101011
10000000
10010011
00010010
01101010
01011000
01000110
00000101
01110101
01111111
01111111
01111111
01111111
00111110
00101000
11111100
00000101
11111000
01000000
01111111
01111111
00100101
11011011
01011101
10111001
10110110
10110111
10010110
10111110
11010000
00000010
11111110
00110100
11001101
00101101
01101000
00010110
00010011
01100010
01111111
01111111
01010001
00101001
00000111
11111000
01000001
01111111
01111111
10100110
10101011
10001111
00101001
00101001
11000011
11111100
11000101
11111001
00111110
00110100
11011001
01001010
11010111
00001000
00110110
01000001
01111111
01101100
00001101
01111111
00001010
00110001
00001011
10110100
10111000
10000000
00110111
00001000
11110010
11001011
00100000
11100010
11011100
11000001
11010001
10001000
01100010
01110010
00100000
00010000
11011010
11100101
11011111
00100101
10000000
01111111
01111111
01111111
00100111
00111101
11110111
10000000
10000000
00011100
11100110
01111011
00100111
10000011
10001111
11001110
11110100
10000000
10110111
10100000
11111100
00010101
11111001
10000000
10011101
10111011
00111100
00001000
10000110
01111111
01111111
01111111
01011101
11111110
00001011
10000000
00000010
01111111
10001010
11011011
00101100
10000101
10011100
00000100
01011111
00001110
11111111
10000000
10000000
10000000
10000000
10000000
10011011
00000001
00111111
01100110
11111011
01111111
01111111
01111111
01000101
11000101
11111011
10000000
10000000
01111111
00001111
11011111
10000000
10000000
10000000
11010100
01000010
01111111
01010100
10111100
10000000
10000000
10000000
10000110
11111101
11100001
11100000
00101011
11000101
01111111
01111111
11001111
10110010
10000000
10110101
10000000
10000000
01011101
11110100
01010000
00011110
01000101
01000111
01111111
01111111
01111111
01111111
01111111
00011101
00010011
01001101
00111011
00011111
10001101
00001111
00000000
11111010
01111111
01111111
10000000
10000000
10000000
11100001
10000000
10000000
00110101
01111111
01111111
01111111
01111111
01111111
01111111
01111111
01111111
01111111
01111111
01111111
01111111
01111111
01111111
00101000
11001011
00110100
10011010
01010001
01111100
01111000
11000111
10000000
11011011
11111110
10010111
10000000
01111111
01111111
01111111
01111111
01111111
01111111
01111111
01111111
01111111
01111111
00111111
00010000
01101110
01111111
01111111
01000101
11100110
11110011
11111101
01000110
11101110
11000010
10000000
10000000
11100010
00001001
11100001
10000000
01111111
01111111
01111111
01111111
01111111
01001011
00011111
00001111
01110011
00010010
10000000
10000000
00100100
00111111
01111111
11111101
00000000
00011000
01010100
01111111
01111011
00001110
10000000
10000000
11100011
00000001
11111101
01111111
01010110
01111111
11000000
10000000
10000000
10000110
10111011
00001101
11101101
00010001
10000000
10000111
00000110
11111001
01001111
11110011
00010110
01011111
01100100
01111111
01111111
10000000
10000000
10000000
00010001
11111001
00101110
01111111
01111111
01111111
10000000
10000000
10011000
00100001
00110011
11101110
00111100
11010110
10000000
10000000
10111101
01000100
01011111
01101011
11011000
11101110
11011001
11111110
11011100
10011101
10000000
10000000
11101001
00000101
11111110
01111111
01111111
00111000
11001010
10000000
10000001
11011111
10101101
11010110
00011100
10000000
10000000
10000000
10000000
00100111
01100111
01111111
01111111
00011010
00010110
00011001
11011000
10110000
10000000
10000000
10111000
00000000
11011011
01111111
01111111
00100111
00010110
11100101
10000000
10100010
10001011
10011010
00000010
10000000
10000000
10000000
10000000
11111011
01111111
01111111
01111111
01011110
11111010
11100010
10000000
10000000
10000000
10111101
11010010
00000101
10101010
01111111
01111111
00010011
00100001
11101010
10000000
11000101
10000000
11011101
10000100
10001100
10000000
10000000
00000100
00101100
00110111
00011110
01100000
01000010
10001110
10110101
10000000
10000000
10000000
10000000
11001001
00000001
11110101
01111111
01111111
10101110
10000000
10111101
11000011
10010100
10000000
11011000
10100101
11111001
00110110
00111000
01011000
00010100
00100010
01000101
00011001
11111100
11010011
10010111
10000000
10000000
10000000
10000000
11111111
00001110
00100111
00110001
01101010
11101101
10011110
10011110
11001110
11111001
10111010
00101010
00110100
01011110
01010110
00101111
00100010
11010111
00011011
01001010
11010011
11001110
10000000
10000000
10000000
10000000
10000000
10011010
11111011
00000011
00000100
00001010
01110011
00000110
10000000
10000000
10000000
11001110
00110010
01111010
01011111
01101001
01001000
00011001
01000000
00111011
00010101
11011001
11001010
11001010
10000000
10000000
10110011
10000000
10000000
10111010
11111101
00000010
00000000
00001110
01111111
01101010
10000000
10000000
01100101
01011101
01110111
01111111
01111111
01111111
01111111
01111111
00100110
11101100
11010110
11110000
10000111
10001001
10000000
10000000
11110111
01111111
11010001
10001000
11111101
00000001
11110010
11101111
01111111
01111111
01100010
01111111
01111111
00001110
00111000
01111111
01111111
01000011
00101001
00110110
00011111
01111111
10110001
00111111
01111111
01111111
11100111
00001001
01111111
01111111
11010001
11011011
00000011
00000110
00000001
11111100
11011000
10111100
10000000
10000000
11000010
10000000
10000000
00011111
01010011
10111001
11010001
01000111
11110010
01111000
01111111
01111111
01111111
01111111
01111111
01111111
01111111
01111111
11011101
11011000
11111100
00000010
11111101
00000010
11111010
10000000
10010110
10001000
10000100
10000000
10000000
10000000
10000000
10010101
10001001
10000000
10000000
10000000
10000000
10000000
01111111
01111111
01111111
01001000
00011110
00000000
00000011
00000111
11111100
00001100
00000100
00000010
11110110
10010000
10000100
10000000
10000000
10000000
10000000
10000000
10000000
10000000
10000000
10000000
10000000
10000000
10000000
10000000
10000000
11100010
00110010
00100100
00000010
11111110
11110100
00000001
00001010
