-- begin_signature
-- weights(numWeights
-- 784
-- neuronNumber
-- 9
-- layerNumber
-- 0
-- addressWidth
-- 10
-- dataWidth
-- 16
-- weightFile
-- "weights/weight_L0_N9.mif")
-- end_signature
WIDTH=16;
DEPTH=784;

ADDRESS_RADIX=UNS;
DATA_RADIX=BIN;

CONTENT BEGIN
	783 :	1111111111110110;
	782 :	1111111111111000;
	781 :	1111111111111001;
	780 :	1111111111111100;
	779 :	1111111111110000;
	778 :	1111111111111010;
	777 :	1111111111111000;
	776 :	0000000000010101;
	775 :	1111111111111011;
	774 :	0000000000010100;
	773 :	0000000000001001;
	772 :	1111111111111000;
	771 :	0000000000000001;
	770 :	0000000000011101;
	769 :	1111111111110010;
	768 :	0000000000000010;
	767 :	1111111111100101;
	766 :	1111111111011001;
	765 :	1111111111011101;
	764 :	1111111111101000;
	763 :	0000000000000000;
	762 :	1111111111111010;
	761 :	1111111111111111;
	760 :	0000000000000101;
	759 :	1111111111101100;
	758 :	0000000000001001;
	757 :	0000000000000010;
	756 :	1111111111110001;
	755 :	0000000000000101;
	754 :	0000000000000100;
	753 :	1111111111110100;
	752 :	0000000000100010;
	751 :	0000000000101100;
	750 :	0000000000011000;
	749 :	0000000000101101;
	748 :	0000000000100001;
	747 :	0000000000011101;
	746 :	0000000000001101;
	745 :	0000000000000011;
	744 :	0000000000000110;
	743 :	1111111111110110;
	742 :	0000000000101010;
	741 :	0000000000000111;
	740 :	0000000000010001;
	739 :	0000000000100010;
	738 :	0000000000101010;
	737 :	0000000000010001;
	736 :	0000000000001011;
	735 :	0000000000011101;
	734 :	1111111111110100;
	733 :	0000000000100011;
	732 :	0000000000100110;
	731 :	1111111111111000;
	730 :	0000000000001111;
	729 :	1111111111101011;
	728 :	1111111111101011;
	727 :	0000000000001000;
	726 :	1111111111001111;
	725 :	1111111111100001;
	724 :	1111111111111000;
	723 :	0000000000001111;
	722 :	0000000000100000;
	721 :	0000000000001100;
	720 :	0000000000000110;
	719 :	1111111111110110;
	718 :	0000000000001101;
	717 :	1111111111111111;
	716 :	0000000000000111;
	715 :	1111111111111010;
	714 :	0000000000000010;
	713 :	0000000000001010;
	712 :	0000000000001110;
	711 :	0000000000000001;
	710 :	0000000000000001;
	709 :	0000000000010000;
	708 :	0000000000011100;
	707 :	1111111111110110;
	706 :	1111111111111011;
	705 :	1111111111110100;
	704 :	1111111111110110;
	703 :	1111111111101110;
	702 :	0000000000001010;
	701 :	0000000000001011;
	700 :	1111111111101101;
	699 :	0000000000000110;
	698 :	1111111111001101;
	697 :	0000000000000111;
	696 :	1111111111100111;
	695 :	0000000000001111;
	694 :	0000000000000111;
	693 :	1111111111111010;
	692 :	0000000000000000;
	691 :	1111111111111000;
	690 :	1111111111111111;
	689 :	1111111111110101;
	688 :	0000000000000001;
	687 :	1111111111110100;
	686 :	0000000000000101;
	685 :	1111111111111010;
	684 :	0000000000000111;
	683 :	0000000000001001;
	682 :	0000000000010110;
	681 :	0000000000001110;
	680 :	0000000000001101;
	679 :	0000000000010110;
	678 :	0000000000011011;
	677 :	0000000000001001;
	676 :	0000000000011001;
	675 :	0000000000000010;
	674 :	0000000000011001;
	673 :	0000000000001010;
	672 :	1111111111101110;
	671 :	0000000000001101;
	670 :	1111111111011000;
	669 :	1111111111100111;
	668 :	0000000000001110;
	667 :	0000000000011001;
	666 :	1111111111110100;
	665 :	1111111111010000;
	664 :	1111111111110100;
	663 :	1111111111111110;
	662 :	1111111111101101;
	661 :	0000000000010000;
	660 :	1111111111110000;
	659 :	1111111111110010;
	658 :	0000000000000001;
	657 :	0000000000000111;
	656 :	1111111111111011;
	655 :	0000000000000000;
	654 :	0000000000010000;
	653 :	1111111111110000;
	652 :	0000000000000101;
	651 :	1111111111111110;
	650 :	0000000000011000;
	649 :	0000000000000100;
	648 :	0000000000000010;
	647 :	1111111111111011;
	646 :	0000000000010110;
	645 :	0000000000001111;
	644 :	1111111111111110;
	643 :	0000000000000010;
	642 :	1111111111011011;
	641 :	1111111111111111;
	640 :	1111111111111100;
	639 :	1111111111111100;
	638 :	1111111111111111;
	637 :	1111111111111010;
	636 :	0000000000000010;
	635 :	1111111111110001;
	634 :	0000000000000101;
	633 :	1111111111110001;
	632 :	1111111111111010;
	631 :	0000000000000001;
	630 :	0000000000000001;
	629 :	1111111111110110;
	628 :	0000000000001010;
	627 :	0000000000010001;
	626 :	0000000000010110;
	625 :	1111111111111111;
	624 :	0000000000011000;
	623 :	0000000000100001;
	622 :	0000000000000100;
	621 :	0000000000011001;
	620 :	0000000000100011;
	619 :	0000000000010100;
	618 :	0000000000000000;
	617 :	1111111111110001;
	616 :	0000000000000101;
	615 :	0000000000000000;
	614 :	1111111111100011;
	613 :	1111111111110111;
	612 :	1111111111100010;
	611 :	1111111111110000;
	610 :	1111111111101100;
	609 :	1111111111110000;
	608 :	1111111111111001;
	607 :	1111111111101110;
	606 :	1111111111110110;
	605 :	1111111111101010;
	604 :	0000000000000100;
	603 :	0000000000000010;
	602 :	0000000000000010;
	601 :	1111111111100011;
	600 :	1111111111110110;
	599 :	1111111111011111;
	598 :	1111111111111011;
	597 :	1111111111111001;
	596 :	1111111111101010;
	595 :	1111111111101111;
	594 :	0000000000010011;
	593 :	0000000000000100;
	592 :	0000000000011101;
	591 :	0000000000001111;
	590 :	0000000000000000;
	589 :	0000000000001110;
	588 :	0000000000010100;
	587 :	0000000000010010;
	586 :	1111111111110101;
	585 :	1111111111100110;
	584 :	1111111111011010;
	583 :	1111111111011111;
	582 :	1111111111111100;
	581 :	0000000000001001;
	580 :	1111111111111111;
	579 :	0000000000001000;
	578 :	0000000000001011;
	577 :	0000000000000011;
	576 :	0000000000000001;
	575 :	1111111111100110;
	574 :	1111111111100110;
	573 :	1111111111010111;
	572 :	1111111111000001;
	571 :	1111111110011111;
	570 :	1111111110111111;
	569 :	1111111110101110;
	568 :	1111111110111001;
	567 :	1111111111110101;
	566 :	1111111111100111;
	565 :	0000000000000000;
	564 :	0000000000001100;
	563 :	0000000000001010;
	562 :	0000000000001100;
	561 :	1111111111111110;
	560 :	1111111111111111;
	559 :	0000000000000111;
	558 :	1111111111011010;
	557 :	1111111111010111;
	556 :	1111111110111011;
	555 :	1111111110111111;
	554 :	1111111111110110;
	553 :	1111111111110101;
	552 :	0000000000000111;
	551 :	0000000000000100;
	550 :	0000000000001001;
	549 :	0000000000000010;
	548 :	0000000000001000;
	547 :	0000000000010010;
	546 :	1111111111100111;
	545 :	0000000000000101;
	544 :	1111111111110111;
	543 :	1111111111101011;
	542 :	1111111111011010;
	541 :	1111111111100100;
	540 :	1111111111100101;
	539 :	1111111111011110;
	538 :	1111111111011011;
	537 :	1111111111111101;
	536 :	1111111111101100;
	535 :	1111111111110110;
	534 :	0000000000000010;
	533 :	0000000000100110;
	532 :	0000000000010001;
	531 :	1111111111101110;
	530 :	1111111111100101;
	529 :	1111111111110010;
	528 :	1111111111100000;
	527 :	1111111110111111;
	526 :	1111111111001101;
	525 :	0000000000001111;
	524 :	1111111111110010;
	523 :	0000000000001100;
	522 :	0000000000000001;
	521 :	0000000000000001;
	520 :	1111111111110011;
	519 :	1111111111110000;
	518 :	1111111111100001;
	517 :	0000000000000111;
	516 :	0000000000100001;
	515 :	0000000000010000;
	514 :	1111111111111101;
	513 :	1111111111111001;
	512 :	1111111111011101;
	511 :	1111111111110100;
	510 :	1111111111111000;
	509 :	0000000000000100;
	508 :	1111111111101011;
	507 :	1111111111100101;
	506 :	1111111111110000;
	505 :	0000000000000000;
	504 :	0000000000010101;
	503 :	1111111111011000;
	502 :	1111111111101100;
	501 :	1111111111011000;
	500 :	1111111111111011;
	499 :	1111111111001100;
	498 :	1111111111010110;
	497 :	1111111111101111;
	496 :	1111111111111110;
	495 :	1111111111110111;
	494 :	0000000000000101;
	493 :	0000000000000111;
	492 :	0000000000000101;
	491 :	1111111111111011;
	490 :	0000000000011001;
	489 :	0000000000100001;
	488 :	0000000000100101;
	487 :	0000000000000001;
	486 :	0000000000100011;
	485 :	0000000000000011;
	484 :	0000000000001010;
	483 :	1111111111101010;
	482 :	1111111111111000;
	481 :	1111111111110110;
	480 :	1111111111011010;
	479 :	1111111111110110;
	478 :	1111111111100100;
	477 :	1111111111101100;
	476 :	1111111111110011;
	475 :	1111111111100001;
	474 :	1111111111100111;
	473 :	1111111111111000;
	472 :	1111111111110011;
	471 :	1111111111100001;
	470 :	1111111111010011;
	469 :	1111111111101110;
	468 :	0000000000011000;
	467 :	1111111111101010;
	466 :	1111111111110101;
	465 :	0000000000000011;
	464 :	1111111111111001;
	463 :	0000000000000100;
	462 :	1111111111111101;
	461 :	0000000000000110;
	460 :	0000000000001010;
	459 :	0000000000010101;
	458 :	0000000000010000;
	457 :	0000000000001100;
	456 :	1111111111101000;
	455 :	0000000000001100;
	454 :	1111111111101110;
	453 :	1111111111101001;
	452 :	1111111111110001;
	451 :	1111111111100111;
	450 :	1111111111011100;
	449 :	0000000000010110;
	448 :	0000000000010001;
	447 :	1111111111100111;
	446 :	1111111111011111;
	445 :	1111111111100000;
	444 :	1111111111100010;
	443 :	1111111111100001;
	442 :	1111111111011100;
	441 :	1111111111110101;
	440 :	1111111111111110;
	439 :	0000000000000011;
	438 :	0000000000000001;
	437 :	0000000000000011;
	436 :	0000000000001100;
	435 :	0000000000000101;
	434 :	1111111111110110;
	433 :	0000000000000001;
	432 :	0000000000010100;
	431 :	0000000000001010;
	430 :	0000000000000100;
	429 :	0000000000010001;
	428 :	0000000000001001;
	427 :	1111111111110110;
	426 :	1111111111110011;
	425 :	0000000000001010;
	424 :	0000000000000100;
	423 :	0000000000000110;
	422 :	1111111111000101;
	421 :	1111111111111011;
	420 :	1111111111111011;
	419 :	1111111111111100;
	418 :	1111111111101001;
	417 :	1111111111011010;
	416 :	1111111111100010;
	415 :	1111111111100011;
	414 :	1111111111110000;
	413 :	1111111111101010;
	412 :	1111111111110000;
	411 :	1111111111110011;
	410 :	0000000000000000;
	409 :	0000000000001011;
	408 :	0000000000000101;
	407 :	0000000000001110;
	406 :	0000000000000100;
	405 :	0000000000001000;
	404 :	1111111111111011;
	403 :	0000000000001111;
	402 :	0000000000000110;
	401 :	0000000000000001;
	400 :	1111111111111000;
	399 :	0000000000001011;
	398 :	0000000000001100;
	397 :	1111111111110110;
	396 :	1111111111010000;
	395 :	0000000000010101;
	394 :	1111111111110101;
	393 :	1111111111011010;
	392 :	1111111111101001;
	391 :	1111111111101110;
	390 :	1111111111011100;
	389 :	1111111111110000;
	388 :	1111111111001010;
	387 :	1111111111101110;
	386 :	1111111111101010;
	385 :	1111111111110111;
	384 :	0000000000011010;
	383 :	1111111111111001;
	382 :	0000000000001010;
	381 :	1111111111111000;
	380 :	0000000000000000;
	379 :	1111111111110101;
	378 :	0000000000001101;
	377 :	0000000000000111;
	376 :	0000000000000111;
	375 :	0000000000001100;
	374 :	0000000000000010;
	373 :	0000000000000010;
	372 :	1111111111101000;
	371 :	1111111111110001;
	370 :	1111111111110010;
	369 :	0000000000000101;
	368 :	1111111111101001;
	367 :	0000000000011001;
	366 :	0000000000000110;
	365 :	1111111111011011;
	364 :	0000000000010100;
	363 :	0000000000010100;
	362 :	1111111111011110;
	361 :	1111111111110111;
	360 :	1111111111010101;
	359 :	1111111111010100;
	358 :	0000000000010110;
	357 :	0000000000001110;
	356 :	0000000000010110;
	355 :	0000000000001010;
	354 :	0000000000000101;
	353 :	0000000000000100;
	352 :	0000000000010110;
	351 :	1111111111111000;
	350 :	0000000000010001;
	349 :	0000000000001100;
	348 :	1111111111101011;
	347 :	1111111111010011;
	346 :	1111111111010001;
	345 :	1111111111100101;
	344 :	1111111111110110;
	343 :	1111111111101100;
	342 :	0000000000001001;
	341 :	1111111111100011;
	340 :	0000000000000111;
	339 :	0000000000000111;
	338 :	1111111111111110;
	337 :	0000000000001000;
	336 :	0000000000001000;
	335 :	1111111111110110;
	334 :	0000000000011110;
	333 :	1111111111111101;
	332 :	1111111111111000;
	331 :	1111111111011101;
	330 :	1111111111111001;
	329 :	0000000000010111;
	328 :	0000000000001111;
	327 :	0000000000011000;
	326 :	0000000000001000;
	325 :	0000000000000110;
	324 :	0000000000001000;
	323 :	0000000000010011;
	322 :	1111111111101000;
	321 :	1111111111110100;
	320 :	1111111111000011;
	319 :	1111111111110110;
	318 :	0000000000000000;
	317 :	1111111111111111;
	316 :	0000000000000101;
	315 :	1111111111110011;
	314 :	1111111111110111;
	313 :	1111111111111110;
	312 :	0000000000010000;
	311 :	1111111111111111;
	310 :	1111111111111010;
	309 :	0000000000001000;
	308 :	0000000000101011;
	307 :	0000000000001000;
	306 :	0000000000100010;
	305 :	0000000000001000;
	304 :	1111111111111100;
	303 :	1111111111011001;
	302 :	1111111111011101;
	301 :	1111111111101011;
	300 :	0000000000000010;
	299 :	0000000000000101;
	298 :	1111111111111010;
	297 :	0000000000001101;
	296 :	0000000000001100;
	295 :	1111111111110001;
	294 :	1111111111001110;
	293 :	1111111111101001;
	292 :	1111111111111010;
	291 :	1111111111111100;
	290 :	0000000000001000;
	289 :	0000000000000111;
	288 :	0000000000001011;
	287 :	0000000000001100;
	286 :	1111111111111100;
	285 :	0000000000001101;
	284 :	1111111111101101;
	283 :	0000000000000101;
	282 :	0000000000001010;
	281 :	0000000000000111;
	280 :	0000000000010011;
	279 :	0000000000001001;
	278 :	0000000000001101;
	277 :	0000000000001011;
	276 :	1111111111011110;
	275 :	1111111111101011;
	274 :	1111111111111010;
	273 :	0000000000001000;
	272 :	1111111111111001;
	271 :	1111111111111110;
	270 :	0000000000010011;
	269 :	0000000000000101;
	268 :	1111111111110011;
	267 :	0000000000000101;
	266 :	1111111111111101;
	265 :	0000000000010101;
	264 :	0000000000000100;
	263 :	0000000000001110;
	262 :	0000000000000110;
	261 :	0000000000010000;
	260 :	0000000000000110;
	259 :	0000000000011100;
	258 :	0000000000001001;
	257 :	0000000000000101;
	256 :	0000000000001100;
	255 :	0000000000011001;
	254 :	0000000000001001;
	253 :	1111111111110000;
	252 :	0000000000000110;
	251 :	0000000000010000;
	250 :	1111111111110011;
	249 :	1111111111101101;
	248 :	1111111111101001;
	247 :	1111111111011000;
	246 :	1111111111100100;
	245 :	1111111111110110;
	244 :	1111111111111010;
	243 :	1111111111110011;
	242 :	1111111111110001;
	241 :	1111111111111110;
	240 :	1111111111111101;
	239 :	1111111111110001;
	238 :	0000000000010010;
	237 :	0000000000000110;
	236 :	0000000000010101;
	235 :	0000000000000110;
	234 :	0000000000001001;
	233 :	0000000000000000;
	232 :	1111111111110101;
	231 :	0000000000000010;
	230 :	0000000000001100;
	229 :	1111111111101000;
	228 :	0000000000000011;
	227 :	1111111111111100;
	226 :	1111111111111010;
	225 :	1111111111101100;
	224 :	0000000000001001;
	223 :	1111111111101110;
	222 :	1111111111101011;
	221 :	1111111111100010;
	220 :	0000000000000111;
	219 :	1111111111101111;
	218 :	1111111111111011;
	217 :	1111111111101111;
	216 :	0000000000000000;
	215 :	1111111111101111;
	214 :	1111111111110101;
	213 :	1111111111101000;
	212 :	1111111111101001;
	211 :	0000000000001001;
	210 :	0000000000000001;
	209 :	0000000000010110;
	208 :	0000000000001101;
	207 :	1111111111110011;
	206 :	1111111111111100;
	205 :	0000000000001110;
	204 :	1111111111111110;
	203 :	0000000000000101;
	202 :	0000000000010011;
	201 :	1111111111101110;
	200 :	0000000000010100;
	199 :	1111111111100111;
	198 :	0000000000011010;
	197 :	1111111111000101;
	196 :	0000000000010011;
	195 :	1111111111110111;
	194 :	1111111111110011;
	193 :	0000000000001101;
	192 :	1111111111110011;
	191 :	0000000000000001;
	190 :	1111111111111001;
	189 :	1111111111111010;
	188 :	0000000000000000;
	187 :	1111111111101101;
	186 :	1111111111101010;
	185 :	0000000000001110;
	184 :	1111111111111111;
	183 :	0000000000000110;
	182 :	0000000000001000;
	181 :	0000000000010110;
	180 :	1111111111110111;
	179 :	0000000000010010;
	178 :	0000000000000001;
	177 :	1111111111110111;
	176 :	1111111111110000;
	175 :	0000000000000001;
	174 :	0000000000001100;
	173 :	0000000000000011;
	172 :	0000000000001101;
	171 :	0000000000001010;
	170 :	0000000000011100;
	169 :	1111111111101111;
	168 :	1111111111101100;
	167 :	0000000000001010;
	166 :	1111111111111010;
	165 :	0000000000001001;
	164 :	1111111111110001;
	163 :	1111111111111000;
	162 :	1111111111111010;
	161 :	1111111111101100;
	160 :	1111111111110111;
	159 :	0000000000000010;
	158 :	1111111111110110;
	157 :	0000000000000011;
	156 :	1111111111111101;
	155 :	0000000000001011;
	154 :	1111111111111010;
	153 :	1111111111110010;
	152 :	0000000000011010;
	151 :	1111111111110101;
	150 :	1111111111111000;
	149 :	1111111111111111;
	148 :	0000000000000011;
	147 :	1111111111110000;
	146 :	1111111111101111;
	145 :	0000000000001001;
	144 :	0000000000001101;
	143 :	0000000000010101;
	142 :	0000000000010000;
	141 :	0000000000001000;
	140 :	0000000000000011;
	139 :	0000000000001011;
	138 :	1111111111101011;
	137 :	0000000000000110;
	136 :	1111111111111001;
	135 :	1111111111101011;
	134 :	1111111111110011;
	133 :	0000000000001001;
	132 :	1111111111111011;
	131 :	0000000000000000;
	130 :	0000000000000100;
	129 :	1111111111101100;
	128 :	1111111111111010;
	127 :	1111111111100011;
	126 :	0000000000001011;
	125 :	1111111111100101;
	124 :	1111111111110110;
	123 :	1111111111101001;
	122 :	1111111111110101;
	121 :	1111111111100101;
	120 :	1111111111001100;
	119 :	0000000000000011;
	118 :	1111111111110011;
	117 :	0000000000000010;
	116 :	1111111111110100;
	115 :	0000000000011011;
	114 :	0000000000010011;
	113 :	0000000000000111;
	112 :	0000000000001010;
	111 :	0000000000010011;
	110 :	1111111111111110;
	109 :	0000000000000000;
	108 :	1111111111111001;
	107 :	1111111111111000;
	106 :	1111111111111000;
	105 :	0000000000001000;
	104 :	0000000000010100;
	103 :	1111111111101101;
	102 :	0000000000001001;
	101 :	0000000000000001;
	100 :	1111111111100110;
	99 :	1111111111100011;
	98 :	0000000000000111;
	97 :	1111111111101001;
	96 :	1111111111111100;
	95 :	0000000000000101;
	94 :	1111111111111101;
	93 :	1111111111010000;
	92 :	1111111111011100;
	91 :	1111111111011111;
	90 :	1111111111100111;
	89 :	0000000000010001;
	88 :	1111111111110101;
	87 :	0000000000000110;
	86 :	0000000000000100;
	85 :	0000000000000110;
	84 :	1111111111111010;
	83 :	0000000000001000;
	82 :	1111111111111000;
	81 :	1111111111101111;
	80 :	1111111111111101;
	79 :	0000000000000100;
	78 :	1111111111100010;
	77 :	1111111111111111;
	76 :	0000000000000010;
	75 :	1111111111110111;
	74 :	0000000000010001;
	73 :	0000000000000101;
	72 :	0000000000000110;
	71 :	0000000000101011;
	70 :	1111111111111111;
	69 :	1111111111101011;
	68 :	1111111111010100;
	67 :	0000000000001001;
	66 :	1111111111111000;
	65 :	1111111111010010;
	64 :	0000000000000000;
	63 :	1111111111100011;
	62 :	0000000000000011;
	61 :	1111111111111101;
	60 :	0000000000010010;
	59 :	1111111111111010;
	58 :	1111111111111000;
	57 :	1111111111111001;
	56 :	1111111111101100;
	55 :	0000000000000000;
	54 :	0000000000000001;
	53 :	0000000000010000;
	52 :	0000000000001111;
	51 :	0000000000000001;
	50 :	1111111111101100;
	49 :	0000000000001110;
	48 :	0000000000000100;
	47 :	0000000000000101;
	46 :	1111111111110000;
	45 :	1111111111111010;
	44 :	0000000000010100;
	43 :	0000000000000000;
	42 :	1111111111011111;
	41 :	1111111111111111;
	40 :	1111111111011010;
	39 :	1111111111111100;
	38 :	1111111111110111;
	37 :	1111111111101010;
	36 :	0000000000000010;
	35 :	1111111111101111;
	34 :	1111111111101111;
	33 :	1111111111101110;
	32 :	0000000000000000;
	31 :	1111111111111101;
	30 :	0000000000000101;
	29 :	1111111111110001;
	28 :	1111111111110010;
	27 :	0000000000001110;
	26 :	0000000000000000;
	25 :	0000000000000001;
	24 :	1111111111110011;
	23 :	0000000000001000;
	22 :	0000000000000011;
	21 :	1111111111110111;
	20 :	1111111111110111;
	19 :	1111111111111011;
	18 :	0000000000000011;
	17 :	1111111111101110;
	16 :	0000000000000111;
	15 :	1111111111110000;
	14 :	0000000000001010;
	13 :	1111111111101000;
	12 :	1111111111011001;
	11 :	1111111111111111;
	10 :	1111111111101011;
	9 :	0000000000001000;
	8 :	0000000000010010;
	7 :	1111111111110001;
	6 :	1111111111111110;
	5 :	1111111111110010;
	4 :	1111111111111011;
	3 :	0000000000001101;
	2 :	1111111111110100;
	1 :	1111111111110111;
	0 :	0000000000010011;
END;
