-- begin_signature
-- weights(numWeights
-- 16
-- neuronNumber
-- 7
-- layerNumber
-- 1
-- addressWidth
-- 4
-- dataWidth
-- 16
-- weightFile
-- "weights/weight_L1_N7.mif")
-- end_signature
WIDTH=16;
DEPTH=16;

ADDRESS_RADIX=UNS;
DATA_RADIX=BIN;

CONTENT BEGIN
	15 :	0000000000110011;
	14 :	0000000001011111;
	13 :	0000000000001111;
	12 :	0000000000111010;
	11 :	0000000000111001;
	10 :	0000000000101111;
	9 :	0000000000100001;
	8 :	0000000000011001;
	7 :	1111111111101110;
	6 :	0000000000010100;
	5 :	0000000001010111;
	4 :	1111111111110000;
	3 :	1111111111111100;
	2 :	1111111110111100;
	1 :	0000000000000110;
	0 :	0000000000011111;
END;
