-- begin_signature
-- weights(numWeights
-- 784
-- neuronNumber
-- 13
-- layerNumber
-- 0
-- addressWidth
-- 10
-- dataWidth
-- 16
-- weightFile
-- "weights/weight_L0_N13.mif")
-- end_signature
WIDTH=16;
DEPTH=784;

ADDRESS_RADIX=UNS;
DATA_RADIX=BIN;

CONTENT BEGIN
	783 :	1111111111111110;
	782 :	1111111111110001;
	781 :	0000000000000001;
	780 :	1111111111111011;
	779 :	0000000000001011;
	778 :	1111111111110101;
	777 :	1111111111101101;
	776 :	0000000000000010;
	775 :	1111111111111001;
	774 :	1111111111111110;
	773 :	0000000000000111;
	772 :	0000000000001011;
	771 :	1111111111110000;
	770 :	0000000000011011;
	769 :	1111111111101001;
	768 :	1111111111100011;
	767 :	1111111111010110;
	766 :	1111111111100010;
	765 :	1111111111111100;
	764 :	1111111111111011;
	763 :	0000000000010010;
	762 :	0000000000001110;
	761 :	1111111111110111;
	760 :	1111111111111111;
	759 :	1111111111111101;
	758 :	0000000000010100;
	757 :	0000000000001101;
	756 :	0000000000010101;
	755 :	0000000000001000;
	754 :	0000000000001001;
	753 :	1111111111110100;
	752 :	0000000000000101;
	751 :	1111111111001111;
	750 :	1111111111011111;
	749 :	1111111111111000;
	748 :	1111111111101110;
	747 :	0000000000000001;
	746 :	1111111111101110;
	745 :	1111111111110010;
	744 :	0000000000000100;
	743 :	1111111111100101;
	742 :	1111111111110111;
	741 :	1111111111110011;
	740 :	0000000000000101;
	739 :	1111111111101101;
	738 :	1111111111111011;
	737 :	1111111111110001;
	736 :	0000000000010001;
	735 :	0000000000000001;
	734 :	1111111111100110;
	733 :	0000000000000000;
	732 :	0000000000100010;
	731 :	0000000000000110;
	730 :	0000000000010100;
	729 :	0000000000001100;
	728 :	1111111111111000;
	727 :	0000000000000001;
	726 :	1111111111101011;
	725 :	1111111111111100;
	724 :	0000000000001001;
	723 :	0000000000001000;
	722 :	1111111111111101;
	721 :	0000000000100110;
	720 :	0000000000010100;
	719 :	0000000000011001;
	718 :	0000000000001100;
	717 :	1111111111100010;
	716 :	1111111111011000;
	715 :	1111111111001010;
	714 :	1111111111111010;
	713 :	0000000000001100;
	712 :	1111111111111001;
	711 :	1111111111110000;
	710 :	1111111111011010;
	709 :	0000000000000111;
	708 :	0000000000010111;
	707 :	0000000000001101;
	706 :	1111111111101101;
	705 :	1111111111101111;
	704 :	0000000000001111;
	703 :	1111111111111110;
	702 :	0000000000001101;
	701 :	0000000000010011;
	700 :	1111111111110010;
	699 :	1111111111101101;
	698 :	0000000000010111;
	697 :	0000000000010100;
	696 :	1111111111111000;
	695 :	0000000000001011;
	694 :	0000000000100111;
	693 :	0000000000011001;
	692 :	1111111111111100;
	691 :	0000000000000101;
	690 :	0000000000011001;
	689 :	0000000000011000;
	688 :	1111111111101010;
	687 :	1111111111110101;
	686 :	1111111111101001;
	685 :	1111111111111001;
	684 :	1111111111111001;
	683 :	1111111111110000;
	682 :	0000000000001011;
	681 :	0000000000000100;
	680 :	1111111111101110;
	679 :	0000000000000001;
	678 :	1111111111101100;
	677 :	0000000000000000;
	676 :	1111111111100101;
	675 :	1111111111001000;
	674 :	0000000000001110;
	673 :	0000000000000101;
	672 :	1111111111110101;
	671 :	1111111111101011;
	670 :	0000000000001100;
	669 :	0000000000010011;
	668 :	1111111111111111;
	667 :	0000000000011001;
	666 :	0000000000000111;
	665 :	1111111111011101;
	664 :	1111111111100110;
	663 :	1111111111101010;
	662 :	1111111111111010;
	661 :	0000000000100011;
	660 :	0000000000000100;
	659 :	1111111111111000;
	658 :	0000000000000010;
	657 :	1111111111110000;
	656 :	0000000000010001;
	655 :	1111111111110100;
	654 :	1111111111111101;
	653 :	0000000000000000;
	652 :	0000000000000101;
	651 :	1111111111111000;
	650 :	0000000000001111;
	649 :	0000000000001110;
	648 :	1111111111110101;
	647 :	1111111111100101;
	646 :	0000000000001001;
	645 :	1111111111111100;
	644 :	1111111111111110;
	643 :	1111111111111001;
	642 :	0000000000101001;
	641 :	1111111111110011;
	640 :	0000000000000001;
	639 :	1111111111111011;
	638 :	1111111111101001;
	637 :	1111111111110010;
	636 :	1111111111110100;
	635 :	1111111111110000;
	634 :	0000000000000111;
	633 :	1111111111110111;
	632 :	0000000000000001;
	631 :	1111111111111100;
	630 :	1111111111110111;
	629 :	1111111111110101;
	628 :	1111111111111101;
	627 :	1111111111101001;
	626 :	1111111111101000;
	625 :	1111111111110000;
	624 :	0000000000000010;
	623 :	0000000000000001;
	622 :	1111111111111101;
	621 :	0000000000001101;
	620 :	0000000000000011;
	619 :	0000000000000111;
	618 :	1111111111101110;
	617 :	0000000000100101;
	616 :	0000000000011101;
	615 :	0000000000010101;
	614 :	0000000000000011;
	613 :	0000000000010111;
	612 :	0000000000010101;
	611 :	0000000000010010;
	610 :	0000000000000100;
	609 :	1111111111110001;
	608 :	1111111111110001;
	607 :	1111111111111000;
	606 :	1111111111111111;
	605 :	1111111111110000;
	604 :	0000000000000000;
	603 :	0000000000001001;
	602 :	0000000000000001;
	601 :	1111111111111011;
	600 :	1111111111101101;
	599 :	1111111111111100;
	598 :	0000000000001110;
	597 :	0000000000000000;
	596 :	1111111111111011;
	595 :	0000000000000110;
	594 :	1111111111101101;
	593 :	1111111111110100;
	592 :	1111111111110011;
	591 :	1111111111111111;
	590 :	1111111111110011;
	589 :	0000000000011110;
	588 :	0000000000001100;
	587 :	1111111111111100;
	586 :	0000000000000011;
	585 :	1111111111110011;
	584 :	0000000000000110;
	583 :	1111111111100110;
	582 :	0000000000010000;
	581 :	1111111111100001;
	580 :	1111111111100111;
	579 :	1111111111101011;
	578 :	1111111111111100;
	577 :	0000000000000111;
	576 :	1111111111111100;
	575 :	1111111111111011;
	574 :	0000000000001010;
	573 :	1111111111110001;
	572 :	0000000000010110;
	571 :	0000000000001100;
	570 :	1111111111111100;
	569 :	1111111111101011;
	568 :	1111111111110110;
	567 :	1111111111101001;
	566 :	0000000000000000;
	565 :	1111111111110100;
	564 :	0000000000000100;
	563 :	1111111111111110;
	562 :	1111111111101011;
	561 :	1111111111111010;
	560 :	1111111111110110;
	559 :	1111111111111110;
	558 :	0000000000000100;
	557 :	1111111111101000;
	556 :	1111111111110011;
	555 :	1111111111011100;
	554 :	1111111111101011;
	553 :	1111111111101111;
	552 :	1111111111110101;
	551 :	1111111111110111;
	550 :	1111111111100111;
	549 :	1111111111110110;
	548 :	1111111111110100;
	547 :	1111111111110000;
	546 :	0000000000000111;
	545 :	0000000000010001;
	544 :	1111111111111001;
	543 :	1111111111111000;
	542 :	1111111111110001;
	541 :	1111111111111001;
	540 :	0000000000000001;
	539 :	1111111111111010;
	538 :	1111111111101111;
	537 :	1111111111010000;
	536 :	1111111111011010;
	535 :	1111111111111110;
	534 :	1111111111110100;
	533 :	0000000000011000;
	532 :	0000000000001000;
	531 :	1111111111111111;
	530 :	0000000000000000;
	529 :	1111111111101011;
	528 :	1111111111110101;
	527 :	1111111111110100;
	526 :	1111111111101111;
	525 :	1111111111110100;
	524 :	1111111111100110;
	523 :	0000000000001000;
	522 :	0000000000010100;
	521 :	1111111111111000;
	520 :	1111111111101101;
	519 :	1111111111101010;
	518 :	0000000000000100;
	517 :	0000000000001001;
	516 :	0000000000000110;
	515 :	1111111111111101;
	514 :	1111111111111010;
	513 :	0000000000000010;
	512 :	1111111111110001;
	511 :	1111111111111010;
	510 :	1111111111011010;
	509 :	1111111111100110;
	508 :	1111111111101110;
	507 :	1111111111101101;
	506 :	1111111111110100;
	505 :	0000000000000110;
	504 :	1111111111110110;
	503 :	1111111111110111;
	502 :	0000000000001001;
	501 :	1111111111110101;
	500 :	1111111111110100;
	499 :	1111111111101010;
	498 :	1111111111110011;
	497 :	0000000000000011;
	496 :	0000000000010011;
	495 :	1111111111111010;
	494 :	1111111111110101;
	493 :	1111111111101001;
	492 :	1111111111110111;
	491 :	0000000000001000;
	490 :	0000000000001000;
	489 :	0000000000100011;
	488 :	0000000000001101;
	487 :	0000000000000010;
	486 :	0000000000000100;
	485 :	1111111111101010;
	484 :	1111111111101111;
	483 :	1111111111111111;
	482 :	1111111111100001;
	481 :	1111111111011110;
	480 :	0000000000010100;
	479 :	0000000000010011;
	478 :	0000000000000011;
	477 :	0000000000001010;
	476 :	0000000000010100;
	475 :	0000000000000011;
	474 :	1111111111110000;
	473 :	1111111111011000;
	472 :	1111111111011000;
	471 :	1111111111111100;
	470 :	1111111111110011;
	469 :	1111111111110111;
	468 :	0000000000001011;
	467 :	1111111111101000;
	466 :	1111111111111001;
	465 :	1111111111110010;
	464 :	0000000000000000;
	463 :	0000000000000010;
	462 :	0000000000001000;
	461 :	0000000000011001;
	460 :	0000000000010101;
	459 :	0000000000001000;
	458 :	0000000000000111;
	457 :	0000000000010101;
	456 :	1111111111110010;
	455 :	1111111111110001;
	454 :	1111111111110100;
	453 :	0000000000000100;
	452 :	0000000000000000;
	451 :	1111111111111100;
	450 :	0000000000010010;
	449 :	0000000000001010;
	448 :	0000000000010001;
	447 :	0000000000000111;
	446 :	1111111111011101;
	445 :	1111111111101110;
	444 :	1111111111101001;
	443 :	1111111111110110;
	442 :	1111111111100110;
	441 :	1111111111110000;
	440 :	1111111111100011;
	439 :	1111111111100100;
	438 :	1111111111110110;
	437 :	0000000000000111;
	436 :	0000000000001101;
	435 :	0000000000000111;
	434 :	0000000000010011;
	433 :	0000000000011010;
	432 :	0000000000001101;
	431 :	0000000000010001;
	430 :	1111111111111001;
	429 :	1111111111111100;
	428 :	0000000000001011;
	427 :	1111111111111001;
	426 :	1111111111100100;
	425 :	0000000000000111;
	424 :	0000000000010000;
	423 :	1111111111110010;
	422 :	0000000000101000;
	421 :	0000000000001110;
	420 :	1111111111111100;
	419 :	1111111111110001;
	418 :	1111111111110100;
	417 :	1111111111010110;
	416 :	0000000000000100;
	415 :	1111111111100001;
	414 :	1111111111110101;
	413 :	0000000000000101;
	412 :	1111111111101100;
	411 :	1111111111101110;
	410 :	1111111111111001;
	409 :	0000000000000111;
	408 :	0000000000011000;
	407 :	0000000000000111;
	406 :	0000000000000010;
	405 :	0000000000001001;
	404 :	0000000000001111;
	403 :	0000000000001011;
	402 :	0000000000001001;
	401 :	0000000000001110;
	400 :	1111111111110001;
	399 :	1111111111100000;
	398 :	1111111111110001;
	397 :	1111111111110101;
	396 :	0000000000010101;
	395 :	0000000000011101;
	394 :	0000000000101001;
	393 :	0000000000001101;
	392 :	1111111111110101;
	391 :	0000000000001001;
	390 :	1111111111010101;
	389 :	1111111110111001;
	388 :	1111111111000000;
	387 :	1111111111100000;
	386 :	1111111111010101;
	385 :	0000000000000001;
	384 :	1111111111100101;
	383 :	1111111111110100;
	382 :	1111111111111011;
	381 :	0000000000001011;
	380 :	0000000000001001;
	379 :	0000000000011001;
	378 :	0000000000100101;
	377 :	0000000000000011;
	376 :	0000000000010001;
	375 :	0000000000000101;
	374 :	1111111111111111;
	373 :	1111111111111000;
	372 :	1111111111101011;
	371 :	0000000000000100;
	370 :	1111111111111001;
	369 :	1111111111101111;
	368 :	0000000000000011;
	367 :	0000000000000100;
	366 :	1111111111011101;
	365 :	1111111111111001;
	364 :	0000000000100011;
	363 :	1111111111101111;
	362 :	1111111111011010;
	361 :	1111111111100001;
	360 :	1111111111110111;
	359 :	1111111111101011;
	358 :	1111111111111010;
	357 :	1111111111110011;
	356 :	1111111111111001;
	355 :	1111111111111100;
	354 :	1111111111110100;
	353 :	1111111111111011;
	352 :	0000000000010010;
	351 :	0000000000000110;
	350 :	0000000000001101;
	349 :	0000000000010100;
	348 :	0000000000001110;
	347 :	1111111111101110;
	346 :	1111111111111100;
	345 :	1111111111111001;
	344 :	1111111111100001;
	343 :	1111111111111011;
	342 :	1111111111100011;
	341 :	1111111111100100;
	340 :	0000000000011110;
	339 :	1111111111110001;
	338 :	1111111111101111;
	337 :	1111111111101010;
	336 :	1111111111111010;
	335 :	0000000000000100;
	334 :	1111111111101010;
	333 :	1111111111101111;
	332 :	1111111111010000;
	331 :	1111111111011110;
	330 :	1111111111010001;
	329 :	1111111111100111;
	328 :	1111111111111110;
	327 :	0000000000000010;
	326 :	1111111111111010;
	325 :	1111111111111010;
	324 :	0000000000011100;
	323 :	0000000000010110;
	322 :	0000000000011001;
	321 :	0000000000000111;
	320 :	1111111111111011;
	319 :	1111111111111011;
	318 :	0000000000000110;
	317 :	1111111111100110;
	316 :	0000000000000010;
	315 :	1111111111101111;
	314 :	1111111111011010;
	313 :	0000000000000011;
	312 :	1111111111111111;
	311 :	1111111111110111;
	310 :	1111111111110000;
	309 :	1111111111111010;
	308 :	1111111111111101;
	307 :	0000000000101001;
	306 :	1111111111111000;
	305 :	1111111111111101;
	304 :	1111111111110001;
	303 :	1111111111011111;
	302 :	0000000000001011;
	301 :	1111111111110010;
	300 :	1111111111101010;
	299 :	1111111111110101;
	298 :	1111111111111010;
	297 :	1111111111110100;
	296 :	1111111111110111;
	295 :	0000000000011010;
	294 :	1111111111110110;
	293 :	1111111111110110;
	292 :	0000000000001000;
	291 :	0000000000001100;
	290 :	0000000000001100;
	289 :	1111111111110000;
	288 :	0000000000001100;
	287 :	1111111111100011;
	286 :	1111111111100000;
	285 :	1111111111100100;
	284 :	1111111111110010;
	283 :	0000000000010010;
	282 :	0000000000000110;
	281 :	0000000000001000;
	280 :	1111111111110010;
	279 :	0000000000000101;
	278 :	0000000000010001;
	277 :	1111111111110010;
	276 :	1111111111111100;
	275 :	1111111111111110;
	274 :	0000000000000010;
	273 :	1111111111111100;
	272 :	1111111111110000;
	271 :	1111111111110100;
	270 :	1111111111110111;
	269 :	0000000000000000;
	268 :	0000000000000110;
	267 :	0000000000000000;
	266 :	0000000000001101;
	265 :	0000000000000110;
	264 :	1111111111101001;
	263 :	1111111111101110;
	262 :	0000000000001110;
	261 :	1111111111100001;
	260 :	1111111111101010;
	259 :	1111111111101110;
	258 :	0000000000010000;
	257 :	1111111111110010;
	256 :	1111111111110111;
	255 :	0000000000001011;
	254 :	1111111111111000;
	253 :	1111111111011110;
	252 :	0000000000000000;
	251 :	0000000000001001;
	250 :	1111111111101010;
	249 :	1111111111110001;
	248 :	1111111111011011;
	247 :	1111111111101011;
	246 :	1111111111110011;
	245 :	1111111111111111;
	244 :	1111111111101010;
	243 :	1111111111111100;
	242 :	1111111111110010;
	241 :	0000000000000100;
	240 :	1111111111101000;
	239 :	0000000000001011;
	238 :	1111111111111001;
	237 :	0000000000000110;
	236 :	0000000000001000;
	235 :	1111111111101111;
	234 :	0000000000000101;
	233 :	1111111111100111;
	232 :	1111111111111010;
	231 :	0000000000000100;
	230 :	1111111111111100;
	229 :	1111111111101000;
	228 :	1111111111111100;
	227 :	0000000000010000;
	226 :	1111111111111101;
	225 :	1111111111010000;
	224 :	0000000000000110;
	223 :	1111111111111110;
	222 :	0000000000010000;
	221 :	1111111111011111;
	220 :	1111111111110110;
	219 :	0000000000100011;
	218 :	1111111111110110;
	217 :	0000000000000111;
	216 :	0000000000000101;
	215 :	0000000000000010;
	214 :	1111111111110111;
	213 :	1111111111101110;
	212 :	1111111111111101;
	211 :	1111111111110011;
	210 :	0000000000001111;
	209 :	0000000000010101;
	208 :	0000000000001101;
	207 :	1111111111111010;
	206 :	1111111111011001;
	205 :	1111111111100101;
	204 :	1111111111110101;
	203 :	1111111111101100;
	202 :	1111111111010000;
	201 :	1111111111011100;
	200 :	1111111111011110;
	199 :	1111111111011101;
	198 :	1111111111111000;
	197 :	1111111111100011;
	196 :	0000000000010110;
	195 :	0000000000000110;
	194 :	1111111111111110;
	193 :	0000000000011100;
	192 :	0000000000001001;
	191 :	0000000000010000;
	190 :	0000000000000000;
	189 :	1111111111110101;
	188 :	1111111111110101;
	187 :	1111111111110000;
	186 :	0000000000000110;
	185 :	0000000000000010;
	184 :	1111111111111110;
	183 :	1111111111101100;
	182 :	1111111111110111;
	181 :	1111111111100111;
	180 :	1111111111110010;
	179 :	0000000000000011;
	178 :	1111111111010100;
	177 :	1111111111011100;
	176 :	1111111111001110;
	175 :	1111111111110100;
	174 :	1111111111011000;
	173 :	1111111111101101;
	172 :	0000000000011001;
	171 :	0000000000010100;
	170 :	0000000000001001;
	169 :	1111111111111111;
	168 :	0000000000001100;
	167 :	1111111111101011;
	166 :	1111111111110100;
	165 :	1111111111011100;
	164 :	0000000000001101;
	163 :	0000000000010110;
	162 :	0000000000001001;
	161 :	0000000000010110;
	160 :	1111111111111101;
	159 :	1111111111110111;
	158 :	1111111111111001;
	157 :	1111111111101010;
	156 :	1111111111111000;
	155 :	1111111111111011;
	154 :	1111111111111100;
	153 :	1111111111101111;
	152 :	1111111111110000;
	151 :	1111111111101110;
	150 :	1111111111011100;
	149 :	1111111111010101;
	148 :	1111111111101101;
	147 :	0000000000000011;
	146 :	1111111111100101;
	145 :	0000000000011000;
	144 :	0000000000000000;
	143 :	0000000000001011;
	142 :	0000000000010010;
	141 :	0000000000001110;
	140 :	1111111111111101;
	139 :	1111111111110010;
	138 :	1111111111010111;
	137 :	1111111110110110;
	136 :	1111111111110010;
	135 :	0000000000000100;
	134 :	0000000000000101;
	133 :	1111111111111110;
	132 :	0000000000010000;
	131 :	0000000000000100;
	130 :	0000000000001001;
	129 :	1111111111110111;
	128 :	0000000000000000;
	127 :	1111111111110011;
	126 :	1111111111101110;
	125 :	0000000000000110;
	124 :	1111111111101000;
	123 :	1111111111110000;
	122 :	1111111111001111;
	121 :	1111111111010000;
	120 :	1111111111111110;
	119 :	1111111111101100;
	118 :	1111111111111101;
	117 :	1111111111000101;
	116 :	0000000000000111;
	115 :	0000000000100111;
	114 :	0000000000011111;
	113 :	1111111111110100;
	112 :	0000000000000111;
	111 :	1111111111110100;
	110 :	1111111111111101;
	109 :	1111111111010110;
	108 :	0000000000000000;
	107 :	1111111111011001;
	106 :	0000000000000000;
	105 :	1111111111111101;
	104 :	0000000000001010;
	103 :	0000000000011011;
	102 :	0000000000001110;
	101 :	0000000000000011;
	100 :	1111111111110010;
	99 :	1111111111101000;
	98 :	1111111111010111;
	97 :	1111111111010110;
	96 :	0000000000000001;
	95 :	1111111111011101;
	94 :	1111111111101111;
	93 :	0000000000001000;
	92 :	1111111111101001;
	91 :	1111111111110100;
	90 :	1111111111101101;
	89 :	1111111111011101;
	88 :	0000000000000000;
	87 :	0000000000001101;
	86 :	0000000000110001;
	85 :	1111111111111111;
	84 :	0000000000010001;
	83 :	1111111111101111;
	82 :	1111111111101101;
	81 :	1111111111011011;
	80 :	0000000000011000;
	79 :	0000000000010000;
	78 :	0000000000001001;
	77 :	0000000000011001;
	76 :	1111111111111110;
	75 :	1111111111110100;
	74 :	1111111111100111;
	73 :	1111111111101001;
	72 :	0000000000001100;
	71 :	0000000000000010;
	70 :	1111111111101101;
	69 :	1111111111100001;
	68 :	1111111111011001;
	67 :	1111111111100010;
	66 :	1111111111101011;
	65 :	1111111111110111;
	64 :	1111111111110011;
	63 :	1111111111101101;
	62 :	0000000000000111;
	61 :	1111111111111101;
	60 :	1111111111110100;
	59 :	0000000000000110;
	58 :	0000000000010100;
	57 :	0000000000001000;
	56 :	1111111111110100;
	55 :	0000000000001111;
	54 :	0000000000010001;
	53 :	0000000000001001;
	52 :	1111111111111011;
	51 :	1111111111111000;
	50 :	0000000000001010;
	49 :	0000000000000001;
	48 :	1111111111110100;
	47 :	0000000000000101;
	46 :	1111111111100110;
	45 :	1111111111000010;
	44 :	1111111111101010;
	43 :	0000000000100001;
	42 :	0000000000011001;
	41 :	0000000000000011;
	40 :	0000000000001111;
	39 :	0000000000000101;
	38 :	0000000000010010;
	37 :	1111111111111101;
	36 :	0000000000000110;
	35 :	0000000000010010;
	34 :	0000000000010001;
	33 :	1111111111111110;
	32 :	0000000000010000;
	31 :	1111111111101111;
	30 :	1111111111111101;
	29 :	0000000000010001;
	28 :	1111111111111100;
	27 :	1111111111111110;
	26 :	0000000000010001;
	25 :	1111111111110010;
	24 :	0000000000000011;
	23 :	1111111111110010;
	22 :	1111111111110100;
	21 :	0000000000001110;
	20 :	1111111111111010;
	19 :	0000000000000000;
	18 :	1111111111110111;
	17 :	0000000000001100;
	16 :	1111111111111100;
	15 :	0000000000010100;
	14 :	0000000000001000;
	13 :	1111111111110011;
	12 :	1111111111101110;
	11 :	1111111111111011;
	10 :	0000000000001100;
	9 :	0000000000010010;
	8 :	0000000000000110;
	7 :	1111111111110110;
	6 :	1111111111110010;
	5 :	0000000000001010;
	4 :	1111111111101100;
	3 :	1111111111110001;
	2 :	1111111111111111;
	1 :	0000000000010000;
	0 :	0000000000001101;
END;
