-- begin_signature
-- weights(numWeights
-- 16
-- neuronNumber
-- 4
-- layerNumber
-- 1
-- addressWidth
-- 4
-- dataWidth
-- 16
-- weightFile
-- "weights/weight_L1_N4.mif")
-- end_signature
WIDTH=16;
DEPTH=16;

ADDRESS_RADIX=UNS;
DATA_RADIX=BIN;

CONTENT BEGIN
	15 :	0000000000010001;
	14 :	0000000000011110;
	13 :	0000000000110011;
	12 :	0000000000101011;
	11 :	1111111111110000;
	10 :	0000000000010001;
	9 :	0000000000100010;
	8 :	0000000000101100;
	7 :	1111111111111101;
	6 :	1111111111001111;
	5 :	1111111111101010;
	4 :	0000000000001110;
	3 :	0000000000000000;
	2 :	1111111111011001;
	1 :	0000000000101011;
	0 :	1111111111000111;
END;
