-- begin_signature
-- weights(numWeights
-- 16
-- neuronNumber
-- 7
-- layerNumber
-- 1
-- addressWidth
-- 4
-- dataWidth
-- 16
-- weightFile
-- "weights/weight_L1_N7.mif")
-- end_signature
WIDTH=16;
DEPTH=16;

ADDRESS_RADIX=UNS;
DATA_RADIX=BIN;

CONTENT BEGIN
	15 :	0000000001000110;
	14 :	0000000000010100;
	13 :	0000000000001101;
	12 :	0000000000101100;
	11 :	0000000000010011;
	10 :	1111111111101111;
	9 :	0000000000110101;
	8 :	0000000000001011;
	7 :	0000000001010101;
	6 :	1111111110011011;
	5 :	0000000000110010;
	4 :	0000000001011101;
	3 :	0000000000100100;
	2 :	0000000000001110;
	1 :	0000000000010101;
	0 :	1111111111101011;
END;
