-- begin_signature
-- weights(numWeights
-- 16
-- neuronNumber
-- 9
-- layerNumber
-- 1
-- addressWidth
-- 4
-- dataWidth
-- 16
-- weightFile
-- "weights/weight_L1_N9.mif")
-- end_signature
WIDTH=16;
DEPTH=16;

ADDRESS_RADIX=UNS;
DATA_RADIX=BIN;

CONTENT BEGIN
	15 :	0000000000111001;
	14 :	0000000000110100;
	13 :	0000000000101110;
	12 :	1111111111101110;
	11 :	1111111110001000;
	10 :	0000000000000110;
	9 :	0000000001011000;
	8 :	0000000000000001;
	7 :	1111111110101011;
	6 :	1111111110011011;
	5 :	1111111111111111;
	4 :	1111111110011001;
	3 :	1111111111111001;
	2 :	1111111111101011;
	1 :	0000000001000110;
	0 :	1111111111010100;
END;
