-- begin_signature
-- weights(numWeights
-- 784
-- neuronNumber
-- 12
-- layerNumber
-- 0
-- addressWidth
-- 10
-- dataWidth
-- 16
-- weightFile
-- "weights/weight_L0_N12.mif")
-- end_signature
WIDTH=16;
DEPTH=784;

ADDRESS_RADIX=UNS;
DATA_RADIX=BIN;

CONTENT BEGIN
	783 :	0000000000001001;
	782 :	1111111111101011;
	781 :	0000000000000011;
	780 :	1111111111110100;
	779 :	0000000000001101;
	778 :	0000000000001011;
	777 :	1111111111110111;
	776 :	0000000000010011;
	775 :	1111111111100000;
	774 :	1111111111101100;
	773 :	1111111111110000;
	772 :	0000000000011111;
	771 :	0000000000001001;
	770 :	0000000000111011;
	769 :	0000000000110101;
	768 :	0000000000101100;
	767 :	0000000000101101;
	766 :	0000000000001001;
	765 :	0000000001000110;
	764 :	0000000000010100;
	763 :	0000000000101010;
	762 :	1111111111111111;
	761 :	1111111111111111;
	760 :	1111111111101111;
	759 :	1111111111111000;
	758 :	0000000000010010;
	757 :	0000000000010100;
	756 :	1111111111111101;
	755 :	0000000000001100;
	754 :	0000000000001111;
	753 :	0000000000001101;
	752 :	1111111111111001;
	751 :	0000000000000011;
	750 :	0000000000000110;
	749 :	0000000000010010;
	748 :	0000000000011100;
	747 :	0000000001110101;
	746 :	0000000000100011;
	745 :	0000000000101110;
	744 :	0000000000111011;
	743 :	0000000001010100;
	742 :	1111111111111111;
	741 :	0000000000010010;
	740 :	0000000000001011;
	739 :	0000000000110010;
	738 :	1111111111111001;
	737 :	1111111111110000;
	736 :	0000000000011110;
	735 :	0000000000000000;
	734 :	1111111111010101;
	733 :	1111111110111111;
	732 :	1111111111111110;
	731 :	1111111111101100;
	730 :	0000000000001110;
	729 :	1111111111110011;
	728 :	0000000000010101;
	727 :	1111111111101110;
	726 :	1111111111101111;
	725 :	0000000000001100;
	724 :	0000000000011011;
	723 :	1111111111111101;
	722 :	0000000000011011;
	721 :	0000000000001011;
	720 :	1111111111010101;
	719 :	0000000001000001;
	718 :	0000000000100100;
	717 :	0000000000011111;
	716 :	0000000000001100;
	715 :	0000000000001010;
	714 :	1111111111111011;
	713 :	0000000000010100;
	712 :	0000000000010101;
	711 :	1111111111111111;
	710 :	1111111111101010;
	709 :	0000000000100100;
	708 :	0000000001000111;
	707 :	0000000000001001;
	706 :	0000000000000101;
	705 :	1111111111110110;
	704 :	0000000000010111;
	703 :	0000000000010111;
	702 :	1111111111110011;
	701 :	1111111111110111;
	700 :	1111111111111100;
	699 :	0000000000000110;
	698 :	1111111111110010;
	697 :	0000000000110010;
	696 :	0000000000101011;
	695 :	1111111111111110;
	694 :	1111111111100101;
	693 :	1111111111110011;
	692 :	0000000000000110;
	691 :	1111111111111010;
	690 :	0000000000001010;
	689 :	0000000000011000;
	688 :	1111111111110110;
	687 :	0000000000011111;
	686 :	0000000000000011;
	685 :	0000000000010000;
	684 :	0000000000011110;
	683 :	0000000000000100;
	682 :	0000000000001101;
	681 :	0000000000100000;
	680 :	0000000000000110;
	679 :	1111111111111001;
	678 :	0000000000011101;
	677 :	0000000000011011;
	676 :	0000000000011100;
	675 :	0000000000111101;
	674 :	1111111111111001;
	673 :	0000000000000100;
	672 :	0000000000010101;
	671 :	1111111111110000;
	670 :	0000000000010101;
	669 :	1111111111110111;
	668 :	1111111111011100;
	667 :	1111111111110100;
	666 :	0000000000101011;
	665 :	1111111111111101;
	664 :	1111111111101101;
	663 :	1111111111110110;
	662 :	0000000000000000;
	661 :	0000000000010110;
	660 :	0000000000010110;
	659 :	0000000000010101;
	658 :	0000000000010100;
	657 :	0000000000001110;
	656 :	0000000000000111;
	655 :	0000000000001110;
	654 :	0000000000010111;
	653 :	0000000000001011;
	652 :	1111111111111000;
	651 :	0000000000000001;
	650 :	0000000000100000;
	649 :	0000000000001001;
	648 :	1111111111110110;
	647 :	1111111111111111;
	646 :	1111111110110010;
	645 :	0000000000001101;
	644 :	1111111111101100;
	643 :	0000000000000101;
	642 :	0000000000001001;
	641 :	1111111111110000;
	640 :	1111111110101100;
	639 :	0000000000000110;
	638 :	0000000000000010;
	637 :	1111111111110111;
	636 :	1111111111110111;
	635 :	1111111111110110;
	634 :	1111111111111111;
	633 :	0000000000000111;
	632 :	0000000000001100;
	631 :	0000000000010110;
	630 :	0000000000000111;
	629 :	0000000000011000;
	628 :	0000000000010000;
	627 :	0000000000001010;
	626 :	0000000000001000;
	625 :	0000000000000111;
	624 :	0000000000000011;
	623 :	1111111111110111;
	622 :	0000000000001101;
	621 :	1111111111100101;
	620 :	1111111111100000;
	619 :	0000000000101101;
	618 :	0000000000010101;
	617 :	0000000000000110;
	616 :	1111111111110100;
	615 :	1111111111111111;
	614 :	0000000000011011;
	613 :	1111111111101000;
	612 :	1111111111100010;
	611 :	0000000000010001;
	610 :	1111111111110110;
	609 :	0000000000001001;
	608 :	0000000000001010;
	607 :	1111111111110010;
	606 :	1111111111110111;
	605 :	1111111111111001;
	604 :	0000000000010101;
	603 :	0000000000010011;
	602 :	0000000000010111;
	601 :	0000000000011100;
	600 :	0000000000011101;
	599 :	0000000000011000;
	598 :	0000000000001101;
	597 :	0000000000001001;
	596 :	0000000000000111;
	595 :	1111111111111110;
	594 :	1111111111111010;
	593 :	1111111111111111;
	592 :	0000000000000011;
	591 :	0000000000000000;
	590 :	0000000000010000;
	589 :	0000000000001011;
	588 :	0000000000000011;
	587 :	1111111111110001;
	586 :	0000000000001010;
	585 :	1111111111100101;
	584 :	1111111111011110;
	583 :	0000000000000110;
	582 :	0000000000000101;
	581 :	0000000000001001;
	580 :	1111111111110101;
	579 :	1111111111110001;
	578 :	1111111111111010;
	577 :	1111111111110010;
	576 :	1111111111111111;
	575 :	0000000000001011;
	574 :	0000000000001011;
	573 :	0000000000010111;
	572 :	0000000000010111;
	571 :	0000000000000111;
	570 :	0000000000000111;
	569 :	0000000000001101;
	568 :	0000000000001101;
	567 :	0000000000000001;
	566 :	0000000000000111;
	565 :	1111111111111100;
	564 :	0000000000100001;
	563 :	1111111111111101;
	562 :	1111111111011000;
	561 :	1111111111100001;
	560 :	0000000000000000;
	559 :	1111111111110111;
	558 :	1111111111000000;
	557 :	0000000000010011;
	556 :	0000000000010010;
	555 :	1111111111100111;
	554 :	1111111111111101;
	553 :	1111111111110100;
	552 :	0000000000001111;
	551 :	1111111111101111;
	550 :	1111111111111000;
	549 :	1111111111111111;
	548 :	1111111111110110;
	547 :	0000000000000000;
	546 :	1111111111111101;
	545 :	1111111111110101;
	544 :	1111111111111011;
	543 :	1111111111111000;
	542 :	0000000000000001;
	541 :	1111111111110110;
	540 :	0000000000000011;
	539 :	1111111111111110;
	538 :	0000000000001000;
	537 :	0000000000001001;
	536 :	0000000000011010;
	535 :	1111111111110001;
	534 :	0000000000000111;
	533 :	1111111111111010;
	532 :	1111111111110000;
	531 :	1111111111110101;
	530 :	1111111111100001;
	529 :	0000000000101101;
	528 :	1111111111110110;
	527 :	0000000000010011;
	526 :	0000000000001111;
	525 :	0000000000000011;
	524 :	1111111111101100;
	523 :	1111111111111111;
	522 :	1111111111111011;
	521 :	0000000000010000;
	520 :	0000000000001110;
	519 :	0000000000000100;
	518 :	1111111111110001;
	517 :	1111111111001110;
	516 :	1111111111010000;
	515 :	1111111111101100;
	514 :	0000000000001100;
	513 :	1111111111111000;
	512 :	0000000000000001;
	511 :	1111111111110100;
	510 :	1111111111110000;
	509 :	1111111111111101;
	508 :	0000000000010011;
	507 :	1111111111111110;
	506 :	1111111111000110;
	505 :	0000000000000000;
	504 :	1111111111111111;
	503 :	0000000000010110;
	502 :	1111111111100110;
	501 :	0000000000010100;
	500 :	0000000000011000;
	499 :	1111111111101011;
	498 :	0000000000001011;
	497 :	1111111111111000;
	496 :	0000000000001110;
	495 :	0000000000010001;
	494 :	0000000000001000;
	493 :	0000000000010001;
	492 :	1111111111111000;
	491 :	1111111111111100;
	490 :	1111111111101011;
	489 :	1111111111001011;
	488 :	1111111111110001;
	487 :	0000000000000100;
	486 :	0000000000001001;
	485 :	1111111111111001;
	484 :	1111111111111000;
	483 :	1111111111101001;
	482 :	0000000000000111;
	481 :	1111111111111001;
	480 :	1111111111101001;
	479 :	0000000000001100;
	478 :	1111111110111001;
	477 :	0000000000001011;
	476 :	0000000000000000;
	475 :	1111111111111101;
	474 :	1111111111110010;
	473 :	1111111111101101;
	472 :	1111111111101000;
	471 :	0000000000001010;
	470 :	0000000000001101;
	469 :	0000000000100011;
	468 :	0000000000000101;
	467 :	0000000000000101;
	466 :	0000000000000011;
	465 :	1111111111110101;
	464 :	0000000000000000;
	463 :	1111111111100110;
	462 :	1111111111100100;
	461 :	1111111111010011;
	460 :	0000000000000001;
	459 :	0000000000000111;
	458 :	1111111111110111;
	457 :	1111111111111110;
	456 :	0000000000001101;
	455 :	1111111111110111;
	454 :	1111111111110000;
	453 :	1111111111111110;
	452 :	1111111111010100;
	451 :	1111111111110010;
	450 :	1111111111011000;
	449 :	0000000000000011;
	448 :	0000000000000011;
	447 :	0000000000001010;
	446 :	1111111111011011;
	445 :	0000000000001000;
	444 :	0000000000110001;
	443 :	0000000000011101;
	442 :	1111111111111001;
	441 :	0000000000010101;
	440 :	0000000000000111;
	439 :	1111111111111010;
	438 :	0000000000001110;
	437 :	1111111111111111;
	436 :	1111111111101010;
	435 :	1111111111011011;
	434 :	1111111111000100;
	433 :	1111111111100010;
	432 :	1111111111111011;
	431 :	1111111111111000;
	430 :	0000000000000011;
	429 :	0000000000010010;
	428 :	1111111111111101;
	427 :	0000000000011011;
	426 :	1111111111101111;
	425 :	0000000000011011;
	424 :	0000000000010011;
	423 :	1111111111101000;
	422 :	0000000000100000;
	421 :	0000000000001100;
	420 :	0000000000010010;
	419 :	0000000000010001;
	418 :	1111111111111100;
	417 :	1111111111111001;
	416 :	0000000001000001;
	415 :	0000000000010000;
	414 :	0000000000010000;
	413 :	1111111111110000;
	412 :	1111111111110110;
	411 :	1111111111100000;
	410 :	1111111111110101;
	409 :	1111111111100100;
	408 :	1111111111100111;
	407 :	1111111111010111;
	406 :	1111111111100111;
	405 :	1111111111110100;
	404 :	0000000000001101;
	403 :	1111111111110111;
	402 :	0000000000001110;
	401 :	0000000000000010;
	400 :	1111111111111011;
	399 :	0000000000011000;
	398 :	0000000000011110;
	397 :	0000000000000100;
	396 :	1111111111111001;
	395 :	1111111111011111;
	394 :	0000000000101110;
	393 :	0000000000010100;
	392 :	1111111111111010;
	391 :	1111111111100101;
	390 :	1111111111101010;
	389 :	0000000000001011;
	388 :	1111111111111101;
	387 :	0000000000001111;
	386 :	0000000000010011;
	385 :	0000000000000100;
	384 :	1111111111110101;
	383 :	1111111111110011;
	382 :	1111111111101010;
	381 :	1111111111110110;
	380 :	1111111111010101;
	379 :	1111111111010110;
	378 :	1111111111101100;
	377 :	1111111111111100;
	376 :	0000000000000101;
	375 :	0000000000000101;
	374 :	0000000000011001;
	373 :	0000000000010011;
	372 :	0000000000000000;
	371 :	0000000000010111;
	370 :	0000000000000110;
	369 :	1111111111110011;
	368 :	1111111111101111;
	367 :	1111111111110011;
	366 :	0000000000101010;
	365 :	1111111111111101;
	364 :	1111111111110001;
	363 :	0000000000000000;
	362 :	1111111111001101;
	361 :	1111111111000110;
	360 :	0000000000010000;
	359 :	0000000000100111;
	358 :	1111111111111110;
	357 :	1111111111101011;
	356 :	1111111111111010;
	355 :	1111111111100101;
	354 :	1111111111111010;
	353 :	1111111111101111;
	352 :	1111111111011101;
	351 :	1111111111001111;
	350 :	1111111111101101;
	349 :	0000000000010100;
	348 :	0000000000001111;
	347 :	0000000000001110;
	346 :	0000000000010001;
	345 :	0000000000001001;
	344 :	0000000000001111;
	343 :	0000000000000101;
	342 :	0000000000011110;
	341 :	1111111111110000;
	340 :	0000000000001110;
	339 :	1111111111110101;
	338 :	1111111111101111;
	337 :	0000000000000001;
	336 :	0000000000000110;
	335 :	1111111111101010;
	334 :	1111111111001110;
	333 :	1111111111011000;
	332 :	1111111111011110;
	331 :	0000000000011001;
	330 :	1111111111101001;
	329 :	1111111111110100;
	328 :	1111111111101010;
	327 :	1111111111110110;
	326 :	1111111111111111;
	325 :	1111111111100110;
	324 :	1111111111011110;
	323 :	1111111111001010;
	322 :	1111111111100001;
	321 :	0000000000000100;
	320 :	0000000000010011;
	319 :	0000000000010000;
	318 :	1111111111111101;
	317 :	0000000000000101;
	316 :	1111111111111011;
	315 :	0000000000010011;
	314 :	0000000000000100;
	313 :	1111111111101000;
	312 :	1111111111101000;
	311 :	1111111111010011;
	310 :	0000000000110000;
	309 :	0000000000010101;
	308 :	0000000000100000;
	307 :	0000000000011000;
	306 :	1111111111111010;
	305 :	1111111111101111;
	304 :	0000000000011110;
	303 :	0000000000000000;
	302 :	0000000000100110;
	301 :	1111111111111010;
	300 :	0000000000001101;
	299 :	1111111111100111;
	298 :	1111111111110101;
	297 :	1111111111110001;
	296 :	1111111111011011;
	295 :	1111111111011100;
	294 :	1111111111110011;
	293 :	0000000000010111;
	292 :	0000000000011000;
	291 :	0000000000010001;
	290 :	1111111111111101;
	289 :	0000000000010111;
	288 :	0000000000001101;
	287 :	1111111111111011;
	286 :	0000000000001101;
	285 :	0000000000001001;
	284 :	0000000000011011;
	283 :	1111111111010010;
	282 :	0000000000110111;
	281 :	0000000000010011;
	280 :	1111111111111011;
	279 :	0000000000001011;
	278 :	1111111111100011;
	277 :	1111111111101000;
	276 :	0000000000001100;
	275 :	1111111111110111;
	274 :	1111111111101001;
	273 :	1111111111011001;
	272 :	1111111111100101;
	271 :	1111111111100111;
	270 :	1111111111111000;
	269 :	1111111111110001;
	268 :	1111111111101010;
	267 :	1111111111100011;
	266 :	1111111111111110;
	265 :	0000000000011101;
	264 :	0000000000001010;
	263 :	1111111111111110;
	262 :	0000000000010010;
	261 :	1111111111111001;
	260 :	0000000000000011;
	259 :	1111111111101111;
	258 :	1111111111111001;
	257 :	1111111111101111;
	256 :	1111111111101011;
	255 :	0000000000001001;
	254 :	0000000000101000;
	253 :	0000000000101101;
	252 :	1111111111101011;
	251 :	1111111111100001;
	250 :	1111111111100101;
	249 :	0000000000010110;
	248 :	0000000000011100;
	247 :	0000000000011011;
	246 :	1111111111111111;
	245 :	0000000000000001;
	244 :	0000000000000101;
	243 :	1111111111110100;
	242 :	1111111111101101;
	241 :	0000000000000100;
	240 :	0000000000011000;
	239 :	0000000000001110;
	238 :	0000000000011111;
	237 :	0000000000000010;
	236 :	0000000000010011;
	235 :	0000000000001010;
	234 :	1111111111110011;
	233 :	0000000000000110;
	232 :	0000000000000010;
	231 :	1111111111101111;
	230 :	0000000000000110;
	229 :	1111111111100011;
	228 :	1111111110111111;
	227 :	0000000000000101;
	226 :	0000000000110010;
	225 :	0000000000010011;
	224 :	0000000000000010;
	223 :	0000000000011010;
	222 :	0000000000011110;
	221 :	1111111111111001;
	220 :	0000000000000110;
	219 :	0000000000010001;
	218 :	0000000000001111;
	217 :	1111111111111111;
	216 :	0000000000001101;
	215 :	0000000000000110;
	214 :	0000000000010110;
	213 :	0000000000000111;
	212 :	0000000000001000;
	211 :	0000000000000010;
	210 :	0000000000001100;
	209 :	0000000000001101;
	208 :	0000000000001010;
	207 :	0000000000011100;
	206 :	0000000000000001;
	205 :	0000000000010111;
	204 :	1111111111111011;
	203 :	0000000000000010;
	202 :	1111111111110100;
	201 :	1111111111111100;
	200 :	1111111111110110;
	199 :	1111111111101000;
	198 :	0000000000110000;
	197 :	1111111111101011;
	196 :	0000000000001111;
	195 :	1111111111000001;
	194 :	0000000000000010;
	193 :	0000000000001100;
	192 :	0000000000001001;
	191 :	0000000000000111;
	190 :	0000000000001101;
	189 :	0000000000011110;
	188 :	0000000000000000;
	187 :	0000000000001111;
	186 :	1111111111111101;
	185 :	0000000000000100;
	184 :	1111111111111101;
	183 :	1111111111111100;
	182 :	0000000000001001;
	181 :	0000000000000011;
	180 :	0000000000000101;
	179 :	1111111111111000;
	178 :	0000000000000100;
	177 :	1111111111110011;
	176 :	0000000000000110;
	175 :	0000000000001011;
	174 :	1111111111110100;
	173 :	0000000000000011;
	172 :	0000000000001101;
	171 :	1111111111011001;
	170 :	0000000000001000;
	169 :	1111111111101101;
	168 :	0000000000001000;
	167 :	1111111111110110;
	166 :	1111111111110100;
	165 :	0000000000000111;
	164 :	0000000000000010;
	163 :	0000000000000110;
	162 :	0000000000010101;
	161 :	0000000000001011;
	160 :	0000000000011100;
	159 :	1111111111111010;
	158 :	0000000000001111;
	157 :	0000000000001000;
	156 :	1111111111111001;
	155 :	0000000000000110;
	154 :	0000000000000010;
	153 :	0000000000000010;
	152 :	1111111111110101;
	151 :	0000000000000100;
	150 :	0000000000010100;
	149 :	1111111111110001;
	148 :	0000000000000000;
	147 :	1111111111111001;
	146 :	0000000000000010;
	145 :	1111111111000101;
	144 :	1111111110110111;
	143 :	1111111111110010;
	142 :	0000000000001001;
	141 :	0000000000001101;
	140 :	0000000000000010;
	139 :	0000000000001011;
	138 :	1111111111010110;
	137 :	1111111111111001;
	136 :	1111111110100101;
	135 :	0000000000010111;
	134 :	0000000000100001;
	133 :	0000000000010011;
	132 :	1111111111111111;
	131 :	0000000000001010;
	130 :	0000000000000101;
	129 :	0000000000001110;
	128 :	1111111111110101;
	127 :	0000000000010110;
	126 :	1111111111111001;
	125 :	1111111111110111;
	124 :	1111111111110011;
	123 :	0000000000001001;
	122 :	1111111111111101;
	121 :	1111111111111000;
	120 :	1111111111100000;
	119 :	0000000000001101;
	118 :	1111111111000000;
	117 :	1111111111010010;
	116 :	1111111111001111;
	115 :	1111111111111111;
	114 :	0000000000010011;
	113 :	0000000000010110;
	112 :	1111111111110010;
	111 :	1111111111111000;
	110 :	1111111111111110;
	109 :	1111111111101001;
	108 :	0000000000111111;
	107 :	1111111111111111;
	106 :	1111111111110011;
	105 :	0000000000100001;
	104 :	1111111111111101;
	103 :	0000000000100011;
	102 :	0000000000001110;
	101 :	0000000000101000;
	100 :	1111111111111010;
	99 :	0000000000010000;
	98 :	0000000000001101;
	97 :	0000000000001010;
	96 :	0000000000000110;
	95 :	1111111111100100;
	94 :	1111111111010000;
	93 :	0000000000010110;
	92 :	1111111111101011;
	91 :	1111111111001010;
	90 :	1111111111011011;
	89 :	1111111111111100;
	88 :	1111111111101101;
	87 :	1111111111111110;
	86 :	0000000000001101;
	85 :	1111111111111011;
	84 :	0000000000001101;
	83 :	0000000000001101;
	82 :	0000000000001011;
	81 :	0000000000110001;
	80 :	0000000000111000;
	79 :	0000000000101111;
	78 :	0000000000000110;
	77 :	1111111111110101;
	76 :	0000000000000000;
	75 :	0000000000010110;
	74 :	0000000000100110;
	73 :	0000000000011001;
	72 :	0000000000001001;
	71 :	1111111111100010;
	70 :	1111111111011100;
	69 :	1111111111001100;
	68 :	1111111111010010;
	67 :	0000000000000110;
	66 :	0000000000100110;
	65 :	0000000000011110;
	64 :	0000000000011000;
	63 :	0000000000011111;
	62 :	0000000000010110;
	61 :	0000000000000010;
	60 :	1111111111110100;
	59 :	0000000000001100;
	58 :	0000000000000110;
	57 :	0000000000010101;
	56 :	0000000000010010;
	55 :	1111111111111001;
	54 :	1111111111110101;
	53 :	1111111111110001;
	52 :	0000000000001010;
	51 :	1111111111111001;
	50 :	0000000000001111;
	49 :	1111111111111010;
	48 :	0000000001000010;
	47 :	0000000000100011;
	46 :	0000000000101001;
	45 :	0000000000110111;
	44 :	0000000000011111;
	43 :	0000000001000010;
	42 :	0000000001001000;
	41 :	0000000000110100;
	40 :	1111111111110100;
	39 :	0000000000010111;
	38 :	0000000000011001;
	37 :	0000000000001111;
	36 :	0000000000010101;
	35 :	1111111111111010;
	34 :	0000000000001010;
	33 :	0000000000001111;
	32 :	0000000000010100;
	31 :	0000000000000100;
	30 :	0000000000000110;
	29 :	1111111111101010;
	28 :	1111111111111110;
	27 :	1111111111111101;
	26 :	0000000000000010;
	25 :	0000000000001011;
	24 :	1111111111110100;
	23 :	1111111111110010;
	22 :	1111111111111111;
	21 :	0000000000010000;
	20 :	1111111111110000;
	19 :	1111111111101110;
	18 :	0000000000010011;
	17 :	0000000000001100;
	16 :	0000000000000101;
	15 :	0000000000001111;
	14 :	0000000000000001;
	13 :	1111111111111010;
	12 :	1111111111111100;
	11 :	1111111111111100;
	10 :	1111111111111011;
	9 :	0000000000010100;
	8 :	1111111111110000;
	7 :	0000000000000101;
	6 :	1111111111111111;
	5 :	0000000000000100;
	4 :	0000000000000111;
	3 :	1111111111101110;
	2 :	1111111111110111;
	1 :	1111111111111111;
	0 :	1111111111111011;
END;
