-- begin_signature
-- weights(numWeights
-- 16
-- neuronNumber
-- 0
-- layerNumber
-- 1
-- addressWidth
-- 4
-- dataWidth
-- 16
-- weightFile
-- "weights/weight_L1_N0.mif")
-- end_signature
WIDTH=16;
DEPTH=16;

ADDRESS_RADIX=UNS;
DATA_RADIX=BIN;

CONTENT BEGIN
	15 :	0000000001000000;
	14 :	0000000000001010;
	13 :	0000000000010110;
	12 :	0000000001011000;
	11 :	0000000000111010;
	10 :	1111111111100111;
	9 :	0000000000010000;
	8 :	1111111111001100;
	7 :	1111111111101110;
	6 :	1111111111110010;
	5 :	0000000001000000;
	4 :	1111111111111011;
	3 :	0000000000011101;
	2 :	1111111111000100;
	1 :	1111111111000110;
	0 :	1111111110010001;
END;
