-- begin_signature
-- weights(numWeights
-- 16
-- neuronNumber
-- 1
-- layerNumber
-- 1
-- addressWidth
-- 4
-- dataWidth
-- 16
-- weightFile
-- "weights/weight_L1_N1.mif")
-- end_signature
WIDTH=16;
DEPTH=16;

ADDRESS_RADIX=UNS;
DATA_RADIX=BIN;

CONTENT BEGIN
	15 :	1111111111111100;
	14 :	0000000000011100;
	13 :	0000000000101111;
	12 :	1111111111110101;
	11 :	0000000000011001;
	10 :	1111111111110101;
	9 :	0000000000100001;
	8 :	0000000000100000;
	7 :	0000000000111110;
	6 :	0000000001010000;
	5 :	0000000000000101;
	4 :	0000000000011001;
	3 :	1111111111111111;
	2 :	0000000000001111;
	1 :	0000000000101110;
	0 :	0000000000110100;
END;
