-- begin_signature
-- weights(numWeights
-- 16
-- neuronNumber
-- 6
-- layerNumber
-- 1
-- addressWidth
-- 4
-- dataWidth
-- 16
-- weightFile
-- "weights/weight_L1_N6.mif")
-- end_signature
WIDTH=16;
DEPTH=16;

ADDRESS_RADIX=UNS;
DATA_RADIX=BIN;

CONTENT BEGIN
	15 :	1111111111001100;
	14 :	1111111111001010;
	13 :	0000000000010001;
	12 :	0000000000001011;
	11 :	1111111111101100;
	10 :	0000000000001011;
	9 :	0000000000011010;
	8 :	0000000001000110;
	7 :	0000000000001101;
	6 :	1111111111010000;
	5 :	1111111111110010;
	4 :	0000000000010110;
	3 :	1111111110100101;
	2 :	0000000000010111;
	1 :	1111111111100110;
	0 :	1111111111111101;
END;
