-- begin_signature
-- weights(numWeights
-- 16
-- neuronNumber
-- 5
-- layerNumber
-- 1
-- addressWidth
-- 4
-- dataWidth
-- 16
-- weightFile
-- "weights/weight_L1_N5.mif")
-- end_signature
WIDTH=16;
DEPTH=16;

ADDRESS_RADIX=UNS;
DATA_RADIX=BIN;

CONTENT BEGIN
	15 :	0000000001010011;
	14 :	0000000001001111;
	13 :	0000000000100001;
	12 :	0000000000111011;
	11 :	0000000001011011;
	10 :	1111111111111101;
	9 :	0000000000010000;
	8 :	1111111111111111;
	7 :	1111111111010110;
	6 :	1111111111111011;
	5 :	0000000000011000;
	4 :	1111111111100111;
	3 :	0000000000001011;
	2 :	1111111111011111;
	1 :	0000000000101010;
	0 :	1111111110100011;
END;
