-- begin_signature
-- weights(numWeights
-- 784
-- neuronNumber
-- 0
-- layerNumber
-- 0
-- addressWidth
-- 10
-- dataWidth
-- 16
-- weightFile
-- "weights/weight_L0_N0.mif")
-- end_signature
WIDTH=16;
DEPTH=784;

ADDRESS_RADIX=UNS;
DATA_RADIX=BIN;

CONTENT BEGIN
	783 :	1111111111101111;
	782 :	0000000000001101;
	781 :	0000000000000010;
	780 :	1111111111110101;
	779 :	0000000000010011;
	778 :	0000000000010001;
	777 :	1111111111110101;
	776 :	0000000000001011;
	775 :	1111111111110101;
	774 :	0000000000011000;
	773 :	0000000000010110;
	772 :	1111111111111010;
	771 :	1111111111110100;
	770 :	0000000000000100;
	769 :	0000000000100110;
	768 :	1111111111111111;
	767 :	1111111111111110;
	766 :	0000000000100011;
	765 :	1111111111110100;
	764 :	0000000000001011;
	763 :	0000000000001111;
	762 :	0000000000000010;
	761 :	0000000000000001;
	760 :	0000000000010001;
	759 :	0000000000001110;
	758 :	1111111111111000;
	757 :	0000000000010010;
	756 :	1111111111111101;
	755 :	1111111111110001;
	754 :	1111111111110010;
	753 :	1111111111110001;
	752 :	1111111111111111;
	751 :	1111111111100011;
	750 :	0000000000111001;
	749 :	1111111111111101;
	748 :	0000000000000110;
	747 :	0000000000100001;
	746 :	0000000000000100;
	745 :	0000000000001111;
	744 :	0000000000010111;
	743 :	0000000000001010;
	742 :	0000000000010010;
	741 :	0000000000000110;
	740 :	1111111111111111;
	739 :	0000000000001010;
	738 :	0000000000000000;
	737 :	0000000000001010;
	736 :	0000000000010000;
	735 :	0000000000001011;
	734 :	1111111111111000;
	733 :	1111111111100101;
	732 :	0000000000011111;
	731 :	0000000000010011;
	730 :	1111111111110110;
	729 :	0000000000001000;
	728 :	0000000000001000;
	727 :	0000000000000011;
	726 :	0000000000000100;
	725 :	0000000000001011;
	724 :	0000000000001110;
	723 :	1111111111110011;
	722 :	0000000000010100;
	721 :	0000000000110101;
	720 :	1111111111110000;
	719 :	0000000000001101;
	718 :	0000000000001000;
	717 :	0000000000001000;
	716 :	0000000000001010;
	715 :	0000000000011011;
	714 :	0000000000001001;
	713 :	0000000000000010;
	712 :	0000000000001110;
	711 :	0000000000001111;
	710 :	1111111111110010;
	709 :	0000000000010010;
	708 :	0000000000010000;
	707 :	0000000000001010;
	706 :	1111111111111110;
	705 :	0000000000010001;
	704 :	0000000000001011;
	703 :	0000000000010011;
	702 :	0000000000000010;
	701 :	1111111111110100;
	700 :	0000000000000000;
	699 :	1111111111101100;
	698 :	0000000000001011;
	697 :	1111111111111000;
	696 :	1111111111111011;
	695 :	0000000000011010;
	694 :	1111111111100111;
	693 :	1111111111111101;
	692 :	0000000000001011;
	691 :	1111111111101100;
	690 :	1111111111100111;
	689 :	1111111111110001;
	688 :	1111111111111011;
	687 :	1111111111110100;
	686 :	0000000000000000;
	685 :	1111111111110100;
	684 :	0000000000000110;
	683 :	0000000000000110;
	682 :	0000000000001010;
	681 :	1111111111110110;
	680 :	0000000000010101;
	679 :	0000000000010100;
	678 :	0000000000010001;
	677 :	0000000000111000;
	676 :	0000000000010010;
	675 :	0000000000000110;
	674 :	0000000000001100;
	673 :	1111111111111110;
	672 :	0000000000000011;
	671 :	0000000000000101;
	670 :	0000000000001111;
	669 :	1111111111111100;
	668 :	0000000000010100;
	667 :	0000000000001110;
	666 :	1111111111100101;
	665 :	1111111111111000;
	664 :	1111111111111000;
	663 :	1111111111110100;
	662 :	0000000000000101;
	661 :	0000000000001101;
	660 :	0000000000000111;
	659 :	0000000000001000;
	658 :	0000000000000001;
	657 :	1111111111111111;
	656 :	1111111111110011;
	655 :	0000000000000000;
	654 :	0000000000000111;
	653 :	0000000000001000;
	652 :	1111111111101010;
	651 :	0000000000000111;
	650 :	0000000000010100;
	649 :	0000000000101001;
	648 :	0000000000101000;
	647 :	1111111111100110;
	646 :	1111111111110001;
	645 :	0000000000010000;
	644 :	0000000000010010;
	643 :	1111111111111101;
	642 :	0000000000000100;
	641 :	0000000000001001;
	640 :	0000000000000001;
	639 :	1111111111111011;
	638 :	1111111111101011;
	637 :	1111111111110100;
	636 :	0000000000000110;
	635 :	0000000000000011;
	634 :	0000000000000001;
	633 :	0000000000000010;
	632 :	1111111111110001;
	631 :	0000000000001011;
	630 :	0000000000001010;
	629 :	0000000000001100;
	628 :	1111111111111001;
	627 :	0000000000000101;
	626 :	1111111111111110;
	625 :	0000000000000110;
	624 :	0000000000001000;
	623 :	0000000000001110;
	622 :	0000000000001001;
	621 :	0000000000001010;
	620 :	1111111111110010;
	619 :	1111111111110101;
	618 :	1111111111110101;
	617 :	0000000000000011;
	616 :	0000000000000101;
	615 :	0000000000000100;
	614 :	0000000000001011;
	613 :	1111111111111011;
	612 :	1111111111111011;
	611 :	1111111111111001;
	610 :	1111111111001101;
	609 :	1111111111011111;
	608 :	1111111111101111;
	607 :	0000000000001000;
	606 :	1111111111111111;
	605 :	0000000000000110;
	604 :	1111111111111111;
	603 :	1111111111110100;
	602 :	1111111111110010;
	601 :	1111111111110100;
	600 :	1111111111111100;
	599 :	1111111111110101;
	598 :	1111111111110011;
	597 :	1111111111111000;
	596 :	0000000000000010;
	595 :	1111111111100110;
	594 :	1111111111110111;
	593 :	1111111111110000;
	592 :	1111111111001000;
	591 :	1111111111111100;
	590 :	1111111111110111;
	589 :	1111111111101111;
	588 :	0000000000010101;
	587 :	1111111111101100;
	586 :	0000000000000100;
	585 :	1111111111111111;
	584 :	1111111111111100;
	583 :	0000000000001100;
	582 :	1111111111111001;
	581 :	1111111111011100;
	580 :	1111111111101000;
	579 :	1111111111110100;
	578 :	1111111111011110;
	577 :	0000000000000010;
	576 :	1111111111101000;
	575 :	0000000000000010;
	574 :	0000000000000100;
	573 :	1111111111111001;
	572 :	0000000000000111;
	571 :	0000000000000000;
	570 :	1111111111101100;
	569 :	1111111111111100;
	568 :	1111111111101000;
	567 :	1111111111011111;
	566 :	1111111111001010;
	565 :	1111111111111001;
	564 :	1111111111101111;
	563 :	1111111111110110;
	562 :	1111111111110001;
	561 :	0000000000010110;
	560 :	0000000000010011;
	559 :	1111111111101110;
	558 :	1111111111101111;
	557 :	1111111111101101;
	556 :	1111111111110100;
	555 :	1111111111101100;
	554 :	1111111111011001;
	553 :	1111111111111101;
	552 :	1111111111111011;
	551 :	0000000000000101;
	550 :	1111111111111011;
	549 :	1111111111110011;
	548 :	1111111111111101;
	547 :	0000000000000010;
	546 :	0000000000001001;
	545 :	1111111111110101;
	544 :	0000000000000010;
	543 :	1111111111110001;
	542 :	1111111111101001;
	541 :	1111111111111110;
	540 :	1111111111100100;
	539 :	1111111111110101;
	538 :	1111111111011111;
	537 :	1111111111110011;
	536 :	1111111111100010;
	535 :	1111111111100010;
	534 :	1111111111111110;
	533 :	1111111111111101;
	532 :	1111111111111011;
	531 :	1111111111110101;
	530 :	1111111111111101;
	529 :	0000000000000011;
	528 :	1111111111100011;
	527 :	1111111111011011;
	526 :	1111111111110111;
	525 :	1111111111110101;
	524 :	0000000000010000;
	523 :	0000000000000010;
	522 :	0000000000000100;
	521 :	1111111111111011;
	520 :	0000000000000101;
	519 :	1111111111110010;
	518 :	0000000000010100;
	517 :	1111111111111010;
	516 :	1111111111110110;
	515 :	1111111111110110;
	514 :	1111111111110111;
	513 :	1111111111101000;
	512 :	1111111111101101;
	511 :	0000000000000101;
	510 :	1111111111101000;
	509 :	1111111111101111;
	508 :	0000000000000100;
	507 :	1111111111001000;
	506 :	1111111111111011;
	505 :	0000000000000101;
	504 :	0000000000001001;
	503 :	1111111111111100;
	502 :	1111111111101111;
	501 :	1111111111110100;
	500 :	1111111111101101;
	499 :	1111111111101001;
	498 :	1111111111110001;
	497 :	1111111111111001;
	496 :	1111111111110110;
	495 :	0000000000000101;
	494 :	0000000000010000;
	493 :	0000000000001000;
	492 :	0000000000000110;
	491 :	1111111111110101;
	490 :	0000000000001100;
	489 :	1111111111110010;
	488 :	1111111111110101;
	487 :	1111111111101010;
	486 :	1111111111100010;
	485 :	1111111111110000;
	484 :	1111111111101100;
	483 :	1111111111110001;
	482 :	1111111111110010;
	481 :	1111111111110110;
	480 :	0000000000001010;
	479 :	1111111111111011;
	478 :	1111111111101110;
	477 :	1111111111101011;
	476 :	0000000000001111;
	475 :	0000000000000000;
	474 :	1111111111110101;
	473 :	1111111111101110;
	472 :	1111111111001101;
	471 :	0000000000000000;
	470 :	0000000000010000;
	469 :	0000000000010100;
	468 :	1111111111111000;
	467 :	0000000000000010;
	466 :	1111111111111100;
	465 :	1111111111111110;
	464 :	1111111111110110;
	463 :	1111111111111001;
	462 :	1111111111110100;
	461 :	1111111111110110;
	460 :	1111111111011010;
	459 :	1111111111101000;
	458 :	1111111111100110;
	457 :	1111111111111100;
	456 :	1111111111111011;
	455 :	0000000000000110;
	454 :	0000000000000111;
	453 :	1111111111011101;
	452 :	1111111111111101;
	451 :	0000000000100010;
	450 :	1111111111110110;
	449 :	0000000000010000;
	448 :	0000000000001011;
	447 :	0000000000001010;
	446 :	1111111111100010;
	445 :	1111111111101111;
	444 :	0000000000000100;
	443 :	0000000000001011;
	442 :	1111111111111110;
	441 :	0000000000001011;
	440 :	0000000000000111;
	439 :	0000000000001011;
	438 :	0000000000001000;
	437 :	0000000000000000;
	436 :	1111111111101110;
	435 :	1111111111111110;
	434 :	1111111111110100;
	433 :	1111111111100100;
	432 :	1111111111000101;
	431 :	1111111111101001;
	430 :	1111111111111001;
	429 :	1111111111111110;
	428 :	1111111111111000;
	427 :	1111111111111010;
	426 :	0000000000001110;
	425 :	1111111111111110;
	424 :	1111111111111011;
	423 :	0000000000101100;
	422 :	0000000000100100;
	421 :	0000000000000000;
	420 :	0000000000000000;
	419 :	1111111111101011;
	418 :	0000000000001101;
	417 :	1111111111111011;
	416 :	0000000000000101;
	415 :	0000000000001000;
	414 :	0000000000001000;
	413 :	1111111111110010;
	412 :	1111111111110100;
	411 :	0000000000000000;
	410 :	1111111111101110;
	409 :	1111111111110100;
	408 :	1111111111111100;
	407 :	1111111111110011;
	406 :	0000000000000000;
	405 :	1111111111000110;
	404 :	1111111111010010;
	403 :	1111111111111011;
	402 :	0000000000001000;
	401 :	0000000000000011;
	400 :	0000000000001000;
	399 :	1111111111111111;
	398 :	1111111111111110;
	397 :	0000000000011011;
	396 :	0000000000000000;
	395 :	0000000000001110;
	394 :	0000000000011011;
	393 :	0000000000011101;
	392 :	0000000000000011;
	391 :	0000000000000010;
	390 :	1111111111111000;
	389 :	1111111111101111;
	388 :	1111111111010010;
	387 :	1111111111100001;
	386 :	1111111111110101;
	385 :	1111111111101010;
	384 :	1111111111111000;
	383 :	1111111111110100;
	382 :	1111111111111001;
	381 :	1111111111111111;
	380 :	0000000000001000;
	379 :	1111111111111000;
	378 :	1111111111100100;
	377 :	1111111111000111;
	376 :	1111111111101111;
	375 :	0000000000000011;
	374 :	0000000000010001;
	373 :	0000000000000100;
	372 :	0000000000000010;
	371 :	0000000000010010;
	370 :	0000000000001100;
	369 :	0000000000000010;
	368 :	1111111111111001;
	367 :	0000000000001011;
	366 :	0000000000101011;
	365 :	0000000000001011;
	364 :	0000000000001111;
	363 :	1111111111110000;
	362 :	0000000000011001;
	361 :	1111111111110111;
	360 :	0000000000001100;
	359 :	1111111111110100;
	358 :	0000000000000001;
	357 :	1111111111110111;
	356 :	0000000000000011;
	355 :	1111111111101101;
	354 :	0000000000000000;
	353 :	0000000000000001;
	352 :	0000000000000100;
	351 :	0000000000001011;
	350 :	1111111111101110;
	349 :	1111111111011000;
	348 :	0000000000000100;
	347 :	0000000000001001;
	346 :	0000000000001000;
	345 :	0000000000000101;
	344 :	0000000000010010;
	343 :	0000000000010110;
	342 :	0000000000000000;
	341 :	0000000000000101;
	340 :	0000000000010001;
	339 :	0000000000101101;
	338 :	0000000000001011;
	337 :	0000000000011110;
	336 :	1111111111111110;
	335 :	0000000000010001;
	334 :	0000000000101000;
	333 :	0000000000010101;
	332 :	1111111111111101;
	331 :	0000000000000100;
	330 :	0000000000010000;
	329 :	0000000000000011;
	328 :	0000000000000001;
	327 :	0000000000001101;
	326 :	0000000000010000;
	325 :	0000000000001000;
	324 :	1111111111111110;
	323 :	1111111111110100;
	322 :	1111111111111001;
	321 :	0000000000000011;
	320 :	0000000000001101;
	319 :	0000000000001101;
	318 :	0000000000010100;
	317 :	0000000000001000;
	316 :	1111111111111110;
	315 :	0000000000001010;
	314 :	0000000000001111;
	313 :	0000000000000010;
	312 :	0000000000010010;
	311 :	0000000000010000;
	310 :	0000000000111000;
	309 :	0000000000100001;
	308 :	0000000000001100;
	307 :	1111111111110010;
	306 :	1111111111101101;
	305 :	1111111111111000;
	304 :	1111111111110101;
	303 :	1111111111110000;
	302 :	0000000000001011;
	301 :	0000000000000111;
	300 :	0000000000010111;
	299 :	0000000000010010;
	298 :	0000000000000101;
	297 :	0000000000000100;
	296 :	0000000000001110;
	295 :	1111111111111100;
	294 :	0000000000000110;
	293 :	0000000000001100;
	292 :	0000000000010010;
	291 :	0000000000001001;
	290 :	0000000000000011;
	289 :	0000000000001100;
	288 :	1111111111111011;
	287 :	0000000000001010;
	286 :	1111111111110001;
	285 :	1111111111111101;
	284 :	0000000000001010;
	283 :	0000000000001011;
	282 :	0000000000100101;
	281 :	0000000000100110;
	280 :	0000000000001011;
	279 :	0000000000010100;
	278 :	1111111111111000;
	277 :	0000000000000100;
	276 :	0000000000001000;
	275 :	1111111111100111;
	274 :	0000000000000101;
	273 :	0000000000000110;
	272 :	0000000000001101;
	271 :	1111111111110110;
	270 :	0000000000001000;
	269 :	0000000000011001;
	268 :	1111111111111110;
	267 :	0000000000000010;
	266 :	0000000000000101;
	265 :	1111111111111110;
	264 :	0000000000001010;
	263 :	0000000000001111;
	262 :	0000000000000111;
	261 :	0000000000001011;
	260 :	0000000000000101;
	259 :	0000000000001011;
	258 :	0000000000000000;
	257 :	1111111111110010;
	256 :	0000000000011111;
	255 :	0000000000001000;
	254 :	0000000000010000;
	253 :	0000000000011111;
	252 :	0000000000001000;
	251 :	1111111111110111;
	250 :	0000000000000001;
	249 :	0000000000001111;
	248 :	0000000000001011;
	247 :	0000000000000010;
	246 :	0000000000010010;
	245 :	0000000000000100;
	244 :	0000000000001001;
	243 :	0000000000000001;
	242 :	0000000000010011;
	241 :	0000000000001110;
	240 :	1111111111111101;
	239 :	0000000000000010;
	238 :	0000000000000000;
	237 :	0000000000000001;
	236 :	0000000000001011;
	235 :	0000000000010111;
	234 :	0000000000001001;
	233 :	0000000000001010;
	232 :	0000000000000110;
	231 :	0000000000001101;
	230 :	1111111111111001;
	229 :	0000000000000101;
	228 :	1111111111110101;
	227 :	0000000000001000;
	226 :	0000000000000110;
	225 :	0000000000011101;
	224 :	0000000000000110;
	223 :	0000000000100111;
	222 :	0000000000111111;
	221 :	1111111111111011;
	220 :	0000000000000010;
	219 :	0000000000011010;
	218 :	0000000000000100;
	217 :	0000000000000100;
	216 :	0000000000000001;
	215 :	0000000000010011;
	214 :	0000000000000010;
	213 :	0000000000000101;
	212 :	1111111111111001;
	211 :	1111111111111010;
	210 :	1111111111110100;
	209 :	1111111111111100;
	208 :	0000000000001101;
	207 :	0000000000000001;
	206 :	0000000000001011;
	205 :	0000000000001111;
	204 :	1111111111111011;
	203 :	0000000000010100;
	202 :	0000000000001110;
	201 :	1111111111110100;
	200 :	0000000000010111;
	199 :	0000000000100000;
	198 :	0000000000011111;
	197 :	1111111111111000;
	196 :	0000000000000111;
	195 :	0000000000010111;
	194 :	1111111111110000;
	193 :	0000000000000000;
	192 :	0000000000000110;
	191 :	0000000000001100;
	190 :	1111111111111100;
	189 :	0000000000011011;
	188 :	1111111111110100;
	187 :	1111111111111011;
	186 :	1111111111111100;
	185 :	0000000000000001;
	184 :	0000000000000010;
	183 :	1111111111111000;
	182 :	1111111111101110;
	181 :	1111111111111110;
	180 :	0000000000010000;
	179 :	0000000000000111;
	178 :	1111111111110101;
	177 :	1111111111111111;
	176 :	0000000000100100;
	175 :	1111111111100110;
	174 :	1111111111101100;
	173 :	0000000000011101;
	172 :	0000000000001011;
	171 :	1111111111111011;
	170 :	1111111111111101;
	169 :	0000000000001001;
	168 :	0000000000000101;
	167 :	0000000000001001;
	166 :	1111111111110011;
	165 :	1111111111101100;
	164 :	1111111111111011;
	163 :	1111111111010110;
	162 :	1111111111111100;
	161 :	1111111111111111;
	160 :	0000000000000000;
	159 :	1111111111100101;
	158 :	1111111111101110;
	157 :	1111111111100101;
	156 :	1111111111100101;
	155 :	1111111111101111;
	154 :	1111111111111001;
	153 :	1111111111101011;
	152 :	0000000000000011;
	151 :	1111111111101001;
	150 :	1111111111110000;
	149 :	0000000000001010;
	148 :	0000000000100010;
	147 :	0000000000001010;
	146 :	1111111111110100;
	145 :	0000000000000101;
	144 :	0000000000000010;
	143 :	0000000000011011;
	142 :	1111111111110101;
	141 :	0000000000010101;
	140 :	0000000000010000;
	139 :	1111111111101111;
	138 :	0000000000010110;
	137 :	0000000000000100;
	136 :	1111111111111110;
	135 :	0000000000010010;
	134 :	0000000000011011;
	133 :	0000000000000100;
	132 :	0000000000000111;
	131 :	0000000000000011;
	130 :	0000000000000100;
	129 :	0000000000001011;
	128 :	1111111111111011;
	127 :	1111111111101000;
	126 :	1111111111101011;
	125 :	1111111111110000;
	124 :	1111111111100010;
	123 :	1111111111100011;
	122 :	1111111111111010;
	121 :	1111111111110100;
	120 :	1111111111111101;
	119 :	1111111111110011;
	118 :	0000000000000011;
	117 :	1111111111110111;
	116 :	0000000000100101;
	115 :	0000000000001010;
	114 :	0000000000001010;
	113 :	1111111111111110;
	112 :	1111111111110011;
	111 :	1111111111110101;
	110 :	0000000000000101;
	109 :	1111111111111000;
	108 :	1111111111101110;
	107 :	1111111111110010;
	106 :	1111111111101100;
	105 :	0000000000010000;
	104 :	1111111111101111;
	103 :	1111111111110100;
	102 :	1111111111110111;
	101 :	0000000000000010;
	100 :	0000000000000001;
	99 :	1111111111110111;
	98 :	0000000000000110;
	97 :	1111111111110100;
	96 :	1111111111111011;
	95 :	1111111111110000;
	94 :	1111111111111011;
	93 :	1111111111101101;
	92 :	1111111111011000;
	91 :	1111111111110001;
	90 :	1111111111110101;
	89 :	0000000000001111;
	88 :	0000000000001100;
	87 :	1111111111101101;
	86 :	0000000000001101;
	85 :	1111111111110011;
	84 :	0000000000001100;
	83 :	0000000000001011;
	82 :	1111111111101011;
	81 :	0000000000010110;
	80 :	1111111111101111;
	79 :	1111111111101100;
	78 :	0000000000001000;
	77 :	0000000000010100;
	76 :	0000000000000011;
	75 :	0000000000010010;
	74 :	1111111111101111;
	73 :	1111111111111101;
	72 :	1111111111110100;
	71 :	0000000000001001;
	70 :	1111111111111110;
	69 :	0000000000000011;
	68 :	0000000000001000;
	67 :	0000000000010100;
	66 :	1111111111110010;
	65 :	1111111111110110;
	64 :	1111111111110000;
	63 :	0000000000001000;
	62 :	0000000000001011;
	61 :	0000000000001001;
	60 :	0000000000010001;
	59 :	1111111111110101;
	58 :	0000000000000100;
	57 :	0000000000001001;
	56 :	1111111111101101;
	55 :	1111111111110111;
	54 :	1111111111111110;
	53 :	0000000000010101;
	52 :	1111111111110111;
	51 :	0000000000001000;
	50 :	0000000000001000;
	49 :	0000000000010001;
	48 :	1111111111110110;
	47 :	1111111111111111;
	46 :	0000000000000100;
	45 :	0000000000001100;
	44 :	0000000000001010;
	43 :	1111111111110101;
	42 :	0000000000010110;
	41 :	0000000000010110;
	40 :	1111111111100110;
	39 :	0000000000001110;
	38 :	1111111111111010;
	37 :	0000000000000001;
	36 :	0000000000000001;
	35 :	1111111111110001;
	34 :	1111111111111111;
	33 :	1111111111111100;
	32 :	0000000000000101;
	31 :	1111111111101110;
	30 :	1111111111110111;
	29 :	0000000000010010;
	28 :	1111111111101011;
	27 :	0000000000001110;
	26 :	1111111111110100;
	25 :	1111111111110101;
	24 :	0000000000001010;
	23 :	1111111111111001;
	22 :	1111111111101111;
	21 :	1111111111110101;
	20 :	1111111111110101;
	19 :	1111111111110100;
	18 :	0000000000001100;
	17 :	1111111111111101;
	16 :	1111111111111011;
	15 :	0000000000010000;
	14 :	1111111111111101;
	13 :	1111111111110001;
	12 :	0000000000000011;
	11 :	0000000000000101;
	10 :	0000000000001011;
	9 :	0000000000001011;
	8 :	0000000000001101;
	7 :	1111111111110001;
	6 :	0000000000000011;
	5 :	1111111111101101;
	4 :	0000000000000110;
	3 :	0000000000001011;
	2 :	1111111111101011;
	1 :	0000000000000111;
	0 :	1111111111111010;
END;
