-- begin_signature
-- weights(numWeights
-- 784
-- neuronNumber
-- 4
-- layerNumber
-- 0
-- addressWidth
-- 10
-- dataWidth
-- 16
-- weightFile
-- "weights/weight_L0_N4.mif")
-- end_signature
WIDTH=16;
DEPTH=784;

ADDRESS_RADIX=UNS;
DATA_RADIX=BIN;

CONTENT BEGIN
	783 :	0000000000001001;
	782 :	0000000000000011;
	781 :	1111111111111110;
	780 :	1111111111101011;
	779 :	0000000000001011;
	778 :	1111111111110000;
	777 :	1111111111110000;
	776 :	1111111111111100;
	775 :	1111111111111101;
	774 :	1111111111110100;
	773 :	0000000000000111;
	772 :	0000000000010001;
	771 :	0000000000010010;
	770 :	0000000000101001;
	769 :	0000000000001100;
	768 :	0000000000011000;
	767 :	0000000000010101;
	766 :	1111111111111011;
	765 :	1111111111110101;
	764 :	0000000000000011;
	763 :	0000000000010011;
	762 :	1111111111110011;
	761 :	1111111111110001;
	760 :	0000000000000111;
	759 :	0000000000010010;
	758 :	0000000000000110;
	757 :	0000000000000001;
	756 :	0000000000010001;
	755 :	0000000000001000;
	754 :	0000000000000010;
	753 :	1111111111110010;
	752 :	1111111111101011;
	751 :	1111111111110000;
	750 :	0000000000010000;
	749 :	1111111111111110;
	748 :	0000000000001011;
	747 :	1111111111110111;
	746 :	0000000000000111;
	745 :	0000000000010000;
	744 :	0000000000000000;
	743 :	1111111111111101;
	742 :	0000000000001000;
	741 :	0000000000001101;
	740 :	0000000000001110;
	739 :	0000000000001000;
	738 :	1111111111111101;
	737 :	0000000000000101;
	736 :	0000000000010000;
	735 :	0000000000001110;
	734 :	0000000000101011;
	733 :	0000000000100110;
	732 :	0000000000010001;
	731 :	0000000000001000;
	730 :	0000000000000000;
	729 :	1111111111110100;
	728 :	1111111111101111;
	727 :	0000000000000011;
	726 :	1111111111110001;
	725 :	1111111111110001;
	724 :	1111111111110000;
	723 :	0000000000010001;
	722 :	1111111111101111;
	721 :	1111111111101010;
	720 :	1111111111111010;
	719 :	1111111111101100;
	718 :	1111111111101011;
	717 :	1111111111111100;
	716 :	1111111111101101;
	715 :	1111111111101010;
	714 :	0000000000001101;
	713 :	1111111111111110;
	712 :	0000000000000000;
	711 :	0000000000010000;
	710 :	0000000000001011;
	709 :	0000000000001011;
	708 :	0000000000011001;
	707 :	0000000000001010;
	706 :	0000000000010100;
	705 :	0000000000001110;
	704 :	1111111111100111;
	703 :	1111111111110010;
	702 :	1111111111111111;
	701 :	1111111111110010;
	700 :	0000000000010001;
	699 :	1111111111110001;
	698 :	0000000000001010;
	697 :	0000000000001111;
	696 :	0000000000001101;
	695 :	1111111111110010;
	694 :	1111111111111011;
	693 :	1111111111110010;
	692 :	0000000000010001;
	691 :	0000000000000100;
	690 :	1111111111101010;
	689 :	1111111111111010;
	688 :	1111111111111001;
	687 :	1111111111110001;
	686 :	1111111111110010;
	685 :	1111111111111001;
	684 :	1111111111101110;
	683 :	0000000000000001;
	682 :	0000000000001010;
	681 :	0000000000000001;
	680 :	0000000000000111;
	679 :	1111111111110001;
	678 :	1111111111101011;
	677 :	0000000000000011;
	676 :	1111111111110110;
	675 :	0000000000010100;
	674 :	0000000000001101;
	673 :	1111111111101111;
	672 :	1111111111111111;
	671 :	1111111111110001;
	670 :	1111111111110100;
	669 :	1111111111110001;
	668 :	0000000000010010;
	667 :	1111111111111101;
	666 :	1111111111101100;
	665 :	0000000000001001;
	664 :	1111111111111111;
	663 :	1111111111110101;
	662 :	0000000000001011;
	661 :	0000000000001110;
	660 :	1111111111110110;
	659 :	0000000000000001;
	658 :	1111111111101111;
	657 :	0000000000001001;
	656 :	0000000000010001;
	655 :	0000000000000110;
	654 :	1111111111101100;
	653 :	0000000000001010;
	652 :	0000000000010000;
	651 :	1111111111111111;
	650 :	1111111111111000;
	649 :	0000000000000011;
	648 :	1111111111110001;
	647 :	0000000000000001;
	646 :	1111111111101010;
	645 :	1111111111101111;
	644 :	1111111111111110;
	643 :	1111111111111000;
	642 :	0000000000000010;
	641 :	1111111111101110;
	640 :	1111111111111010;
	639 :	0000000000010000;
	638 :	1111111111110100;
	637 :	0000000000001111;
	636 :	0000000000000111;
	635 :	1111111111101111;
	634 :	1111111111110000;
	633 :	0000000000000000;
	632 :	0000000000001101;
	631 :	1111111111110101;
	630 :	0000000000001110;
	629 :	1111111111101101;
	628 :	0000000000001011;
	627 :	1111111111110101;
	626 :	1111111111101000;
	625 :	1111111111110010;
	624 :	0000000000010000;
	623 :	1111111111111001;
	622 :	0000000000000001;
	621 :	1111111111111111;
	620 :	0000000000010001;
	619 :	0000000000010001;
	618 :	0000000000001001;
	617 :	0000000000000101;
	616 :	1111111111110101;
	615 :	0000000000001000;
	614 :	0000000000010011;
	613 :	0000000000010011;
	612 :	0000000000001100;
	611 :	0000000000000101;
	610 :	1111111111101110;
	609 :	1111111111111000;
	608 :	1111111111100101;
	607 :	0000000000001010;
	606 :	0000000000000110;
	605 :	1111111111111100;
	604 :	0000000000000111;
	603 :	0000000000001000;
	602 :	0000000000001110;
	601 :	0000000000010000;
	600 :	1111111111110001;
	599 :	1111111111111000;
	598 :	1111111111101110;
	597 :	1111111111101000;
	596 :	0000000000001001;
	595 :	0000000000001010;
	594 :	0000000000001011;
	593 :	0000000000000011;
	592 :	0000000000001000;
	591 :	1111111111111011;
	590 :	0000000000001001;
	589 :	0000000000001011;
	588 :	0000000000010011;
	587 :	1111111111111011;
	586 :	0000000000000101;
	585 :	0000000000010100;
	584 :	0000000000001101;
	583 :	0000000000000111;
	582 :	1111111111100010;
	581 :	1111111111110000;
	580 :	0000000000000111;
	579 :	1111111111111100;
	578 :	0000000000001101;
	577 :	0000000000000111;
	576 :	1111111111111000;
	575 :	0000000000000100;
	574 :	1111111111110110;
	573 :	1111111111100101;
	572 :	1111111111110100;
	571 :	1111111111101010;
	570 :	0000000000001100;
	569 :	1111111111101011;
	568 :	1111111111101001;
	567 :	1111111111111111;
	566 :	0000000000010010;
	565 :	0000000000001001;
	564 :	0000000000000001;
	563 :	1111111111111100;
	562 :	0000000000001110;
	561 :	1111111111110010;
	560 :	1111111111111101;
	559 :	1111111111111010;
	558 :	1111111111111101;
	557 :	0000000000000000;
	556 :	1111111111111101;
	555 :	1111111111111101;
	554 :	1111111111100000;
	553 :	1111111111101101;
	552 :	1111111111111000;
	551 :	1111111111110110;
	550 :	0000000000000001;
	549 :	1111111111110001;
	548 :	1111111111111101;
	547 :	1111111111101111;
	546 :	0000000000000111;
	545 :	0000000000001011;
	544 :	1111111111101101;
	543 :	0000000000001111;
	542 :	1111111111111001;
	541 :	0000000000010011;
	540 :	1111111111111100;
	539 :	1111111111101001;
	538 :	0000000000010100;
	537 :	0000000000011001;
	536 :	1111111111100111;
	535 :	0000000000001001;
	534 :	1111111111111111;
	533 :	0000000000000010;
	532 :	1111111111111110;
	531 :	0000000000000111;
	530 :	1111111111110111;
	529 :	1111111111100101;
	528 :	0000000000000001;
	527 :	0000000000001010;
	526 :	0000000000001101;
	525 :	0000000000000101;
	524 :	1111111111111101;
	523 :	1111111111101000;
	522 :	0000000000000001;
	521 :	0000000000001110;
	520 :	0000000000000110;
	519 :	1111111111110000;
	518 :	1111111111110100;
	517 :	0000000000001011;
	516 :	1111111111101110;
	515 :	1111111111110100;
	514 :	0000000000000111;
	513 :	0000000000000110;
	512 :	1111111111111111;
	511 :	0000000000000110;
	510 :	0000000000001111;
	509 :	1111111111110000;
	508 :	1111111111101110;
	507 :	0000000000000111;
	506 :	0000000000001110;
	505 :	0000000000000111;
	504 :	1111111111110010;
	503 :	0000000000011111;
	502 :	0000000000001111;
	501 :	0000000000100100;
	500 :	0000000000100000;
	499 :	1111111111111110;
	498 :	0000000000001001;
	497 :	0000000000001001;
	496 :	0000000000010001;
	495 :	0000000000001001;
	494 :	0000000000001000;
	493 :	0000000000001111;
	492 :	0000000000001011;
	491 :	1111111111101101;
	490 :	1111111111101111;
	489 :	0000000000001001;
	488 :	0000000000000000;
	487 :	0000000000000101;
	486 :	0000000000000100;
	485 :	0000000000000000;
	484 :	1111111111111101;
	483 :	1111111111110100;
	482 :	1111111111101111;
	481 :	1111111111110000;
	480 :	0000000000000101;
	479 :	1111111111111100;
	478 :	1111111111111110;
	477 :	1111111111110111;
	476 :	0000000000010101;
	475 :	1111111111111010;
	474 :	0000000000001111;
	473 :	0000000000100010;
	472 :	0000000000001110;
	471 :	0000000000101000;
	470 :	1111111111111101;
	469 :	1111111111111001;
	468 :	0000000000010010;
	467 :	0000000000000111;
	466 :	0000000000001011;
	465 :	0000000000010010;
	464 :	1111111111110010;
	463 :	0000000000000011;
	462 :	0000000000010000;
	461 :	1111111111111111;
	460 :	1111111111101101;
	459 :	0000000000001011;
	458 :	1111111111111000;
	457 :	1111111111110100;
	456 :	1111111111111010;
	455 :	0000000000001110;
	454 :	1111111111101100;
	453 :	1111111111111111;
	452 :	1111111111101011;
	451 :	1111111111101110;
	450 :	0000000000000011;
	449 :	0000000000000011;
	448 :	0000000000010101;
	447 :	0000000000010001;
	446 :	0000000000111011;
	445 :	0000000000001000;
	444 :	0000000000011000;
	443 :	0000000000000110;
	442 :	1111111111111001;
	441 :	1111111111110100;
	440 :	0000000000000100;
	439 :	0000000000000111;
	438 :	1111111111100110;
	437 :	0000000000001101;
	436 :	1111111111101111;
	435 :	0000000000000000;
	434 :	0000000000001011;
	433 :	0000000000001000;
	432 :	1111111111110000;
	431 :	0000000000000110;
	430 :	1111111111101111;
	429 :	0000000000001001;
	428 :	1111111111110100;
	427 :	1111111111110111;
	426 :	1111111111101101;
	425 :	1111111111110100;
	424 :	1111111111100111;
	423 :	1111111111111110;
	422 :	0000000000000000;
	421 :	0000000000000011;
	420 :	0000000000000100;
	419 :	1111111111110111;
	418 :	0000000000000110;
	417 :	0000000000010011;
	416 :	0000000000010001;
	415 :	0000000000010000;
	414 :	1111111111110001;
	413 :	1111111111111101;
	412 :	0000000000001010;
	411 :	1111111111101000;
	410 :	1111111111111000;
	409 :	0000000000001001;
	408 :	1111111111110011;
	407 :	1111111111110110;
	406 :	1111111111111010;
	405 :	1111111111100110;
	404 :	0000000000010001;
	403 :	1111111111111011;
	402 :	1111111111110111;
	401 :	1111111111111001;
	400 :	1111111111110110;
	399 :	0000000000000111;
	398 :	0000000000000111;
	397 :	1111111111101101;
	396 :	0000000000011101;
	395 :	0000000000000101;
	394 :	1111111111111111;
	393 :	1111111111110000;
	392 :	1111111111111101;
	391 :	0000000000000110;
	390 :	0000000000000111;
	389 :	1111111111101110;
	388 :	1111111111101110;
	387 :	1111111111101111;
	386 :	1111111111110101;
	385 :	1111111111101101;
	384 :	0000000000001110;
	383 :	1111111111111110;
	382 :	1111111111111100;
	381 :	1111111111111110;
	380 :	1111111111111110;
	379 :	0000000000001111;
	378 :	0000000000000011;
	377 :	1111111111101100;
	376 :	1111111111111100;
	375 :	0000000000000111;
	374 :	0000000000001110;
	373 :	1111111111111111;
	372 :	1111111111111001;
	371 :	0000000000001000;
	370 :	1111111111111010;
	369 :	0000000000011101;
	368 :	0000000000010000;
	367 :	0000000000000110;
	366 :	0000000000010110;
	365 :	0000000000001001;
	364 :	0000000000000111;
	363 :	0000000000010010;
	362 :	1111111111110100;
	361 :	1111111111110111;
	360 :	1111111111101110;
	359 :	1111111111110000;
	358 :	0000000000000101;
	357 :	1111111111111000;
	356 :	1111111111101000;
	355 :	1111111111101110;
	354 :	0000000000010001;
	353 :	1111111111101010;
	352 :	1111111111111010;
	351 :	1111111111111001;
	350 :	1111111111100111;
	349 :	1111111111101110;
	348 :	0000000000000111;
	347 :	0000000000000101;
	346 :	0000000000001010;
	345 :	1111111111101111;
	344 :	0000000000000110;
	343 :	0000000000000011;
	342 :	1111111111101011;
	341 :	0000000000011000;
	340 :	1111111111101111;
	339 :	0000000000000000;
	338 :	1111111111101100;
	337 :	0000000000001111;
	336 :	0000000000010000;
	335 :	0000000000010010;
	334 :	1111111111101110;
	333 :	0000000000010100;
	332 :	0000000000000001;
	331 :	1111111111110101;
	330 :	0000000000001011;
	329 :	1111111111111000;
	328 :	1111111111111101;
	327 :	1111111111101010;
	326 :	1111111111101100;
	325 :	0000000000001011;
	324 :	0000000000001000;
	323 :	0000000000001110;
	322 :	0000000000000101;
	321 :	0000000000001000;
	320 :	1111111111111000;
	319 :	1111111111111011;
	318 :	1111111111101110;
	317 :	1111111111111101;
	316 :	1111111111101111;
	315 :	1111111111101100;
	314 :	1111111111101011;
	313 :	0000000000011101;
	312 :	1111111111111110;
	311 :	1111111111101001;
	310 :	1111111111110000;
	309 :	0000000000000111;
	308 :	1111111111111001;
	307 :	1111111111101011;
	306 :	0000000000010001;
	305 :	1111111111111110;
	304 :	0000000000001100;
	303 :	1111111111101110;
	302 :	1111111111100100;
	301 :	0000000000001111;
	300 :	0000000000000000;
	299 :	0000000000010001;
	298 :	1111111111110111;
	297 :	0000000000000000;
	296 :	1111111111110110;
	295 :	1111111111101110;
	294 :	1111111111111101;
	293 :	1111111111111110;
	292 :	0000000000000000;
	291 :	1111111111101011;
	290 :	1111111111110010;
	289 :	1111111111111011;
	288 :	1111111111110000;
	287 :	0000000000001110;
	286 :	0000000000001011;
	285 :	0000000000000111;
	284 :	0000000000001001;
	283 :	1111111111110001;
	282 :	1111111111110010;
	281 :	1111111111110000;
	280 :	0000000000001001;
	279 :	1111111111110100;
	278 :	0000000000000010;
	277 :	0000000000010000;
	276 :	1111111111100111;
	275 :	1111111111100111;
	274 :	1111111111111001;
	273 :	0000000000001111;
	272 :	1111111111101110;
	271 :	1111111111110110;
	270 :	0000000000000111;
	269 :	1111111111101111;
	268 :	1111111111110110;
	267 :	1111111111110001;
	266 :	0000000000010010;
	265 :	0000000000001101;
	264 :	1111111111110100;
	263 :	0000000000000101;
	262 :	1111111111111000;
	261 :	1111111111110111;
	260 :	1111111111101110;
	259 :	1111111111111001;
	258 :	1111111111101100;
	257 :	1111111111111000;
	256 :	1111111111110001;
	255 :	1111111111110111;
	254 :	0000000000010101;
	253 :	0000000000010110;
	252 :	1111111111111100;
	251 :	0000000000001010;
	250 :	0000000000001110;
	249 :	0000000000000010;
	248 :	1111111111101111;
	247 :	0000000000001011;
	246 :	0000000000000101;
	245 :	1111111111111101;
	244 :	0000000000001010;
	243 :	1111111111111101;
	242 :	0000000000001010;
	241 :	0000000000001101;
	240 :	1111111111111001;
	239 :	1111111111111011;
	238 :	0000000000001100;
	237 :	0000000000000010;
	236 :	0000000000010000;
	235 :	0000000000000010;
	234 :	1111111111101110;
	233 :	0000000000000111;
	232 :	0000000000000010;
	231 :	1111111111110111;
	230 :	0000000000000101;
	229 :	1111111111110111;
	228 :	1111111111110111;
	227 :	0000000000001100;
	226 :	0000000000010011;
	225 :	0000000000010110;
	224 :	0000000000000110;
	223 :	0000000000000011;
	222 :	1111111111111100;
	221 :	1111111111110110;
	220 :	0000000000000100;
	219 :	0000000000000000;
	218 :	0000000000000000;
	217 :	0000000000001010;
	216 :	1111111111101101;
	215 :	1111111111111100;
	214 :	1111111111110110;
	213 :	0000000000001110;
	212 :	0000000000000101;
	211 :	1111111111110011;
	210 :	0000000000000010;
	209 :	1111111111110110;
	208 :	1111111111110100;
	207 :	1111111111101011;
	206 :	0000000000001110;
	205 :	1111111111111111;
	204 :	0000000000000100;
	203 :	0000000000001100;
	202 :	0000000000000001;
	201 :	0000000000001100;
	200 :	0000000000010001;
	199 :	0000000000000011;
	198 :	0000000000000011;
	197 :	1111111111110111;
	196 :	0000000000010100;
	195 :	0000000000010000;
	194 :	1111111111110100;
	193 :	1111111111101000;
	192 :	1111111111101100;
	191 :	0000000000000000;
	190 :	1111111111101110;
	189 :	1111111111111110;
	188 :	0000000000010011;
	187 :	0000000000000000;
	186 :	1111111111110110;
	185 :	0000000000000101;
	184 :	1111111111100111;
	183 :	0000000000000101;
	182 :	1111111111100101;
	181 :	1111111111110111;
	180 :	0000000000001011;
	179 :	1111111111111111;
	178 :	1111111111101101;
	177 :	0000000000000001;
	176 :	1111111111101010;
	175 :	0000000000001010;
	174 :	0000000000000100;
	173 :	1111111111110101;
	172 :	0000000000000101;
	171 :	1111111111101111;
	170 :	1111111111110011;
	169 :	1111111111111111;
	168 :	1111111111110001;
	167 :	0000000000001101;
	166 :	1111111111101110;
	165 :	1111111111101101;
	164 :	0000000000001100;
	163 :	0000000000000110;
	162 :	1111111111101000;
	161 :	1111111111111100;
	160 :	1111111111110010;
	159 :	0000000000000111;
	158 :	1111111111111000;
	157 :	1111111111101001;
	156 :	1111111111100110;
	155 :	1111111111111001;
	154 :	0000000000001000;
	153 :	1111111111101110;
	152 :	0000000000000011;
	151 :	0000000000000011;
	150 :	0000000000000010;
	149 :	1111111111110100;
	148 :	1111111111111010;
	147 :	0000000000010000;
	146 :	0000000000001100;
	145 :	0000000000000001;
	144 :	1111111111111110;
	143 :	0000000000001000;
	142 :	0000000000000101;
	141 :	0000000000010101;
	140 :	0000000000000100;
	139 :	0000000000001011;
	138 :	1111111111111110;
	137 :	1111111111101101;
	136 :	0000000000001011;
	135 :	0000000000001101;
	134 :	1111111111111001;
	133 :	0000000000001110;
	132 :	1111111111110111;
	131 :	0000000000001111;
	130 :	0000000000000101;
	129 :	0000000000001010;
	128 :	0000000000000101;
	127 :	1111111111110111;
	126 :	0000000000010000;
	125 :	0000000000000100;
	124 :	1111111111101001;
	123 :	0000000000001001;
	122 :	1111111111111100;
	121 :	0000000000000110;
	120 :	1111111111101101;
	119 :	1111111111110101;
	118 :	1111111111111111;
	117 :	1111111111110001;
	116 :	1111111111111101;
	115 :	1111111111111101;
	114 :	1111111111101010;
	113 :	1111111111111100;
	112 :	0000000000000110;
	111 :	0000000000000010;
	110 :	0000000000000001;
	109 :	1111111111110001;
	108 :	1111111111111001;
	107 :	0000000000000011;
	106 :	0000000000000100;
	105 :	1111111111110000;
	104 :	0000000000001110;
	103 :	0000000000000011;
	102 :	1111111111100100;
	101 :	1111111111101101;
	100 :	1111111111111101;
	99 :	0000000000000101;
	98 :	0000000000001000;
	97 :	1111111111110110;
	96 :	1111111111111101;
	95 :	0000000000000100;
	94 :	0000000000001101;
	93 :	1111111111110110;
	92 :	1111111111110100;
	91 :	1111111111111101;
	90 :	1111111111110011;
	89 :	1111111111101111;
	88 :	1111111111110101;
	87 :	1111111111101100;
	86 :	1111111111101011;
	85 :	1111111111111000;
	84 :	0000000000000110;
	83 :	0000000000001000;
	82 :	0000000000000101;
	81 :	0000000000001101;
	80 :	0000000000000101;
	79 :	1111111111110111;
	78 :	0000000000000010;
	77 :	1111111111111001;
	76 :	1111111111111100;
	75 :	0000000000000000;
	74 :	1111111111110011;
	73 :	1111111111100111;
	72 :	1111111111110000;
	71 :	1111111111101111;
	70 :	1111111111101110;
	69 :	0000000000001100;
	68 :	0000000000001111;
	67 :	0000000000001000;
	66 :	1111111111111100;
	65 :	0000000000010101;
	64 :	1111111111111000;
	63 :	0000000000000100;
	62 :	1111111111111110;
	61 :	0000000000010010;
	60 :	0000000000001000;
	59 :	1111111111110110;
	58 :	0000000000001110;
	57 :	0000000000010000;
	56 :	1111111111111010;
	55 :	0000000000001010;
	54 :	0000000000000100;
	53 :	0000000000001001;
	52 :	1111111111110101;
	51 :	0000000000000100;
	50 :	1111111111110100;
	49 :	0000000000001110;
	48 :	0000000000000101;
	47 :	1111111111111010;
	46 :	1111111111101110;
	45 :	0000000000001011;
	44 :	1111111111101011;
	43 :	0000000000010011;
	42 :	1111111111110011;
	41 :	1111111111111010;
	40 :	0000000000010000;
	39 :	0000000000000110;
	38 :	0000000000010000;
	37 :	0000000000010100;
	36 :	0000000000001100;
	35 :	1111111111110110;
	34 :	1111111111110011;
	33 :	0000000000000110;
	32 :	0000000000000010;
	31 :	0000000000000001;
	30 :	1111111111110010;
	29 :	0000000000000011;
	28 :	0000000000000111;
	27 :	0000000000000101;
	26 :	1111111111111011;
	25 :	0000000000000100;
	24 :	0000000000010001;
	23 :	0000000000000110;
	22 :	1111111111101111;
	21 :	0000000000000010;
	20 :	0000000000000011;
	19 :	0000000000000101;
	18 :	0000000000010010;
	17 :	1111111111111110;
	16 :	0000000000010000;
	15 :	0000000000000101;
	14 :	1111111111110001;
	13 :	1111111111110011;
	12 :	1111111111111000;
	11 :	1111111111101011;
	10 :	0000000000001101;
	9 :	0000000000001110;
	8 :	1111111111111101;
	7 :	1111111111110001;
	6 :	0000000000000001;
	5 :	0000000000001110;
	4 :	0000000000001110;
	3 :	1111111111110011;
	2 :	1111111111111110;
	1 :	1111111111111111;
	0 :	0000000000001101;
END;
