-- begin_signature
-- weights(numWeights
-- 784
-- neuronNumber
-- 0
-- layerNumber
-- 0
-- addressWidth
-- 10
-- dataWidth
-- 16
-- weightFile
-- "weights/weight_L0_N0.mif")
-- end_signature
WIDTH=16;
DEPTH=784;

ADDRESS_RADIX=UNS;
DATA_RADIX=BIN;

CONTENT BEGIN
	783 :	0000000000001101;
	782 :	1111111111110001;
	781 :	0000000000000000;
	780 :	0000000000010001;
	779 :	1111111111110110;
	778 :	0000000000000010;
	777 :	0000000000010101;
	776 :	1111111111111101;
	775 :	0000000000010001;
	774 :	1111111111110101;
	773 :	0000000000000111;
	772 :	1111111111110101;
	771 :	1111111111110110;
	770 :	0000000000010000;
	769 :	1111111111101101;
	768 :	0000000000010000;
	767 :	1111111111111001;
	766 :	1111111111111111;
	765 :	1111111111110010;
	764 :	1111111111110100;
	763 :	1111111111111000;
	762 :	1111111111110011;
	761 :	0000000000001011;
	760 :	1111111111101111;
	759 :	1111111111101010;
	758 :	0000000000001101;
	757 :	0000000000001001;
	756 :	0000000000001111;
	755 :	0000000000000010;
	754 :	0000000000000111;
	753 :	1111111111110110;
	752 :	0000000000001010;
	751 :	0000000000000100;
	750 :	1111111111110000;
	749 :	0000000000000011;
	748 :	0000000000010010;
	747 :	1111111111111011;
	746 :	1111111111110111;
	745 :	1111111111101110;
	744 :	0000000000001111;
	743 :	1111111111110001;
	742 :	0000000000001011;
	741 :	1111111111110001;
	740 :	0000000000000110;
	739 :	0000000000010000;
	738 :	0000000000001100;
	737 :	1111111111111001;
	736 :	1111111111101100;
	735 :	0000000000010011;
	734 :	0000000000000001;
	733 :	0000000000001000;
	732 :	0000000000100001;
	731 :	1111111111111010;
	730 :	1111111111111001;
	729 :	1111111111101010;
	728 :	1111111111110010;
	727 :	0000000000010000;
	726 :	0000000000010011;
	725 :	0000000000001111;
	724 :	1111111111111000;
	723 :	1111111111111111;
	722 :	1111111111110101;
	721 :	0000000000000100;
	720 :	0000000000000100;
	719 :	1111111111110001;
	718 :	0000000000000110;
	717 :	1111111111101000;
	716 :	0000000000001100;
	715 :	1111111111110101;
	714 :	0000000000000011;
	713 :	1111111111111110;
	712 :	0000000000001001;
	711 :	0000000000010000;
	710 :	0000000000001001;
	709 :	0000000000011000;
	708 :	0000000000011011;
	707 :	0000000000011011;
	706 :	0000000000001001;
	705 :	1111111111111111;
	704 :	1111111111111001;
	703 :	1111111111111011;
	702 :	0000000000000010;
	701 :	1111111111110001;
	700 :	0000000000001100;
	699 :	1111111111111111;
	698 :	1111111111110110;
	697 :	0000000000010101;
	696 :	1111111111111001;
	695 :	1111111111110100;
	694 :	0000000000010001;
	693 :	0000000000001000;
	692 :	1111111111111011;
	691 :	0000000000010010;
	690 :	0000000000001111;
	689 :	1111111111101110;
	688 :	1111111111101010;
	687 :	1111111111101101;
	686 :	1111111111111000;
	685 :	1111111111111100;
	684 :	0000000000010001;
	683 :	1111111111101111;
	682 :	0000000000010011;
	681 :	1111111111111100;
	680 :	1111111111110101;
	679 :	0000000000001101;
	678 :	1111111111111000;
	677 :	1111111111111011;
	676 :	0000000000010000;
	675 :	1111111111101011;
	674 :	1111111111111100;
	673 :	1111111111110011;
	672 :	0000000000010011;
	671 :	1111111111101110;
	670 :	1111111111111101;
	669 :	0000000000001110;
	668 :	1111111111111111;
	667 :	1111111111110000;
	666 :	0000000000001111;
	665 :	1111111111111010;
	664 :	0000000000000101;
	663 :	1111111111110010;
	662 :	1111111111111010;
	661 :	0000000000000010;
	660 :	1111111111100111;
	659 :	1111111111100010;
	658 :	0000000000000101;
	657 :	0000000000010010;
	656 :	1111111111110010;
	655 :	0000000000001100;
	654 :	0000000000001011;
	653 :	0000000000001010;
	652 :	0000000000001010;
	651 :	1111111111111000;
	650 :	1111111111111000;
	649 :	0000000000001110;
	648 :	0000000000010010;
	647 :	1111111111101101;
	646 :	0000000000010011;
	645 :	0000000000000110;
	644 :	1111111111111001;
	643 :	0000000000010011;
	642 :	1111111111111101;
	641 :	0000000000010011;
	640 :	0000000000101010;
	639 :	0000000000100010;
	638 :	1111111111111100;
	637 :	0000000000000111;
	636 :	0000000000001010;
	635 :	1111111111111110;
	634 :	1111111111101111;
	633 :	0000000000000101;
	632 :	1111111111111001;
	631 :	1111111111101001;
	630 :	1111111111101110;
	629 :	1111111111111101;
	628 :	1111111111100111;
	627 :	0000000000000111;
	626 :	0000000000001011;
	625 :	0000000000001011;
	624 :	1111111111110101;
	623 :	1111111111101111;
	622 :	0000000000010010;
	621 :	1111111111110101;
	620 :	1111111111111111;
	619 :	0000000000000111;
	618 :	1111111111110101;
	617 :	1111111111101011;
	616 :	1111111111110000;
	615 :	1111111111101010;
	614 :	1111111111110100;
	613 :	0000000000001010;
	612 :	0000000000010101;
	611 :	0000000000100001;
	610 :	0000000000010000;
	609 :	0000000000000011;
	608 :	0000000000001110;
	607 :	0000000000001110;
	606 :	1111111111101111;
	605 :	0000000000001010;
	604 :	0000000000001010;
	603 :	1111111111110111;
	602 :	1111111111110111;
	601 :	1111111111110111;
	600 :	1111111111110000;
	599 :	1111111111110110;
	598 :	0000000000000000;
	597 :	0000000000000110;
	596 :	0000000000000110;
	595 :	0000000000001100;
	594 :	1111111111111111;
	593 :	0000000000000111;
	592 :	0000000000000010;
	591 :	0000000000000000;
	590 :	1111111111110100;
	589 :	1111111111101111;
	588 :	1111111111110111;
	587 :	0000000000000001;
	586 :	0000000000001101;
	585 :	1111111111111011;
	584 :	0000000000010111;
	583 :	0000000000010001;
	582 :	0000000000010010;
	581 :	0000000000001110;
	580 :	1111111111110111;
	579 :	1111111111101110;
	578 :	1111111111110111;
	577 :	1111111111101110;
	576 :	1111111111101111;
	575 :	1111111111101101;
	574 :	1111111111111001;
	573 :	1111111111110100;
	572 :	1111111111111001;
	571 :	1111111111111110;
	570 :	1111111111111011;
	569 :	0000000000000000;
	568 :	1111111111100111;
	567 :	1111111111101100;
	566 :	0000000000001100;
	565 :	0000000000000001;
	564 :	1111111111110011;
	563 :	1111111111101110;
	562 :	0000000000001101;
	561 :	0000000000001111;
	560 :	0000000000010000;
	559 :	1111111111101011;
	558 :	0000000000011011;
	557 :	0000000000010111;
	556 :	1111111111110110;
	555 :	0000000000000111;
	554 :	0000000000001001;
	553 :	1111111111101000;
	552 :	1111111111110100;
	551 :	0000000000000011;
	550 :	1111111111101110;
	549 :	0000000000000100;
	548 :	0000000000001101;
	547 :	0000000000001010;
	546 :	1111111111111011;
	545 :	1111111111110010;
	544 :	0000000000001110;
	543 :	0000000000000001;
	542 :	1111111111111111;
	541 :	1111111111101100;
	540 :	1111111111110110;
	539 :	0000000000001110;
	538 :	1111111111110110;
	537 :	0000000000001010;
	536 :	1111111111111000;
	535 :	1111111111111011;
	534 :	1111111111101010;
	533 :	0000000000001010;
	532 :	0000000000001010;
	531 :	1111111111110111;
	530 :	1111111111110001;
	529 :	1111111111110010;
	528 :	0000000000000111;
	527 :	1111111111111100;
	526 :	0000000000000110;
	525 :	0000000000001011;
	524 :	1111111111110000;
	523 :	1111111111101011;
	522 :	1111111111110110;
	521 :	1111111111111111;
	520 :	0000000000001111;
	519 :	0000000000001001;
	518 :	1111111111111000;
	517 :	0000000000001101;
	516 :	0000000000000001;
	515 :	1111111111110110;
	514 :	1111111111110110;
	513 :	1111111111111100;
	512 :	1111111111101010;
	511 :	1111111111101010;
	510 :	1111111111110110;
	509 :	0000000000000100;
	508 :	1111111111101100;
	507 :	1111111111101010;
	506 :	0000000000010100;
	505 :	0000000000010011;
	504 :	0000000000000100;
	503 :	1111111111101100;
	502 :	0000000000010001;
	501 :	1111111111110110;
	500 :	1111111111111011;
	499 :	1111111111110001;
	498 :	1111111111101111;
	497 :	0000000000001000;
	496 :	1111111111110011;
	495 :	1111111111100110;
	494 :	1111111111111001;
	493 :	0000000000001000;
	492 :	0000000000001001;
	491 :	0000000000000101;
	490 :	0000000000010011;
	489 :	1111111111100011;
	488 :	1111111111111110;
	487 :	0000000000001000;
	486 :	1111111111101101;
	485 :	0000000000001011;
	484 :	1111111111101101;
	483 :	1111111111111110;
	482 :	1111111111111010;
	481 :	0000000000001000;
	480 :	1111111111110010;
	479 :	1111111111101110;
	478 :	1111111111110010;
	477 :	1111111111101111;
	476 :	0000000000010100;
	475 :	0000000000000001;
	474 :	1111111111110000;
	473 :	1111111111110110;
	472 :	0000000000000100;
	471 :	1111111111110101;
	470 :	1111111111111111;
	469 :	0000000000001010;
	468 :	1111111111101111;
	467 :	1111111111111101;
	466 :	0000000000000010;
	465 :	1111111111111101;
	464 :	0000000000001101;
	463 :	1111111111101100;
	462 :	1111111111110001;
	461 :	1111111111011111;
	460 :	0000000000000001;
	459 :	1111111111110111;
	458 :	1111111111110100;
	457 :	0000000000001100;
	456 :	0000000000001110;
	455 :	1111111111111001;
	454 :	0000000000000010;
	453 :	1111111111111011;
	452 :	1111111111110101;
	451 :	0000000000000001;
	450 :	0000000000000100;
	449 :	1111111111111010;
	448 :	1111111111101111;
	447 :	0000000000001000;
	446 :	0000000000010001;
	445 :	0000000000001111;
	444 :	1111111111110001;
	443 :	0000000000001110;
	442 :	0000000000001000;
	441 :	1111111111101101;
	440 :	1111111111111010;
	439 :	0000000000000010;
	438 :	1111111111100011;
	437 :	1111111111110111;
	436 :	0000000000000011;
	435 :	1111111111101011;
	434 :	1111111111100101;
	433 :	1111111111101111;
	432 :	1111111111101000;
	431 :	1111111111101101;
	430 :	0000000000001011;
	429 :	1111111111101010;
	428 :	0000000000000101;
	427 :	1111111111111110;
	426 :	0000000000000000;
	425 :	0000000000000000;
	424 :	1111111111110011;
	423 :	1111111111110001;
	422 :	0000000000001000;
	421 :	0000000000001011;
	420 :	0000000000001110;
	419 :	1111111111101011;
	418 :	0000000000000110;
	417 :	0000000000010011;
	416 :	1111111111111000;
	415 :	1111111111111010;
	414 :	1111111111110101;
	413 :	1111111111101010;
	412 :	1111111111101001;
	411 :	1111111111111001;
	410 :	1111111111101001;
	409 :	1111111111111111;
	408 :	1111111111110011;
	407 :	1111111111110100;
	406 :	1111111111110011;
	405 :	1111111111101010;
	404 :	0000000000000000;
	403 :	1111111111111100;
	402 :	1111111111111110;
	401 :	1111111111101000;
	400 :	1111111111101110;
	399 :	1111111111110000;
	398 :	1111111111101000;
	397 :	1111111111110111;
	396 :	1111111111101000;
	395 :	1111111111110100;
	394 :	1111111111111010;
	393 :	0000000000000110;
	392 :	1111111111111010;
	391 :	0000000000001101;
	390 :	0000000000000110;
	389 :	0000000000000111;
	388 :	0000000000010000;
	387 :	1111111111101011;
	386 :	1111111111101010;
	385 :	0000000000001010;
	384 :	0000000000010010;
	383 :	0000000000000101;
	382 :	0000000000001001;
	381 :	1111111111110011;
	380 :	0000000000000000;
	379 :	1111111111111011;
	378 :	1111111111111000;
	377 :	0000000000000001;
	376 :	1111111111110011;
	375 :	1111111111111010;
	374 :	1111111111101101;
	373 :	1111111111110011;
	372 :	1111111111111100;
	371 :	1111111111111001;
	370 :	1111111111110001;
	369 :	0000000000001011;
	368 :	1111111111100110;
	367 :	1111111111110011;
	366 :	0000000000000100;
	365 :	1111111111101010;
	364 :	1111111111110001;
	363 :	1111111111110001;
	362 :	0000000000000001;
	361 :	1111111111110001;
	360 :	1111111111111111;
	359 :	0000000000000101;
	358 :	1111111111110011;
	357 :	0000000000001010;
	356 :	0000000000010011;
	355 :	1111111111111000;
	354 :	1111111111101001;
	353 :	1111111111111101;
	352 :	1111111111110001;
	351 :	0000000000001000;
	350 :	1111111111100100;
	349 :	1111111111110101;
	348 :	1111111111110101;
	347 :	0000000000001001;
	346 :	0000000000000001;
	345 :	1111111111100111;
	344 :	0000000000001010;
	343 :	1111111111101101;
	342 :	0000000000000010;
	341 :	0000000000001100;
	340 :	1111111111101100;
	339 :	0000000000000010;
	338 :	0000000000010000;
	337 :	1111111111110100;
	336 :	1111111111110010;
	335 :	0000000000001011;
	334 :	0000000000000101;
	333 :	1111111111111100;
	332 :	1111111111111101;
	331 :	0000000000010000;
	330 :	0000000000010100;
	329 :	1111111111101100;
	328 :	0000000000000010;
	327 :	1111111111110011;
	326 :	1111111111101000;
	325 :	1111111111110110;
	324 :	1111111111110101;
	323 :	0000000000001001;
	322 :	0000000000010000;
	321 :	0000000000001100;
	320 :	1111111111101000;
	319 :	1111111111111000;
	318 :	1111111111110001;
	317 :	0000000000001001;
	316 :	1111111111110011;
	315 :	1111111111110100;
	314 :	1111111111110101;
	313 :	1111111111101101;
	312 :	1111111111110010;
	311 :	0000000000010000;
	310 :	1111111111111111;
	309 :	1111111111101111;
	308 :	0000000000001011;
	307 :	0000000000010101;
	306 :	1111111111101100;
	305 :	1111111111101101;
	304 :	1111111111110010;
	303 :	0000000000010000;
	302 :	0000000000000001;
	301 :	1111111111101100;
	300 :	1111111111111001;
	299 :	1111111111101001;
	298 :	0000000000000010;
	297 :	1111111111110011;
	296 :	1111111111111101;
	295 :	1111111111111000;
	294 :	1111111111111000;
	293 :	0000000000001010;
	292 :	0000000000001011;
	291 :	1111111111100011;
	290 :	1111111111110111;
	289 :	0000000000000111;
	288 :	1111111111111011;
	287 :	0000000000001000;
	286 :	1111111111110000;
	285 :	1111111111101101;
	284 :	1111111111100110;
	283 :	1111111111111000;
	282 :	1111111111111000;
	281 :	0000000000000110;
	280 :	1111111111110110;
	279 :	0000000000001100;
	278 :	1111111111101011;
	277 :	1111111111111010;
	276 :	0000000000001100;
	275 :	0000000000010001;
	274 :	1111111111111110;
	273 :	1111111111110100;
	272 :	0000000000000010;
	271 :	1111111111110010;
	270 :	1111111111110001;
	269 :	1111111111110010;
	268 :	1111111111101011;
	267 :	1111111111101111;
	266 :	0000000000010101;
	265 :	1111111111100101;
	264 :	0000000000001011;
	263 :	1111111111111000;
	262 :	1111111111100110;
	261 :	1111111111111101;
	260 :	1111111111100110;
	259 :	0000000000000111;
	258 :	0000000000000001;
	257 :	0000000000100000;
	256 :	0000000000101010;
	255 :	1111111111101011;
	254 :	0000000000000001;
	253 :	0000000000000001;
	252 :	1111111111111110;
	251 :	0000000000001010;
	250 :	1111111111110110;
	249 :	1111111111101001;
	248 :	1111111111110111;
	247 :	0000000000010010;
	246 :	0000000000010011;
	245 :	0000000000010000;
	244 :	0000000000000111;
	243 :	1111111111110000;
	242 :	0000000000000001;
	241 :	1111111111111011;
	240 :	0000000000000110;
	239 :	1111111111111000;
	238 :	1111111111101100;
	237 :	1111111111111001;
	236 :	1111111111111010;
	235 :	1111111111110000;
	234 :	1111111111111001;
	233 :	1111111111101010;
	232 :	0000000000000010;
	231 :	1111111111110100;
	230 :	0000000000100101;
	229 :	0000000000010100;
	228 :	0000000000011110;
	227 :	1111111111111101;
	226 :	0000000000001110;
	225 :	1111111111111010;
	224 :	1111111111111100;
	223 :	1111111111101011;
	222 :	1111111111111011;
	221 :	1111111111100011;
	220 :	1111111111101001;
	219 :	1111111111111110;
	218 :	0000000000010010;
	217 :	0000000000000110;
	216 :	1111111111111111;
	215 :	0000000000011010;
	214 :	1111111111110011;
	213 :	1111111111101111;
	212 :	1111111111101010;
	211 :	1111111111110101;
	210 :	1111111111111010;
	209 :	1111111111101001;
	208 :	1111111111111110;
	207 :	0000000000000101;
	206 :	0000000000001110;
	205 :	0000000000001100;
	204 :	1111111111111111;
	203 :	0000000000010001;
	202 :	0000000000000001;
	201 :	0000000000000111;
	200 :	1111111111101100;
	199 :	0000000000000000;
	198 :	0000000000001011;
	197 :	1111111111110001;
	196 :	0000000000001111;
	195 :	1111111111101010;
	194 :	1111111111110011;
	193 :	1111111111110100;
	192 :	1111111111110001;
	191 :	0000000000001001;
	190 :	1111111111110101;
	189 :	1111111111110001;
	188 :	1111111111101000;
	187 :	0000000000011001;
	186 :	0000000000010011;
	185 :	0000000000001000;
	184 :	0000000000010011;
	183 :	1111111111101010;
	182 :	0000000000000010;
	181 :	1111111111111110;
	180 :	1111111111101001;
	179 :	0000000000001011;
	178 :	0000000000000000;
	177 :	0000000000010111;
	176 :	1111111111111011;
	175 :	1111111111101110;
	174 :	0000000000001010;
	173 :	1111111111111111;
	172 :	1111111111111100;
	171 :	1111111111101111;
	170 :	1111111111110110;
	169 :	0000000000000011;
	168 :	0000000000000010;
	167 :	1111111111101101;
	166 :	0000000000000110;
	165 :	0000000000001001;
	164 :	1111111111110110;
	163 :	1111111111111010;
	162 :	1111111111110101;
	161 :	1111111111101001;
	160 :	1111111111110100;
	159 :	1111111111101100;
	158 :	0000000000000000;
	157 :	1111111111100110;
	156 :	0000000000000001;
	155 :	1111111111111101;
	154 :	0000000000000011;
	153 :	1111111111110001;
	152 :	1111111111101011;
	151 :	0000000000000010;
	150 :	0000000000001111;
	149 :	0000000000010000;
	148 :	0000000000010000;
	147 :	0000000000011011;
	146 :	1111111111110100;
	145 :	1111111111111100;
	144 :	1111111111111111;
	143 :	1111111111110001;
	142 :	1111111111110011;
	141 :	0000000000001000;
	140 :	0000000000000101;
	139 :	0000000000010110;
	138 :	0000000000001001;
	137 :	1111111111101111;
	136 :	0000000000010010;
	135 :	1111111111111100;
	134 :	0000000000000101;
	133 :	0000000000001000;
	132 :	1111111111100111;
	131 :	0000000000000011;
	130 :	1111111111110110;
	129 :	1111111111101010;
	128 :	0000000000000011;
	127 :	1111111111101010;
	126 :	1111111111101100;
	125 :	1111111111111111;
	124 :	0000000000001111;
	123 :	0000000000001011;
	122 :	0000000000000001;
	121 :	1111111111101111;
	120 :	1111111111111000;
	119 :	0000000000000110;
	118 :	0000000000000110;
	117 :	1111111111110001;
	116 :	0000000000010101;
	115 :	0000000000010010;
	114 :	1111111111110001;
	113 :	0000000000001010;
	112 :	1111111111101111;
	111 :	1111111111111101;
	110 :	0000000000001011;
	109 :	0000000000010011;
	108 :	0000000000001101;
	107 :	0000000000001100;
	106 :	1111111111110010;
	105 :	0000000000010101;
	104 :	1111111111101100;
	103 :	0000000000001110;
	102 :	1111111111111101;
	101 :	1111111111101101;
	100 :	1111111111110000;
	99 :	0000000000000001;
	98 :	1111111111110011;
	97 :	0000000000010100;
	96 :	0000000000010001;
	95 :	1111111111101000;
	94 :	1111111111111110;
	93 :	0000000000000010;
	92 :	0000000000001011;
	91 :	1111111111110100;
	90 :	1111111111110000;
	89 :	0000000000000110;
	88 :	1111111111101101;
	87 :	1111111111110101;
	86 :	0000000000010010;
	85 :	1111111111101111;
	84 :	1111111111101011;
	83 :	1111111111101011;
	82 :	0000000000000101;
	81 :	1111111111110001;
	80 :	0000000000000000;
	79 :	0000000000001101;
	78 :	0000000000001001;
	77 :	0000000000001011;
	76 :	0000000000010101;
	75 :	0000000000010101;
	74 :	1111111111111101;
	73 :	1111111111110100;
	72 :	1111111111101011;
	71 :	1111111111101011;
	70 :	0000000000000010;
	69 :	0000000000000000;
	68 :	1111111111101111;
	67 :	0000000000000111;
	66 :	1111111111110100;
	65 :	1111111111110011;
	64 :	0000000000010100;
	63 :	0000000000010100;
	62 :	0000000000000111;
	61 :	1111111111101011;
	60 :	0000000000000110;
	59 :	1111111111111010;
	58 :	0000000000010011;
	57 :	1111111111111001;
	56 :	0000000000000011;
	55 :	0000000000001001;
	54 :	0000000000000011;
	53 :	0000000000010000;
	52 :	1111111111110101;
	51 :	0000000000010000;
	50 :	0000000000001111;
	49 :	0000000000010001;
	48 :	1111111111111000;
	47 :	0000000000010011;
	46 :	0000000000001111;
	45 :	1111111111110110;
	44 :	1111111111101111;
	43 :	1111111111101011;
	42 :	0000000000000010;
	41 :	0000000000010011;
	40 :	0000000000010110;
	39 :	1111111111111110;
	38 :	1111111111101011;
	37 :	0000000000001001;
	36 :	0000000000000110;
	35 :	1111111111101101;
	34 :	1111111111110000;
	33 :	1111111111111011;
	32 :	0000000000010010;
	31 :	1111111111101010;
	30 :	1111111111111110;
	29 :	0000000000010011;
	28 :	1111111111101011;
	27 :	0000000000001110;
	26 :	0000000000001101;
	25 :	0000000000010000;
	24 :	1111111111101101;
	23 :	0000000000001011;
	22 :	1111111111111110;
	21 :	0000000000001011;
	20 :	0000000000000011;
	19 :	0000000000010010;
	18 :	0000000000010101;
	17 :	1111111111110000;
	16 :	1111111111111110;
	15 :	0000000000000010;
	14 :	1111111111111101;
	13 :	0000000000001011;
	12 :	0000000000001000;
	11 :	1111111111110001;
	10 :	1111111111110000;
	9 :	1111111111101100;
	8 :	0000000000001000;
	7 :	0000000000001100;
	6 :	1111111111110101;
	5 :	1111111111101100;
	4 :	0000000000000111;
	3 :	1111111111101101;
	2 :	0000000000001100;
	1 :	0000000000010110;
	0 :	1111111111101010;
END;
