-- begin_signature
-- weights(numWeights
-- 784
-- neuronNumber
-- 15
-- layerNumber
-- 0
-- addressWidth
-- 10
-- dataWidth
-- 16
-- weightFile
-- "weights/weight_L0_N15.mif")
-- end_signature
WIDTH=16;
DEPTH=784;

ADDRESS_RADIX=UNS;
DATA_RADIX=BIN;

CONTENT BEGIN
	783 :	0000000000001011;
	782 :	0000000000000100;
	781 :	0000000000010110;
	780 :	0000000000001111;
	779 :	0000000000001110;
	778 :	1111111111100011;
	777 :	1111111111100101;
	776 :	1111111111100101;
	775 :	1111111111000101;
	774 :	1111111111010101;
	773 :	1111111111000000;
	772 :	1111111110011100;
	771 :	1111111110010000;
	770 :	1111111110110110;
	769 :	1111111110100101;
	768 :	1111111110111101;
	767 :	1111111111000001;
	766 :	1111111110100011;
	765 :	1111111110111010;
	764 :	1111111111110111;
	763 :	1111111111110001;
	762 :	1111111111011110;
	761 :	1111111111101101;
	760 :	0000000000000011;
	759 :	0000000000000111;
	758 :	1111111111101101;
	757 :	0000000000000010;
	756 :	1111111111111111;
	755 :	0000000000010100;
	754 :	0000000000000101;
	753 :	1111111111111110;
	752 :	0000000000010101;
	751 :	1111111111101111;
	750 :	0000000000001011;
	749 :	0000000000010000;
	748 :	0000000000011111;
	747 :	1111111111111010;
	746 :	0000000000010001;
	745 :	0000000000010110;
	744 :	0000000000110010;
	743 :	0000000000010010;
	742 :	0000000000001011;
	741 :	0000000000110000;
	740 :	0000000000001100;
	739 :	0000000000100001;
	738 :	0000000000000011;
	737 :	0000000000111010;
	736 :	0000000000010110;
	735 :	0000000000001011;
	734 :	1111111111101100;
	733 :	1111111111101000;
	732 :	1111111111110011;
	731 :	0000000000001010;
	730 :	0000000000000111;
	729 :	0000000000010000;
	728 :	0000000000010100;
	727 :	1111111111110001;
	726 :	0000000000001010;
	725 :	1111111111101111;
	724 :	0000000000101101;
	723 :	1111111111110010;
	722 :	0000000000011011;
	721 :	1111111111101101;
	720 :	0000000000000010;
	719 :	0000000001001001;
	718 :	1111111111111111;
	717 :	0000000000100100;
	716 :	0000000000100100;
	715 :	0000000000101111;
	714 :	0000000000101000;
	713 :	0000000000110010;
	712 :	0000000000110111;
	711 :	0000000000100110;
	710 :	0000000000110000;
	709 :	0000000000100111;
	708 :	0000000000111000;
	707 :	0000000000101010;
	706 :	0000000000110110;
	705 :	0000000000000101;
	704 :	0000000000001100;
	703 :	0000000000010011;
	702 :	1111111111111001;
	701 :	1111111111111011;
	700 :	1111111111101101;
	699 :	1111111111110001;
	698 :	0000000000001101;
	697 :	0000000000000111;
	696 :	0000000001000000;
	695 :	1111111111110100;
	694 :	1111111111110100;
	693 :	0000000000010011;
	692 :	1111111111100001;
	691 :	1111111111111100;
	690 :	0000000000011010;
	689 :	0000000000001001;
	688 :	0000000000010010;
	687 :	0000000000010010;
	686 :	0000000000010010;
	685 :	0000000000100001;
	684 :	0000000000011111;
	683 :	0000000000100100;
	682 :	1111111111111111;
	681 :	0000000000001011;
	680 :	0000000000010011;
	679 :	0000000000101110;
	678 :	0000000000010111;
	677 :	1111111111111011;
	676 :	0000000001011001;
	675 :	0000000000110000;
	674 :	0000000000100100;
	673 :	1111111111101100;
	672 :	1111111111110001;
	671 :	0000000000001101;
	670 :	1111111111101111;
	669 :	0000000000111101;
	668 :	0000000000010001;
	667 :	0000000000101010;
	666 :	0000000000110110;
	665 :	1111111111110101;
	664 :	0000000000011101;
	663 :	0000000000001010;
	662 :	0000000000001010;
	661 :	0000000000001010;
	660 :	0000000000010111;
	659 :	0000000000010010;
	658 :	0000000000001111;
	657 :	0000000000001100;
	656 :	0000000000001010;
	655 :	0000000000010111;
	654 :	0000000000001100;
	653 :	0000000000010110;
	652 :	0000000000010101;
	651 :	0000000000010101;
	650 :	0000000000011001;
	649 :	0000000000011001;
	648 :	0000000000101110;
	647 :	0000000001001110;
	646 :	0000000000100010;
	645 :	1111111111101110;
	644 :	0000000000010001;
	643 :	0000000000000110;
	642 :	0000000000001100;
	641 :	0000000000011001;
	640 :	0000000000000100;
	639 :	1111111111110010;
	638 :	0000000000000011;
	637 :	1111111111111111;
	636 :	0000000000000001;
	635 :	0000000000010011;
	634 :	0000000000001111;
	633 :	0000000000001100;
	632 :	0000000000001010;
	631 :	0000000000011011;
	630 :	0000000000000101;
	629 :	0000000000001100;
	628 :	0000000000010100;
	627 :	0000000000001101;
	626 :	0000000000000001;
	625 :	0000000000000101;
	624 :	1111111111110101;
	623 :	0000000000001001;
	622 :	1111111111110011;
	621 :	1111111111011000;
	620 :	1111111111111000;
	619 :	0000000000100000;
	618 :	0000000000110110;
	617 :	0000000000010101;
	616 :	0000000000001011;
	615 :	0000000000000011;
	614 :	0000000000001110;
	613 :	1111111111110011;
	612 :	1111111111010001;
	611 :	0000000000011101;
	610 :	0000000000100000;
	609 :	1111111111110111;
	608 :	0000000000000011;
	607 :	0000000000001101;
	606 :	1111111111110100;
	605 :	0000000000010000;
	604 :	0000000000000001;
	603 :	0000000000001000;
	602 :	0000000000001111;
	601 :	0000000000011010;
	600 :	0000000000010011;
	599 :	0000000000001110;
	598 :	0000000000001100;
	597 :	0000000000001011;
	596 :	0000000000001100;
	595 :	0000000000001110;
	594 :	1111111111110101;
	593 :	1111111111110001;
	592 :	0000000000001110;
	591 :	0000000000101000;
	590 :	0000000000011101;
	589 :	0000000000011011;
	588 :	0000000000001100;
	587 :	1111111111110111;
	586 :	1111111111010011;
	585 :	0000000000001101;
	584 :	1111111111011000;
	583 :	0000000000010000;
	582 :	1111111111111101;
	581 :	0000000000011010;
	580 :	0000000000011010;
	579 :	1111111111111100;
	578 :	0000000000000110;
	577 :	0000000000000000;
	576 :	1111111111111111;
	575 :	0000000000000111;
	574 :	1111111111111010;
	573 :	0000000000001011;
	572 :	0000000000000001;
	571 :	1111111111110101;
	570 :	0000000000001111;
	569 :	0000000000001000;
	568 :	0000000000010011;
	567 :	0000000000010001;
	566 :	0000000000100100;
	565 :	0000000000101011;
	564 :	0000000000010101;
	563 :	0000000000100011;
	562 :	1111111111111111;
	561 :	0000000000111110;
	560 :	0000000000010110;
	559 :	0000000000010010;
	558 :	0000000000101011;
	557 :	1111111111111000;
	556 :	0000000000010100;
	555 :	0000000000010001;
	554 :	0000000000010101;
	553 :	0000000000010011;
	552 :	0000000000000000;
	551 :	1111111111111100;
	550 :	0000000000001000;
	549 :	0000000000001101;
	548 :	1111111111110011;
	547 :	1111111111111110;
	546 :	1111111111110111;
	545 :	1111111111111001;
	544 :	1111111111111010;
	543 :	1111111111100101;
	542 :	1111111111111101;
	541 :	1111111111111100;
	540 :	1111111111111111;
	539 :	1111111111101010;
	538 :	0000000000010001;
	537 :	0000000000100001;
	536 :	0000000000110000;
	535 :	1111111111111010;
	534 :	1111111111011001;
	533 :	0000000000010111;
	532 :	0000000000001001;
	531 :	0000000000100110;
	530 :	0000000000011111;
	529 :	0000000000000001;
	528 :	0000000000011101;
	527 :	0000000000001001;
	526 :	0000000000011011;
	525 :	1111111111111100;
	524 :	0000000000000011;
	523 :	0000000000011110;
	522 :	1111111111111001;
	521 :	0000000000010111;
	520 :	0000000000010000;
	519 :	1111111111111001;
	518 :	1111111111101000;
	517 :	1111111111111000;
	516 :	1111111111110011;
	515 :	1111111111101010;
	514 :	1111111111111000;
	513 :	1111111111111010;
	512 :	1111111111110011;
	511 :	1111111111110100;
	510 :	1111111111111000;
	509 :	0000000000001111;
	508 :	0000000000001110;
	507 :	0000000000111110;
	506 :	0000000001101001;
	505 :	1111111111110110;
	504 :	0000000000010000;
	503 :	0000000000000111;
	502 :	0000000000000111;
	501 :	1111111111001111;
	500 :	0000000000010101;
	499 :	0000000000001101;
	498 :	0000000000000101;
	497 :	0000000000011000;
	496 :	0000000000000111;
	495 :	0000000000001011;
	494 :	1111111111111111;
	493 :	1111111111111101;
	492 :	1111111111110110;
	491 :	1111111111101100;
	490 :	1111111111101011;
	489 :	1111111111111100;
	488 :	0000000000001101;
	487 :	0000000000001100;
	486 :	0000000000000100;
	485 :	1111111111110100;
	484 :	0000000000001010;
	483 :	1111111111111100;
	482 :	0000000000000111;
	481 :	1111111111110111;
	480 :	0000000000011011;
	479 :	0000000001000111;
	478 :	1111111110111101;
	477 :	0000000000011100;
	476 :	0000000000001000;
	475 :	0000000000100110;
	474 :	1111111111110001;
	473 :	1111111111101101;
	472 :	0000000001000010;
	471 :	0000000000011101;
	470 :	0000000000100110;
	469 :	0000000000000101;
	468 :	1111111111111100;
	467 :	0000000000000001;
	466 :	1111111111110110;
	465 :	1111111111111001;
	464 :	1111111111110111;
	463 :	1111111111110011;
	462 :	1111111111111100;
	461 :	0000000000001111;
	460 :	0000000000010111;
	459 :	1111111111111110;
	458 :	1111111111111000;
	457 :	1111111111101111;
	456 :	1111111111100100;
	455 :	1111111111110100;
	454 :	1111111111110011;
	453 :	1111111111100101;
	452 :	1111111111111100;
	451 :	0000000000110001;
	450 :	0000000001010110;
	449 :	1111111111110110;
	448 :	0000000000001001;
	447 :	0000000000001001;
	446 :	1111111111100010;
	445 :	0000000000000101;
	444 :	0000000000001010;
	443 :	1111111111101110;
	442 :	1111111111110011;
	441 :	1111111111101101;
	440 :	0000000000000110;
	439 :	1111111111111011;
	438 :	0000000000000101;
	437 :	1111111111101110;
	436 :	1111111111111110;
	435 :	1111111111101011;
	434 :	0000000000001101;
	433 :	0000000000011111;
	432 :	0000000000010000;
	431 :	1111111111110101;
	430 :	1111111111110001;
	429 :	1111111111111101;
	428 :	1111111111101110;
	427 :	1111111111111101;
	426 :	0000000000010100;
	425 :	0000000000000110;
	424 :	1111111111011101;
	423 :	1111111111000000;
	422 :	1111111111111010;
	421 :	1111111111110010;
	420 :	1111111111111011;
	419 :	0000000000000110;
	418 :	1111111111101010;
	417 :	1111111111100110;
	416 :	1111111111111010;
	415 :	1111111111111001;
	414 :	1111111111101010;
	413 :	1111111111100000;
	412 :	1111111111110111;
	411 :	1111111111101110;
	410 :	1111111111110001;
	409 :	1111111111111011;
	408 :	1111111111110100;
	407 :	1111111111111111;
	406 :	0000000000001011;
	405 :	0000000000011010;
	404 :	0000000000000011;
	403 :	1111111111111100;
	402 :	0000000000000111;
	401 :	1111111111111010;
	400 :	1111111111111001;
	399 :	1111111111111100;
	398 :	0000000000000101;
	397 :	1111111111100011;
	396 :	1111111111100110;
	395 :	0000000000101111;
	394 :	1111111111000111;
	393 :	0000000000001001;
	392 :	1111111111110011;
	391 :	1111111111110101;
	390 :	0000000001010011;
	389 :	1111111111100110;
	388 :	1111111111110100;
	387 :	1111111111101010;
	386 :	1111111111101110;
	385 :	1111111111100101;
	384 :	1111111111101011;
	383 :	0000000000001100;
	382 :	0000000000001011;
	381 :	0000000000000110;
	380 :	1111111111101110;
	379 :	0000000000000010;
	378 :	0000000000010101;
	377 :	0000000000010100;
	376 :	0000000000010011;
	375 :	1111111111111010;
	374 :	1111111111111100;
	373 :	0000000000000010;
	372 :	0000000000000010;
	371 :	1111111111110010;
	370 :	1111111111101011;
	369 :	1111111111101101;
	368 :	1111111111001001;
	367 :	0000000001001101;
	366 :	1111111111110000;
	365 :	1111111111110111;
	364 :	0000000000000110;
	363 :	1111111111110000;
	362 :	0000000001000111;
	361 :	0000000000000011;
	360 :	1111111111110101;
	359 :	1111111111110100;
	358 :	1111111111010101;
	357 :	1111111111110000;
	356 :	1111111111110101;
	355 :	1111111111101101;
	354 :	1111111111111001;
	353 :	1111111111110111;
	352 :	1111111111111000;
	351 :	0000000000000000;
	350 :	0000000000000100;
	349 :	0000000000001101;
	348 :	0000000000000111;
	347 :	0000000000000110;
	346 :	0000000000001110;
	345 :	1111111111111110;
	344 :	1111111111111100;
	343 :	0000000000000001;
	342 :	1111111111011011;
	341 :	1111111111111100;
	340 :	1111111111100111;
	339 :	0000000000000101;
	338 :	1111111111110110;
	337 :	1111111111110000;
	336 :	1111111111000111;
	335 :	1111111111101101;
	334 :	0000000001000001;
	333 :	0000000000100100;
	332 :	0000000000100010;
	331 :	0000000000010000;
	330 :	1111111111100010;
	329 :	1111111111011100;
	328 :	1111111111010111;
	327 :	1111111111111110;
	326 :	1111111111111010;
	325 :	1111111111110010;
	324 :	1111111111101011;
	323 :	1111111111110011;
	322 :	0000000000010110;
	321 :	0000000000000010;
	320 :	1111111111111101;
	319 :	1111111111111011;
	318 :	1111111111110010;
	317 :	1111111111110000;
	316 :	1111111111111100;
	315 :	1111111111101011;
	314 :	0000000000000100;
	313 :	1111111111110111;
	312 :	0000000000101001;
	311 :	0000000000001111;
	310 :	1111111111100001;
	309 :	1111111111101010;
	308 :	1111111111011110;
	307 :	0000000000101111;
	306 :	0000000000000100;
	305 :	0000000000000000;
	304 :	0000000000000000;
	303 :	0000000000011110;
	302 :	1111111111110111;
	301 :	1111111111111000;
	300 :	1111111111110010;
	299 :	1111111111100000;
	298 :	1111111111110111;
	297 :	1111111111100000;
	296 :	1111111111110100;
	295 :	1111111111011001;
	294 :	1111111111100101;
	293 :	1111111111110101;
	292 :	1111111111110100;
	291 :	1111111111110001;
	290 :	1111111111111111;
	289 :	1111111111111110;
	288 :	1111111111110001;
	287 :	0000000000001010;
	286 :	0000000000001101;
	285 :	0000000000000001;
	284 :	0000000000001111;
	283 :	0000000000011101;
	282 :	1111111111011110;
	281 :	1111111111011000;
	280 :	1111111111111111;
	279 :	1111111111100000;
	278 :	0000000000000100;
	277 :	0000000000110011;
	276 :	0000000000110111;
	275 :	0000000000011011;
	274 :	0000000000011101;
	273 :	1111111111111001;
	272 :	1111111111111001;
	271 :	1111111111110010;
	270 :	1111111111110100;
	269 :	1111111111111010;
	268 :	1111111111110011;
	267 :	1111111111110101;
	266 :	1111111111111010;
	265 :	1111111111110011;
	264 :	1111111111111000;
	263 :	1111111111111011;
	262 :	0000000000000000;
	261 :	0000000000000111;
	260 :	0000000000010100;
	259 :	1111111111110010;
	258 :	0000000000001010;
	257 :	0000000000001111;
	256 :	0000000000001101;
	255 :	1111111111101011;
	254 :	1111111111111000;
	253 :	0000000000101010;
	252 :	0000000000010010;
	251 :	0000000000011001;
	250 :	0000000001001001;
	249 :	0000000000000101;
	248 :	0000000000001000;
	247 :	0000000000000000;
	246 :	0000000000010100;
	245 :	1111111111111100;
	244 :	0000000000000011;
	243 :	0000000000000101;
	242 :	1111111111110011;
	241 :	0000000000001111;
	240 :	0000000000010001;
	239 :	1111111111111110;
	238 :	0000000000011011;
	237 :	0000000000010101;
	236 :	0000000000010110;
	235 :	0000000000001100;
	234 :	0000000000000110;
	233 :	0000000000001000;
	232 :	1111111111110000;
	231 :	0000000000010100;
	230 :	0000000000011111;
	229 :	1111111111110111;
	228 :	1111111111111000;
	227 :	0000000000010010;
	226 :	0000000000100101;
	225 :	1111111111110001;
	224 :	1111111111100000;
	223 :	0000000000010111;
	222 :	0000000000011100;
	221 :	0000000000001001;
	220 :	0000000000011110;
	219 :	0000000000010010;
	218 :	0000000000010001;
	217 :	0000000000000111;
	216 :	0000000000010001;
	215 :	0000000000000110;
	214 :	0000000000011000;
	213 :	0000000000001011;
	212 :	0000000000010000;
	211 :	0000000000010011;
	210 :	0000000000001110;
	209 :	0000000000001011;
	208 :	0000000000001110;
	207 :	0000000000001001;
	206 :	0000000000010000;
	205 :	0000000000001100;
	204 :	0000000000010111;
	203 :	1111111111101001;
	202 :	1111111111111111;
	201 :	0000000000000111;
	200 :	0000000000010110;
	199 :	1111111111011110;
	198 :	1111111111110110;
	197 :	0000000000100101;
	196 :	1111111111110001;
	195 :	1111111111101110;
	194 :	0000000000000100;
	193 :	0000000001101000;
	192 :	0000000001010001;
	191 :	0000000000011110;
	190 :	0000000000001011;
	189 :	0000000000010011;
	188 :	0000000000010011;
	187 :	0000000000011010;
	186 :	0000000000001010;
	185 :	0000000000010001;
	184 :	0000000000000110;
	183 :	0000000000001000;
	182 :	0000000000000110;
	181 :	0000000000001101;
	180 :	0000000000001111;
	179 :	0000000000000101;
	178 :	0000000000000000;
	177 :	0000000000010011;
	176 :	0000000000001010;
	175 :	1111111111111000;
	174 :	0000000000001000;
	173 :	0000000000000100;
	172 :	0000000000011111;
	171 :	0000000001000001;
	170 :	0000000001000011;
	169 :	1111111111101011;
	168 :	0000000000000011;
	167 :	1111111111111000;
	166 :	0000000000001111;
	165 :	0000000000110110;
	164 :	1111111111110101;
	163 :	1111111111111001;
	162 :	0000000000101010;
	161 :	0000000000011000;
	160 :	0000000000101101;
	159 :	0000000000010001;
	158 :	0000000000011001;
	157 :	0000000000001100;
	156 :	0000000000001011;
	155 :	1111111111111111;
	154 :	0000000000000101;
	153 :	0000000000000010;
	152 :	0000000000010010;
	151 :	0000000000010110;
	150 :	0000000000001001;
	149 :	1111111111101010;
	148 :	1111111111111101;
	147 :	0000000000010111;
	146 :	1111111111101000;
	145 :	1111111111011111;
	144 :	0000000000101110;
	143 :	0000000000001111;
	142 :	0000000000001110;
	141 :	0000000000001101;
	140 :	0000000000000001;
	139 :	1111111111111010;
	138 :	0000000000010111;
	137 :	0000000000100101;
	136 :	0000000000101101;
	135 :	0000000000001010;
	134 :	1111111111111101;
	133 :	1111111111111111;
	132 :	0000000000010011;
	131 :	0000000000010000;
	130 :	0000000000101101;
	129 :	0000000000100101;
	128 :	0000000000010000;
	127 :	0000000000011100;
	126 :	0000000000001100;
	125 :	0000000000000010;
	124 :	0000000000010001;
	123 :	0000000000011111;
	122 :	0000000000110001;
	121 :	0000000000100000;
	120 :	1111111111110011;
	119 :	1111111111110101;
	118 :	0000000000001011;
	117 :	0000000000011011;
	116 :	0000000000111100;
	115 :	1111111111111001;
	114 :	1111111111011010;
	113 :	1111111111111111;
	112 :	1111111111111100;
	111 :	1111111111101111;
	110 :	1111111111101011;
	109 :	0000000000111111;
	108 :	0000000000100111;
	107 :	0000000001000000;
	106 :	0000000000101000;
	105 :	0000000000101101;
	104 :	0000000000101101;
	103 :	0000000000011100;
	102 :	0000000000011101;
	101 :	0000000000101000;
	100 :	1111111111111110;
	99 :	0000000000010010;
	98 :	0000000000010100;
	97 :	0000000000010101;
	96 :	0000000000010110;
	95 :	0000000000100111;
	94 :	0000000000111100;
	93 :	0000000000110010;
	92 :	0000000000001111;
	91 :	1111111111101001;
	90 :	0000000000110110;
	89 :	0000000000111101;
	88 :	0000000000010100;
	87 :	0000000000000110;
	86 :	1111111111110110;
	85 :	1111111111110001;
	84 :	1111111111110000;
	83 :	0000000000010001;
	82 :	0000000000000001;
	81 :	1111111111110111;
	80 :	0000000000000101;
	79 :	1111111111110011;
	78 :	1111111111010011;
	77 :	0000000000110100;
	76 :	0000000000100010;
	75 :	1111111111101010;
	74 :	0000000001011011;
	73 :	0000000000010110;
	72 :	0000000000101111;
	71 :	1111111111100010;
	70 :	1111111111111101;
	69 :	1111111111010101;
	68 :	0000000000101001;
	67 :	0000000000101100;
	66 :	0000000000010111;
	65 :	0000000000100111;
	64 :	0000000000010010;
	63 :	0000000000001101;
	62 :	0000000000001001;
	61 :	0000000000010001;
	60 :	1111111111011110;
	59 :	1111111111101011;
	58 :	0000000000010100;
	57 :	1111111111110000;
	56 :	1111111111110100;
	55 :	1111111111101101;
	54 :	0000000000001100;
	53 :	1111111111110001;
	52 :	1111111111110000;
	51 :	0000000000100000;
	50 :	1111111111111000;
	49 :	1111111111101110;
	48 :	0000000000000111;
	47 :	0000000000000110;
	46 :	0000000000010110;
	45 :	1111111111111001;
	44 :	1111111111101010;
	43 :	1111111111101011;
	42 :	1111111111111111;
	41 :	0000000000000010;
	40 :	0000000000001110;
	39 :	0000000000011001;
	38 :	1111111111101010;
	37 :	1111111111111011;
	36 :	0000000000010110;
	35 :	0000000000011101;
	34 :	0000000000010110;
	33 :	1111111111111110;
	32 :	1111111111101010;
	31 :	1111111111101111;
	30 :	1111111111101100;
	29 :	1111111111110010;
	28 :	0000000000000110;
	27 :	0000000000010001;
	26 :	0000000000000001;
	25 :	1111111111111011;
	24 :	1111111111101010;
	23 :	1111111111101101;
	22 :	0000000000001101;
	21 :	1111111111111000;
	20 :	0000000000000101;
	19 :	0000000000000110;
	18 :	1111111111101111;
	17 :	1111111111110101;
	16 :	0000000000000101;
	15 :	1111111111101110;
	14 :	0000000000000101;
	13 :	0000000000001100;
	12 :	1111111111101101;
	11 :	1111111111110111;
	10 :	0000000000000010;
	9 :	1111111111101011;
	8 :	0000000000001001;
	7 :	1111111111110000;
	6 :	0000000000010000;
	5 :	1111111111101100;
	4 :	1111111111101110;
	3 :	0000000000000100;
	2 :	0000000000010011;
	1 :	1111111111110111;
	0 :	1111111111111000;
END;
