-- begin_signature
-- weights(numWeights
-- 784
-- neuronNumber
-- 8
-- layerNumber
-- 0
-- addressWidth
-- 10
-- dataWidth
-- 16
-- weightFile
-- "weights/weight_L0_N8.mif")
-- end_signature
WIDTH=16;
DEPTH=784;

ADDRESS_RADIX=UNS;
DATA_RADIX=BIN;

CONTENT BEGIN
	783 :	1111111111111001;
	782 :	0000000000001001;
	781 :	0000000000000001;
	780 :	0000000000000000;
	779 :	0000000000000010;
	778 :	1111111111110011;
	777 :	0000000000001100;
	776 :	0000000000001011;
	775 :	0000000000001000;
	774 :	0000000000010100;
	773 :	1111111111110101;
	772 :	1111111111111010;
	771 :	1111111111110110;
	770 :	1111111111110011;
	769 :	0000000000001000;
	768 :	1111111111111111;
	767 :	0000000000010110;
	766 :	1111111111111101;
	765 :	0000000000000011;
	764 :	1111111111101111;
	763 :	1111111111110111;
	762 :	0000000000010000;
	761 :	0000000000010100;
	760 :	0000000000001100;
	759 :	0000000000010100;
	758 :	0000000000001110;
	757 :	1111111111111110;
	756 :	1111111111111100;
	755 :	0000000000000000;
	754 :	1111111111111000;
	753 :	1111111111101101;
	752 :	1111111111101100;
	751 :	1111111111111011;
	750 :	0000000000010100;
	749 :	1111111111101100;
	748 :	1111111111111010;
	747 :	0000000000010001;
	746 :	1111111111111101;
	745 :	0000000000001100;
	744 :	0000000000010011;
	743 :	0000000000001011;
	742 :	1111111111101110;
	741 :	0000000000010011;
	740 :	0000000000101001;
	739 :	1111111111110001;
	738 :	0000000000010101;
	737 :	0000000000001100;
	736 :	1111111111111000;
	735 :	1111111111101110;
	734 :	1111111111101010;
	733 :	1111111111110111;
	732 :	0000000000000100;
	731 :	0000000000000111;
	730 :	0000000000010010;
	729 :	1111111111110011;
	728 :	0000000000001001;
	727 :	0000000000001001;
	726 :	0000000000001100;
	725 :	1111111111101110;
	724 :	0000000000010101;
	723 :	1111111111111100;
	722 :	0000000000000011;
	721 :	1111111111110101;
	720 :	0000000000000010;
	719 :	0000000000001111;
	718 :	1111111111110100;
	717 :	1111111111110010;
	716 :	0000000000001010;
	715 :	1111111111100011;
	714 :	1111111111101110;
	713 :	0000000000010000;
	712 :	0000000000001111;
	711 :	1111111111111110;
	710 :	0000000000000111;
	709 :	1111111111100110;
	708 :	1111111111110000;
	707 :	1111111111110110;
	706 :	1111111111111010;
	705 :	1111111111111001;
	704 :	1111111111111011;
	703 :	1111111111110111;
	702 :	1111111111110100;
	701 :	0000000000000101;
	700 :	0000000000001011;
	699 :	0000000000010010;
	698 :	1111111111101010;
	697 :	0000000000001101;
	696 :	0000000000001100;
	695 :	1111111111110100;
	694 :	1111111111101100;
	693 :	1111111111111100;
	692 :	1111111111111110;
	691 :	1111111111110110;
	690 :	1111111111101111;
	689 :	1111111111111100;
	688 :	1111111111110111;
	687 :	1111111111111011;
	686 :	1111111111111110;
	685 :	1111111111110100;
	684 :	0000000000001100;
	683 :	1111111111101010;
	682 :	0000000000001111;
	681 :	1111111111110101;
	680 :	1111111111111010;
	679 :	1111111111110100;
	678 :	1111111111111100;
	677 :	0000000000000000;
	676 :	0000000000010100;
	675 :	0000000000001101;
	674 :	1111111111110001;
	673 :	0000000000010001;
	672 :	0000000000001100;
	671 :	0000000000000110;
	670 :	0000000000010000;
	669 :	1111111111101101;
	668 :	1111111111110101;
	667 :	1111111111110111;
	666 :	0000000000010000;
	665 :	0000000000010001;
	664 :	1111111111101101;
	663 :	1111111111110011;
	662 :	1111111111101000;
	661 :	0000000000001110;
	660 :	1111111111101000;
	659 :	0000000000001100;
	658 :	1111111111111000;
	657 :	0000000000001000;
	656 :	0000000000001001;
	655 :	1111111111111000;
	654 :	1111111111101001;
	653 :	1111111111101101;
	652 :	1111111111100001;
	651 :	1111111111110000;
	650 :	1111111111101111;
	649 :	0000000000001101;
	648 :	0000000000010001;
	647 :	0000000000001110;
	646 :	1111111111111011;
	645 :	0000000000010110;
	644 :	1111111111110011;
	643 :	1111111111111001;
	642 :	1111111111110101;
	641 :	0000000000010001;
	640 :	1111111111110010;
	639 :	0000000000001011;
	638 :	1111111111101011;
	637 :	1111111111101011;
	636 :	0000000000001000;
	635 :	1111111111110110;
	634 :	0000000000001111;
	633 :	1111111111111000;
	632 :	1111111111110100;
	631 :	1111111111111101;
	630 :	0000000000001000;
	629 :	0000000000000011;
	628 :	1111111111111110;
	627 :	1111111111110111;
	626 :	1111111111101010;
	625 :	1111111111100100;
	624 :	0000000000000001;
	623 :	1111111111101111;
	622 :	1111111111101110;
	621 :	0000000000001100;
	620 :	1111111111101011;
	619 :	0000000000000101;
	618 :	0000000000001111;
	617 :	0000000000000010;
	616 :	0000000000001010;
	615 :	0000000000001011;
	614 :	1111111111101110;
	613 :	0000000000001100;
	612 :	1111111111110101;
	611 :	1111111111101000;
	610 :	0000000000000000;
	609 :	1111111111110010;
	608 :	1111111111101111;
	607 :	1111111111101110;
	606 :	0000000000000000;
	605 :	1111111111101000;
	604 :	1111111111110011;
	603 :	0000000000000011;
	602 :	0000000000010010;
	601 :	1111111111101101;
	600 :	1111111111111011;
	599 :	1111111111111011;
	598 :	1111111111111010;
	597 :	1111111111111000;
	596 :	1111111111110011;
	595 :	1111111111101111;
	594 :	1111111111101111;
	593 :	0000000000000110;
	592 :	0000000000001000;
	591 :	0000000000000100;
	590 :	0000000000000001;
	589 :	1111111111101100;
	588 :	0000000000010011;
	587 :	0000000000001000;
	586 :	0000000000001110;
	585 :	0000000000001000;
	584 :	1111111111110011;
	583 :	1111111111110010;
	582 :	0000000000000011;
	581 :	1111111111110101;
	580 :	1111111111110010;
	579 :	1111111111111111;
	578 :	0000000000000110;
	577 :	0000000000010001;
	576 :	1111111111110001;
	575 :	1111111111110001;
	574 :	1111111111101110;
	573 :	1111111111110111;
	572 :	1111111111111101;
	571 :	1111111111110010;
	570 :	1111111111111011;
	569 :	0000000000001011;
	568 :	1111111111100101;
	567 :	1111111111110100;
	566 :	1111111111101011;
	565 :	1111111111101010;
	564 :	1111111111110000;
	563 :	0000000000010100;
	562 :	1111111111110010;
	561 :	0000000000010100;
	560 :	0000000000000100;
	559 :	1111111111110100;
	558 :	0000000000001110;
	557 :	0000000000001101;
	556 :	1111111111110000;
	555 :	0000000000001010;
	554 :	1111111111111010;
	553 :	0000000000001101;
	552 :	0000000000000101;
	551 :	0000000000000010;
	550 :	1111111111110110;
	549 :	1111111111101010;
	548 :	0000000000001011;
	547 :	0000000000001001;
	546 :	0000000000001011;
	545 :	0000000000001011;
	544 :	1111111111100100;
	543 :	0000000000000000;
	542 :	1111111111111110;
	541 :	1111111111101100;
	540 :	1111111111111000;
	539 :	0000000000001001;
	538 :	1111111111111010;
	537 :	1111111111110100;
	536 :	1111111111111110;
	535 :	1111111111111000;
	534 :	0000000000001010;
	533 :	0000000000000011;
	532 :	1111111111110010;
	531 :	1111111111110111;
	530 :	1111111111101100;
	529 :	1111111111110111;
	528 :	0000000000001100;
	527 :	1111111111111110;
	526 :	1111111111101111;
	525 :	0000000000001000;
	524 :	0000000000001100;
	523 :	1111111111110111;
	522 :	0000000000001111;
	521 :	1111111111101001;
	520 :	0000000000000100;
	519 :	1111111111110001;
	518 :	0000000000001111;
	517 :	0000000000001100;
	516 :	1111111111101000;
	515 :	1111111111111100;
	514 :	0000000000000001;
	513 :	1111111111101001;
	512 :	1111111111111100;
	511 :	1111111111111000;
	510 :	1111111111110101;
	509 :	0000000000001000;
	508 :	1111111111101011;
	507 :	1111111111110010;
	506 :	1111111111101011;
	505 :	1111111111111011;
	504 :	0000000000001100;
	503 :	0000000000010000;
	502 :	1111111111110010;
	501 :	0000000000001001;
	500 :	0000000000000110;
	499 :	1111111111101011;
	498 :	1111111111111101;
	497 :	0000000000000100;
	496 :	0000000000000101;
	495 :	0000000000001011;
	494 :	0000000000001101;
	493 :	1111111111101100;
	492 :	1111111111111101;
	491 :	0000000000001110;
	490 :	0000000000001101;
	489 :	0000000000001010;
	488 :	1111111111111100;
	487 :	1111111111111110;
	486 :	1111111111101000;
	485 :	1111111111110000;
	484 :	1111111111110100;
	483 :	1111111111110001;
	482 :	0000000000001011;
	481 :	1111111111111010;
	480 :	0000000000001100;
	479 :	1111111111101011;
	478 :	0000000000000011;
	477 :	0000000000000001;
	476 :	0000000000010100;
	475 :	0000000000001110;
	474 :	1111111111111001;
	473 :	1111111111111011;
	472 :	0000000000010011;
	471 :	0000000000001100;
	470 :	1111111111101111;
	469 :	1111111111101111;
	468 :	1111111111111101;
	467 :	0000000000001111;
	466 :	1111111111111110;
	465 :	0000000000010010;
	464 :	0000000000001101;
	463 :	0000000000001011;
	462 :	1111111111101010;
	461 :	1111111111110100;
	460 :	1111111111101011;
	459 :	1111111111111110;
	458 :	0000000000000011;
	457 :	0000000000000011;
	456 :	1111111111110110;
	455 :	1111111111110110;
	454 :	1111111111101000;
	453 :	1111111111111001;
	452 :	1111111111101010;
	451 :	0000000000000101;
	450 :	1111111111101010;
	449 :	0000000000001101;
	448 :	0000000000000110;
	447 :	1111111111110101;
	446 :	1111111111110111;
	445 :	0000000000001100;
	444 :	0000000000001110;
	443 :	0000000000000110;
	442 :	0000000000001110;
	441 :	1111111111101101;
	440 :	0000000000000111;
	439 :	1111111111101010;
	438 :	0000000000001000;
	437 :	0000000000000100;
	436 :	0000000000000000;
	435 :	1111111111100011;
	434 :	1111111111101000;
	433 :	0000000000001100;
	432 :	0000000000000101;
	431 :	1111111111111010;
	430 :	1111111111110001;
	429 :	1111111111110100;
	428 :	0000000000001100;
	427 :	0000000000000101;
	426 :	1111111111111100;
	425 :	0000000000000001;
	424 :	1111111111101110;
	423 :	1111111111111100;
	422 :	0000000000010110;
	421 :	1111111111111100;
	420 :	1111111111101110;
	419 :	1111111111110101;
	418 :	0000000000001011;
	417 :	0000000000010010;
	416 :	0000000000010001;
	415 :	1111111111110111;
	414 :	1111111111110101;
	413 :	0000000000000011;
	412 :	0000000000001100;
	411 :	1111111111110111;
	410 :	0000000000010000;
	409 :	1111111111111101;
	408 :	1111111111100110;
	407 :	1111111111110000;
	406 :	1111111111110110;
	405 :	1111111111101111;
	404 :	1111111111110101;
	403 :	1111111111111011;
	402 :	0000000000001101;
	401 :	1111111111111111;
	400 :	0000000000010001;
	399 :	1111111111111100;
	398 :	1111111111111010;
	397 :	1111111111110001;
	396 :	1111111111101011;
	395 :	1111111111110011;
	394 :	1111111111101111;
	393 :	0000000000010011;
	392 :	1111111111111011;
	391 :	0000000000001100;
	390 :	1111111111101001;
	389 :	1111111111101111;
	388 :	0000000000000100;
	387 :	0000000000010100;
	386 :	0000000000001001;
	385 :	1111111111110010;
	384 :	0000000000000110;
	383 :	0000000000001100;
	382 :	0000000000001101;
	381 :	0000000000010000;
	380 :	1111111111101000;
	379 :	1111111111111010;
	378 :	1111111111111010;
	377 :	0000000000000000;
	376 :	0000000000000100;
	375 :	0000000000001100;
	374 :	1111111111100111;
	373 :	1111111111110101;
	372 :	1111111111110011;
	371 :	1111111111101011;
	370 :	1111111111111100;
	369 :	1111111111110010;
	368 :	1111111111101010;
	367 :	1111111111110100;
	366 :	1111111111110000;
	365 :	0000000000000100;
	364 :	1111111111101101;
	363 :	0000000000000110;
	362 :	0000000000000111;
	361 :	1111111111111010;
	360 :	1111111111101110;
	359 :	0000000000000100;
	358 :	1111111111110111;
	357 :	1111111111111000;
	356 :	0000000000001111;
	355 :	1111111111101101;
	354 :	1111111111111111;
	353 :	1111111111100110;
	352 :	0000000000000010;
	351 :	1111111111111110;
	350 :	0000000000000010;
	349 :	0000000000000011;
	348 :	1111111111111110;
	347 :	0000000000000001;
	346 :	1111111111101111;
	345 :	1111111111111011;
	344 :	1111111111110001;
	343 :	1111111111110110;
	342 :	1111111111111000;
	341 :	0000000000000100;
	340 :	1111111111101101;
	339 :	1111111111100001;
	338 :	0000000000000001;
	337 :	1111111111111110;
	336 :	1111111111101101;
	335 :	0000000000010011;
	334 :	1111111111101110;
	333 :	1111111111110100;
	332 :	0000000000010100;
	331 :	1111111111111111;
	330 :	0000000000010001;
	329 :	1111111111111100;
	328 :	0000000000010001;
	327 :	0000000000001101;
	326 :	0000000000001111;
	325 :	0000000000000110;
	324 :	1111111111110111;
	323 :	0000000000001010;
	322 :	1111111111110111;
	321 :	1111111111111110;
	320 :	0000000000000001;
	319 :	1111111111110100;
	318 :	1111111111111011;
	317 :	1111111111110110;
	316 :	1111111111100111;
	315 :	0000000000001011;
	314 :	0000000000000100;
	313 :	1111111111110001;
	312 :	0000000000000100;
	311 :	0000000000010011;
	310 :	0000000000000011;
	309 :	1111111111111010;
	308 :	1111111111111110;
	307 :	0000000000000001;
	306 :	1111111111101100;
	305 :	1111111111111101;
	304 :	1111111111101111;
	303 :	0000000000000111;
	302 :	0000000000000011;
	301 :	0000000000000100;
	300 :	1111111111110111;
	299 :	1111111111111000;
	298 :	0000000000010001;
	297 :	1111111111110100;
	296 :	1111111111111011;
	295 :	1111111111111011;
	294 :	1111111111101100;
	293 :	1111111111110100;
	292 :	1111111111111100;
	291 :	0000000000001000;
	290 :	1111111111110110;
	289 :	0000000000010001;
	288 :	0000000000000000;
	287 :	0000000000000101;
	286 :	0000000000010001;
	285 :	1111111111101111;
	284 :	0000000000001100;
	283 :	0000000000001100;
	282 :	0000000000000001;
	281 :	0000000000000100;
	280 :	0000000000010011;
	279 :	0000000000010010;
	278 :	1111111111101100;
	277 :	1111111111110101;
	276 :	0000000000001111;
	275 :	1111111111111111;
	274 :	0000000000000111;
	273 :	0000000000001111;
	272 :	0000000000000001;
	271 :	1111111111101100;
	270 :	1111111111110100;
	269 :	0000000000000010;
	268 :	1111111111110010;
	267 :	1111111111111111;
	266 :	1111111111110001;
	265 :	0000000000000100;
	264 :	1111111111110001;
	263 :	0000000000000000;
	262 :	1111111111110000;
	261 :	0000000000001011;
	260 :	1111111111101110;
	259 :	1111111111110000;
	258 :	0000000000001011;
	257 :	0000000000001101;
	256 :	0000000000001111;
	255 :	1111111111111111;
	254 :	1111111111110001;
	253 :	0000000000000111;
	252 :	0000000000000101;
	251 :	0000000000000110;
	250 :	0000000000001101;
	249 :	0000000000001011;
	248 :	0000000000001110;
	247 :	1111111111111000;
	246 :	1111111111110100;
	245 :	0000000000000010;
	244 :	0000000000000101;
	243 :	0000000000001010;
	242 :	0000000000001101;
	241 :	1111111111110110;
	240 :	0000000000001100;
	239 :	1111111111110001;
	238 :	1111111111111011;
	237 :	1111111111111101;
	236 :	0000000000000010;
	235 :	1111111111100101;
	234 :	1111111111110001;
	233 :	1111111111111011;
	232 :	0000000000001010;
	231 :	0000000000001011;
	230 :	0000000000001110;
	229 :	0000000000000111;
	228 :	0000000000000001;
	227 :	0000000000010100;
	226 :	0000000000000100;
	225 :	0000000000000110;
	224 :	0000000000000000;
	223 :	1111111111110011;
	222 :	1111111111111110;
	221 :	0000000000000000;
	220 :	0000000000001010;
	219 :	1111111111101001;
	218 :	0000000000001001;
	217 :	1111111111101100;
	216 :	0000000000000010;
	215 :	1111111111101010;
	214 :	1111111111110111;
	213 :	1111111111101011;
	212 :	1111111111110110;
	211 :	1111111111110101;
	210 :	0000000000000010;
	209 :	1111111111111100;
	208 :	0000000000001110;
	207 :	0000000000000000;
	206 :	1111111111111011;
	205 :	0000000000010000;
	204 :	0000000000000011;
	203 :	1111111111101110;
	202 :	1111111111101111;
	201 :	1111111111110000;
	200 :	1111111111101100;
	199 :	1111111111110100;
	198 :	1111111111111100;
	197 :	1111111111111010;
	196 :	0000000000001010;
	195 :	1111111111110001;
	194 :	0000000000010000;
	193 :	1111111111110110;
	192 :	1111111111110011;
	191 :	1111111111101010;
	190 :	1111111111111011;
	189 :	0000000000000101;
	188 :	1111111111110000;
	187 :	1111111111110111;
	186 :	1111111111101111;
	185 :	0000000000000100;
	184 :	0000000000000111;
	183 :	1111111111111100;
	182 :	1111111111111010;
	181 :	0000000000001100;
	180 :	0000000000000111;
	179 :	1111111111101000;
	178 :	1111111111101101;
	177 :	0000000000010001;
	176 :	0000000000001111;
	175 :	0000000000001011;
	174 :	1111111111101011;
	173 :	1111111111101111;
	172 :	0000000000001101;
	171 :	0000000000000100;
	170 :	0000000000010110;
	169 :	1111111111111101;
	168 :	0000000000001100;
	167 :	0000000000010001;
	166 :	1111111111111011;
	165 :	0000000000010010;
	164 :	1111111111110101;
	163 :	1111111111111111;
	162 :	1111111111101111;
	161 :	0000000000010000;
	160 :	1111111111110000;
	159 :	1111111111101001;
	158 :	0000000000010001;
	157 :	1111111111110111;
	156 :	1111111111111000;
	155 :	1111111111110100;
	154 :	0000000000000111;
	153 :	0000000000001100;
	152 :	1111111111111010;
	151 :	1111111111111101;
	150 :	0000000000000100;
	149 :	1111111111101100;
	148 :	1111111111111110;
	147 :	0000000000001100;
	146 :	0000000000000111;
	145 :	1111111111110011;
	144 :	1111111111111111;
	143 :	1111111111110000;
	142 :	0000000000000000;
	141 :	0000000000010101;
	140 :	0000000000000101;
	139 :	1111111111111011;
	138 :	0000000000000111;
	137 :	0000000000000100;
	136 :	0000000000010101;
	135 :	1111111111110110;
	134 :	0000000000001010;
	133 :	0000000000010000;
	132 :	1111111111101011;
	131 :	0000000000001110;
	130 :	0000000000000011;
	129 :	1111111111100111;
	128 :	1111111111110101;
	127 :	1111111111110100;
	126 :	1111111111110111;
	125 :	0000000000000111;
	124 :	1111111111100111;
	123 :	0000000000000011;
	122 :	0000000000001101;
	121 :	0000000000000000;
	120 :	0000000000001100;
	119 :	1111111111111111;
	118 :	1111111111111011;
	117 :	1111111111110000;
	116 :	0000000000010010;
	115 :	0000000000010010;
	114 :	1111111111111110;
	113 :	1111111111101011;
	112 :	0000000000010011;
	111 :	1111111111111100;
	110 :	0000000000010100;
	109 :	0000000000001010;
	108 :	1111111111111000;
	107 :	1111111111110111;
	106 :	0000000000010010;
	105 :	1111111111101000;
	104 :	0000000000001100;
	103 :	0000000000001010;
	102 :	1111111111111110;
	101 :	1111111111100111;
	100 :	0000000000010010;
	99 :	0000000000000011;
	98 :	1111111111100111;
	97 :	1111111111110001;
	96 :	1111111111110000;
	95 :	0000000000000000;
	94 :	1111111111110101;
	93 :	1111111111110010;
	92 :	0000000000010010;
	91 :	1111111111101110;
	90 :	0000000000001001;
	89 :	0000000000000101;
	88 :	1111111111101101;
	87 :	1111111111101011;
	86 :	1111111111111011;
	85 :	0000000000000001;
	84 :	0000000000000011;
	83 :	1111111111110100;
	82 :	0000000000001001;
	81 :	0000000000001110;
	80 :	0000000000010011;
	79 :	0000000000001010;
	78 :	1111111111110011;
	77 :	0000000000001101;
	76 :	0000000000000010;
	75 :	1111111111111110;
	74 :	0000000000010011;
	73 :	1111111111111110;
	72 :	1111111111111010;
	71 :	1111111111101101;
	70 :	1111111111101101;
	69 :	0000000000001110;
	68 :	1111111111101111;
	67 :	1111111111111101;
	66 :	1111111111101010;
	65 :	0000000000100100;
	64 :	0000000000000111;
	63 :	1111111111110001;
	62 :	1111111111111010;
	61 :	0000000000010001;
	60 :	0000000000001010;
	59 :	0000000000010001;
	58 :	1111111111111011;
	57 :	0000000000010100;
	56 :	1111111111101111;
	55 :	1111111111111100;
	54 :	1111111111110011;
	53 :	0000000000010011;
	52 :	1111111111111001;
	51 :	0000000000001010;
	50 :	0000000000000100;
	49 :	1111111111101010;
	48 :	1111111111111001;
	47 :	1111111111101010;
	46 :	0000000000001111;
	45 :	1111111111101110;
	44 :	0000000000010000;
	43 :	0000000000010010;
	42 :	1111111111101110;
	41 :	1111111111110111;
	40 :	1111111111110100;
	39 :	0000000000000110;
	38 :	1111111111110101;
	37 :	1111111111111001;
	36 :	0000000000000100;
	35 :	0000000000000011;
	34 :	1111111111101111;
	33 :	1111111111111100;
	32 :	0000000000000010;
	31 :	0000000000001110;
	30 :	0000000000000111;
	29 :	0000000000000011;
	28 :	1111111111110110;
	27 :	0000000000010000;
	26 :	0000000000000110;
	25 :	1111111111111101;
	24 :	0000000000010010;
	23 :	0000000000010001;
	22 :	1111111111110111;
	21 :	1111111111111011;
	20 :	0000000000000100;
	19 :	1111111111110001;
	18 :	1111111111111001;
	17 :	1111111111111100;
	16 :	1111111111101011;
	15 :	1111111111111000;
	14 :	1111111111110100;
	13 :	0000000000000010;
	12 :	0000000000010011;
	11 :	0000000000001101;
	10 :	1111111111101101;
	9 :	1111111111110000;
	8 :	0000000000001101;
	7 :	0000000000010001;
	6 :	0000000000001100;
	5 :	1111111111111100;
	4 :	0000000000001101;
	3 :	0000000000000010;
	2 :	1111111111110000;
	1 :	1111111111111100;
	0 :	1111111111111110;
END;
