-- begin_signature
-- weights(numWeights
-- 256
-- neuronNumber
-- 0
-- layerNumber
-- 1
-- addressWidth
-- 8
-- dataWidth
-- 6
-- weightFile
-- "w_n0_l1.mif")
-- end_signature
WIDTH=6;
DEPTH=256;

ADDRESS_RADIX=UNS;
DATA_RADIX=BIN;

CONTENT BEGIN
	255 :	010101;
	254 :	000001;
	253 :	000111;
	252 :	001010;
	251 :	111101;
	250 :	000010;
	249 :	000001;
	248 :	000111;
	247 :	001010;
	246 :	001001;
	245 :	001000;
	244 :	000111;
	243 :	000011;
	242 :	000010;
	241 :	000001;
	240 :	000000;
	239 :	010101;
	238 :	000001;
	237 :	000111;
	236 :	001010;
	235 :	111101;
	234 :	000010;
	233 :	000001;
	232 :	000111;
	231 :	001010;
	230 :	001001;
	229 :	001000;
	228 :	000111;
	227 :	000011;
	226 :	000010;
	225 :	000001;
	224 :	000000;
	223 :	010101;
	222 :	000001;
	221 :	000111;
	220 :	001010;
	219 :	111101;
	218 :	000010;
	217 :	000001;
	216 :	000111;
	215 :	001010;
	214 :	001001;
	213 :	001000;
	212 :	000111;
	211 :	000011;
	210 :	000010;
	209 :	000001;
	208 :	000000;
	207 :	010101;
	206 :	000001;
	205 :	000111;
	204 :	001010;
	203 :	111101;
	202 :	000010;
	201 :	000001;
	200 :	000111;
	199 :	001010;
	198 :	001001;
	197 :	001000;
	196 :	000111;
	195 :	000011;
	194 :	000010;
	193 :	000001;
	192 :	000000;
	191 :	010101;
	190 :	000001;
	189 :	000111;
	188 :	001010;
	187 :	111101;
	186 :	000010;
	185 :	000001;
	184 :	000111;
	183 :	001010;
	182 :	001001;
	181 :	001000;
	180 :	000111;
	179 :	000011;
	178 :	000010;
	177 :	000001;
	176 :	000000;
	175 :	010101;
	174 :	000001;
	173 :	000111;
	172 :	001010;
	171 :	111101;
	170 :	000010;
	169 :	000001;
	168 :	000111;
	167 :	001010;
	166 :	001001;
	165 :	001000;
	164 :	000111;
	163 :	000011;
	162 :	000010;
	161 :	000001;
	160 :	000000;
	159 :	010101;
	158 :	000001;
	157 :	000111;
	156 :	001010;
	155 :	111101;
	154 :	000010;
	153 :	000001;
	152 :	000111;
	151 :	001010;
	150 :	001001;
	149 :	001000;
	148 :	000111;
	147 :	000011;
	146 :	000010;
	145 :	000001;
	144 :	000000;
	143 :	010101;
	142 :	000001;
	141 :	000111;
	140 :	001010;
	139 :	111101;
	138 :	000010;
	137 :	000001;
	136 :	000111;
	135 :	001010;
	134 :	001001;
	133 :	001000;
	132 :	000111;
	131 :	000011;
	130 :	000010;
	129 :	000001;
	128 :	000000;
	127 :	010101;
	126 :	000001;
	125 :	000111;
	124 :	001010;
	123 :	111101;
	122 :	000010;
	121 :	000001;
	120 :	000111;
	119 :	001010;
	118 :	001001;
	117 :	001000;
	116 :	000111;
	115 :	000011;
	114 :	000010;
	113 :	000001;
	112 :	000000;
	111 :	010101;
	110 :	000001;
	109 :	000111;
	108 :	001010;
	107 :	111101;
	106 :	000010;
	105 :	000001;
	104 :	000111;
	103 :	001010;
	102 :	001001;
	101 :	001000;
	100 :	000111;
	99 :	000011;
	98 :	000010;
	97 :	000001;
	96 :	000000;
	95 :	010101;
	94 :	000001;
	93 :	000111;
	92 :	001010;
	91 :	111101;
	90 :	000010;
	89 :	000001;
	88 :	000111;
	87 :	001010;
	86 :	001001;
	85 :	001000;
	84 :	000111;
	83 :	000011;
	82 :	000010;
	81 :	000001;
	80 :	000000;
	79 :	010101;
	78 :	000001;
	77 :	000111;
	76 :	001010;
	75 :	111101;
	74 :	000010;
	73 :	000001;
	72 :	000111;
	71 :	001010;
	70 :	001001;
	69 :	001000;
	68 :	000111;
	67 :	000011;
	66 :	000010;
	65 :	000001;
	64 :	000000;
	63 :	010101;
	62 :	000001;
	61 :	000111;
	60 :	001010;
	59 :	111101;
	58 :	000010;
	57 :	000001;
	56 :	000111;
	55 :	001010;
	54 :	001001;
	53 :	001000;
	52 :	000111;
	51 :	000011;
	50 :	000010;
	49 :	000001;
	48 :	000000;
	47 :	010101;
	46 :	000001;
	45 :	000111;
	44 :	001010;
	43 :	111101;
	42 :	000010;
	41 :	000001;
	40 :	000111;
	39 :	001010;
	38 :	001001;
	37 :	001000;
	36 :	000111;
	35 :	000011;
	34 :	000010;
	33 :	000001;
	32 :	000000;
	31 :	010101;
	30 :	000001;
	29 :	000111;
	28 :	001010;
	27 :	111101;
	26 :	000010;
	25 :	000001;
	24 :	000111;
	23 :	001010;
	22 :	001001;
	21 :	001000;
	20 :	000111;
	19 :	000011;
	18 :	000010;
	17 :	000001;
	16 :	000000;
	15 :	010101;
	14 :	000001;
	13 :	000111;
	12 :	001010;
	11 :	111101;
	10 :	000010;
	9 :	000001;
	8 :	000111;
	7 :	001010;
	6 :	001001;
	5 :	001000;
	4 :	000111;
	3 :	000011;
	2 :	000010;
	1 :	000001;
	0 :	000000;
END;
