-- begin_signature
-- weights(numWeights
-- 784
-- neuronNumber
-- 7
-- layerNumber
-- 0
-- addressWidth
-- 10
-- dataWidth
-- 16
-- weightFile
-- "weights/weight_L0_N7.mif")
-- end_signature
WIDTH=16;
DEPTH=784;

ADDRESS_RADIX=UNS;
DATA_RADIX=BIN;

CONTENT BEGIN
	783 :	0000000000000001;
	782 :	1111111111111111;
	781 :	0000000000001000;
	780 :	1111111111101101;
	779 :	0000000000000011;
	778 :	1111111111110001;
	777 :	0000000000000010;
	776 :	0000000000001111;
	775 :	1111111111111101;
	774 :	1111111111110000;
	773 :	1111111111111010;
	772 :	1111111111101101;
	771 :	1111111111110101;
	770 :	1111111111111100;
	769 :	0000000000010111;
	768 :	0000000000001010;
	767 :	1111111111110101;
	766 :	1111111111111011;
	765 :	0000000000010010;
	764 :	0000000000001010;
	763 :	1111111111111111;
	762 :	0000000000001011;
	761 :	1111111111111010;
	760 :	1111111111111101;
	759 :	1111111111110111;
	758 :	0000000000010110;
	757 :	1111111111101110;
	756 :	0000000000001100;
	755 :	1111111111110001;
	754 :	1111111111110101;
	753 :	1111111111111101;
	752 :	1111111111111100;
	751 :	0000000000010000;
	750 :	0000000000001100;
	749 :	0000000000010011;
	748 :	0000000000000111;
	747 :	0000000000001010;
	746 :	1111111111101111;
	745 :	0000000000000110;
	744 :	1111111111111000;
	743 :	0000000000001101;
	742 :	0000000000101110;
	741 :	1111111111111000;
	740 :	0000000000000010;
	739 :	0000000000010101;
	738 :	0000000000010101;
	737 :	1111111111101100;
	736 :	0000000000000111;
	735 :	0000000000010011;
	734 :	1111111111101101;
	733 :	1111111111111101;
	732 :	0000000000001010;
	731 :	0000000000010110;
	730 :	0000000000000100;
	729 :	0000000000001000;
	728 :	1111111111111100;
	727 :	0000000000010010;
	726 :	0000000000010110;
	725 :	0000000000010110;
	724 :	1111111111110011;
	723 :	0000000000010000;
	722 :	0000000000010001;
	721 :	1111111111110001;
	720 :	1111111111111011;
	719 :	1111111111110011;
	718 :	1111111111101011;
	717 :	1111111111100111;
	716 :	0000000000001001;
	715 :	0000000000011011;
	714 :	0000000000010010;
	713 :	1111111111110110;
	712 :	1111111111110011;
	711 :	0000000000000110;
	710 :	0000000000000011;
	709 :	1111111111110111;
	708 :	1111111111110101;
	707 :	1111111111110100;
	706 :	1111111111110011;
	705 :	0000000000001011;
	704 :	1111111111110011;
	703 :	1111111111111010;
	702 :	1111111111101010;
	701 :	1111111111111011;
	700 :	1111111111111110;
	699 :	0000000000010100;
	698 :	0000000000001100;
	697 :	1111111111111011;
	696 :	0000000000001001;
	695 :	1111111111101100;
	694 :	0000000000000000;
	693 :	1111111111110011;
	692 :	0000000000000111;
	691 :	1111111111111000;
	690 :	0000000000001111;
	689 :	0000000000001101;
	688 :	0000000000001010;
	687 :	1111111111101110;
	686 :	0000000000001101;
	685 :	1111111111101110;
	684 :	1111111111111110;
	683 :	1111111111111110;
	682 :	1111111111101000;
	681 :	1111111111101110;
	680 :	1111111111111101;
	679 :	0000000000001101;
	678 :	0000000000001110;
	677 :	0000000000000111;
	676 :	0000000000000100;
	675 :	0000000000001001;
	674 :	0000000000001100;
	673 :	0000000000000000;
	672 :	0000000000001110;
	671 :	1111111111110000;
	670 :	0000000000000001;
	669 :	1111111111110100;
	668 :	0000000000001010;
	667 :	1111111111101111;
	666 :	1111111111110010;
	665 :	0000000000001001;
	664 :	1111111111111010;
	663 :	1111111111110001;
	662 :	1111111111111101;
	661 :	1111111111110011;
	660 :	1111111111111000;
	659 :	1111111111100110;
	658 :	1111111111111001;
	657 :	0000000000001010;
	656 :	0000000000000100;
	655 :	0000000000001001;
	654 :	1111111111100011;
	653 :	1111111111101011;
	652 :	1111111111101110;
	651 :	0000000000000000;
	650 :	1111111111110100;
	649 :	1111111111111100;
	648 :	0000000000001100;
	647 :	0000000000000101;
	646 :	1111111111101011;
	645 :	1111111111111010;
	644 :	1111111111101011;
	643 :	1111111111110111;
	642 :	0000000000001001;
	641 :	1111111111110110;
	640 :	0000000000010100;
	639 :	0000000000000010;
	638 :	1111111111111110;
	637 :	0000000000001111;
	636 :	1111111111100000;
	635 :	1111111111110011;
	634 :	0000000000001011;
	633 :	1111111111101000;
	632 :	1111111111110101;
	631 :	1111111111111100;
	630 :	1111111111111101;
	629 :	1111111111100101;
	628 :	1111111111110000;
	627 :	0000000000000001;
	626 :	0000000000001010;
	625 :	0000000000010010;
	624 :	0000000000001010;
	623 :	1111111111101001;
	622 :	1111111111101000;
	621 :	1111111111110110;
	620 :	1111111111111110;
	619 :	0000000000000100;
	618 :	0000000000000010;
	617 :	0000000000010010;
	616 :	1111111111101110;
	615 :	0000000000010010;
	614 :	0000000000010010;
	613 :	0000000000010001;
	612 :	1111111111111010;
	611 :	1111111111110001;
	610 :	1111111111101001;
	609 :	1111111111110011;
	608 :	1111111111110010;
	607 :	1111111111110101;
	606 :	0000000000000000;
	605 :	1111111111101100;
	604 :	0000000000010001;
	603 :	1111111111110010;
	602 :	0000000000001010;
	601 :	1111111111111101;
	600 :	1111111111111000;
	599 :	0000000000000001;
	598 :	1111111111101110;
	597 :	1111111111111111;
	596 :	0000000000000001;
	595 :	1111111111110001;
	594 :	0000000000010000;
	593 :	1111111111111000;
	592 :	0000000000001101;
	591 :	0000000000001000;
	590 :	0000000000010011;
	589 :	0000000000000101;
	588 :	0000000000001010;
	587 :	1111111111111000;
	586 :	0000000000000000;
	585 :	0000000000010101;
	584 :	0000000000010100;
	583 :	1111111111110001;
	582 :	1111111111110100;
	581 :	0000000000000101;
	580 :	1111111111111000;
	579 :	1111111111110100;
	578 :	1111111111111100;
	577 :	1111111111101111;
	576 :	1111111111111100;
	575 :	0000000000001011;
	574 :	1111111111101011;
	573 :	1111111111100100;
	572 :	0000000000000101;
	571 :	1111111111111000;
	570 :	1111111111111001;
	569 :	1111111111110111;
	568 :	0000000000001000;
	567 :	1111111111101011;
	566 :	1111111111110100;
	565 :	1111111111110011;
	564 :	0000000000010110;
	563 :	1111111111110111;
	562 :	1111111111111101;
	561 :	0000000000000011;
	560 :	1111111111101110;
	559 :	0000000000001100;
	558 :	0000000000000101;
	557 :	0000000000010000;
	556 :	1111111111111111;
	555 :	1111111111111000;
	554 :	0000000000000101;
	553 :	1111111111111101;
	552 :	0000000000000111;
	551 :	1111111111110100;
	550 :	1111111111100001;
	549 :	0000000000010000;
	548 :	1111111111101001;
	547 :	0000000000000010;
	546 :	1111111111110001;
	545 :	1111111111111110;
	544 :	1111111111100111;
	543 :	1111111111100000;
	542 :	1111111111100111;
	541 :	1111111111011111;
	540 :	1111111111100010;
	539 :	0000000000000101;
	538 :	1111111111110110;
	537 :	1111111111111100;
	536 :	0000000000000000;
	535 :	0000000000010111;
	534 :	0000000000011110;
	533 :	1111111111101110;
	532 :	0000000000000110;
	531 :	1111111111111000;
	530 :	0000000000010101;
	529 :	1111111111110101;
	528 :	1111111111110101;
	527 :	0000000000000011;
	526 :	0000000000001010;
	525 :	1111111111110110;
	524 :	0000000000000010;
	523 :	0000000000000010;
	522 :	1111111111100110;
	521 :	1111111111110001;
	520 :	1111111111101111;
	519 :	0000000000001110;
	518 :	1111111111110110;
	517 :	0000000000001000;
	516 :	1111111111110001;
	515 :	0000000000000111;
	514 :	1111111111110100;
	513 :	1111111111100111;
	512 :	0000000000001000;
	511 :	1111111111100101;
	510 :	0000000000000000;
	509 :	1111111111101001;
	508 :	0000000000000001;
	507 :	1111111111100010;
	506 :	1111111111110111;
	505 :	1111111111111000;
	504 :	1111111111101011;
	503 :	1111111111111110;
	502 :	0000000000001110;
	501 :	1111111111111110;
	500 :	1111111111101100;
	499 :	1111111111101110;
	498 :	0000000000001100;
	497 :	1111111111111011;
	496 :	0000000000000110;
	495 :	1111111111110110;
	494 :	1111111111100100;
	493 :	1111111111111010;
	492 :	1111111111110000;
	491 :	0000000000010000;
	490 :	1111111111110101;
	489 :	1111111111110111;
	488 :	1111111111110000;
	487 :	1111111111111100;
	486 :	1111111111101100;
	485 :	1111111111110100;
	484 :	1111111111101110;
	483 :	1111111111111011;
	482 :	0000000000001010;
	481 :	0000000000000010;
	480 :	0000000000001000;
	479 :	0000000000000111;
	478 :	0000000000000110;
	477 :	1111111111110011;
	476 :	1111111111101110;
	475 :	0000000000001000;
	474 :	1111111111111110;
	473 :	0000000000001100;
	472 :	1111111111101100;
	471 :	1111111111110001;
	470 :	1111111111110111;
	469 :	1111111111110101;
	468 :	1111111111101110;
	467 :	1111111111100011;
	466 :	1111111111111100;
	465 :	1111111111100111;
	464 :	1111111111100011;
	463 :	0000000000000000;
	462 :	0000000000001100;
	461 :	1111111111110010;
	460 :	1111111111111101;
	459 :	0000000000010001;
	458 :	0000000000000001;
	457 :	0000000000001101;
	456 :	1111111111100100;
	455 :	0000000000001000;
	454 :	1111111111111001;
	453 :	1111111111110011;
	452 :	0000000000001011;
	451 :	0000000000000011;
	450 :	1111111111101100;
	449 :	0000000000010000;
	448 :	1111111111111100;
	447 :	1111111111110011;
	446 :	1111111111110010;
	445 :	1111111111110110;
	444 :	0000000000010110;
	443 :	1111111111101101;
	442 :	1111111111110100;
	441 :	0000000000010010;
	440 :	1111111111101111;
	439 :	0000000000001101;
	438 :	0000000000001111;
	437 :	1111111111111101;
	436 :	1111111111100010;
	435 :	1111111111100110;
	434 :	0000000000000111;
	433 :	1111111111101011;
	432 :	1111111111111101;
	431 :	0000000000000101;
	430 :	1111111111100101;
	429 :	0000000000001111;
	428 :	0000000000000111;
	427 :	1111111111101011;
	426 :	1111111111111111;
	425 :	0000000000000010;
	424 :	1111111111101001;
	423 :	1111111111110011;
	422 :	0000000000000111;
	421 :	0000000000001010;
	420 :	1111111111111111;
	419 :	1111111111110111;
	418 :	0000000000001110;
	417 :	1111111111110011;
	416 :	0000000000001111;
	415 :	1111111111101011;
	414 :	0000000000001101;
	413 :	0000000000000101;
	412 :	0000000000000001;
	411 :	1111111111111110;
	410 :	1111111111101011;
	409 :	0000000000000101;
	408 :	1111111111101111;
	407 :	1111111111101100;
	406 :	1111111111101101;
	405 :	0000000000010000;
	404 :	1111111111101000;
	403 :	0000000000000010;
	402 :	0000000000000101;
	401 :	0000000000001101;
	400 :	0000000000000110;
	399 :	1111111111111010;
	398 :	0000000000000011;
	397 :	1111111111110000;
	396 :	1111111111101001;
	395 :	0000000000000101;
	394 :	0000000000001100;
	393 :	1111111111110110;
	392 :	1111111111101011;
	391 :	0000000000010101;
	390 :	0000000000000001;
	389 :	1111111111101110;
	388 :	1111111111110111;
	387 :	1111111111110101;
	386 :	1111111111101010;
	385 :	1111111111111100;
	384 :	1111111111111111;
	383 :	1111111111101101;
	382 :	0000000000010100;
	381 :	0000000000001100;
	380 :	1111111111110001;
	379 :	1111111111101001;
	378 :	1111111111111010;
	377 :	1111111111110011;
	376 :	1111111111111011;
	375 :	1111111111101100;
	374 :	1111111111111111;
	373 :	0000000000001011;
	372 :	0000000000000010;
	371 :	0000000000001110;
	370 :	1111111111110010;
	369 :	0000000000000010;
	368 :	1111111111101110;
	367 :	1111111111110000;
	366 :	0000000000000110;
	365 :	0000000000010101;
	364 :	0000000000010001;
	363 :	1111111111110011;
	362 :	1111111111111100;
	361 :	0000000000000011;
	360 :	0000000000000010;
	359 :	0000000000001000;
	358 :	1111111111111000;
	357 :	1111111111101010;
	356 :	0000000000000001;
	355 :	1111111111101100;
	354 :	1111111111100011;
	353 :	0000000000001011;
	352 :	0000000000001101;
	351 :	1111111111100100;
	350 :	1111111111110011;
	349 :	0000000000001011;
	348 :	0000000000000110;
	347 :	1111111111100101;
	346 :	1111111111101000;
	345 :	0000000000000111;
	344 :	0000000000000001;
	343 :	1111111111111101;
	342 :	1111111111101001;
	341 :	1111111111110100;
	340 :	0000000000001110;
	339 :	1111111111101111;
	338 :	1111111111111010;
	337 :	1111111111110001;
	336 :	0000000000000001;
	335 :	1111111111111010;
	334 :	1111111111110010;
	333 :	1111111111111100;
	332 :	0000000000010000;
	331 :	1111111111110010;
	330 :	0000000000001010;
	329 :	1111111111100010;
	328 :	1111111111111010;
	327 :	0000000000000010;
	326 :	1111111111111111;
	325 :	0000000000000110;
	324 :	1111111111101110;
	323 :	1111111111111110;
	322 :	1111111111110011;
	321 :	1111111111101000;
	320 :	1111111111111010;
	319 :	1111111111101010;
	318 :	0000000000000110;
	317 :	0000000000010100;
	316 :	1111111111110111;
	315 :	0000000000010000;
	314 :	1111111111101010;
	313 :	0000000000000011;
	312 :	0000000000010000;
	311 :	0000000000001001;
	310 :	1111111111111100;
	309 :	0000000000010100;
	308 :	0000000000010000;
	307 :	1111111111111011;
	306 :	1111111111110000;
	305 :	0000000000010001;
	304 :	1111111111110101;
	303 :	1111111111110100;
	302 :	1111111111101110;
	301 :	1111111111101101;
	300 :	0000000000000010;
	299 :	1111111111011101;
	298 :	1111111111111101;
	297 :	1111111111111010;
	296 :	1111111111110100;
	295 :	0000000000011000;
	294 :	1111111111110010;
	293 :	1111111111101011;
	292 :	1111111111101110;
	291 :	1111111111101101;
	290 :	1111111111111001;
	289 :	1111111111100111;
	288 :	0000000000010000;
	287 :	0000000000000011;
	286 :	1111111111111101;
	285 :	1111111111111110;
	284 :	0000000000000011;
	283 :	0000000000000111;
	282 :	1111111111101101;
	281 :	1111111111110011;
	280 :	1111111111110101;
	279 :	0000000000001000;
	278 :	1111111111110000;
	277 :	1111111111110101;
	276 :	1111111111110101;
	275 :	1111111111110000;
	274 :	1111111111101111;
	273 :	1111111111111110;
	272 :	1111111111110010;
	271 :	1111111111111000;
	270 :	1111111111110010;
	269 :	1111111111110010;
	268 :	1111111111110110;
	267 :	0000000000000101;
	266 :	0000000000010110;
	265 :	1111111111101111;
	264 :	0000000000001111;
	263 :	0000000000000010;
	262 :	1111111111111000;
	261 :	1111111111110110;
	260 :	1111111111101011;
	259 :	1111111111111000;
	258 :	1111111111100100;
	257 :	0000000000000000;
	256 :	1111111111111110;
	255 :	1111111111101011;
	254 :	0000000000000110;
	253 :	0000000000000001;
	252 :	0000000000010001;
	251 :	1111111111110010;
	250 :	1111111111110110;
	249 :	0000000000001011;
	248 :	1111111111101111;
	247 :	0000000000001111;
	246 :	1111111111101110;
	245 :	1111111111110111;
	244 :	1111111111101110;
	243 :	0000000000001001;
	242 :	1111111111011011;
	241 :	1111111111100100;
	240 :	1111111111101101;
	239 :	1111111111110000;
	238 :	1111111111111001;
	237 :	1111111111101010;
	236 :	0000000000001010;
	235 :	1111111111111111;
	234 :	1111111111110011;
	233 :	0000000000001101;
	232 :	0000000000001010;
	231 :	1111111111100010;
	230 :	1111111111101010;
	229 :	0000000000000101;
	228 :	0000000000010000;
	227 :	1111111111111111;
	226 :	1111111111101011;
	225 :	0000000000010101;
	224 :	1111111111101110;
	223 :	0000000000000011;
	222 :	0000000000000100;
	221 :	1111111111111110;
	220 :	0000000000001111;
	219 :	0000000000000001;
	218 :	0000000000001110;
	217 :	0000000000000110;
	216 :	1111111111011100;
	215 :	1111111111111011;
	214 :	1111111111110001;
	213 :	1111111111101101;
	212 :	1111111111101000;
	211 :	1111111111110110;
	210 :	1111111111101000;
	209 :	0000000000001110;
	208 :	0000000000001000;
	207 :	0000000000010010;
	206 :	0000000000000001;
	205 :	1111111111101001;
	204 :	1111111111111101;
	203 :	1111111111100100;
	202 :	1111111111111111;
	201 :	1111111111101000;
	200 :	0000000000001000;
	199 :	0000000000000110;
	198 :	0000000000001101;
	197 :	1111111111111010;
	196 :	0000000000001110;
	195 :	0000000000010011;
	194 :	0000000000001111;
	193 :	1111111111101011;
	192 :	1111111111111001;
	191 :	1111111111111000;
	190 :	1111111111101100;
	189 :	1111111111111000;
	188 :	0000000000000101;
	187 :	1111111111111111;
	186 :	0000000000010001;
	185 :	1111111111101010;
	184 :	1111111111111110;
	183 :	1111111111100111;
	182 :	0000000000000100;
	181 :	0000000000010000;
	180 :	0000000000010000;
	179 :	1111111111100001;
	178 :	1111111111110110;
	177 :	0000000000000001;
	176 :	1111111111101000;
	175 :	0000000000000010;
	174 :	1111111111100100;
	173 :	0000000000000011;
	172 :	0000000000001010;
	171 :	1111111111110000;
	170 :	1111111111111011;
	169 :	1111111111110111;
	168 :	1111111111101010;
	167 :	0000000000001101;
	166 :	0000000000000100;
	165 :	0000000000010001;
	164 :	0000000000010010;
	163 :	1111111111111100;
	162 :	0000000000001111;
	161 :	1111111111111001;
	160 :	1111111111111010;
	159 :	1111111111111100;
	158 :	0000000000000011;
	157 :	0000000000010001;
	156 :	1111111111101001;
	155 :	1111111111111100;
	154 :	1111111111101000;
	153 :	0000000000010100;
	152 :	0000000000001011;
	151 :	1111111111101110;
	150 :	1111111111101011;
	149 :	1111111111110111;
	148 :	0000000000001010;
	147 :	1111111111110001;
	146 :	0000000000001101;
	145 :	0000000000010011;
	144 :	0000000000010011;
	143 :	1111111111101011;
	142 :	0000000000001100;
	141 :	1111111111110110;
	140 :	0000000000001000;
	139 :	1111111111110110;
	138 :	1111111111110100;
	137 :	0000000000000011;
	136 :	0000000000001101;
	135 :	1111111111111100;
	134 :	1111111111110110;
	133 :	1111111111111011;
	132 :	0000000000000010;
	131 :	1111111111101000;
	130 :	0000000000001011;
	129 :	1111111111110110;
	128 :	0000000000000111;
	127 :	1111111111100111;
	126 :	0000000000000100;
	125 :	0000000000011110;
	124 :	0000000000010001;
	123 :	1111111111101011;
	122 :	1111111111101101;
	121 :	1111111111101001;
	120 :	1111111111111011;
	119 :	0000000000001110;
	118 :	0000000000010011;
	117 :	0000000000000011;
	116 :	1111111111111011;
	115 :	1111111111111010;
	114 :	0000000000010001;
	113 :	0000000000000001;
	112 :	0000000000000000;
	111 :	0000000000010101;
	110 :	1111111111111101;
	109 :	1111111111111100;
	108 :	1111111111111000;
	107 :	1111111111110010;
	106 :	1111111111101011;
	105 :	0000000000001101;
	104 :	0000000000000111;
	103 :	0000000000001111;
	102 :	0000000000000100;
	101 :	1111111111110010;
	100 :	1111111111101101;
	99 :	0000000000001001;
	98 :	0000000000011010;
	97 :	1111111111111101;
	96 :	1111111111101001;
	95 :	0000000000001011;
	94 :	0000000000001010;
	93 :	0000000000010011;
	92 :	1111111111110000;
	91 :	1111111111110100;
	90 :	1111111111110111;
	89 :	1111111111110001;
	88 :	1111111111110110;
	87 :	1111111111110001;
	86 :	0000000000001001;
	85 :	0000000000010000;
	84 :	1111111111110000;
	83 :	0000000000010001;
	82 :	0000000000001011;
	81 :	0000000000001100;
	80 :	0000000000001011;
	79 :	1111111111111110;
	78 :	0000000000010001;
	77 :	1111111111111011;
	76 :	0000000000000111;
	75 :	0000000000001010;
	74 :	1111111111110000;
	73 :	0000000000000000;
	72 :	0000000000001000;
	71 :	0000000000010001;
	70 :	0000000000000011;
	69 :	1111111111101110;
	68 :	1111111111111100;
	67 :	0000000000001010;
	66 :	1111111111111010;
	65 :	0000000000001001;
	64 :	1111111111110111;
	63 :	0000000000000101;
	62 :	0000000000000011;
	61 :	1111111111111001;
	60 :	0000000000001011;
	59 :	0000000000001000;
	58 :	1111111111111000;
	57 :	0000000000000101;
	56 :	0000000000001010;
	55 :	1111111111101111;
	54 :	1111111111111110;
	53 :	1111111111101010;
	52 :	0000000000000011;
	51 :	0000000000001000;
	50 :	0000000000010001;
	49 :	1111111111101101;
	48 :	1111111111111101;
	47 :	0000000000010100;
	46 :	1111111111110100;
	45 :	1111111111110011;
	44 :	0000000000010110;
	43 :	1111111111110101;
	42 :	0000000000010010;
	41 :	1111111111110100;
	40 :	1111111111110011;
	39 :	0000000000000111;
	38 :	1111111111101101;
	37 :	1111111111101111;
	36 :	0000000000000101;
	35 :	0000000000000101;
	34 :	1111111111111100;
	33 :	0000000000001001;
	32 :	0000000000010000;
	31 :	0000000000010101;
	30 :	1111111111110111;
	29 :	1111111111110100;
	28 :	1111111111101100;
	27 :	1111111111101100;
	26 :	1111111111110011;
	25 :	1111111111111000;
	24 :	0000000000010101;
	23 :	0000000000000001;
	22 :	0000000000010100;
	21 :	1111111111111011;
	20 :	1111111111111100;
	19 :	0000000000001011;
	18 :	0000000000010000;
	17 :	1111111111110100;
	16 :	0000000000010011;
	15 :	0000000000001100;
	14 :	0000000000000110;
	13 :	0000000000001010;
	12 :	0000000000001010;
	11 :	0000000000000010;
	10 :	0000000000000100;
	9 :	1111111111111000;
	8 :	1111111111101100;
	7 :	0000000000000111;
	6 :	1111111111111010;
	5 :	0000000000010010;
	4 :	1111111111111001;
	3 :	0000000000010110;
	2 :	0000000000001011;
	1 :	0000000000000001;
	0 :	0000000000010011;
END;
