-- begin_signature
-- weights(numWeights
-- 784
-- neuronNumber
-- 5
-- layerNumber
-- 0
-- addressWidth
-- 10
-- dataWidth
-- 16
-- weightFile
-- "weights/weight_L0_N5.mif")
-- end_signature
WIDTH=16;
DEPTH=784;

ADDRESS_RADIX=UNS;
DATA_RADIX=BIN;

CONTENT BEGIN
	783 :	1111111111110101;
	782 :	1111111111110010;
	781 :	0000000000000001;
	780 :	0000000000001111;
	779 :	0000000000010011;
	778 :	1111111111101011;
	777 :	0000000000000010;
	776 :	1111111111010010;
	775 :	1111111111011111;
	774 :	0000000000100000;
	773 :	0000000000110110;
	772 :	1111111111101111;
	771 :	1111111111100100;
	770 :	1111111111011010;
	769 :	0000000000010101;
	768 :	1111111111111110;
	767 :	1111111111110110;
	766 :	0000000000100001;
	765 :	0000000000010110;
	764 :	0000000000010001;
	763 :	0000000000100111;
	762 :	0000000000010011;
	761 :	0000000000001001;
	760 :	0000000000000101;
	759 :	1111111111111111;
	758 :	1111111111110111;
	757 :	0000000000010110;
	756 :	1111111111101100;
	755 :	1111111111111110;
	754 :	0000000000000010;
	753 :	1111111111111111;
	752 :	0000000000010101;
	751 :	1111111111001110;
	750 :	1111111111101010;
	749 :	1111111111110001;
	748 :	1111111111000000;
	747 :	0000000000001001;
	746 :	1111111111100010;
	745 :	1111111111011011;
	744 :	1111111111011011;
	743 :	1111111111110111;
	742 :	1111111111010111;
	741 :	1111111111100010;
	740 :	0000000000001010;
	739 :	0000000000011011;
	738 :	0000000000100011;
	737 :	0000000000010101;
	736 :	0000000000100111;
	735 :	0000000001000011;
	734 :	1111111111111110;
	733 :	1111111111111011;
	732 :	0000000000100010;
	731 :	1111111111111011;
	730 :	0000000000001100;
	729 :	0000000000010100;
	728 :	1111111111111000;
	727 :	0000000000010011;
	726 :	0000000000010000;
	725 :	0000000000000001;
	724 :	0000000000010010;
	723 :	0000000000000001;
	722 :	1111111111101000;
	721 :	1111111111110000;
	720 :	1111111111111000;
	719 :	1111111111111111;
	718 :	0000000000000001;
	717 :	1111111111111110;
	716 :	0000000000010001;
	715 :	0000000000001001;
	714 :	0000000000010001;
	713 :	1111111111111000;
	712 :	0000000000000011;
	711 :	1111111111110010;
	710 :	1111111111111101;
	709 :	0000000000000111;
	708 :	0000000000011100;
	707 :	0000000000001111;
	706 :	1111111111110001;
	705 :	0000000000000010;
	704 :	1111111111010100;
	703 :	0000000000100111;
	702 :	0000000000001001;
	701 :	1111111111110001;
	700 :	1111111111111010;
	699 :	1111111111101010;
	698 :	0000000000001001;
	697 :	1111111111101111;
	696 :	1111111111011110;
	695 :	1111111111101011;
	694 :	1111111111010011;
	693 :	0000000000000001;
	692 :	0000000000000111;
	691 :	0000000000001000;
	690 :	1111111111111111;
	689 :	0000000000011010;
	688 :	0000000000001100;
	687 :	0000000000011010;
	686 :	1111111111110110;
	685 :	1111111111110001;
	684 :	1111111111101111;
	683 :	0000000000001110;
	682 :	1111111111111001;
	681 :	1111111111111110;
	680 :	1111111111011111;
	679 :	0000000000010010;
	678 :	1111111111110110;
	677 :	0000000000111000;
	676 :	0000000000000010;
	675 :	0000000000100001;
	674 :	0000000000001011;
	673 :	1111111111101011;
	672 :	1111111111111101;
	671 :	1111111111111100;
	670 :	0000000000000101;
	669 :	0000000000000010;
	668 :	0000000000010010;
	667 :	1111111110110100;
	666 :	1111111111100011;
	665 :	1111111111100000;
	664 :	1111111111010011;
	663 :	1111111111110100;
	662 :	0000000000000010;
	661 :	1111111111101000;
	660 :	1111111111110000;
	659 :	1111111111111001;
	658 :	0000000000000000;
	657 :	1111111111101111;
	656 :	1111111111110001;
	655 :	1111111111111000;
	654 :	0000000000001100;
	653 :	0000000000000100;
	652 :	0000000000010000;
	651 :	0000000000001101;
	650 :	0000000000110000;
	649 :	0000000000100101;
	648 :	0000000000000010;
	647 :	1111111111111000;
	646 :	0000000000010010;
	645 :	0000000000000000;
	644 :	1111111111111001;
	643 :	0000000000010011;
	642 :	1111111111111111;
	641 :	1111111111101111;
	640 :	1111111111100010;
	639 :	1111111111001100;
	638 :	1111111111100100;
	637 :	1111111111001100;
	636 :	1111111111001111;
	635 :	1111111111101100;
	634 :	1111111111110011;
	633 :	1111111111111011;
	632 :	1111111111101000;
	631 :	1111111111110001;
	630 :	0000000000000001;
	629 :	0000000000000110;
	628 :	1111111111111000;
	627 :	1111111111100111;
	626 :	1111111111110011;
	625 :	1111111111011100;
	624 :	1111111111111001;
	623 :	1111111111111000;
	622 :	0000000000100110;
	621 :	0000000000000100;
	620 :	0000000000010101;
	619 :	0000000000001111;
	618 :	0000000000010001;
	617 :	1111111111111111;
	616 :	1111111111111111;
	615 :	1111111111101011;
	614 :	1111111111111100;
	613 :	1111111110110001;
	612 :	1111111111000110;
	611 :	1111111111101111;
	610 :	1111111111101101;
	609 :	1111111111111010;
	608 :	1111111111011000;
	607 :	0000000000001011;
	606 :	1111111111101011;
	605 :	1111111111010100;
	604 :	1111111111111010;
	603 :	1111111111100101;
	602 :	1111111111100010;
	601 :	1111111111101101;
	600 :	1111111111110010;
	599 :	1111111111101010;
	598 :	0000000000000000;
	597 :	1111111111101110;
	596 :	0000000000001101;
	595 :	1111111111100100;
	594 :	1111111111011100;
	593 :	0000000000000001;
	592 :	1111111111110110;
	591 :	0000000000101010;
	590 :	0000000000000000;
	589 :	1111111111111011;
	588 :	0000000000000000;
	587 :	1111111111101101;
	586 :	0000000000111100;
	585 :	1111111110100001;
	584 :	0000000000000001;
	583 :	0000000000001100;
	582 :	1111111111101111;
	581 :	1111111111110101;
	580 :	1111111111111100;
	579 :	1111111111010101;
	578 :	1111111111110011;
	577 :	1111111111110010;
	576 :	1111111111101001;
	575 :	1111111111111011;
	574 :	0000000000000011;
	573 :	1111111111110100;
	572 :	0000000000010100;
	571 :	0000000000010111;
	570 :	1111111111111000;
	569 :	1111111111100100;
	568 :	0000000000000111;
	567 :	0000000000000101;
	566 :	1111111111101100;
	565 :	0000000000001101;
	564 :	0000000000011000;
	563 :	0000000000101101;
	562 :	1111111111110001;
	561 :	1111111111111100;
	560 :	1111111111110011;
	559 :	0000000000001011;
	558 :	0000000000100101;
	557 :	1111111111111111;
	556 :	0000000000010110;
	555 :	1111111111111010;
	554 :	0000000000011101;
	553 :	0000000000001100;
	552 :	0000000000000110;
	551 :	1111111111101101;
	550 :	0000000000011111;
	549 :	1111111111111101;
	548 :	1111111111111000;
	547 :	0000000000000010;
	546 :	0000000000010111;
	545 :	1111111111111100;
	544 :	0000000000000100;
	543 :	0000000000000110;
	542 :	0000000000011010;
	541 :	0000000000000000;
	540 :	0000000000000010;
	539 :	0000000000001000;
	538 :	1111111111111011;
	537 :	0000000000001110;
	536 :	0000000000011001;
	535 :	0000000000010011;
	534 :	1111111111101101;
	533 :	0000000000001110;
	532 :	1111111111110101;
	531 :	1111111111110011;
	530 :	0000000000100011;
	529 :	1111111111110111;
	528 :	0000000000011111;
	527 :	0000000000001001;
	526 :	0000000000101010;
	525 :	0000000000001011;
	524 :	1111111111111100;
	523 :	0000000000000001;
	522 :	1111111111111101;
	521 :	1111111111110010;
	520 :	1111111111100111;
	519 :	1111111111101110;
	518 :	1111111111110101;
	517 :	1111111111111000;
	516 :	1111111111111110;
	515 :	1111111111101111;
	514 :	0000000000000110;
	513 :	0000000000010110;
	512 :	1111111111111111;
	511 :	1111111111110101;
	510 :	1111111111100000;
	509 :	0000000000011101;
	508 :	0000000000000010;
	507 :	0000000000100011;
	506 :	1111111111110001;
	505 :	1111111111110011;
	504 :	1111111111111011;
	503 :	1111111111111010;
	502 :	0000000001000000;
	501 :	0000000000001000;
	500 :	0000000000000001;
	499 :	0000000000000111;
	498 :	0000000000000010;
	497 :	0000000000100010;
	496 :	0000000000011111;
	495 :	1111111111111101;
	494 :	0000000000001000;
	493 :	0000000000011110;
	492 :	0000000000000110;
	491 :	1111111111110111;
	490 :	0000000000000110;
	489 :	0000000000100011;
	488 :	1111111111111111;
	487 :	0000000000001000;
	486 :	0000000000010110;
	485 :	1111111111110101;
	484 :	1111111111101111;
	483 :	0000000000000101;
	482 :	0000000000001011;
	481 :	0000000000011000;
	480 :	0000000000000101;
	479 :	1111111111111011;
	478 :	1111111111111000;
	477 :	1111111111101110;
	476 :	0000000000010101;
	475 :	0000000000101101;
	474 :	0000000000000101;
	473 :	1111111111110000;
	472 :	0000000000000111;
	471 :	0000000000101000;
	470 :	0000000000010001;
	469 :	0000000000011110;
	468 :	0000000000011110;
	467 :	0000000000100011;
	466 :	1111111111111001;
	465 :	0000000000011010;
	464 :	0000000000000001;
	463 :	1111111111111001;
	462 :	0000000000000101;
	461 :	0000000000010000;
	460 :	1111111111111111;
	459 :	0000000000000110;
	458 :	1111111111110101;
	457 :	1111111111111011;
	456 :	0000000000010110;
	455 :	1111111111010011;
	454 :	1111111111001111;
	453 :	1111111111000100;
	452 :	1111111111011010;
	451 :	1111111111101010;
	450 :	1111111111111110;
	449 :	1111111111110101;
	448 :	1111111111111000;
	447 :	1111111111111111;
	446 :	0000000000000111;
	445 :	0000000000001001;
	444 :	0000000000010101;
	443 :	0000000000011000;
	442 :	1111111111111000;
	441 :	0000000000001011;
	440 :	0000000000011010;
	439 :	1111111111111101;
	438 :	0000000000001001;
	437 :	0000000000001111;
	436 :	0000000000000000;
	435 :	0000000000001011;
	434 :	0000000000000001;
	433 :	0000000000000010;
	432 :	1111111111111110;
	431 :	0000000000100011;
	430 :	0000000000000000;
	429 :	1111111111101011;
	428 :	1111111111011001;
	427 :	1111111111100000;
	426 :	1111111111000101;
	425 :	1111111111100000;
	424 :	1111111110110111;
	423 :	1111111111010101;
	422 :	0000000000010101;
	421 :	0000000000000001;
	420 :	1111111111110000;
	419 :	1111111111101110;
	418 :	0000000000111100;
	417 :	1111111111101111;
	416 :	1111111111111101;
	415 :	0000000000011111;
	414 :	0000000000010011;
	413 :	1111111111101000;
	412 :	1111111111110100;
	411 :	1111111111111111;
	410 :	1111111111110110;
	409 :	0000000000000110;
	408 :	0000000000001000;
	407 :	1111111111111111;
	406 :	1111111111101110;
	405 :	1111111111111001;
	404 :	0000000000010010;
	403 :	1111111111110011;
	402 :	1111111111011101;
	401 :	1111111111011011;
	400 :	1111111111000110;
	399 :	1111111110101111;
	398 :	1111111111001101;
	397 :	1111111111010111;
	396 :	1111111111011011;
	395 :	1111111111101001;
	394 :	0000000000000100;
	393 :	0000000000000001;
	392 :	0000000000000010;
	391 :	0000000000100110;
	390 :	0000000000010000;
	389 :	0000000000001011;
	388 :	0000000000010101;
	387 :	0000000000001011;
	386 :	0000000000011100;
	385 :	1111111111111000;
	384 :	0000000000011100;
	383 :	1111111111110111;
	382 :	0000000000000010;
	381 :	0000000000010111;
	380 :	1111111111101111;
	379 :	1111111111111011;
	378 :	1111111111101111;
	377 :	0000000000011100;
	376 :	1111111111100001;
	375 :	0000000000001010;
	374 :	1111111111110001;
	373 :	1111111111010000;
	372 :	1111111111100110;
	371 :	1111111111110001;
	370 :	0000000000001110;
	369 :	0000000000000011;
	368 :	0000000000001011;
	367 :	0000000000000011;
	366 :	0000000000001011;
	365 :	0000000000010110;
	364 :	0000000000000111;
	363 :	1111111111100101;
	362 :	0000000000100101;
	361 :	0000000000000111;
	360 :	1111111111111110;
	359 :	1111111111101111;
	358 :	1111111111111001;
	357 :	1111111111111001;
	356 :	1111111111101010;
	355 :	0000000000000101;
	354 :	1111111111111110;
	353 :	0000000000001001;
	352 :	0000000000000010;
	351 :	0000000000001110;
	350 :	0000000000001000;
	349 :	1111111111111111;
	348 :	1111111111100100;
	347 :	1111111111010110;
	346 :	1111111111011011;
	345 :	1111111111111110;
	344 :	0000000000001111;
	343 :	0000000000000110;
	342 :	1111111111111110;
	341 :	0000000000000111;
	340 :	0000000000000111;
	339 :	1111111111111100;
	338 :	0000000000001111;
	337 :	0000000000100001;
	336 :	1111111111111111;
	335 :	0000000000001001;
	334 :	1111111111010010;
	333 :	0000000000000011;
	332 :	1111111111110010;
	331 :	1111111111101000;
	330 :	1111111111100110;
	329 :	1111111111010101;
	328 :	1111111111100001;
	327 :	0000000000010100;
	326 :	1111111111111011;
	325 :	1111111111110110;
	324 :	1111111111110101;
	323 :	0000000000001101;
	322 :	0000000000010010;
	321 :	0000000000000010;
	320 :	0000000000010010;
	319 :	1111111111110111;
	318 :	0000000000001011;
	317 :	0000000000011101;
	316 :	0000000000010110;
	315 :	0000000000000111;
	314 :	1111111111111010;
	313 :	0000000000001111;
	312 :	0000000000010001;
	311 :	0000000000001001;
	310 :	0000000000000011;
	309 :	1111111111110100;
	308 :	1111111111100110;
	307 :	1111111111010011;
	306 :	0000000000010100;
	305 :	0000000000000001;
	304 :	1111111111100011;
	303 :	1111111111111000;
	302 :	0000000000001010;
	301 :	1111111111101010;
	300 :	1111111111110000;
	299 :	1111111111110101;
	298 :	0000000000000011;
	297 :	1111111111110100;
	296 :	1111111111101011;
	295 :	0000000000010100;
	294 :	0000000000001000;
	293 :	0000000000001100;
	292 :	0000000000110000;
	291 :	0000000000101110;
	290 :	0000000000001001;
	289 :	0000000000100100;
	288 :	0000000000001000;
	287 :	0000000000011010;
	286 :	0000000000011101;
	285 :	0000000000001010;
	284 :	1111111111111001;
	283 :	1111111111101101;
	282 :	1111111111011111;
	281 :	1111111111111101;
	280 :	0000000000011110;
	279 :	0000000000010001;
	278 :	1111111111110100;
	277 :	1111111111111011;
	276 :	0000000000011011;
	275 :	0000000000001110;
	274 :	0000000000000000;
	273 :	0000000000000001;
	272 :	1111111111111111;
	271 :	1111111111100101;
	270 :	1111111111100111;
	269 :	1111111111101110;
	268 :	0000000000000011;
	267 :	0000000000010011;
	266 :	0000000000010011;
	265 :	0000000000100111;
	264 :	0000000000011101;
	263 :	0000000000110010;
	262 :	0000000000101010;
	261 :	0000000000001000;
	260 :	0000000000010010;
	259 :	0000000000100011;
	258 :	0000000000011000;
	257 :	0000000000011011;
	256 :	0000000000001111;
	255 :	1111111111110100;
	254 :	1111111111111100;
	253 :	1111111111111100;
	252 :	0000000000111000;
	251 :	0000000000001011;
	250 :	0000000000000011;
	249 :	1111111111010010;
	248 :	1111111111111010;
	247 :	1111111111011100;
	246 :	1111111111010001;
	245 :	1111111111101110;
	244 :	1111111111011010;
	243 :	1111111111101110;
	242 :	0000000000001001;
	241 :	1111111111101111;
	240 :	1111111111110001;
	239 :	1111111111101100;
	238 :	1111111111111100;
	237 :	1111111111111100;
	236 :	1111111111110000;
	235 :	0000000000001110;
	234 :	0000000000100000;
	233 :	0000000000000000;
	232 :	0000000000001111;
	231 :	0000000000010011;
	230 :	1111111111011100;
	229 :	0000000000001110;
	228 :	0000000000010101;
	227 :	0000000000010011;
	226 :	0000000000011110;
	225 :	0000000000000101;
	224 :	1111111111111110;
	223 :	1111111111110101;
	222 :	1111111111100010;
	221 :	0000000000110110;
	220 :	0000000000011101;
	219 :	1111111110110101;
	218 :	0000000000000100;
	217 :	1111111111111100;
	216 :	1111111111000010;
	215 :	1111111111101011;
	214 :	1111111111111110;
	213 :	1111111111101111;
	212 :	1111111111100011;
	211 :	1111111111100110;
	210 :	1111111111100110;
	209 :	1111111111011111;
	208 :	1111111111101001;
	207 :	1111111111101000;
	206 :	1111111111101100;
	205 :	0000000000010010;
	204 :	0000000000000100;
	203 :	0000000000001011;
	202 :	1111111111111001;
	201 :	1111111111111010;
	200 :	0000000000001100;
	199 :	0000000000110011;
	198 :	0000000000000010;
	197 :	1111111111110100;
	196 :	0000000000000001;
	195 :	1111111111100101;
	194 :	1111111111101100;
	193 :	1111111111001111;
	192 :	1111111110101110;
	191 :	1111111111111100;
	190 :	1111111110111001;
	189 :	0000000000010000;
	188 :	0000000000010001;
	187 :	1111111111110111;
	186 :	1111111111111010;
	185 :	0000000000000101;
	184 :	0000000000001100;
	183 :	1111111111100111;
	182 :	1111111111101000;
	181 :	0000000000001000;
	180 :	1111111111010110;
	179 :	1111111111100110;
	178 :	1111111111011111;
	177 :	1111111111101101;
	176 :	0000000000000111;
	175 :	0000000000000100;
	174 :	0000000000000100;
	173 :	1111111111011100;
	172 :	0000000000011100;
	171 :	0000000001000001;
	170 :	0000000000000100;
	169 :	0000000000001011;
	168 :	0000000000010001;
	167 :	0000000000001111;
	166 :	1111111111101111;
	165 :	1111111111110111;
	164 :	1111111111111111;
	163 :	1111111111111011;
	162 :	1111111111011011;
	161 :	1111111111101011;
	160 :	1111111111111011;
	159 :	1111111111001111;
	158 :	1111111111110001;
	157 :	1111111111010111;
	156 :	1111111111110110;
	155 :	1111111111101000;
	154 :	1111111110100100;
	153 :	1111111110101011;
	152 :	1111111111000101;
	151 :	1111111110111111;
	150 :	1111111111010011;
	149 :	1111111111010010;
	148 :	1111111111111100;
	147 :	1111111110111111;
	146 :	1111111110101000;
	145 :	1111111111010100;
	144 :	0000000000011111;
	143 :	1111111111111110;
	142 :	0000000000001101;
	141 :	0000000000010101;
	140 :	1111111111101111;
	139 :	0000000000000100;
	138 :	0000000000010000;
	137 :	0000000000000010;
	136 :	0000000000010010;
	135 :	1111111111110101;
	134 :	1111111111111001;
	133 :	1111111111101010;
	132 :	1111111111010000;
	131 :	1111111111100101;
	130 :	1111111111010010;
	129 :	1111111111010000;
	128 :	1111111111000111;
	127 :	0000000000000001;
	126 :	1111111111010001;
	125 :	1111111110111000;
	124 :	1111111111011111;
	123 :	1111111111010100;
	122 :	1111111111011010;
	121 :	1111111110111011;
	120 :	1111111111010110;
	119 :	1111111111111001;
	118 :	1111111111100010;
	117 :	1111111111100111;
	116 :	1111111111110001;
	115 :	1111111111101110;
	114 :	1111111111110111;
	113 :	0000000000001011;
	112 :	0000000000001010;
	111 :	0000000000010010;
	110 :	0000000000001110;
	109 :	0000000000000011;
	108 :	0000000000001111;
	107 :	0000000000010110;
	106 :	1111111111111100;
	105 :	1111111111100101;
	104 :	1111111111100000;
	103 :	1111111111010101;
	102 :	1111111111011010;
	101 :	1111111111110010;
	100 :	1111111111001111;
	99 :	1111111111001111;
	98 :	0000000000001010;
	97 :	1111111111101011;
	96 :	1111111111110111;
	95 :	1111111111101101;
	94 :	1111111111010001;
	93 :	1111111111101000;
	92 :	1111111111110100;
	91 :	1111111111101111;
	90 :	1111111111111011;
	89 :	1111111111110110;
	88 :	0000000000010000;
	87 :	1111111111101011;
	86 :	1111111111110111;
	85 :	0000000000000100;
	84 :	1111111111111100;
	83 :	0000000000010000;
	82 :	1111111111101100;
	81 :	0000000000011001;
	80 :	0000000000000011;
	79 :	1111111111110011;
	78 :	1111111111011101;
	77 :	1111111111101100;
	76 :	0000000000000011;
	75 :	1111111111101111;
	74 :	1111111111011000;
	73 :	1111111111010100;
	72 :	1111111111011110;
	71 :	1111111111100110;
	70 :	1111111111101001;
	69 :	1111111111111001;
	68 :	1111111111101101;
	67 :	1111111111101011;
	66 :	1111111111100111;
	65 :	0000000000000000;
	64 :	1111111111100010;
	63 :	1111111111100111;
	62 :	0000000000000000;
	61 :	0000000000001001;
	60 :	1111111111101101;
	59 :	0000000000000110;
	58 :	0000000000000010;
	57 :	1111111111110111;
	56 :	1111111111110100;
	55 :	1111111111110000;
	54 :	1111111111110001;
	53 :	1111111111110001;
	52 :	0000000000010010;
	51 :	0000000000000000;
	50 :	1111111111110110;
	49 :	1111111111101101;
	48 :	1111111111111101;
	47 :	1111111111110101;
	46 :	1111111111110011;
	45 :	1111111111011010;
	44 :	1111111111101110;
	43 :	0000000000000000;
	42 :	1111111111110101;
	41 :	1111111111101000;
	40 :	1111111111101010;
	39 :	1111111111100111;
	38 :	1111111111110011;
	37 :	0000000000000010;
	36 :	1111111111100000;
	35 :	1111111111100110;
	34 :	0000000000000101;
	33 :	1111111111110111;
	32 :	0000000000000101;
	31 :	1111111111111001;
	30 :	0000000000010100;
	29 :	0000000000000011;
	28 :	0000000000000111;
	27 :	0000000000000011;
	26 :	0000000000001111;
	25 :	0000000000000011;
	24 :	1111111111110101;
	23 :	0000000000000000;
	22 :	0000000000000010;
	21 :	1111111111110010;
	20 :	0000000000001011;
	19 :	1111111111110110;
	18 :	1111111111111101;
	17 :	0000000000000001;
	16 :	0000000000001110;
	15 :	0000000000001100;
	14 :	1111111111110111;
	13 :	0000000000000010;
	12 :	0000000000010101;
	11 :	1111111111111100;
	10 :	1111111111111101;
	9 :	1111111111110011;
	8 :	0000000000000101;
	7 :	1111111111110101;
	6 :	1111111111111111;
	5 :	1111111111110010;
	4 :	1111111111101011;
	3 :	0000000000000111;
	2 :	1111111111101100;
	1 :	0000000000001110;
	0 :	1111111111101100;
END;
