-- begin_signature
-- weights(numWeights
-- 16
-- neuronNumber
-- 2
-- layerNumber
-- 1
-- addressWidth
-- 4
-- dataWidth
-- 16
-- weightFile
-- "weights/weight_L1_N2.mif")
-- end_signature
WIDTH=16;
DEPTH=16;

ADDRESS_RADIX=UNS;
DATA_RADIX=BIN;

CONTENT BEGIN
	15 :	0000000000001101;
	14 :	0000000000011111;
	13 :	0000000000100110;
	12 :	0000000000011110;
	11 :	0000000001011011;
	10 :	0000000000110011;
	9 :	1111111111000101;
	8 :	1111111110010111;
	7 :	0000000000011010;
	6 :	1111111111110100;
	5 :	1111111111101010;
	4 :	0000000001101011;
	3 :	0000000000110010;
	2 :	0000000000100011;
	1 :	0000000000001110;
	0 :	0000000000100000;
END;
