-- begin_signature
-- weights(numWeights
-- 784
-- neuronNumber
-- 11
-- layerNumber
-- 0
-- addressWidth
-- 10
-- dataWidth
-- 16
-- weightFile
-- "weights/weight_L0_N11.mif")
-- end_signature
WIDTH=16;
DEPTH=784;

ADDRESS_RADIX=UNS;
DATA_RADIX=BIN;

CONTENT BEGIN
	783 :	0000000000001011;
	782 :	0000000000010101;
	781 :	1111111111101101;
	780 :	0000000000010000;
	779 :	0000000000010100;
	778 :	0000000000010011;
	777 :	1111111111110011;
	776 :	1111111111111011;
	775 :	0000000000001100;
	774 :	0000000000000001;
	773 :	1111111111110100;
	772 :	1111111111101110;
	771 :	0000000000000101;
	770 :	1111111111110100;
	769 :	1111111111111001;
	768 :	1111111111111101;
	767 :	0000000000010011;
	766 :	0000000000000100;
	765 :	0000000000001000;
	764 :	1111111111101100;
	763 :	0000000000000100;
	762 :	1111111111111010;
	761 :	1111111111101100;
	760 :	1111111111111110;
	759 :	0000000000010001;
	758 :	0000000000000101;
	757 :	0000000000010101;
	756 :	1111111111110101;
	755 :	1111111111111111;
	754 :	1111111111101111;
	753 :	1111111111110101;
	752 :	0000000000000011;
	751 :	1111111111111010;
	750 :	0000000000001110;
	749 :	0000000000010010;
	748 :	1111111111101011;
	747 :	0000000000000011;
	746 :	1111111111111111;
	745 :	0000000000000110;
	744 :	1111111111101110;
	743 :	0000000000001010;
	742 :	1111111111111111;
	741 :	0000000000000100;
	740 :	1111111111111101;
	739 :	1111111111110000;
	738 :	1111111111111101;
	737 :	0000000000000001;
	736 :	1111111111110010;
	735 :	0000000000000000;
	734 :	0000000000001100;
	733 :	0000000000010101;
	732 :	0000000000010010;
	731 :	1111111111111011;
	730 :	0000000000000011;
	729 :	0000000000001000;
	728 :	0000000000010001;
	727 :	0000000000000001;
	726 :	1111111111111011;
	725 :	1111111111101110;
	724 :	1111111111111111;
	723 :	1111111111110110;
	722 :	1111111111110011;
	721 :	1111111111111100;
	720 :	1111111111110001;
	719 :	0000000000001001;
	718 :	1111111111111110;
	717 :	0000000000000010;
	716 :	1111111111101010;
	715 :	0000000000001110;
	714 :	0000000000001101;
	713 :	0000000000001001;
	712 :	0000000000010001;
	711 :	1111111111111100;
	710 :	1111111111110101;
	709 :	1111111111110100;
	708 :	1111111111110010;
	707 :	1111111111111101;
	706 :	0000000000001001;
	705 :	1111111111111011;
	704 :	0000000000000010;
	703 :	0000000000001100;
	702 :	1111111111111100;
	701 :	0000000000010110;
	700 :	0000000000001011;
	699 :	1111111111101111;
	698 :	1111111111110100;
	697 :	0000000000000110;
	696 :	1111111111110111;
	695 :	0000000000001010;
	694 :	1111111111101100;
	693 :	0000000000010010;
	692 :	1111111111110100;
	691 :	0000000000001010;
	690 :	1111111111111000;
	689 :	0000000000000111;
	688 :	1111111111110100;
	687 :	1111111111100110;
	686 :	0000000000001010;
	685 :	1111111111100111;
	684 :	1111111111101110;
	683 :	0000000000000111;
	682 :	1111111111111010;
	681 :	0000000000000011;
	680 :	1111111111110101;
	679 :	0000000000000100;
	678 :	0000000000001011;
	677 :	0000000000001110;
	676 :	1111111111111100;
	675 :	0000000000001111;
	674 :	0000000000000101;
	673 :	1111111111101111;
	672 :	0000000000010000;
	671 :	0000000000001011;
	670 :	0000000000010101;
	669 :	1111111111101111;
	668 :	0000000000001110;
	667 :	0000000000010100;
	666 :	1111111111111101;
	665 :	1111111111111110;
	664 :	0000000000000100;
	663 :	1111111111101111;
	662 :	1111111111101110;
	661 :	1111111111111110;
	660 :	0000000000000100;
	659 :	0000000000000110;
	658 :	1111111111111010;
	657 :	1111111111110110;
	656 :	1111111111111001;
	655 :	0000000000000100;
	654 :	1111111111111010;
	653 :	1111111111100111;
	652 :	1111111111101000;
	651 :	1111111111110010;
	650 :	1111111111110110;
	649 :	0000000000000001;
	648 :	0000000000000100;
	647 :	1111111111101011;
	646 :	1111111111110010;
	645 :	1111111111111100;
	644 :	0000000000000100;
	643 :	0000000000010001;
	642 :	1111111111110101;
	641 :	0000000000001110;
	640 :	1111111111111100;
	639 :	1111111111111111;
	638 :	1111111111110000;
	637 :	1111111111110111;
	636 :	1111111111110110;
	635 :	1111111111111101;
	634 :	1111111111101100;
	633 :	0000000000000111;
	632 :	0000000000001100;
	631 :	1111111111111000;
	630 :	0000000000001111;
	629 :	0000000000001000;
	628 :	1111111111101101;
	627 :	1111111111101100;
	626 :	1111111111110101;
	625 :	0000000000010001;
	624 :	1111111111110101;
	623 :	0000000000001000;
	622 :	1111111111101100;
	621 :	1111111111110010;
	620 :	0000000000000100;
	619 :	0000000000001011;
	618 :	1111111111101111;
	617 :	1111111111110100;
	616 :	1111111111101111;
	615 :	0000000000001100;
	614 :	1111111111111100;
	613 :	0000000000010010;
	612 :	0000000000001011;
	611 :	0000000000000011;
	610 :	0000000000001001;
	609 :	1111111111111001;
	608 :	1111111111111110;
	607 :	1111111111111001;
	606 :	1111111111111111;
	605 :	1111111111100111;
	604 :	1111111111100111;
	603 :	1111111111101011;
	602 :	1111111111111000;
	601 :	1111111111111110;
	600 :	1111111111110111;
	599 :	1111111111110101;
	598 :	1111111111110011;
	597 :	1111111111101110;
	596 :	1111111111110101;
	595 :	0000000000001111;
	594 :	0000000000001111;
	593 :	1111111111110111;
	592 :	0000000000001000;
	591 :	1111111111111110;
	590 :	0000000000001001;
	589 :	0000000000000011;
	588 :	1111111111110101;
	587 :	0000000000001100;
	586 :	1111111111111111;
	585 :	0000000000001111;
	584 :	1111111111101101;
	583 :	0000000000001110;
	582 :	1111111111110010;
	581 :	0000000000000010;
	580 :	0000000000000100;
	579 :	1111111111110100;
	578 :	1111111111101100;
	577 :	0000000000000001;
	576 :	1111111111111110;
	575 :	0000000000001101;
	574 :	1111111111101001;
	573 :	0000000000000111;
	572 :	1111111111111010;
	571 :	0000000000000101;
	570 :	0000000000001101;
	569 :	0000000000001101;
	568 :	0000000000000011;
	567 :	1111111111111100;
	566 :	0000000000000110;
	565 :	0000000000010010;
	564 :	0000000000001110;
	563 :	1111111111111101;
	562 :	1111111111111110;
	561 :	1111111111101011;
	560 :	0000000000001101;
	559 :	0000000000010100;
	558 :	1111111111111100;
	557 :	1111111111101100;
	556 :	0000000000001101;
	555 :	1111111111101101;
	554 :	0000000000000110;
	553 :	1111111111111111;
	552 :	1111111111101011;
	551 :	1111111111111010;
	550 :	0000000000000110;
	549 :	0000000000001010;
	548 :	0000000000000110;
	547 :	0000000000001110;
	546 :	0000000000000001;
	545 :	1111111111110011;
	544 :	1111111111111001;
	543 :	1111111111110001;
	542 :	0000000000011000;
	541 :	0000000000010000;
	540 :	1111111111110100;
	539 :	1111111111101011;
	538 :	1111111111111111;
	537 :	1111111111101110;
	536 :	1111111111110110;
	535 :	1111111111111010;
	534 :	0000000000001111;
	533 :	0000000000000110;
	532 :	0000000000010000;
	531 :	0000000000001010;
	530 :	0000000000010000;
	529 :	0000000000001000;
	528 :	1111111111111111;
	527 :	1111111111110100;
	526 :	1111111111110001;
	525 :	1111111111111011;
	524 :	1111111111111111;
	523 :	1111111111110101;
	522 :	0000000000000100;
	521 :	1111111111101011;
	520 :	1111111111111110;
	519 :	1111111111111010;
	518 :	0000000000001010;
	517 :	1111111111101011;
	516 :	0000000000010100;
	515 :	0000000000001011;
	514 :	0000000000000001;
	513 :	1111111111111100;
	512 :	1111111111101011;
	511 :	1111111111110100;
	510 :	1111111111100100;
	509 :	0000000000000010;
	508 :	0000000000001000;
	507 :	1111111111110001;
	506 :	1111111111111101;
	505 :	1111111111101110;
	504 :	1111111111110101;
	503 :	0000000000001101;
	502 :	0000000000001110;
	501 :	1111111111101111;
	500 :	1111111111110100;
	499 :	0000000000001110;
	498 :	0000000000001110;
	497 :	0000000000000010;
	496 :	1111111111111111;
	495 :	1111111111101001;
	494 :	0000000000001110;
	493 :	1111111111101110;
	492 :	0000000000000010;
	491 :	1111111111101000;
	490 :	0000000000001110;
	489 :	0000000000001001;
	488 :	1111111111111100;
	487 :	1111111111111001;
	486 :	0000000000001110;
	485 :	1111111111110011;
	484 :	0000000000000100;
	483 :	0000000000001001;
	482 :	1111111111100110;
	481 :	1111111111110000;
	480 :	0000000000001101;
	479 :	0000000000001111;
	478 :	1111111111101110;
	477 :	1111111111110110;
	476 :	1111111111101011;
	475 :	0000000000000110;
	474 :	0000000000000111;
	473 :	1111111111101010;
	472 :	0000000000000110;
	471 :	1111111111110001;
	470 :	1111111111111010;
	469 :	1111111111101111;
	468 :	1111111111100110;
	467 :	0000000000001001;
	466 :	0000000000001110;
	465 :	0000000000001111;
	464 :	1111111111111100;
	463 :	0000000000001101;
	462 :	1111111111110011;
	461 :	1111111111111100;
	460 :	0000000000000111;
	459 :	1111111111111000;
	458 :	0000000000000001;
	457 :	1111111111111010;
	456 :	1111111111110011;
	455 :	0000000000001000;
	454 :	0000000000001110;
	453 :	1111111111101010;
	452 :	1111111111110001;
	451 :	1111111111110110;
	450 :	0000000000000101;
	449 :	1111111111110100;
	448 :	0000000000001111;
	447 :	0000000000001001;
	446 :	0000000000001100;
	445 :	0000000000001100;
	444 :	0000000000010001;
	443 :	0000000000000110;
	442 :	1111111111110101;
	441 :	0000000000000010;
	440 :	0000000000010110;
	439 :	1111111111111011;
	438 :	0000000000010001;
	437 :	1111111111110101;
	436 :	1111111111110010;
	435 :	0000000000000010;
	434 :	1111111111100110;
	433 :	1111111111110010;
	432 :	0000000000000111;
	431 :	1111111111101100;
	430 :	1111111111110010;
	429 :	1111111111100110;
	428 :	1111111111111100;
	427 :	1111111111100101;
	426 :	1111111111101001;
	425 :	0000000000000011;
	424 :	1111111111101111;
	423 :	0000000000000000;
	422 :	1111111111111010;
	421 :	0000000000001010;
	420 :	0000000000000000;
	419 :	1111111111101011;
	418 :	0000000000001100;
	417 :	0000000000000100;
	416 :	0000000000001101;
	415 :	0000000000001011;
	414 :	0000000000001111;
	413 :	0000000000001000;
	412 :	0000000000000010;
	411 :	1111111111100110;
	410 :	0000000000000010;
	409 :	1111111111110010;
	408 :	0000000000001110;
	407 :	0000000000001010;
	406 :	1111111111101101;
	405 :	1111111111101101;
	404 :	1111111111101111;
	403 :	0000000000000011;
	402 :	0000000000000000;
	401 :	1111111111111110;
	400 :	1111111111111011;
	399 :	1111111111100110;
	398 :	0000000000001001;
	397 :	1111111111110100;
	396 :	1111111111101011;
	395 :	0000000000010100;
	394 :	0000000000000110;
	393 :	1111111111101101;
	392 :	0000000000010011;
	391 :	1111111111111001;
	390 :	0000000000001000;
	389 :	1111111111110111;
	388 :	0000000000010111;
	387 :	0000000000001110;
	386 :	1111111111110001;
	385 :	1111111111100101;
	384 :	1111111111101010;
	383 :	1111111111111001;
	382 :	1111111111101000;
	381 :	0000000000000000;
	380 :	0000000000001010;
	379 :	1111111111110001;
	378 :	0000000000001101;
	377 :	0000000000010000;
	376 :	0000000000000100;
	375 :	1111111111110010;
	374 :	1111111111110110;
	373 :	0000000000001000;
	372 :	1111111111101000;
	371 :	1111111111111111;
	370 :	0000000000011000;
	369 :	0000000000000110;
	368 :	0000000000001110;
	367 :	1111111111101011;
	366 :	1111111111111010;
	365 :	0000000000000001;
	364 :	0000000000010001;
	363 :	0000000000001001;
	362 :	0000000000010110;
	361 :	1111111111111101;
	360 :	0000000000011011;
	359 :	0000000000000010;
	358 :	0000000000001110;
	357 :	1111111111111111;
	356 :	0000000000001010;
	355 :	1111111111101100;
	354 :	0000000000000000;
	353 :	1111111111110001;
	352 :	1111111111101111;
	351 :	1111111111101111;
	350 :	1111111111110000;
	349 :	0000000000000000;
	348 :	0000000000001001;
	347 :	1111111111100111;
	346 :	0000000000001011;
	345 :	1111111111111011;
	344 :	0000000000001110;
	343 :	0000000000010011;
	342 :	0000000000010110;
	341 :	1111111111111000;
	340 :	0000000000000001;
	339 :	0000000000010101;
	338 :	0000000000001001;
	337 :	1111111111111000;
	336 :	0000000000001000;
	335 :	1111111111110110;
	334 :	1111111111110011;
	333 :	0000000000001011;
	332 :	0000000000010100;
	331 :	0000000000001001;
	330 :	1111111111111110;
	329 :	0000000000000001;
	328 :	1111111111110100;
	327 :	0000000000010000;
	326 :	1111111111101000;
	325 :	1111111111101011;
	324 :	0000000000001001;
	323 :	0000000000000001;
	322 :	1111111111111011;
	321 :	0000000000001100;
	320 :	1111111111101100;
	319 :	1111111111111111;
	318 :	0000000000000000;
	317 :	0000000000000001;
	316 :	0000000000010011;
	315 :	1111111111101011;
	314 :	1111111111101000;
	313 :	1111111111110011;
	312 :	0000000000000100;
	311 :	1111111111101010;
	310 :	1111111111110111;
	309 :	1111111111110100;
	308 :	0000000000001000;
	307 :	1111111111111011;
	306 :	0000000000001100;
	305 :	0000000000000011;
	304 :	1111111111110011;
	303 :	1111111111110100;
	302 :	0000000000000111;
	301 :	0000000000001000;
	300 :	1111111111111110;
	299 :	1111111111101010;
	298 :	0000000000000100;
	297 :	1111111111101111;
	296 :	1111111111110001;
	295 :	1111111111111011;
	294 :	1111111111110001;
	293 :	1111111111111111;
	292 :	1111111111111110;
	291 :	0000000000000010;
	290 :	0000000000001101;
	289 :	1111111111101100;
	288 :	1111111111111001;
	287 :	0000000000001000;
	286 :	1111111111101101;
	285 :	1111111111110010;
	284 :	1111111111111011;
	283 :	1111111111101000;
	282 :	1111111111111100;
	281 :	1111111111111001;
	280 :	1111111111101100;
	279 :	1111111111111111;
	278 :	0000000000000100;
	277 :	1111111111111101;
	276 :	1111111111111100;
	275 :	0000000000001101;
	274 :	0000000000001101;
	273 :	0000000000001001;
	272 :	1111111111111100;
	271 :	1111111111101100;
	270 :	0000000000001110;
	269 :	0000000000000101;
	268 :	0000000000001000;
	267 :	1111111111110110;
	266 :	1111111111101001;
	265 :	1111111111101111;
	264 :	1111111111111000;
	263 :	1111111111111101;
	262 :	0000000000001011;
	261 :	0000000000010001;
	260 :	0000000000000100;
	259 :	1111111111110001;
	258 :	0000000000000001;
	257 :	0000000000001100;
	256 :	0000000000000011;
	255 :	1111111111101111;
	254 :	1111111111110011;
	253 :	0000000000000010;
	252 :	1111111111110010;
	251 :	0000000000001110;
	250 :	1111111111111001;
	249 :	0000000000000001;
	248 :	1111111111110100;
	247 :	1111111111110101;
	246 :	0000000000000010;
	245 :	0000000000001001;
	244 :	0000000000000000;
	243 :	0000000000000110;
	242 :	1111111111111011;
	241 :	0000000000001010;
	240 :	1111111111110101;
	239 :	1111111111110101;
	238 :	0000000000001110;
	237 :	0000000000010001;
	236 :	0000000000000011;
	235 :	0000000000001101;
	234 :	0000000000000100;
	233 :	0000000000001101;
	232 :	1111111111111000;
	231 :	1111111111101001;
	230 :	0000000000000010;
	229 :	0000000000010001;
	228 :	0000000000000011;
	227 :	0000000000010011;
	226 :	0000000000000001;
	225 :	1111111111101100;
	224 :	1111111111111010;
	223 :	0000000000010001;
	222 :	0000000000001011;
	221 :	0000000000001110;
	220 :	1111111111111111;
	219 :	1111111111100110;
	218 :	0000000000001111;
	217 :	1111111111111011;
	216 :	1111111111111010;
	215 :	0000000000001010;
	214 :	1111111111110100;
	213 :	1111111111100110;
	212 :	1111111111111101;
	211 :	0000000000000110;
	210 :	0000000000000100;
	209 :	1111111111110110;
	208 :	0000000000001110;
	207 :	1111111111110001;
	206 :	0000000000001111;
	205 :	1111111111101001;
	204 :	0000000000010000;
	203 :	0000000000000001;
	202 :	1111111111101010;
	201 :	1111111111101101;
	200 :	1111111111111100;
	199 :	1111111111111101;
	198 :	1111111111110111;
	197 :	0000000000010001;
	196 :	1111111111101111;
	195 :	1111111111111001;
	194 :	1111111111110001;
	193 :	0000000000000110;
	192 :	0000000000001010;
	191 :	0000000000000001;
	190 :	0000000000000111;
	189 :	1111111111100110;
	188 :	1111111111100101;
	187 :	1111111111110011;
	186 :	1111111111101010;
	185 :	0000000000000111;
	184 :	1111111111101011;
	183 :	1111111111111011;
	182 :	1111111111100100;
	181 :	1111111111111011;
	180 :	1111111111110011;
	179 :	1111111111110100;
	178 :	1111111111110110;
	177 :	1111111111100111;
	176 :	1111111111111011;
	175 :	0000000000001011;
	174 :	0000000000001001;
	173 :	0000000000000101;
	172 :	0000000000001000;
	171 :	1111111111111111;
	170 :	1111111111110010;
	169 :	0000000000001110;
	168 :	1111111111111110;
	167 :	1111111111101010;
	166 :	1111111111110100;
	165 :	0000000000000011;
	164 :	1111111111101110;
	163 :	0000000000001001;
	162 :	0000000000001011;
	161 :	0000000000001100;
	160 :	0000000000010000;
	159 :	1111111111110110;
	158 :	0000000000010010;
	157 :	1111111111110111;
	156 :	0000000000000011;
	155 :	0000000000001111;
	154 :	1111111111110011;
	153 :	1111111111100111;
	152 :	0000000000000101;
	151 :	1111111111111001;
	150 :	1111111111101011;
	149 :	0000000000000110;
	148 :	1111111111110110;
	147 :	0000000000000010;
	146 :	0000000000000000;
	145 :	0000000000010000;
	144 :	1111111111110010;
	143 :	1111111111101010;
	142 :	1111111111110001;
	141 :	1111111111101110;
	140 :	0000000000001101;
	139 :	0000000000010001;
	138 :	1111111111101110;
	137 :	0000000000000010;
	136 :	1111111111101011;
	135 :	1111111111110000;
	134 :	0000000000001100;
	133 :	0000000000001100;
	132 :	0000000000000010;
	131 :	1111111111101100;
	130 :	1111111111111100;
	129 :	1111111111111001;
	128 :	1111111111111111;
	127 :	1111111111100111;
	126 :	0000000000001111;
	125 :	0000000000010101;
	124 :	1111111111111001;
	123 :	0000000000010111;
	122 :	1111111111101111;
	121 :	0000000000001010;
	120 :	1111111111101111;
	119 :	1111111111111000;
	118 :	1111111111111001;
	117 :	0000000000001101;
	116 :	0000000000000100;
	115 :	1111111111101010;
	114 :	0000000000010000;
	113 :	0000000000000101;
	112 :	1111111111111011;
	111 :	1111111111110111;
	110 :	0000000000001011;
	109 :	0000000000000110;
	108 :	1111111111101110;
	107 :	1111111111110000;
	106 :	1111111111111101;
	105 :	0000000000001111;
	104 :	1111111111110001;
	103 :	1111111111110110;
	102 :	1111111111101110;
	101 :	0000000000010111;
	100 :	0000000000001110;
	99 :	1111111111110111;
	98 :	1111111111110010;
	97 :	1111111111111100;
	96 :	1111111111110010;
	95 :	0000000000000000;
	94 :	1111111111110011;
	93 :	1111111111110100;
	92 :	1111111111110000;
	91 :	1111111111111010;
	90 :	0000000000000010;
	89 :	0000000000001110;
	88 :	1111111111111111;
	87 :	0000000000010010;
	86 :	1111111111111101;
	85 :	0000000000000001;
	84 :	0000000000001011;
	83 :	1111111111101100;
	82 :	0000000000010100;
	81 :	0000000000001011;
	80 :	0000000000001010;
	79 :	1111111111101110;
	78 :	1111111111110001;
	77 :	1111111111111111;
	76 :	1111111111111101;
	75 :	0000000000001100;
	74 :	0000000000010000;
	73 :	0000000000010100;
	72 :	1111111111111000;
	71 :	1111111111110001;
	70 :	0000000000001010;
	69 :	1111111111101111;
	68 :	0000000000010110;
	67 :	0000000000000000;
	66 :	0000000000000111;
	65 :	1111111111101101;
	64 :	0000000000010101;
	63 :	1111111111111101;
	62 :	1111111111110000;
	61 :	0000000000000001;
	60 :	0000000000001011;
	59 :	1111111111110000;
	58 :	0000000000000101;
	57 :	0000000000001110;
	56 :	0000000000000100;
	55 :	1111111111111101;
	54 :	1111111111101111;
	53 :	0000000000000011;
	52 :	0000000000000110;
	51 :	0000000000000101;
	50 :	1111111111110100;
	49 :	0000000000000000;
	48 :	1111111111110001;
	47 :	0000000000010001;
	46 :	0000000000001011;
	45 :	1111111111101111;
	44 :	0000000000001010;
	43 :	0000000000010010;
	42 :	0000000000010100;
	41 :	1111111111101100;
	40 :	1111111111101100;
	39 :	1111111111111100;
	38 :	1111111111111111;
	37 :	1111111111111011;
	36 :	0000000000000110;
	35 :	1111111111111010;
	34 :	0000000000001000;
	33 :	0000000000001001;
	32 :	1111111111101101;
	31 :	1111111111110110;
	30 :	1111111111110111;
	29 :	1111111111111111;
	28 :	1111111111111000;
	27 :	0000000000010000;
	26 :	1111111111110010;
	25 :	0000000000001110;
	24 :	0000000000000111;
	23 :	0000000000010110;
	22 :	0000000000010100;
	21 :	0000000000010101;
	20 :	0000000000010100;
	19 :	1111111111101101;
	18 :	1111111111111011;
	17 :	0000000000001110;
	16 :	1111111111110001;
	15 :	1111111111111110;
	14 :	1111111111110010;
	13 :	0000000000001000;
	12 :	0000000000001001;
	11 :	1111111111101101;
	10 :	1111111111111010;
	9 :	1111111111110000;
	8 :	0000000000000000;
	7 :	0000000000010010;
	6 :	0000000000000111;
	5 :	0000000000010010;
	4 :	0000000000010000;
	3 :	1111111111101010;
	2 :	0000000000010110;
	1 :	1111111111110101;
	0 :	0000000000001110;
END;
