-- begin_signature
-- weights(numWeights
-- 784
-- neuronNumber
-- 0
-- layerNumber
-- 0
-- addressWidth
-- 10
-- dataWidth
-- 16
-- weightFile
-- "weights/weight_L0_N0.mif")
-- end_signature
WIDTH=16;
DEPTH=784;

ADDRESS_RADIX=UNS;
DATA_RADIX=BIN;

CONTENT BEGIN
	783 :	0000000000010110;
	782 :	1111111111101111;
	781 :	0000000000001010;
	780 :	0000000000010101;
	779 :	1111111111110100;
	778 :	1111111111101100;
	777 :	1111111111101010;
	776 :	1111111111101010;
	775 :	1111111111110000;
	774 :	1111111111101111;
	773 :	1111111111110101;
	772 :	1111111111110111;
	771 :	0000000000001101;
	770 :	0000000000001010;
	769 :	0000000000001110;
	768 :	1111111111110100;
	767 :	1111111111101110;
	766 :	1111111111110110;
	765 :	0000000000001000;
	764 :	1111111111111110;
	763 :	0000000000001011;
	762 :	1111111111111101;
	761 :	1111111111110011;
	760 :	1111111111111000;
	759 :	0000000000001001;
	758 :	1111111111110100;
	757 :	1111111111111100;
	756 :	1111111111111100;
	755 :	1111111111110001;
	754 :	1111111111111110;
	753 :	1111111111111111;
	752 :	1111111111101101;
	751 :	0000000000001110;
	750 :	1111111111111110;
	749 :	1111111111111000;
	748 :	1111111111110011;
	747 :	0000000000000000;
	746 :	0000000000000111;
	745 :	0000000000001010;
	744 :	0000000000000111;
	743 :	0000000000000100;
	742 :	1111111111101001;
	741 :	1111111111011010;
	740 :	1111111111111010;
	739 :	0000000000000000;
	738 :	0000000000010001;
	737 :	0000000000000011;
	736 :	0000000000000101;
	735 :	1111111111101111;
	734 :	1111111111110111;
	733 :	1111111111101101;
	732 :	1111111111110100;
	731 :	0000000000001101;
	730 :	0000000000001101;
	729 :	1111111111111100;
	728 :	0000000000010010;
	727 :	0000000000000011;
	726 :	0000000000001111;
	725 :	1111111111101111;
	724 :	1111111111110101;
	723 :	0000000000001100;
	722 :	0000000000000000;
	721 :	0000000000000110;
	720 :	0000000000011010;
	719 :	0000000000011011;
	718 :	0000000000000011;
	717 :	1111111111110111;
	716 :	1111111111011001;
	715 :	0000000000000010;
	714 :	1111111111111010;
	713 :	1111111111101101;
	712 :	1111111111101011;
	711 :	1111111111100000;
	710 :	1111111111110101;
	709 :	1111111111111001;
	708 :	0000000000001111;
	707 :	1111111111111010;
	706 :	0000000000010101;
	705 :	0000000000010001;
	704 :	0000000000001110;
	703 :	1111111111111101;
	702 :	0000000000001010;
	701 :	0000000000010110;
	700 :	0000000000000101;
	699 :	1111111111101110;
	698 :	0000000000001001;
	697 :	0000000000001001;
	696 :	1111111111111011;
	695 :	1111111111010010;
	694 :	1111111111000010;
	693 :	1111111111011100;
	692 :	1111111111110001;
	691 :	1111111111110101;
	690 :	1111111111011001;
	689 :	1111111111110011;
	688 :	1111111111011000;
	687 :	1111111111111010;
	686 :	1111111111110101;
	685 :	1111111111111110;
	684 :	1111111111101001;
	683 :	0000000000001110;
	682 :	0000000000000111;
	681 :	1111111111111100;
	680 :	0000000000001000;
	679 :	0000000000001000;
	678 :	0000000000000000;
	677 :	0000000000000010;
	676 :	1111111111111110;
	675 :	1111111111110011;
	674 :	0000000000001010;
	673 :	1111111111110000;
	672 :	1111111111101111;
	671 :	0000000000001101;
	670 :	0000000000000101;
	669 :	1111111111111000;
	668 :	1111111111111001;
	667 :	1111111111101011;
	666 :	1111111111110001;
	665 :	1111111111111011;
	664 :	0000000000000010;
	663 :	0000000000001111;
	662 :	0000000000000001;
	661 :	1111111111111111;
	660 :	1111111111101011;
	659 :	1111111111111110;
	658 :	0000000000001011;
	657 :	1111111111110110;
	656 :	1111111111111010;
	655 :	0000000000000011;
	654 :	1111111111110000;
	653 :	0000000000010100;
	652 :	1111111111111001;
	651 :	0000000000000110;
	650 :	0000000000001110;
	649 :	1111111111111010;
	648 :	0000000000001111;
	647 :	0000000000001101;
	646 :	1111111111101011;
	645 :	1111111111110110;
	644 :	0000000000001110;
	643 :	1111111111110111;
	642 :	0000000000010101;
	641 :	0000000000010101;
	640 :	1111111111111011;
	639 :	1111111111101101;
	638 :	0000000000000011;
	637 :	0000000000001111;
	636 :	0000000000001001;
	635 :	0000000000010011;
	634 :	0000000000100010;
	633 :	1111111111111011;
	632 :	0000000000001100;
	631 :	0000000000000100;
	630 :	1111111111111100;
	629 :	1111111111110111;
	628 :	0000000000010101;
	627 :	0000000000000111;
	626 :	1111111111111010;
	625 :	0000000000001001;
	624 :	0000000000000001;
	623 :	1111111111111111;
	622 :	1111111111110001;
	621 :	1111111111100011;
	620 :	1111111111110000;
	619 :	0000000000001100;
	618 :	0000000000010010;
	617 :	0000000000000011;
	616 :	1111111111101101;
	615 :	1111111111110000;
	614 :	1111111111110111;
	613 :	0000000000010101;
	612 :	0000000000001110;
	611 :	1111111111101000;
	610 :	1111111111110110;
	609 :	1111111111111001;
	608 :	0000000000000100;
	607 :	0000000000000111;
	606 :	0000000000011010;
	605 :	0000000000000011;
	604 :	1111111111111110;
	603 :	0000000000010011;
	602 :	1111111111111001;
	601 :	0000000000000011;
	600 :	0000000000000000;
	599 :	1111111111110110;
	598 :	0000000000001001;
	597 :	0000000000000100;
	596 :	0000000000001000;
	595 :	0000000000001010;
	594 :	0000000000000110;
	593 :	1111111111011110;
	592 :	0000000000000000;
	591 :	0000000000001000;
	590 :	0000000000000011;
	589 :	0000000000001110;
	588 :	0000000000000000;
	587 :	1111111111110001;
	586 :	0000000000010010;
	585 :	0000000000001010;
	584 :	0000000000001111;
	583 :	1111111111110111;
	582 :	1111111111111011;
	581 :	0000000000000100;
	580 :	1111111111111100;
	579 :	0000000000011100;
	578 :	0000000000001100;
	577 :	0000000000010010;
	576 :	0000000000011011;
	575 :	0000000000000101;
	574 :	0000000000000011;
	573 :	0000000000000000;
	572 :	1111111111111110;
	571 :	1111111111110111;
	570 :	0000000000000100;
	569 :	0000000000001011;
	568 :	1111111111111001;
	567 :	0000000000001011;
	566 :	1111111111111111;
	565 :	1111111111101100;
	564 :	0000000000001010;
	563 :	1111111111111100;
	562 :	1111111111111111;
	561 :	1111111111110110;
	560 :	0000000000010100;
	559 :	1111111111100110;
	558 :	0000000000000000;
	557 :	0000000000110111;
	556 :	0000000000001100;
	555 :	1111111111111001;
	554 :	0000000000000111;
	553 :	1111111111111111;
	552 :	0000000000010100;
	551 :	0000000000010010;
	550 :	0000000000011000;
	549 :	0000000000010100;
	548 :	1111111111111100;
	547 :	0000000000011111;
	546 :	0000000000011111;
	545 :	1111111111111010;
	544 :	1111111111010111;
	543 :	1111111111101001;
	542 :	1111111111111100;
	541 :	0000000000000100;
	540 :	1111111111101110;
	539 :	1111111111101100;
	538 :	1111111111110001;
	537 :	1111111111111001;
	536 :	1111111111100101;
	535 :	1111111111100101;
	534 :	1111111111101101;
	533 :	1111111111111010;
	532 :	0000000000000001;
	531 :	1111111111111001;
	530 :	0000000000001000;
	529 :	1111111111110111;
	528 :	0000000000000001;
	527 :	1111111111111100;
	526 :	0000000000001100;
	525 :	1111111111111110;
	524 :	1111111111110011;
	523 :	0000000000000100;
	522 :	1111111111111000;
	521 :	1111111111111011;
	520 :	0000000000001000;
	519 :	0000000000011110;
	518 :	0000000000000110;
	517 :	0000000000000110;
	516 :	1111111111100011;
	515 :	1111111111001000;
	514 :	1111111111110101;
	513 :	1111111111100011;
	512 :	1111111111101111;
	511 :	1111111111110111;
	510 :	1111111111110001;
	509 :	1111111111111011;
	508 :	0000000000000011;
	507 :	1111111111111101;
	506 :	1111111111110000;
	505 :	1111111111111110;
	504 :	1111111111101111;
	503 :	1111111111111111;
	502 :	0000000000001101;
	501 :	1111111111101001;
	500 :	1111111111110111;
	499 :	1111111111110000;
	498 :	1111111111101101;
	497 :	0000000000001010;
	496 :	1111111111101100;
	495 :	1111111111110011;
	494 :	1111111111111010;
	493 :	1111111111101110;
	492 :	1111111111110110;
	491 :	0000000000000100;
	490 :	0000000000000101;
	489 :	0000000000000010;
	488 :	1111111111100010;
	487 :	1111111111101101;
	486 :	1111111111100101;
	485 :	1111111111111100;
	484 :	1111111111111110;
	483 :	1111111111100010;
	482 :	1111111111111100;
	481 :	1111111111011000;
	480 :	1111111111110111;
	479 :	0000000000000111;
	478 :	1111111111111010;
	477 :	0000000000010100;
	476 :	0000000000010011;
	475 :	1111111111100101;
	474 :	0000000000011100;
	473 :	0000000000010000;
	472 :	1111111111111010;
	471 :	0000000000010100;
	470 :	0000000000001000;
	469 :	1111111111110001;
	468 :	0000000000001010;
	467 :	1111111111110101;
	466 :	1111111111101101;
	465 :	1111111111110100;
	464 :	1111111111111100;
	463 :	1111111111101110;
	462 :	0000000000101011;
	461 :	0000000000000001;
	460 :	1111111111111110;
	459 :	1111111111110011;
	458 :	1111111111101001;
	457 :	0000000000000010;
	456 :	1111111111111101;
	455 :	1111111111111010;
	454 :	1111111111101001;
	453 :	0000000000000110;
	452 :	0000000000000101;
	451 :	1111111111100110;
	450 :	1111111111110100;
	449 :	0000000000011011;
	448 :	0000000000000110;
	447 :	0000000000001100;
	446 :	1111111111111010;
	445 :	0000000000011101;
	444 :	0000000000000010;
	443 :	1111111111111110;
	442 :	0000000000001110;
	441 :	0000000000000100;
	440 :	1111111111110000;
	439 :	1111111111110001;
	438 :	0000000000001000;
	437 :	1111111111100100;
	436 :	0000000000000111;
	435 :	1111111111111111;
	434 :	0000000000011001;
	433 :	1111111111110010;
	432 :	1111111111110111;
	431 :	1111111111010110;
	430 :	1111111111011001;
	429 :	0000000000000000;
	428 :	0000000000000111;
	427 :	0000000000010110;
	426 :	1111111111110010;
	425 :	1111111111111011;
	424 :	1111111111010111;
	423 :	1111111111011110;
	422 :	1111111111111000;
	421 :	0000000000000110;
	420 :	1111111111110101;
	419 :	0000000000000110;
	418 :	0000000000100011;
	417 :	1111111111111010;
	416 :	0000000000001111;
	415 :	1111111111100101;
	414 :	0000000000001101;
	413 :	1111111111111100;
	412 :	1111111111111000;
	411 :	1111111111101111;
	410 :	0000000000001010;
	409 :	1111111111110100;
	408 :	1111111111101111;
	407 :	0000000000001010;
	406 :	0000000000010001;
	405 :	1111111111110011;
	404 :	1111111111111011;
	403 :	1111111111101010;
	402 :	1111111111110111;
	401 :	0000000000001111;
	400 :	0000000000011110;
	399 :	1111111111111000;
	398 :	0000000000001101;
	397 :	1111111111111111;
	396 :	1111111111111010;
	395 :	1111111111101001;
	394 :	0000000000000001;
	393 :	0000000000001110;
	392 :	1111111111100011;
	391 :	1111111111111011;
	390 :	0000000000011011;
	389 :	0000000000000100;
	388 :	1111111111111111;
	387 :	0000000000001000;
	386 :	1111111111110111;
	385 :	1111111111101101;
	384 :	1111111111111101;
	383 :	1111111111110000;
	382 :	1111111111110000;
	381 :	1111111111101001;
	380 :	0000000000000101;
	379 :	0000000000000100;
	378 :	1111111111110001;
	377 :	1111111111111001;
	376 :	0000000000000101;
	375 :	1111111111100100;
	374 :	0000000000001001;
	373 :	0000000000011011;
	372 :	0000000000000101;
	371 :	0000000000000110;
	370 :	0000000000000000;
	369 :	1111111111111101;
	368 :	1111111111110101;
	367 :	1111111111100010;
	366 :	0000000000001000;
	365 :	1111111111110101;
	364 :	0000000000000001;
	363 :	0000000000100011;
	362 :	0000000000011010;
	361 :	0000000000100000;
	360 :	0000000000010000;
	359 :	1111111111100100;
	358 :	0000000000000000;
	357 :	1111111111110010;
	356 :	1111111111100111;
	355 :	1111111111101010;
	354 :	1111111111111000;
	353 :	1111111111110110;
	352 :	1111111111111001;
	351 :	1111111111111110;
	350 :	0000000000000010;
	349 :	0000000000010000;
	348 :	1111111111110001;
	347 :	0000000000011001;
	346 :	1111111111111111;
	345 :	0000000000011011;
	344 :	0000000000011000;
	343 :	0000000000010110;
	342 :	1111111111100100;
	341 :	1111111111110001;
	340 :	1111111111110010;
	339 :	1111111111110000;
	338 :	0000000000000100;
	337 :	0000000000001010;
	336 :	1111111111111001;
	335 :	0000000000011110;
	334 :	0000000000010101;
	333 :	0000000000011111;
	332 :	1111111111101110;
	331 :	1111111111100011;
	330 :	1111111111101110;
	329 :	1111111111111100;
	328 :	1111111111100110;
	327 :	1111111111110110;
	326 :	1111111111111101;
	325 :	1111111111111101;
	324 :	1111111111100111;
	323 :	0000000000001000;
	322 :	1111111111111101;
	321 :	1111111111111101;
	320 :	1111111111111001;
	319 :	0000000000001101;
	318 :	0000000000000000;
	317 :	1111111111110011;
	316 :	1111111111110010;
	315 :	1111111111100111;
	314 :	1111111111100110;
	313 :	1111111111110100;
	312 :	1111111111101010;
	311 :	1111111111111111;
	310 :	0000000000000111;
	309 :	0000000000001101;
	308 :	0000000000001110;
	307 :	1111111111011011;
	306 :	0000000000001101;
	305 :	1111111111110001;
	304 :	0000000000000001;
	303 :	1111111111110100;
	302 :	1111111111101100;
	301 :	1111111111110110;
	300 :	1111111111111000;
	299 :	1111111111010111;
	298 :	1111111111110011;
	297 :	1111111111110010;
	296 :	1111111111111000;
	295 :	1111111111101101;
	294 :	0000000000010100;
	293 :	0000000000101011;
	292 :	0000000000010101;
	291 :	0000000000001000;
	290 :	0000000000001010;
	289 :	1111111111101100;
	288 :	1111111111100100;
	287 :	0000000000011000;
	286 :	1111111111110010;
	285 :	1111111111110010;
	284 :	1111111111111011;
	283 :	1111111111101000;
	282 :	0000000000001101;
	281 :	1111111111111110;
	280 :	1111111111111011;
	279 :	1111111111111101;
	278 :	1111111111111001;
	277 :	1111111111011111;
	276 :	1111111111110101;
	275 :	0000000000000101;
	274 :	1111111111110011;
	273 :	1111111111110011;
	272 :	1111111111110011;
	271 :	1111111111110101;
	270 :	1111111111010111;
	269 :	1111111111110001;
	268 :	1111111111101111;
	267 :	0000000000011010;
	266 :	0000000000011011;
	265 :	0000000000000101;
	264 :	0000000000000000;
	263 :	0000000000001010;
	262 :	1111111111101100;
	261 :	1111111111111001;
	260 :	1111111111111101;
	259 :	1111111111111000;
	258 :	1111111111111111;
	257 :	0000000000000100;
	256 :	1111111111111100;
	255 :	1111111111111100;
	254 :	0000000000010011;
	253 :	0000000000010100;
	252 :	1111111111101010;
	251 :	1111111111110101;
	250 :	1111111111110101;
	249 :	1111111111100101;
	248 :	1111111111011011;
	247 :	1111111111011011;
	246 :	1111111111101000;
	245 :	1111111111101011;
	244 :	1111111111110101;
	243 :	1111111111100000;
	242 :	1111111111111111;
	241 :	1111111111111010;
	240 :	1111111111110010;
	239 :	0000000000000001;
	238 :	0000000000000110;
	237 :	0000000000010100;
	236 :	1111111111111000;
	235 :	0000000000000010;
	234 :	0000000000010100;
	233 :	1111111111111010;
	232 :	1111111111100111;
	231 :	0000000000010111;
	230 :	0000000000001000;
	229 :	1111111111111110;
	228 :	1111111111100000;
	227 :	0000000000010110;
	226 :	1111111111101111;
	225 :	1111111111111000;
	224 :	1111111111110110;
	223 :	1111111111100111;
	222 :	1111111111111100;
	221 :	1111111111110101;
	220 :	1111111111100111;
	219 :	1111111111101100;
	218 :	1111111111011001;
	217 :	1111111111011110;
	216 :	1111111111101001;
	215 :	1111111111110001;
	214 :	1111111111110000;
	213 :	0000000000000000;
	212 :	0000000000000110;
	211 :	0000000000001001;
	210 :	0000000000000100;
	209 :	1111111111111000;
	208 :	0000000000000110;
	207 :	1111111111111111;
	206 :	0000000000001100;
	205 :	1111111111101101;
	204 :	1111111111110010;
	203 :	0000000000001010;
	202 :	1111111111101010;
	201 :	1111111111100111;
	200 :	1111111111110101;
	199 :	1111111111100000;
	198 :	0000000000000001;
	197 :	0000000000000011;
	196 :	1111111111101101;
	195 :	1111111111111110;
	194 :	1111111111100110;
	193 :	1111111111100100;
	192 :	1111111111011010;
	191 :	1111111111111100;
	190 :	1111111111100000;
	189 :	1111111111100111;
	188 :	1111111111001001;
	187 :	1111111111101001;
	186 :	1111111111011101;
	185 :	0000000000001010;
	184 :	1111111111110000;
	183 :	0000000000001111;
	182 :	1111111111110011;
	181 :	1111111111111101;
	180 :	0000000000001000;
	179 :	1111111111111101;
	178 :	0000000000000111;
	177 :	1111111111110011;
	176 :	1111111111101100;
	175 :	1111111111100000;
	174 :	0000000000010111;
	173 :	0000000000001011;
	172 :	0000000000000001;
	171 :	1111111111101100;
	170 :	0000000000001011;
	169 :	0000000000000011;
	168 :	1111111111110011;
	167 :	1111111111110011;
	166 :	1111111111110101;
	165 :	1111111111011000;
	164 :	1111111111110010;
	163 :	1111111111100000;
	162 :	1111111111100010;
	161 :	1111111111101110;
	160 :	1111111111011101;
	159 :	1111111111110000;
	158 :	1111111111101000;
	157 :	1111111111100111;
	156 :	0000000000001000;
	155 :	1111111111111110;
	154 :	0000000000000010;
	153 :	1111111111111110;
	152 :	0000000000000111;
	151 :	1111111111111000;
	150 :	0000000000000101;
	149 :	1111111111100011;
	148 :	0000000000010011;
	147 :	1111111111101110;
	146 :	0000000000001000;
	145 :	0000000000010101;
	144 :	1111111111110100;
	143 :	1111111111111101;
	142 :	0000000000010110;
	141 :	0000000000001100;
	140 :	1111111111101111;
	139 :	0000000000001100;
	138 :	1111111111111001;
	137 :	1111111111110100;
	136 :	1111111111100110;
	135 :	1111111111011101;
	134 :	1111111111100001;
	133 :	1111111111101101;
	132 :	1111111111011010;
	131 :	1111111111011100;
	130 :	1111111111010101;
	129 :	1111111111110100;
	128 :	1111111111111110;
	127 :	0000000000001010;
	126 :	1111111111110000;
	125 :	0000000000000100;
	124 :	1111111111110011;
	123 :	0000000000010000;
	122 :	0000000000000111;
	121 :	1111111111101100;
	120 :	0000000000010000;
	119 :	0000000000000101;
	118 :	0000000000000100;
	117 :	0000000000000010;
	116 :	0000000000011011;
	115 :	0000000000010100;
	114 :	0000000000011111;
	113 :	1111111111111101;
	112 :	1111111111111100;
	111 :	1111111111110000;
	110 :	1111111111101101;
	109 :	1111111111111000;
	108 :	0000000000010111;
	107 :	1111111111011111;
	106 :	1111111111011010;
	105 :	1111111111110101;
	104 :	1111111111110001;
	103 :	1111111111101010;
	102 :	0000000000000000;
	101 :	0000000000001011;
	100 :	1111111111111100;
	99 :	0000000000001111;
	98 :	0000000000011110;
	97 :	1111111111111100;
	96 :	0000000000001011;
	95 :	1111111111110100;
	94 :	1111111111101101;
	93 :	0000000000000110;
	92 :	1111111111100011;
	91 :	1111111111110011;
	90 :	1111111111101100;
	89 :	0000000000010001;
	88 :	1111111111111100;
	87 :	0000000000011111;
	86 :	0000000000100001;
	85 :	1111111111101111;
	84 :	0000000000010000;
	83 :	0000000000000100;
	82 :	0000000000001111;
	81 :	1111111111111101;
	80 :	1111111111111000;
	79 :	1111111111110010;
	78 :	1111111111101000;
	77 :	1111111111011111;
	76 :	1111111111100100;
	75 :	0000000000010001;
	74 :	1111111111111100;
	73 :	1111111111111011;
	72 :	0000000000011010;
	71 :	0000000000110011;
	70 :	0000000000011110;
	69 :	0000000000101001;
	68 :	0000000000011001;
	67 :	0000000000010000;
	66 :	1111111111110011;
	65 :	0000000000001010;
	64 :	1111111111111101;
	63 :	0000000000010010;
	62 :	0000000000000000;
	61 :	0000000000001111;
	60 :	0000000000010001;
	59 :	0000000000001110;
	58 :	0000000000000011;
	57 :	0000000000010001;
	56 :	1111111111101011;
	55 :	0000000000001111;
	54 :	0000000000000111;
	53 :	0000000000010101;
	52 :	0000000000001110;
	51 :	0000000000000101;
	50 :	1111111111111110;
	49 :	1111111111111001;
	48 :	1111111111110110;
	47 :	0000000000001001;
	46 :	0000000000010001;
	45 :	0000000000001000;
	44 :	0000000000101000;
	43 :	0000000000011001;
	42 :	0000000000100000;
	41 :	0000000000000010;
	40 :	0000000000001011;
	39 :	0000000000010010;
	38 :	0000000000000111;
	37 :	1111111111111101;
	36 :	0000000000001010;
	35 :	0000000000000111;
	34 :	1111111111101011;
	33 :	1111111111110010;
	32 :	0000000000010001;
	31 :	1111111111110101;
	30 :	0000000000001011;
	29 :	1111111111110001;
	28 :	1111111111111111;
	27 :	1111111111110111;
	26 :	1111111111110100;
	25 :	0000000000000101;
	24 :	0000000000000110;
	23 :	0000000000001100;
	22 :	0000000000010010;
	21 :	1111111111101110;
	20 :	0000000000001010;
	19 :	0000000000001010;
	18 :	1111111111101111;
	17 :	1111111111111001;
	16 :	0000000000010110;
	15 :	1111111111111111;
	14 :	0000000000000111;
	13 :	0000000000000100;
	12 :	1111111111111001;
	11 :	0000000000000111;
	10 :	1111111111110110;
	9 :	0000000000010000;
	8 :	0000000000001000;
	7 :	0000000000010011;
	6 :	1111111111101101;
	5 :	0000000000000110;
	4 :	0000000000000111;
	3 :	0000000000000111;
	2 :	1111111111101110;
	1 :	1111111111110000;
	0 :	0000000000000010;
END;
