-- begin_signature
-- weights(numWeights
-- 16
-- neuronNumber
-- 1
-- layerNumber
-- 1
-- addressWidth
-- 4
-- dataWidth
-- 16
-- weightFile
-- "weights/weight_L1_N1.mif")
-- end_signature
WIDTH=16;
DEPTH=16;

ADDRESS_RADIX=UNS;
DATA_RADIX=BIN;

CONTENT BEGIN
	15 :	0000000000100011;
	14 :	1111111111100011;
	13 :	0000000001010110;
	12 :	1111111111100110;
	11 :	0000000000001101;
	10 :	0000000000000001;
	9 :	1111111111011111;
	8 :	1111111111111110;
	7 :	0000000000100100;
	6 :	0000000001000110;
	5 :	1111111111111111;
	4 :	1111111110111101;
	3 :	0000000000010111;
	2 :	1111111111011111;
	1 :	0000000000100101;
	0 :	0000000000110011;
END;
