-- begin_signature
-- weights(numWeights
-- 784
-- neuronNumber
-- 14
-- layerNumber
-- 0
-- addressWidth
-- 10
-- dataWidth
-- 16
-- weightFile
-- "weights/weight_L0_N14.mif")
-- end_signature
WIDTH=16;
DEPTH=784;

ADDRESS_RADIX=UNS;
DATA_RADIX=BIN;

CONTENT BEGIN
	783 :	1111111111110101;
	782 :	0000000000000001;
	781 :	0000000000010010;
	780 :	1111111111101011;
	779 :	0000000000001100;
	778 :	0000000000100010;
	777 :	0000000000100001;
	776 :	0000000000110001;
	775 :	0000000000000101;
	774 :	0000000000011011;
	773 :	0000000000101001;
	772 :	0000000000000011;
	771 :	0000000000010100;
	770 :	1111111111111100;
	769 :	0000000001001000;
	768 :	0000000000100001;
	767 :	0000000000001000;
	766 :	0000000000100111;
	765 :	0000000000110100;
	764 :	0000000000110000;
	763 :	0000000000101111;
	762 :	0000000001000010;
	761 :	0000000000011100;
	760 :	1111111111111010;
	759 :	1111111111110111;
	758 :	0000000000000111;
	757 :	0000000000000000;
	756 :	1111111111101100;
	755 :	0000000000001011;
	754 :	1111111111110100;
	753 :	0000000000010000;
	752 :	0000000000000011;
	751 :	1111111111111100;
	750 :	0000000000101101;
	749 :	1111111111100110;
	748 :	0000000000000010;
	747 :	0000000000010011;
	746 :	1111111111111001;
	745 :	0000000000010011;
	744 :	0000000000000111;
	743 :	0000000000100011;
	742 :	1111111111111000;
	741 :	0000000000001111;
	740 :	0000000000101000;
	739 :	0000000000110111;
	738 :	0000000000100001;
	737 :	0000000000000100;
	736 :	0000000000101100;
	735 :	0000000000111000;
	734 :	0000000000010111;
	733 :	1111111111101011;
	732 :	1111111111110110;
	731 :	1111111111110011;
	730 :	0000000000010010;
	729 :	1111111111111110;
	728 :	1111111111101111;
	727 :	1111111111111011;
	726 :	1111111111110011;
	725 :	1111111111110000;
	724 :	0000000000010011;
	723 :	0000000000100101;
	722 :	0000000000110010;
	721 :	0000000000101001;
	720 :	0000000000001101;
	719 :	0000000000110100;
	718 :	0000000000101000;
	717 :	1111111111111001;
	716 :	0000000000100111;
	715 :	0000000000110100;
	714 :	0000000000101110;
	713 :	0000000000000011;
	712 :	0000000001000011;
	711 :	1111111111110010;
	710 :	1111111111110101;
	709 :	0000000000001100;
	708 :	0000000001000001;
	707 :	1111111111111010;
	706 :	0000000000101101;
	705 :	0000000000011010;
	704 :	0000000000001110;
	703 :	0000000000010010;
	702 :	1111111111110001;
	701 :	0000000000010010;
	700 :	0000000000000100;
	699 :	0000000000000100;
	698 :	1111111111101011;
	697 :	1111111111101011;
	696 :	0000000000000001;
	695 :	1111111111101110;
	694 :	0000000000010010;
	693 :	1111111111110101;
	692 :	1111111111110111;
	691 :	1111111111111101;
	690 :	1111111111011000;
	689 :	1111111111111011;
	688 :	0000000000100011;
	687 :	1111111111100110;
	686 :	0000000000010111;
	685 :	0000000000010101;
	684 :	1111111111110100;
	683 :	0000000000011011;
	682 :	1111111111100100;
	681 :	1111111111101011;
	680 :	0000000000110100;
	679 :	0000000000011111;
	678 :	0000000000010100;
	677 :	0000000001001011;
	676 :	0000000000011101;
	675 :	0000000000010011;
	674 :	1111111111101110;
	673 :	0000000000010001;
	672 :	1111111111101010;
	671 :	0000000000000110;
	670 :	0000000000010001;
	669 :	1111111111111110;
	668 :	1111111111101001;
	667 :	1111111111101011;
	666 :	1111111111010100;
	665 :	1111111111010100;
	664 :	1111111111111110;
	663 :	1111111111110000;
	662 :	0000000000001011;
	661 :	0000000000010110;
	660 :	0000000000010111;
	659 :	1111111111111010;
	658 :	0000000000001000;
	657 :	1111111111100001;
	656 :	0000000000000101;
	655 :	1111111111101000;
	654 :	0000000000000110;
	653 :	1111111111111101;
	652 :	1111111111111111;
	651 :	0000000000000101;
	650 :	1111111111100100;
	649 :	1111111111011111;
	648 :	1111111111111001;
	647 :	0000000000001001;
	646 :	1111111111101101;
	645 :	0000000000010101;
	644 :	0000000000010011;
	643 :	1111111111111000;
	642 :	0000000000000011;
	641 :	0000000000000010;
	640 :	0000000000001000;
	639 :	1111111111110110;
	638 :	1111111111010110;
	637 :	1111111111101100;
	636 :	1111111111110001;
	635 :	1111111111111100;
	634 :	0000000000010100;
	633 :	0000000000000011;
	632 :	0000000000000110;
	631 :	0000000000101000;
	630 :	1111111111110111;
	629 :	0000000000001011;
	628 :	0000000000001111;
	627 :	1111111111011101;
	626 :	0000000000001111;
	625 :	0000000000010100;
	624 :	0000000000010100;
	623 :	0000000000001100;
	622 :	1111111111110110;
	621 :	1111111111110100;
	620 :	1111111111111100;
	619 :	1111111111011110;
	618 :	1111111111111011;
	617 :	0000000000000111;
	616 :	1111111111111101;
	615 :	0000000000000001;
	614 :	1111111111110010;
	613 :	1111111111111001;
	612 :	0000000000000000;
	611 :	0000000000100111;
	610 :	1111111111110001;
	609 :	1111111111111111;
	608 :	0000000000000110;
	607 :	1111111111101000;
	606 :	0000000000000110;
	605 :	1111111111111110;
	604 :	0000000000000110;
	603 :	1111111111101000;
	602 :	1111111111110111;
	601 :	1111111111110001;
	600 :	0000000000010100;
	599 :	0000000000010000;
	598 :	0000000000000001;
	597 :	1111111111110011;
	596 :	1111111111111110;
	595 :	0000000000000111;
	594 :	1111111111110110;
	593 :	1111111111010111;
	592 :	1111111111110101;
	591 :	1111111111111000;
	590 :	1111111111111111;
	589 :	1111111111111000;
	588 :	0000000000001111;
	587 :	0000000000001000;
	586 :	1111111111111010;
	585 :	0000000000001001;
	584 :	1111111111111001;
	583 :	0000000000010101;
	582 :	1111111111111010;
	581 :	1111111111110001;
	580 :	1111111111111100;
	579 :	1111111111110110;
	578 :	0000000000011010;
	577 :	0000000000000011;
	576 :	1111111111111101;
	575 :	0000000000000011;
	574 :	1111111111001101;
	573 :	1111111111111110;
	572 :	0000000000000000;
	571 :	1111111111110010;
	570 :	1111111111111100;
	569 :	0000000000000011;
	568 :	0000000000000110;
	567 :	1111111111110011;
	566 :	1111111111101001;
	565 :	1111111111010111;
	564 :	1111111111110111;
	563 :	1111111111011001;
	562 :	1111111111101011;
	561 :	0000000000010010;
	560 :	0000000000010110;
	559 :	1111111111110110;
	558 :	1111111111110001;
	557 :	0000000000001111;
	556 :	0000000000101011;
	555 :	0000000000000101;
	554 :	1111111111010110;
	553 :	0000000000000100;
	552 :	1111111111110011;
	551 :	0000000000000011;
	550 :	0000000000000011;
	549 :	1111111111110100;
	548 :	1111111111101011;
	547 :	1111111111100111;
	546 :	1111111111110110;
	545 :	0000000000011000;
	544 :	1111111111111010;
	543 :	0000000000000000;
	542 :	1111111111101011;
	541 :	1111111111110110;
	540 :	1111111111111011;
	539 :	1111111111101010;
	538 :	1111111111010110;
	537 :	1111111111100111;
	536 :	0000000000010110;
	535 :	1111111111011000;
	534 :	1111111111110011;
	533 :	0000000000001001;
	532 :	0000000000001001;
	531 :	0000000000010010;
	530 :	1111111111111100;
	529 :	0000000000001100;
	528 :	1111111111100110;
	527 :	1111111111111110;
	526 :	1111111111101111;
	525 :	1111111111111101;
	524 :	1111111111111000;
	523 :	1111111111110100;
	522 :	1111111111101111;
	521 :	1111111111110101;
	520 :	1111111111100001;
	519 :	1111111111111101;
	518 :	0000000000001110;
	517 :	1111111111110010;
	516 :	0000000000000010;
	515 :	0000000000000101;
	514 :	1111111111010011;
	513 :	1111111111011001;
	512 :	1111111111001010;
	511 :	1111111111010100;
	510 :	1111111111011001;
	509 :	0000000000000111;
	508 :	0000000000000001;
	507 :	1111111111100110;
	506 :	0000000000000011;
	505 :	1111111111111001;
	504 :	0000000000000011;
	503 :	1111111111110010;
	502 :	0000000000001011;
	501 :	0000000000000111;
	500 :	1111111111110001;
	499 :	0000000000000110;
	498 :	1111111111111100;
	497 :	0000000000010101;
	496 :	0000000000001010;
	495 :	1111111111110000;
	494 :	0000000000000111;
	493 :	1111111111110010;
	492 :	1111111111010110;
	491 :	0000000000011011;
	490 :	0000000000001111;
	489 :	1111111111110100;
	488 :	1111111111110011;
	487 :	1111111111110000;
	486 :	1111111111011010;
	485 :	1111111111010010;
	484 :	1111111111111111;
	483 :	1111111111111111;
	482 :	1111111111111011;
	481 :	1111111111101101;
	480 :	0000000000110001;
	479 :	0000000000100101;
	478 :	0000000000010011;
	477 :	0000000000001000;
	476 :	0000000000001111;
	475 :	1111111111110111;
	474 :	1111111111110110;
	473 :	1111111111110110;
	472 :	1111111111011100;
	471 :	0000000000101000;
	470 :	0000000000000100;
	469 :	0000000000010000;
	468 :	1111111111111010;
	467 :	0000000000101111;
	466 :	1111111111111000;
	465 :	1111111111100110;
	464 :	1111111111110100;
	463 :	1111111111110100;
	462 :	1111111111110000;
	461 :	1111111111100011;
	460 :	1111111111011001;
	459 :	1111111111001111;
	458 :	0000000000010000;
	457 :	1111111111111001;
	456 :	0000000000011011;
	455 :	1111111111111011;
	454 :	0000000000001001;
	453 :	1111111111101011;
	452 :	0000000000011111;
	451 :	0000000000110110;
	450 :	0000000000010001;
	449 :	1111111111110111;
	448 :	0000000000000101;
	447 :	0000000000000111;
	446 :	1111111111101110;
	445 :	1111111111101000;
	444 :	1111111111100111;
	443 :	1111111111111110;
	442 :	0000000000000011;
	441 :	1111111111110011;
	440 :	1111111111110111;
	439 :	0000000000000101;
	438 :	1111111111110011;
	437 :	1111111111011110;
	436 :	1111111111101000;
	435 :	1111111111110110;
	434 :	1111111111111001;
	433 :	1111111110111011;
	432 :	1111111111100011;
	431 :	1111111111001011;
	430 :	1111111111011110;
	429 :	1111111111110001;
	428 :	1111111111111010;
	427 :	0000000000001000;
	426 :	1111111111111011;
	425 :	0000000000000011;
	424 :	0000000000000011;
	423 :	1111111111111010;
	422 :	0000000000011110;
	421 :	0000000000001101;
	420 :	1111111111111101;
	419 :	0000000000010001;
	418 :	1111111111101111;
	417 :	0000000000000000;
	416 :	1111111111011011;
	415 :	1111111111111100;
	414 :	0000000000001110;
	413 :	1111111111010100;
	412 :	0000000000000010;
	411 :	0000000000110011;
	410 :	1111111111101100;
	409 :	1111111111100010;
	408 :	1111111111001100;
	407 :	1111111111110111;
	406 :	1111111111011010;
	405 :	1111111111111000;
	404 :	1111111111100110;
	403 :	1111111111100110;
	402 :	1111111111111101;
	401 :	0000000000001010;
	400 :	0000000000001011;
	399 :	1111111111111100;
	398 :	1111111111111101;
	397 :	1111111111111001;
	396 :	1111111111101000;
	395 :	0000000000100000;
	394 :	0000000000101010;
	393 :	0000000000010110;
	392 :	1111111111101101;
	391 :	0000000000001000;
	390 :	0000000000001000;
	389 :	0000000000111010;
	388 :	0000000000011110;
	387 :	1111111111110101;
	386 :	1111111111101001;
	385 :	0000000000001111;
	384 :	1111111111111001;
	383 :	0000000000100100;
	382 :	0000000000010100;
	381 :	1111111111101101;
	380 :	1111111111111001;
	379 :	1111111111101110;
	378 :	1111111111111000;
	377 :	1111111111100100;
	376 :	0000000000000010;
	375 :	1111111111111011;
	374 :	1111111111111110;
	373 :	0000000000000000;
	372 :	0000000000001101;
	371 :	0000000000011100;
	370 :	1111111111110101;
	369 :	0000000000011101;
	368 :	0000000000001011;
	367 :	1111111111110110;
	366 :	0000000001000111;
	365 :	0000000000110010;
	364 :	1111111111101010;
	363 :	1111111111110101;
	362 :	0000000000001010;
	361 :	0000000000001111;
	360 :	0000000000010000;
	359 :	0000000000010111;
	358 :	0000000000001010;
	357 :	0000000000011101;
	356 :	0000000000010101;
	355 :	0000000000001110;
	354 :	0000000000011110;
	353 :	0000000000001100;
	352 :	0000000000001110;
	351 :	0000000000001111;
	350 :	0000000000001100;
	349 :	0000000000000111;
	348 :	0000000000000101;
	347 :	0000000000010101;
	346 :	0000000000001001;
	345 :	1111111111111000;
	344 :	0000000000010110;
	343 :	0000000000000111;
	342 :	0000000000001011;
	341 :	0000000000001101;
	340 :	0000000000100011;
	339 :	0000000000100101;
	338 :	1111111111110100;
	337 :	0000000000010111;
	336 :	0000000000010010;
	335 :	0000000000010001;
	334 :	0000000000000110;
	333 :	1111111111100110;
	332 :	0000000000000000;
	331 :	0000000000110010;
	330 :	0000000000110110;
	329 :	0000000000001100;
	328 :	0000000000000011;
	327 :	0000000000010101;
	326 :	0000000000001101;
	325 :	0000000000011111;
	324 :	1111111111111011;
	323 :	0000000000011110;
	322 :	0000000000100011;
	321 :	0000000000000110;
	320 :	0000000000010011;
	319 :	0000000000001110;
	318 :	0000000000100101;
	317 :	0000000000011010;
	316 :	1111111111101101;
	315 :	0000000000000000;
	314 :	0000000000001010;
	313 :	1111111111111110;
	312 :	0000000000110011;
	311 :	0000000000101101;
	310 :	0000000000011100;
	309 :	0000000000010011;
	308 :	0000000000001001;
	307 :	1111111111101110;
	306 :	1111111111000001;
	305 :	0000000000100100;
	304 :	0000000000100000;
	303 :	0000000000011100;
	302 :	0000000000010000;
	301 :	0000000000001001;
	300 :	0000000000000101;
	299 :	1111111111111101;
	298 :	0000000000000001;
	297 :	1111111111111000;
	296 :	1111111111100010;
	295 :	0000000000000000;
	294 :	0000000000000011;
	293 :	0000000000001111;
	292 :	0000000000100001;
	291 :	0000000000011010;
	290 :	0000000000101001;
	289 :	0000000000001111;
	288 :	0000000000011100;
	287 :	0000000000010000;
	286 :	1111111111011111;
	285 :	0000000000000110;
	284 :	0000000000001110;
	283 :	0000000000100100;
	282 :	0000000000010110;
	281 :	0000000000100000;
	280 :	0000000000000010;
	279 :	0000000000011001;
	278 :	0000000000010101;
	277 :	0000000000010110;
	276 :	0000000000000100;
	275 :	0000000000000110;
	274 :	1111111111100011;
	273 :	0000000000010000;
	272 :	0000000000000100;
	271 :	1111111111100110;
	270 :	1111111111111101;
	269 :	1111111111100110;
	268 :	1111111111101110;
	267 :	1111111111011001;
	266 :	1111111111111010;
	265 :	1111111111101001;
	264 :	1111111111101111;
	263 :	0000000000000010;
	262 :	0000000000000111;
	261 :	0000000000001000;
	260 :	0000000000010011;
	259 :	0000000000000111;
	258 :	1111111111110011;
	257 :	0000000000100001;
	256 :	0000000000001101;
	255 :	0000000000010000;
	254 :	1111111111110011;
	253 :	0000000000100011;
	252 :	1111111111110111;
	251 :	0000000000000101;
	250 :	1111111111111010;
	249 :	0000000000101111;
	248 :	1111111111110011;
	247 :	1111111111100100;
	246 :	1111111111111111;
	245 :	1111111111100110;
	244 :	1111111111100111;
	243 :	1111111111010011;
	242 :	1111111111110001;
	241 :	1111111111011011;
	240 :	1111111111001011;
	239 :	1111111111001110;
	238 :	1111111111010000;
	237 :	1111111111001111;
	236 :	1111111111010100;
	235 :	1111111111101001;
	234 :	0000000000000000;
	233 :	1111111111101110;
	232 :	1111111111101101;
	231 :	1111111111110111;
	230 :	0000000000011000;
	229 :	0000000000101101;
	228 :	1111111111111101;
	227 :	0000000000010010;
	226 :	0000000000000110;
	225 :	0000000000100110;
	224 :	1111111111101010;
	223 :	0000000000000100;
	222 :	1111111111110010;
	221 :	0000000000100110;
	220 :	1111111111110010;
	219 :	0000000000010101;
	218 :	1111111111010101;
	217 :	1111111111001000;
	216 :	1111111111000101;
	215 :	1111111111100011;
	214 :	1111111111010110;
	213 :	1111111111011011;
	212 :	1111111111110011;
	211 :	1111111111101000;
	210 :	1111111111010011;
	209 :	1111111111010101;
	208 :	1111111111100110;
	207 :	1111111111111111;
	206 :	1111111111111010;
	205 :	0000000000000111;
	204 :	1111111111111101;
	203 :	0000000000011100;
	202 :	1111111111111000;
	201 :	0000000000000101;
	200 :	1111111111111011;
	199 :	0000000000000110;
	198 :	0000000000100001;
	197 :	1111111111111000;
	196 :	0000000000010001;
	195 :	1111111111111011;
	194 :	1111111111111101;
	193 :	1111111111001010;
	192 :	1111111111011000;
	191 :	1111111111111110;
	190 :	0000000000000000;
	189 :	0000000000000001;
	188 :	1111111111101000;
	187 :	1111111111111010;
	186 :	1111111111010110;
	185 :	1111111111100000;
	184 :	1111111111101100;
	183 :	0000000000001101;
	182 :	1111111111100011;
	181 :	0000000000000010;
	180 :	1111111111011110;
	179 :	1111111111101111;
	178 :	0000000000000100;
	177 :	1111111111101101;
	176 :	0000000000001000;
	175 :	1111111111100101;
	174 :	0000000000000101;
	173 :	0000000000010100;
	172 :	0000000000001010;
	171 :	1111111111110000;
	170 :	0000000000010110;
	169 :	1111111111111111;
	168 :	1111111111101101;
	167 :	0000000000001001;
	166 :	1111111111110001;
	165 :	0000000000100001;
	164 :	0000000000101100;
	163 :	0000000000111011;
	162 :	1111111111110111;
	161 :	0000000000000110;
	160 :	0000000000011110;
	159 :	1111111111111000;
	158 :	0000000000001001;
	157 :	0000000000011111;
	156 :	0000000000000001;
	155 :	0000000000000001;
	154 :	0000000000011000;
	153 :	1111111111101010;
	152 :	1111111111110000;
	151 :	0000000000000100;
	150 :	0000000000101001;
	149 :	0000000000011111;
	148 :	0000000000001011;
	147 :	1111111111110101;
	146 :	0000000000010001;
	145 :	1111111111010110;
	144 :	1111111111101001;
	143 :	0000000000010000;
	142 :	0000000000000111;
	141 :	0000000000001110;
	140 :	1111111111111001;
	139 :	0000000000000101;
	138 :	0000000000000010;
	137 :	0000000000100000;
	136 :	0000000000100110;
	135 :	0000000001000110;
	134 :	0000000000011111;
	133 :	0000000000111101;
	132 :	0000000000000010;
	131 :	1111111111101011;
	130 :	0000000000101001;
	129 :	0000000000100101;
	128 :	0000000000011101;
	127 :	0000000000011011;
	126 :	1111111111110011;
	125 :	1111111111101001;
	124 :	1111111111110100;
	123 :	1111111111110100;
	122 :	0000000000000101;
	121 :	1111111111110011;
	120 :	1111111111100011;
	119 :	1111111111111110;
	118 :	0000000000010001;
	117 :	0000000000000000;
	116 :	1111111111101110;
	115 :	1111111111101100;
	114 :	0000000000010011;
	113 :	1111111111110110;
	112 :	1111111111111110;
	111 :	0000000000001010;
	110 :	1111111111101110;
	109 :	1111111111101010;
	108 :	0000000000011100;
	107 :	0000000000011011;
	106 :	0000000000101000;
	105 :	0000000000001111;
	104 :	0000000000010010;
	103 :	1111111111111010;
	102 :	1111111111011000;
	101 :	1111111111100010;
	100 :	1111111111110000;
	99 :	1111111111110100;
	98 :	1111111111110101;
	97 :	1111111111101001;
	96 :	1111111111100000;
	95 :	1111111111101010;
	94 :	1111111111111010;
	93 :	0000000000010010;
	92 :	1111111111111000;
	91 :	1111111111101110;
	90 :	1111111111100011;
	89 :	1111111111110110;
	88 :	0000000000010100;
	87 :	1111111111101101;
	86 :	0000000000000001;
	85 :	0000000000001001;
	84 :	1111111111101110;
	83 :	1111111111110110;
	82 :	0000000000000101;
	81 :	1111111111110000;
	80 :	0000000000001100;
	79 :	1111111111110101;
	78 :	0000000000001001;
	77 :	0000000000000111;
	76 :	1111111111111001;
	75 :	1111111111110100;
	74 :	0000000000010001;
	73 :	0000000000000100;
	72 :	1111111111100101;
	71 :	0000000000000010;
	70 :	1111111111101110;
	69 :	0000000000001001;
	68 :	1111111111100111;
	67 :	0000000000000110;
	66 :	1111111111110001;
	65 :	0000000000000000;
	64 :	0000000000000000;
	63 :	0000000000001101;
	62 :	1111111111110100;
	61 :	1111111111110001;
	60 :	1111111111111011;
	59 :	1111111111111011;
	58 :	0000000000000111;
	57 :	0000000000010101;
	56 :	1111111111110111;
	55 :	1111111111111000;
	54 :	1111111111110101;
	53 :	1111111111111011;
	52 :	0000000000000101;
	51 :	1111111111110111;
	50 :	0000000000010011;
	49 :	0000000000010011;
	48 :	1111111111111100;
	47 :	1111111111110100;
	46 :	0000000000010010;
	45 :	0000000000001000;
	44 :	1111111111101101;
	43 :	0000000000000110;
	42 :	0000000000010011;
	41 :	1111111111101111;
	40 :	0000000000000010;
	39 :	0000000000000000;
	38 :	0000000000010100;
	37 :	0000000000010011;
	36 :	0000000000010100;
	35 :	1111111111110100;
	34 :	0000000000000001;
	33 :	1111111111111000;
	32 :	1111111111101110;
	31 :	0000000000000001;
	30 :	1111111111101110;
	29 :	0000000000001010;
	28 :	0000000000001000;
	27 :	1111111111111000;
	26 :	0000000000000010;
	25 :	1111111111110111;
	24 :	1111111111110010;
	23 :	0000000000000000;
	22 :	1111111111101111;
	21 :	1111111111110111;
	20 :	0000000000001110;
	19 :	0000000000010001;
	18 :	0000000000001000;
	17 :	0000000000001110;
	16 :	1111111111111110;
	15 :	1111111111111111;
	14 :	0000000000000001;
	13 :	0000000000010010;
	12 :	0000000000001110;
	11 :	0000000000010100;
	10 :	1111111111101101;
	9 :	1111111111110000;
	8 :	1111111111111111;
	7 :	1111111111111011;
	6 :	1111111111101011;
	5 :	0000000000001100;
	4 :	1111111111111010;
	3 :	0000000000010011;
	2 :	0000000000001010;
	1 :	0000000000010011;
	0 :	0000000000010001;
END;
