-- begin_signature
-- weights(numWeights
-- 16
-- neuronNumber
-- 2
-- layerNumber
-- 1
-- addressWidth
-- 4
-- dataWidth
-- 16
-- weightFile
-- "weights/weight_L1_N2.mif")
-- end_signature
WIDTH=16;
DEPTH=16;

ADDRESS_RADIX=UNS;
DATA_RADIX=BIN;

CONTENT BEGIN
	15 :	0000000001001111;
	14 :	1111111110101010;
	13 :	0000000000011010;
	12 :	0000000000110111;
	11 :	1111111111010011;
	10 :	0000000000001000;
	9 :	0000000000100101;
	8 :	1111111111101000;
	7 :	0000000001000001;
	6 :	0000000000100101;
	5 :	0000000001011011;
	4 :	0000000000001110;
	3 :	0000000000000111;
	2 :	1111111110110111;
	1 :	1111111111101001;
	0 :	0000000001100110;
END;
