-- begin_signature
-- weights(numWeights
-- 784
-- neuronNumber
-- 7
-- layerNumber
-- 0
-- addressWidth
-- 10
-- dataWidth
-- 16
-- weightFile
-- "weights/weight_L0_N7.mif")
-- end_signature
WIDTH=16;
DEPTH=784;

ADDRESS_RADIX=UNS;
DATA_RADIX=BIN;

CONTENT BEGIN
	783 :	0000000000010001;
	782 :	1111111111110001;
	781 :	1111111111111110;
	780 :	1111111111101110;
	779 :	0000000000000011;
	778 :	1111111111110100;
	777 :	1111111111111110;
	776 :	1111111111011010;
	775 :	1111111111010111;
	774 :	1111111111101000;
	773 :	1111111110110110;
	772 :	0000000000011110;
	771 :	0000000000011111;
	770 :	0000000000110001;
	769 :	1111111111110011;
	768 :	0000000000110000;
	767 :	0000000000010011;
	766 :	0000000000010011;
	765 :	0000000000001111;
	764 :	1111111111100010;
	763 :	1111111111001111;
	762 :	1111111111111011;
	761 :	1111111111110000;
	760 :	0000000000010011;
	759 :	1111111111101111;
	758 :	0000000000001100;
	757 :	1111111111101101;
	756 :	0000000000010101;
	755 :	1111111111111100;
	754 :	1111111111110000;
	753 :	1111111111111111;
	752 :	0000000000010100;
	751 :	0000000000011011;
	750 :	0000000000111111;
	749 :	0000000000111111;
	748 :	0000000001000110;
	747 :	0000000000001100;
	746 :	0000000000101101;
	745 :	0000000000111100;
	744 :	0000000000011111;
	743 :	0000000000110101;
	742 :	0000000000100111;
	741 :	0000000000101101;
	740 :	0000000000001011;
	739 :	0000000000010001;
	738 :	0000000000011100;
	737 :	0000000000010110;
	736 :	0000000000010011;
	735 :	1111111111111000;
	734 :	0000000000101101;
	733 :	0000000000101111;
	732 :	0000000000011110;
	731 :	0000000000010011;
	730 :	1111111111110111;
	729 :	0000000000010001;
	728 :	0000000000000100;
	727 :	0000000000001111;
	726 :	0000000000010001;
	725 :	0000000000000100;
	724 :	1111111111111000;
	723 :	1111111111011011;
	722 :	0000000000100001;
	721 :	0000000000001101;
	720 :	1111111111111110;
	719 :	0000000000001101;
	718 :	0000000000001101;
	717 :	1111111111111110;
	716 :	0000000000000110;
	715 :	1111111111111111;
	714 :	0000000000001010;
	713 :	0000000000000101;
	712 :	0000000000011100;
	711 :	0000000000001011;
	710 :	0000000000010001;
	709 :	0000000000100010;
	708 :	0000000000110001;
	707 :	0000000001000001;
	706 :	0000000000111111;
	705 :	0000000001010110;
	704 :	0000000000101110;
	703 :	1111111111000111;
	702 :	0000000000010011;
	701 :	1111111111110000;
	700 :	0000000000001100;
	699 :	0000000000001100;
	698 :	0000000000010100;
	697 :	1111111111111010;
	696 :	1111111111111110;
	695 :	0000000000100110;
	694 :	1111111111111001;
	693 :	0000000000000000;
	692 :	1111111111111100;
	691 :	1111111111101110;
	690 :	1111111111101111;
	689 :	0000000000001011;
	688 :	1111111111110100;
	687 :	0000000000000010;
	686 :	0000000000000000;
	685 :	0000000000001010;
	684 :	1111111111111101;
	683 :	0000000000010101;
	682 :	0000000000010010;
	681 :	0000000000001010;
	680 :	0000000000010010;
	679 :	0000000000011110;
	678 :	0000000000001000;
	677 :	0000000000011101;
	676 :	0000000000100110;
	675 :	0000000000011110;
	674 :	0000000000011100;
	673 :	0000000000010010;
	672 :	1111111111111010;
	671 :	0000000000000001;
	670 :	0000000000010001;
	669 :	0000000000001001;
	668 :	1111111111111100;
	667 :	1111111111100100;
	666 :	1111111111100000;
	665 :	1111111111101110;
	664 :	1111111111111001;
	663 :	0000000000000001;
	662 :	0000000000000111;
	661 :	0000000000000011;
	660 :	0000000000000110;
	659 :	0000000000001110;
	658 :	0000000000000011;
	657 :	0000000000001001;
	656 :	0000000000001011;
	655 :	0000000000010000;
	654 :	0000000000000101;
	653 :	0000000000000110;
	652 :	0000000000000101;
	651 :	0000000000001010;
	650 :	0000000000000110;
	649 :	0000000000011011;
	648 :	0000000000101011;
	647 :	0000000001001100;
	646 :	0000000000111101;
	645 :	1111111111111110;
	644 :	1111111111110001;
	643 :	1111111111110000;
	642 :	0000000000001100;
	641 :	1111111111110101;
	640 :	1111111111110000;
	639 :	0000000000000011;
	638 :	0000000000000010;
	637 :	0000000000001001;
	636 :	0000000000000100;
	635 :	0000000000010010;
	634 :	1111111111111010;
	633 :	0000000000000001;
	632 :	0000000000000001;
	631 :	1111111111111111;
	630 :	0000000000000000;
	629 :	0000000000001000;
	628 :	0000000000000110;
	627 :	0000000000001101;
	626 :	0000000000000011;
	625 :	0000000000001100;
	624 :	1111111111110110;
	623 :	0000000000000011;
	622 :	0000000000000000;
	621 :	0000000000000011;
	620 :	0000000000100111;
	619 :	0000000000100010;
	618 :	0000000000000100;
	617 :	1111111111111101;
	616 :	1111111111110100;
	615 :	1111111111111001;
	614 :	0000000000001110;
	613 :	1111111111100010;
	612 :	1111111111011110;
	611 :	1111111111101111;
	610 :	1111111111101111;
	609 :	1111111111111101;
	608 :	1111111111111011;
	607 :	1111111111111101;
	606 :	0000000000000010;
	605 :	0000000000000001;
	604 :	0000000000000010;
	603 :	0000000000000010;
	602 :	1111111111111011;
	601 :	0000000000000001;
	600 :	0000000000000010;
	599 :	0000000000000011;
	598 :	0000000000000100;
	597 :	1111111111110111;
	596 :	0000000000011001;
	595 :	0000000000010000;
	594 :	0000000000010110;
	593 :	0000000000010001;
	592 :	0000000000000001;
	591 :	0000000000000010;
	590 :	0000000000010111;
	589 :	0000000000001001;
	588 :	0000000000000100;
	587 :	1111111111110001;
	586 :	0000000000000111;
	585 :	1111111111000010;
	584 :	1111111111111001;
	583 :	1111111111110011;
	582 :	1111111111111100;
	581 :	0000000000000100;
	580 :	0000000000001000;
	579 :	0000000000001110;
	578 :	0000000000000110;
	577 :	0000000000001010;
	576 :	0000000000001100;
	575 :	1111111111111110;
	574 :	0000000000000100;
	573 :	1111111111111011;
	572 :	0000000000000111;
	571 :	0000000000010101;
	570 :	0000000000001110;
	569 :	0000000000011000;
	568 :	0000000000001011;
	567 :	0000000000000100;
	566 :	0000000000000111;
	565 :	0000000000001101;
	564 :	0000000000001011;
	563 :	0000000000011001;
	562 :	1111111111101000;
	561 :	0000000000011110;
	560 :	1111111111110101;
	559 :	1111111111111011;
	558 :	1111111111111101;
	557 :	1111111111000010;
	556 :	1111111111110011;
	555 :	0000000000001001;
	554 :	1111111111111111;
	553 :	0000000000000010;
	552 :	0000000000000110;
	551 :	1111111111111111;
	550 :	0000000000000110;
	549 :	1111111111110110;
	548 :	0000000000000101;
	547 :	0000000000000101;
	546 :	0000000000000011;
	545 :	1111111111111011;
	544 :	1111111111101100;
	543 :	1111111111100111;
	542 :	1111111111111111;
	541 :	0000000000000010;
	540 :	0000000000000010;
	539 :	0000000000001100;
	538 :	0000000000000101;
	537 :	0000000000010111;
	536 :	0000000000000111;
	535 :	0000000000110100;
	534 :	0000000000000001;
	533 :	1111111111110101;
	532 :	0000000000001101;
	531 :	1111111111110111;
	530 :	0000000000001100;
	529 :	0000000000001010;
	528 :	1111111111111100;
	527 :	0000000000000011;
	526 :	0000000000000011;
	525 :	0000000000010100;
	524 :	0000000000001000;
	523 :	0000000000010000;
	522 :	0000000000000100;
	521 :	0000000000001000;
	520 :	1111111111111100;
	519 :	1111111111110101;
	518 :	1111111111110001;
	517 :	1111111111001100;
	516 :	1111111110101000;
	515 :	1111111110100011;
	514 :	1111111110100010;
	513 :	1111111110111101;
	512 :	1111111111101010;
	511 :	1111111111100110;
	510 :	0000000000000000;
	509 :	1111111111111010;
	508 :	1111111111111110;
	507 :	0000000000110100;
	506 :	0000000000000010;
	505 :	0000000000010111;
	504 :	0000000000010011;
	503 :	1111111111110001;
	502 :	0000000000101000;
	501 :	1111111111101100;
	500 :	1111111111100001;
	499 :	0000000000010001;
	498 :	0000000000000111;
	497 :	0000000000000110;
	496 :	1111111111111110;
	495 :	1111111111111011;
	494 :	1111111111111110;
	493 :	0000000000000010;
	492 :	1111111111101111;
	491 :	1111111111110111;
	490 :	1111111111110011;
	489 :	1111111111100001;
	488 :	1111111111011101;
	487 :	1111111111001110;
	486 :	1111111110110100;
	485 :	1111111110011010;
	484 :	1111111110111011;
	483 :	1111111111001011;
	482 :	1111111111100001;
	481 :	1111111111110110;
	480 :	1111111111110000;
	479 :	0000000000100111;
	478 :	1111111111101011;
	477 :	0000000000010100;
	476 :	0000000000010100;
	475 :	1111111111110011;
	474 :	1111111111110011;
	473 :	1111111111000000;
	472 :	0000000000010010;
	471 :	0000000000001011;
	470 :	0000000000001101;
	469 :	0000000000010010;
	468 :	0000000000000000;
	467 :	0000000000001110;
	466 :	0000000000000010;
	465 :	1111111111101100;
	464 :	1111111111110101;
	463 :	1111111111110100;
	462 :	0000000000000111;
	461 :	0000000000000111;
	460 :	0000000000010000;
	459 :	0000000000001101;
	458 :	0000000000000001;
	457 :	1111111111101101;
	456 :	1111111111011101;
	455 :	1111111110111000;
	454 :	1111111111001111;
	453 :	1111111111100100;
	452 :	1111111111011101;
	451 :	0000000000000100;
	450 :	0000000000100011;
	449 :	1111111111111110;
	448 :	0000000000000001;
	447 :	0000000000010000;
	446 :	1111111111101100;
	445 :	1111111111110110;
	444 :	1111111111100111;
	443 :	0000000000011100;
	442 :	1111111111110011;
	441 :	0000000000001001;
	440 :	1111111111111100;
	439 :	0000000000001000;
	438 :	1111111111111001;
	437 :	1111111111110101;
	436 :	1111111111111101;
	435 :	0000000000000101;
	434 :	0000000000001001;
	433 :	0000000000010001;
	432 :	0000000000000101;
	431 :	0000000000000110;
	430 :	1111111111111011;
	429 :	0000000000000001;
	428 :	1111111111110100;
	427 :	1111111111111001;
	426 :	1111111111110110;
	425 :	1111111111110001;
	424 :	1111111111110110;
	423 :	1111111111011110;
	422 :	0000000000010011;
	421 :	0000000000010010;
	420 :	1111111111110101;
	419 :	0000000000001011;
	418 :	1111111111111011;
	417 :	1111111111110000;
	416 :	1111111111100101;
	415 :	0000000000000011;
	414 :	1111111111111010;
	413 :	0000000000001001;
	412 :	1111111111111100;
	411 :	1111111111110000;
	410 :	1111111111111010;
	409 :	1111111111110100;
	408 :	1111111111111001;
	407 :	0000000000001001;
	406 :	0000000000010011;
	405 :	1111111111111111;
	404 :	0000000000001001;
	403 :	1111111111111110;
	402 :	1111111111111100;
	401 :	0000000000000101;
	400 :	0000000000001001;
	399 :	0000000000000111;
	398 :	0000000000000000;
	397 :	1111111111101100;
	396 :	1111111111110000;
	395 :	1111111111010101;
	394 :	1111111111101011;
	393 :	0000000000000110;
	392 :	0000000000001100;
	391 :	0000000000001001;
	390 :	1111111111101111;
	389 :	1111111111011101;
	388 :	1111111111010010;
	387 :	1111111111011001;
	386 :	1111111111110010;
	385 :	1111111111101111;
	384 :	1111111111100111;
	383 :	1111111111111111;
	382 :	1111111111110100;
	381 :	1111111111111010;
	380 :	0000000000000001;
	379 :	0000000000000000;
	378 :	0000000000011100;
	377 :	0000000000001000;
	376 :	0000000000000110;
	375 :	0000000000000110;
	374 :	0000000000000010;
	373 :	0000000000001100;
	372 :	1111111111111111;
	371 :	0000000000001001;
	370 :	1111111111111011;
	369 :	0000000000000111;
	368 :	0000000000000111;
	367 :	0000000000010011;
	366 :	1111111111011110;
	365 :	0000000000010000;
	364 :	0000000000000011;
	363 :	1111111111110111;
	362 :	0000000000001100;
	361 :	1111111111101000;
	360 :	1111111111010110;
	359 :	1111111111011010;
	358 :	1111111111100011;
	357 :	1111111111100011;
	356 :	1111111111111000;
	355 :	1111111111110000;
	354 :	1111111111111110;
	353 :	1111111111111101;
	352 :	0000000000000001;
	351 :	0000000000000100;
	350 :	0000000000010010;
	349 :	0000000000010100;
	348 :	0000000000001111;
	347 :	0000000000000101;
	346 :	0000000000010011;
	345 :	1111111111111100;
	344 :	1111111111110010;
	343 :	0000000000001000;
	342 :	1111111111111101;
	341 :	1111111111100110;
	340 :	1111111111111100;
	339 :	1111111111110001;
	338 :	1111111111101001;
	337 :	1111111111110111;
	336 :	0000000000001010;
	335 :	1111111111110010;
	334 :	0000000000101101;
	333 :	0000000000101000;
	332 :	1111111111110011;
	331 :	1111111111111011;
	330 :	1111111111011011;
	329 :	1111111111111000;
	328 :	1111111111111000;
	327 :	0000000000000001;
	326 :	0000000000000110;
	325 :	1111111111111110;
	324 :	1111111111111000;
	323 :	0000000000000111;
	322 :	0000000000010010;
	321 :	0000000000010011;
	320 :	0000000000001001;
	319 :	0000000000000001;
	318 :	1111111111110110;
	317 :	1111111111110011;
	316 :	1111111111111001;
	315 :	1111111111110001;
	314 :	1111111111110011;
	313 :	0000000000000001;
	312 :	0000000000001001;
	311 :	0000000000001101;
	310 :	1111111111100001;
	309 :	1111111111101000;
	308 :	0000000000001010;
	307 :	1111111111110000;
	306 :	0000000000101101;
	305 :	0000000000011000;
	304 :	0000000000010111;
	303 :	1111111111101100;
	302 :	1111111111111110;
	301 :	1111111111110100;
	300 :	1111111111101011;
	299 :	1111111111110110;
	298 :	1111111111111100;
	297 :	0000000000000001;
	296 :	1111111111111111;
	295 :	0000000000000000;
	294 :	0000000000001011;
	293 :	0000000000000111;
	292 :	1111111111110111;
	291 :	1111111111111010;
	290 :	0000000000000010;
	289 :	1111111111101110;
	288 :	1111111111110111;
	287 :	1111111111111000;
	286 :	1111111111111001;
	285 :	1111111111110100;
	284 :	0000000000000010;
	283 :	0000000000111110;
	282 :	1111111111010111;
	281 :	1111111111100000;
	280 :	0000000000010011;
	279 :	1111111111110001;
	278 :	1111111111110101;
	277 :	0000000000001000;
	276 :	0000000000001110;
	275 :	1111111111111101;
	274 :	0000000000000110;
	273 :	1111111111110101;
	272 :	0000000000000001;
	271 :	1111111111110100;
	270 :	1111111111111010;
	269 :	1111111111110111;
	268 :	1111111111111100;
	267 :	0000000000010000;
	266 :	0000000000000000;
	265 :	1111111111111111;
	264 :	1111111111111111;
	263 :	1111111111111101;
	262 :	1111111111101101;
	261 :	0000000000000101;
	260 :	1111111111111011;
	259 :	1111111111111111;
	258 :	0000000000000111;
	257 :	1111111111101110;
	256 :	0000000000100010;
	255 :	0000000000010001;
	254 :	1111111111111100;
	253 :	1111111111110000;
	252 :	0000000000001001;
	251 :	0000000000101101;
	250 :	1111111111101111;
	249 :	0000000000110011;
	248 :	0000000000000110;
	247 :	1111111111011111;
	246 :	0000000000000000;
	245 :	0000000000001101;
	244 :	1111111111111000;
	243 :	0000000000000111;
	242 :	0000000000000011;
	241 :	0000000000000101;
	240 :	1111111111111111;
	239 :	0000000000000110;
	238 :	0000000000010010;
	237 :	0000000000000111;
	236 :	1111111111111100;
	235 :	0000000000000110;
	234 :	1111111111111011;
	233 :	1111111111111100;
	232 :	1111111111111000;
	231 :	1111111111111100;
	230 :	1111111111110100;
	229 :	0000000000000101;
	228 :	1111111111110101;
	227 :	0000000000001110;
	226 :	0000000000000001;
	225 :	0000000000001111;
	224 :	0000000000000010;
	223 :	0000000000001110;
	222 :	1111111111111011;
	221 :	0000000000101101;
	220 :	1111111111111001;
	219 :	1111111111110101;
	218 :	0000000000000010;
	217 :	0000000000000010;
	216 :	0000000000001111;
	215 :	0000000000001000;
	214 :	0000000000000001;
	213 :	0000000000000010;
	212 :	0000000000001010;
	211 :	1111111111111111;
	210 :	0000000000001000;
	209 :	0000000000001000;
	208 :	0000000000001010;
	207 :	0000000000000001;
	206 :	0000000000000100;
	205 :	1111111111111010;
	204 :	1111111111111011;
	203 :	0000000000000101;
	202 :	0000000000000101;
	201 :	0000000000010111;
	200 :	0000000000010101;
	199 :	0000000000011010;
	198 :	1111111111101110;
	197 :	0000000000101001;
	196 :	1111111111110111;
	195 :	0000000000001000;
	194 :	1111111111111101;
	193 :	0000000000111110;
	192 :	0000000000001111;
	191 :	0000000000001010;
	190 :	1111111111111000;
	189 :	0000000000000010;
	188 :	0000000000000000;
	187 :	1111111111110001;
	186 :	0000000000001001;
	185 :	1111111111111100;
	184 :	0000000000001101;
	183 :	0000000000001001;
	182 :	0000000000000001;
	181 :	0000000000001001;
	180 :	1111111111111111;
	179 :	0000000000001100;
	178 :	1111111111111101;
	177 :	0000000000001100;
	176 :	0000000000001101;
	175 :	1111111111111011;
	174 :	0000000000001010;
	173 :	0000000000000111;
	172 :	0000000000011110;
	171 :	0000000000001011;
	170 :	0000000000011111;
	169 :	0000000000010101;
	168 :	0000000000001111;
	167 :	1111111111110100;
	166 :	0000000000000011;
	165 :	0000000000010100;
	164 :	0000000000001100;
	163 :	0000000000010101;
	162 :	0000000000000110;
	161 :	0000000000000101;
	160 :	1111111111111001;
	159 :	0000000000001001;
	158 :	1111111111111110;
	157 :	1111111111111101;
	156 :	0000000000000101;
	155 :	0000000000001011;
	154 :	1111111111111111;
	153 :	0000000000001011;
	152 :	0000000000001001;
	151 :	0000000000000001;
	150 :	1111111111111111;
	149 :	0000000000000011;
	148 :	1111111111110111;
	147 :	0000000000001100;
	146 :	0000000000000000;
	145 :	0000000000011001;
	144 :	1111111111110111;
	143 :	0000000000100100;
	142 :	0000000000000110;
	141 :	0000000000000101;
	140 :	1111111111110000;
	139 :	0000000000001011;
	138 :	1111111111111011;
	137 :	1111111111111000;
	136 :	0000000000010110;
	135 :	1111111111111111;
	134 :	1111111111111000;
	133 :	0000000000010001;
	132 :	0000000000000011;
	131 :	1111111111111101;
	130 :	0000000000010011;
	129 :	1111111111110110;
	128 :	0000000000001000;
	127 :	0000000000001011;
	126 :	0000000000000000;
	125 :	0000000000000000;
	124 :	0000000000001100;
	123 :	0000000000001111;
	122 :	0000000000010110;
	121 :	1111111111110011;
	120 :	0000000000010011;
	119 :	0000000000010110;
	118 :	0000000000011101;
	117 :	0000000000011000;
	116 :	0000000001000101;
	115 :	0000000000000101;
	114 :	0000000000000111;
	113 :	0000000000010010;
	112 :	1111111111111011;
	111 :	1111111111110111;
	110 :	0000000000010100;
	109 :	0000000000001100;
	108 :	0000000000100010;
	107 :	1111111111101001;
	106 :	1111111111111101;
	105 :	1111111111111111;
	104 :	0000000000001100;
	103 :	0000000000001000;
	102 :	0000000000001010;
	101 :	0000000000010010;
	100 :	0000000000010000;
	99 :	0000000000000001;
	98 :	0000000000011100;
	97 :	0000000000000100;
	96 :	0000000000000111;
	95 :	1111111111110101;
	94 :	1111111111111111;
	93 :	0000000000000011;
	92 :	1111111111110101;
	91 :	0000000000000111;
	90 :	0000000000011111;
	89 :	0000000000100001;
	88 :	0000000000001011;
	87 :	0000000000000010;
	86 :	0000000000000011;
	85 :	0000000000000110;
	84 :	0000000000010011;
	83 :	1111111111111111;
	82 :	0000000000010110;
	81 :	0000000000000110;
	80 :	1111111111111101;
	79 :	1111111111110001;
	78 :	1111111111101001;
	77 :	0000000000000111;
	76 :	0000000000001110;
	75 :	0000000000011101;
	74 :	0000000000010001;
	73 :	1111111111111001;
	72 :	0000000000010010;
	71 :	1111111111111111;
	70 :	1111111111111111;
	69 :	1111111111110101;
	68 :	1111111111010110;
	67 :	0000000000011110;
	66 :	1111111111101100;
	65 :	1111111111100000;
	64 :	0000000000000011;
	63 :	0000000000000110;
	62 :	0000000000001011;
	61 :	0000000000000101;
	60 :	1111111111101110;
	59 :	1111111111110101;
	58 :	0000000000001001;
	57 :	1111111111111010;
	56 :	1111111111110001;
	55 :	0000000000001010;
	54 :	1111111111111100;
	53 :	1111111111111010;
	52 :	0000000000000100;
	51 :	1111111111101100;
	50 :	1111111111111001;
	49 :	0000000000000101;
	48 :	0000000000000001;
	47 :	1111111111110101;
	46 :	0000000000000011;
	45 :	0000000000001011;
	44 :	0000000000000110;
	43 :	0000000000011010;
	42 :	1111111111110011;
	41 :	0000000000001011;
	40 :	1111111111111101;
	39 :	0000000000010001;
	38 :	0000000000010010;
	37 :	1111111111110001;
	36 :	1111111111110001;
	35 :	1111111111111010;
	34 :	0000000000001001;
	33 :	0000000000010000;
	32 :	0000000000001010;
	31 :	1111111111101100;
	30 :	0000000000001100;
	29 :	0000000000010011;
	28 :	1111111111110111;
	27 :	1111111111101010;
	26 :	0000000000010100;
	25 :	0000000000000110;
	24 :	0000000000001110;
	23 :	1111111111111011;
	22 :	0000000000000110;
	21 :	1111111111110010;
	20 :	0000000000000010;
	19 :	0000000000010001;
	18 :	1111111111101101;
	17 :	1111111111111011;
	16 :	1111111111110001;
	15 :	0000000000010001;
	14 :	1111111111110110;
	13 :	0000000000001011;
	12 :	0000000000010000;
	11 :	0000000000010010;
	10 :	0000000000000011;
	9 :	0000000000000101;
	8 :	1111111111111101;
	7 :	1111111111110000;
	6 :	0000000000001011;
	5 :	1111111111110000;
	4 :	0000000000010100;
	3 :	0000000000010100;
	2 :	1111111111111110;
	1 :	0000000000010110;
	0 :	1111111111101111;
END;
