-- begin_signature
-- weights(numWeights
-- 784
-- neuronNumber
-- 15
-- layerNumber
-- 0
-- addressWidth
-- 10
-- dataWidth
-- 16
-- weightFile
-- "weights/weight_L0_N15.mif")
-- end_signature
WIDTH=16;
DEPTH=784;

ADDRESS_RADIX=UNS;
DATA_RADIX=BIN;

CONTENT BEGIN
	783 :	0000000000000011;
	782 :	0000000000000110;
	781 :	0000000000000100;
	780 :	0000000000001010;
	779 :	0000000000000110;
	778 :	0000000000011110;
	777 :	0000000000101100;
	776 :	0000000000100011;
	775 :	0000000000000111;
	774 :	0000000000001101;
	773 :	0000000000000101;
	772 :	1111111111111100;
	771 :	0000000000011001;
	770 :	0000000000001011;
	769 :	1111111111111111;
	768 :	1111111111110011;
	767 :	1111111111011110;
	766 :	1111111111110010;
	765 :	1111111111110111;
	764 :	0000000000000001;
	763 :	1111111111111101;
	762 :	1111111111111100;
	761 :	0000000000001110;
	760 :	0000000000000100;
	759 :	1111111111110001;
	758 :	1111111111110000;
	757 :	1111111111111011;
	756 :	0000000000010110;
	755 :	0000000000001011;
	754 :	1111111111111110;
	753 :	0000000000100011;
	752 :	1111111111101111;
	751 :	0000000000001101;
	750 :	0000000000001000;
	749 :	0000000000000101;
	748 :	1111111111111010;
	747 :	1111111111110100;
	746 :	0000000000000010;
	745 :	1111111111111111;
	744 :	1111111111111100;
	743 :	1111111111111111;
	742 :	1111111111111111;
	741 :	1111111111111111;
	740 :	1111111111111010;
	739 :	1111111111110001;
	738 :	0000000000001011;
	737 :	1111111111111101;
	736 :	1111111111111001;
	735 :	0000000000000111;
	734 :	0000000000000011;
	733 :	1111111111111001;
	732 :	1111111111111110;
	731 :	0000000000010000;
	730 :	0000000000010100;
	729 :	1111111111110001;
	728 :	1111111111110001;
	727 :	0000000000010001;
	726 :	0000000000001011;
	725 :	1111111111111110;
	724 :	1111111111011110;
	723 :	0000000000001101;
	722 :	1111111111100110;
	721 :	0000000000000011;
	720 :	0000000000000010;
	719 :	1111111111101000;
	718 :	0000000000000011;
	717 :	0000000000001001;
	716 :	1111111111110111;
	715 :	0000000000000111;
	714 :	0000000000010000;
	713 :	0000000000000111;
	712 :	1111111111110011;
	711 :	1111111111111111;
	710 :	1111111111111000;
	709 :	1111111111111101;
	708 :	1111111111101010;
	707 :	1111111111111110;
	706 :	1111111111110011;
	705 :	1111111111111001;
	704 :	1111111111011110;
	703 :	1111111111111100;
	702 :	1111111111100001;
	701 :	1111111111110111;
	700 :	0000000000000011;
	699 :	0000000000000111;
	698 :	0000000000010110;
	697 :	0000000000001110;
	696 :	1111111111011000;
	695 :	0000000000000110;
	694 :	0000000000000011;
	693 :	0000000000001010;
	692 :	1111111111110111;
	691 :	1111111111111100;
	690 :	1111111111111001;
	689 :	1111111111110000;
	688 :	0000000000000010;
	687 :	1111111111111001;
	686 :	1111111111110011;
	685 :	1111111111111100;
	684 :	1111111111111110;
	683 :	0000000000001011;
	682 :	0000000000000001;
	681 :	0000000000001001;
	680 :	1111111111111010;
	679 :	1111111111111110;
	678 :	0000000000001011;
	677 :	0000000000010010;
	676 :	1111111111010101;
	675 :	1111111111111000;
	674 :	1111111111101110;
	673 :	1111111111111100;
	672 :	0000000000010000;
	671 :	0000000000001010;
	670 :	0000000000100001;
	669 :	0000000000101000;
	668 :	1111111111111101;
	667 :	0000000000000001;
	666 :	1111111111110001;
	665 :	0000000000001001;
	664 :	1111111111111001;
	663 :	1111111111110111;
	662 :	0000000000001101;
	661 :	0000000000001001;
	660 :	0000000000000010;
	659 :	1111111111110111;
	658 :	0000000000001000;
	657 :	1111111111110111;
	656 :	1111111111111110;
	655 :	1111111111111101;
	654 :	0000000000000010;
	653 :	1111111111111101;
	652 :	1111111111111000;
	651 :	0000000000000001;
	650 :	1111111111111010;
	649 :	1111111111010100;
	648 :	1111111111010011;
	647 :	0000000000001000;
	646 :	1111111111101010;
	645 :	1111111111110010;
	644 :	0000000000000011;
	643 :	0000000000010011;
	642 :	1111111111101100;
	641 :	1111111111100111;
	640 :	1111111111101001;
	639 :	0000000000001010;
	638 :	0000000000001000;
	637 :	0000000000000001;
	636 :	0000000000001101;
	635 :	0000000000001000;
	634 :	1111111111110110;
	633 :	1111111111111111;
	632 :	1111111111111011;
	631 :	1111111111111110;
	630 :	1111111111111100;
	629 :	1111111111111010;
	628 :	0000000000000101;
	627 :	0000000000000011;
	626 :	1111111111110110;
	625 :	1111111111110101;
	624 :	0000000000000111;
	623 :	1111111111011111;
	622 :	1111111111111001;
	621 :	1111111111101110;
	620 :	1111111111101101;
	619 :	1111111111100010;
	618 :	1111111111101001;
	617 :	0000000000000011;
	616 :	1111111111111100;
	615 :	0000000000010001;
	614 :	1111111111011111;
	613 :	1111111111100100;
	612 :	1111111111110011;
	611 :	1111111111110010;
	610 :	1111111111111110;
	609 :	0000000000000010;
	608 :	1111111111101101;
	607 :	0000000000000010;
	606 :	1111111111111010;
	605 :	1111111111110101;
	604 :	1111111111111111;
	603 :	1111111111110001;
	602 :	1111111111110101;
	601 :	1111111111110110;
	600 :	1111111111111110;
	599 :	1111111111110010;
	598 :	0000000000001000;
	597 :	1111111111110101;
	596 :	1111111111111101;
	595 :	1111111111011001;
	594 :	1111111111101100;
	593 :	1111111111101100;
	592 :	1111111111110011;
	591 :	1111111111100111;
	590 :	1111111111101111;
	589 :	1111111111101110;
	588 :	1111111111111001;
	587 :	1111111111110100;
	586 :	0000000000001011;
	585 :	1111111111101011;
	584 :	1111111111111011;
	583 :	1111111111110111;
	582 :	1111111111100010;
	581 :	1111111111110011;
	580 :	0000000000000010;
	579 :	1111111111101110;
	578 :	0000000000000010;
	577 :	0000000000001001;
	576 :	1111111111111110;
	575 :	1111111111111000;
	574 :	0000000000000101;
	573 :	1111111111111011;
	572 :	1111111111101100;
	571 :	1111111111111101;
	570 :	1111111111011111;
	569 :	1111111111100100;
	568 :	1111111111111001;
	567 :	1111111111110000;
	566 :	1111111111011011;
	565 :	1111111111011101;
	564 :	1111111111110111;
	563 :	1111111111111111;
	562 :	1111111111111001;
	561 :	0000000000010111;
	560 :	0000000000001010;
	559 :	1111111111111001;
	558 :	1111111111110011;
	557 :	1111111111010100;
	556 :	1111111111101111;
	555 :	1111111111001100;
	554 :	1111111111011111;
	553 :	1111111111101100;
	552 :	1111111111011100;
	551 :	0000000000000100;
	550 :	1111111111110100;
	549 :	1111111111110110;
	548 :	1111111111110100;
	547 :	0000000000000011;
	546 :	0000000000000001;
	545 :	1111111111101100;
	544 :	1111111111011111;
	543 :	1111111111101101;
	542 :	1111111111100110;
	541 :	1111111111110010;
	540 :	1111111111100101;
	539 :	1111111111100101;
	538 :	0000000000000010;
	537 :	0000000000001110;
	536 :	1111111111110111;
	535 :	0000000000011011;
	534 :	0000000000000000;
	533 :	1111111111110010;
	532 :	1111111111110100;
	531 :	0000000000011101;
	530 :	1111111111111010;
	529 :	1111111111111100;
	528 :	1111111111111001;
	527 :	1111111111100110;
	526 :	1111111111100100;
	525 :	0000000000001000;
	524 :	0000000000001111;
	523 :	1111111111101100;
	522 :	1111111111111111;
	521 :	1111111111111101;
	520 :	0000000000001011;
	519 :	0000000000000001;
	518 :	0000000000000111;
	517 :	0000000000000100;
	516 :	1111111111111000;
	515 :	1111111111110001;
	514 :	1111111111111010;
	513 :	1111111111110011;
	512 :	0000000000000011;
	511 :	0000000000000010;
	510 :	0000000000001001;
	509 :	0000000000000001;
	508 :	1111111111110101;
	507 :	1111111111111011;
	506 :	0000000000100000;
	505 :	1111111111101110;
	504 :	0000000000000110;
	503 :	1111111111010100;
	502 :	1111111111101011;
	501 :	1111111111110010;
	500 :	1111111111101100;
	499 :	0000000000001001;
	498 :	1111111111111111;
	497 :	0000000000000010;
	496 :	0000000000000100;
	495 :	1111111111111010;
	494 :	1111111111111101;
	493 :	0000000000000001;
	492 :	0000000000001010;
	491 :	0000000000001110;
	490 :	0000000000001101;
	489 :	0000000000000100;
	488 :	1111111111111000;
	487 :	1111111111111111;
	486 :	0000000000000101;
	485 :	1111111111110101;
	484 :	0000000000000011;
	483 :	1111111111111100;
	482 :	0000000000000110;
	481 :	1111111111110101;
	480 :	0000000000000011;
	479 :	1111111111110001;
	478 :	1111111111111000;
	477 :	0000000000000001;
	476 :	0000000000001100;
	475 :	1111111111010111;
	474 :	1111111111011001;
	473 :	1111111111100010;
	472 :	1111111111100011;
	471 :	0000000000000110;
	470 :	0000000000001101;
	469 :	0000000000001110;
	468 :	0000000000010001;
	467 :	0000000000000011;
	466 :	0000000000000000;
	465 :	0000000000011011;
	464 :	0000000000010001;
	463 :	0000000000011101;
	462 :	1111111111111011;
	461 :	0000000000001010;
	460 :	0000000000000110;
	459 :	1111111111110111;
	458 :	0000000000000000;
	457 :	0000000000000011;
	456 :	0000000000001100;
	455 :	0000000000000101;
	454 :	1111111111111111;
	453 :	1111111111111001;
	452 :	1111111111011110;
	451 :	1111111111111000;
	450 :	1111111111101110;
	449 :	0000000000010010;
	448 :	1111111111111010;
	447 :	1111111111110001;
	446 :	0000000000001000;
	445 :	1111111111110000;
	444 :	1111111111001111;
	443 :	0000000000010100;
	442 :	0000000000010011;
	441 :	1111111111110100;
	440 :	1111111111111110;
	439 :	1111111111111110;
	438 :	1111111111111100;
	437 :	0000000000010011;
	436 :	0000000000001110;
	435 :	0000000000000000;
	434 :	1111111111110001;
	433 :	1111111111111110;
	432 :	0000000000000001;
	431 :	0000000000010011;
	430 :	0000000000001100;
	429 :	0000000000000011;
	428 :	0000000000001011;
	427 :	1111111111111011;
	426 :	0000000000010011;
	425 :	0000000000000011;
	424 :	0000000000001101;
	423 :	0000000000011000;
	422 :	0000000000010101;
	421 :	0000000000100110;
	420 :	1111111111100110;
	419 :	1111111111010100;
	418 :	1111111111011010;
	417 :	1111111111100110;
	416 :	1111111111011111;
	415 :	1111111111110110;
	414 :	0000000000000011;
	413 :	1111111111111011;
	412 :	0000000000001000;
	411 :	0000000000000110;
	410 :	0000000000010100;
	409 :	0000000000001011;
	408 :	0000000000001100;
	407 :	0000000000000110;
	406 :	0000000000001001;
	405 :	1111111111111111;
	404 :	0000000000001010;
	403 :	1111111111111101;
	402 :	0000000000010101;
	401 :	0000000000001001;
	400 :	0000000000001010;
	399 :	0000000000001110;
	398 :	1111111111111100;
	397 :	0000000000010100;
	396 :	0000000000011011;
	395 :	0000000000001111;
	394 :	1111111111110010;
	393 :	0000000000001101;
	392 :	1111111111010110;
	391 :	1111111111110000;
	390 :	1111111111101010;
	389 :	1111111111101010;
	388 :	1111111111011100;
	387 :	1111111111011100;
	386 :	1111111111111011;
	385 :	0000000000000011;
	384 :	0000000000010011;
	383 :	1111111111111100;
	382 :	0000000000000110;
	381 :	0000000000001001;
	380 :	0000000000001100;
	379 :	0000000000000001;
	378 :	1111111111111001;
	377 :	1111111111111101;
	376 :	0000000000001111;
	375 :	0000000000010111;
	374 :	0000000000000101;
	373 :	0000000000010010;
	372 :	0000000000000110;
	371 :	0000000000001100;
	370 :	0000000000001111;
	369 :	1111111111111011;
	368 :	0000000000011011;
	367 :	1111111111110001;
	366 :	1111111111110111;
	365 :	1111111111110110;
	364 :	0000000000010101;
	363 :	0000000000001011;
	362 :	1111111111100100;
	361 :	0000000000001101;
	360 :	1111111111101000;
	359 :	1111111111110100;
	358 :	0000000000000001;
	357 :	0000000000000010;
	356 :	1111111111110111;
	355 :	0000000000000100;
	354 :	0000000000000000;
	353 :	0000000000000110;
	352 :	0000000000001111;
	351 :	0000000000010000;
	350 :	1111111111111001;
	349 :	1111111111110100;
	348 :	0000000000000011;
	347 :	0000000000010101;
	346 :	0000000000010011;
	345 :	0000000000000011;
	344 :	0000000000010001;
	343 :	0000000000001011;
	342 :	1111111111111110;
	341 :	1111111111110111;
	340 :	1111111111100010;
	339 :	1111111111110001;
	338 :	0000000000000010;
	337 :	0000000000000101;
	336 :	0000000000001100;
	335 :	0000000000011010;
	334 :	1111111111110111;
	333 :	1111111111101010;
	332 :	1111111111011011;
	331 :	1111111111011011;
	330 :	0000000000000001;
	329 :	1111111111110111;
	328 :	1111111111111100;
	327 :	1111111111111001;
	326 :	0000000000011010;
	325 :	0000000000000111;
	324 :	0000000000000000;
	323 :	0000000000001110;
	322 :	1111111111100101;
	321 :	1111111111110010;
	320 :	0000000000010101;
	319 :	0000000000001001;
	318 :	0000000000001000;
	317 :	0000000000001111;
	316 :	0000000000001010;
	315 :	0000000000001101;
	314 :	0000000000000111;
	313 :	0000000000001000;
	312 :	1111111111111001;
	311 :	0000000000001111;
	310 :	1111111111110011;
	309 :	1111111111101101;
	308 :	0000000000010001;
	307 :	0000000000010100;
	306 :	1111111111010011;
	305 :	0000000000100001;
	304 :	0000000000001101;
	303 :	1111111111110000;
	302 :	1111111111111000;
	301 :	1111111111111110;
	300 :	0000000000000001;
	299 :	1111111111110100;
	298 :	1111111111110101;
	297 :	0000000000001011;
	296 :	0000000000000000;
	295 :	1111111111111100;
	294 :	1111111111101111;
	293 :	1111111111100110;
	292 :	0000000000010101;
	291 :	0000000000001000;
	290 :	0000000000010001;
	289 :	0000000000000010;
	288 :	1111111111111101;
	287 :	1111111111110111;
	286 :	1111111111111011;
	285 :	1111111111111000;
	284 :	1111111111111111;
	283 :	1111111111111001;
	282 :	1111111111101110;
	281 :	0000000000001001;
	280 :	0000000000000001;
	279 :	1111111111100101;
	278 :	0000000000010111;
	277 :	0000000000000000;
	276 :	1111111111111111;
	275 :	0000000000010111;
	274 :	1111111111111110;
	273 :	0000000000001000;
	272 :	0000000000000011;
	271 :	0000000000000101;
	270 :	0000000000000010;
	269 :	0000000000001000;
	268 :	1111111111111001;
	267 :	1111111111111111;
	266 :	1111111111100100;
	265 :	0000000000000100;
	264 :	1111111111110110;
	263 :	0000000000000101;
	262 :	0000000000000110;
	261 :	0000000000001100;
	260 :	0000000000001001;
	259 :	0000000000000001;
	258 :	0000000000001111;
	257 :	0000000000010110;
	256 :	1111111111111000;
	255 :	1111111111101010;
	254 :	0000000000001101;
	253 :	0000000000000100;
	252 :	0000000000000111;
	251 :	1111111111100101;
	250 :	0000000000100010;
	249 :	0000000000101100;
	248 :	0000000000101101;
	247 :	1111111111111101;
	246 :	0000000000001010;
	245 :	1111111111111110;
	244 :	1111111111110011;
	243 :	0000000000001010;
	242 :	0000000000000100;
	241 :	1111111111111010;
	240 :	1111111111110000;
	239 :	1111111111111100;
	238 :	1111111111110100;
	237 :	1111111111111100;
	236 :	0000000000000001;
	235 :	0000000000000001;
	234 :	1111111111111111;
	233 :	1111111111111110;
	232 :	0000000000000111;
	231 :	0000000000001000;
	230 :	0000000000000011;
	229 :	0000000000000101;
	228 :	0000000000000111;
	227 :	0000000000001100;
	226 :	0000000000000111;
	225 :	1111111111110101;
	224 :	1111111111010101;
	223 :	1111111111110000;
	222 :	0000000000010100;
	221 :	0000000000010011;
	220 :	0000000000001100;
	219 :	0000000000011001;
	218 :	0000000000000111;
	217 :	0000000000001010;
	216 :	0000000000000011;
	215 :	0000000000000100;
	214 :	1111111111111100;
	213 :	1111111111111110;
	212 :	0000000000000001;
	211 :	1111111111110011;
	210 :	1111111111111100;
	209 :	1111111111111010;
	208 :	1111111111111000;
	207 :	1111111111110111;
	206 :	0000000000000100;
	205 :	0000000000001010;
	204 :	1111111111111000;
	203 :	0000000000001001;
	202 :	0000000000000000;
	201 :	1111111111111111;
	200 :	1111111111101101;
	199 :	0000000000011111;
	198 :	0000000000000110;
	197 :	0000000000000001;
	196 :	1111111111111100;
	195 :	1111111111010100;
	194 :	0000000000010111;
	193 :	0000000000000111;
	192 :	0000000000000010;
	191 :	0000000000000110;
	190 :	0000000000001001;
	189 :	0000000000000010;
	188 :	0000000000000001;
	187 :	0000000000000000;
	186 :	1111111111110101;
	185 :	0000000000001001;
	184 :	1111111111110010;
	183 :	1111111111101111;
	182 :	1111111111110111;
	181 :	0000000000000101;
	180 :	1111111111110000;
	179 :	0000000000000000;
	178 :	1111111111111000;
	177 :	0000000000010010;
	176 :	1111111111111111;
	175 :	1111111111111010;
	174 :	1111111111110110;
	173 :	0000000000000101;
	172 :	0000000000000100;
	171 :	1111111111101100;
	170 :	1111111111110110;
	169 :	1111111111101100;
	168 :	0000000000000011;
	167 :	1111111111100011;
	166 :	1111111111110000;
	165 :	0000000000010010;
	164 :	0000000000010011;
	163 :	0000000000011010;
	162 :	1111111111111011;
	161 :	0000000000001110;
	160 :	1111111111111100;
	159 :	1111111111111001;
	158 :	0000000000000111;
	157 :	1111111111110011;
	156 :	1111111111111001;
	155 :	0000000000000110;
	154 :	1111111111110011;
	153 :	1111111111111100;
	152 :	0000000000010010;
	151 :	1111111111111101;
	150 :	1111111111111011;
	149 :	1111111111101001;
	148 :	0000000000010000;
	147 :	1111111111110000;
	146 :	0000000000000000;
	145 :	0000000000010010;
	144 :	0000000000001011;
	143 :	0000000000001110;
	142 :	0000000000001011;
	141 :	1111111111110100;
	140 :	1111111111101010;
	139 :	1111111111110111;
	138 :	0000000000011001;
	137 :	1111111111110110;
	136 :	0000000000101001;
	135 :	0000000000010011;
	134 :	0000000000010100;
	133 :	0000000000010100;
	132 :	0000000000001111;
	131 :	0000000000001011;
	130 :	0000000000000001;
	129 :	0000000000000100;
	128 :	1111111111111000;
	127 :	1111111111110000;
	126 :	1111111111011111;
	125 :	1111111111101000;
	124 :	1111111111100010;
	123 :	1111111111111100;
	122 :	1111111111010111;
	121 :	1111111111100010;
	120 :	1111111111101111;
	119 :	1111111111110001;
	118 :	1111111111100111;
	117 :	0000000000101110;
	116 :	0000000000001011;
	115 :	0000000000011000;
	114 :	1111111111110111;
	113 :	1111111111111000;
	112 :	0000000000001001;
	111 :	1111111111110110;
	110 :	1111111111100111;
	109 :	1111111111011101;
	108 :	1111111111111000;
	107 :	1111111111100011;
	106 :	0000000000010001;
	105 :	0000000000000111;
	104 :	1111111111110010;
	103 :	0000000000001001;
	102 :	1111111111110110;
	101 :	0000000000000110;
	100 :	1111111111100101;
	99 :	1111111111010001;
	98 :	1111111111011000;
	97 :	1111111110101000;
	96 :	1111111111000011;
	95 :	1111111111010101;
	94 :	1111111111010110;
	93 :	1111111111010110;
	92 :	1111111110111110;
	91 :	1111111111001010;
	90 :	1111111111100111;
	89 :	1111111111101001;
	88 :	0000000000000001;
	87 :	1111111111001011;
	86 :	0000000000000111;
	85 :	1111111111111100;
	84 :	1111111111110101;
	83 :	1111111111101111;
	82 :	1111111111101111;
	81 :	1111111111100011;
	80 :	0000000000000011;
	79 :	1111111111010111;
	78 :	1111111111100000;
	77 :	1111111111111101;
	76 :	1111111111100000;
	75 :	0000000000000010;
	74 :	1111111111111000;
	73 :	1111111111101100;
	72 :	0000000000000011;
	71 :	0000000000010010;
	70 :	1111111111110100;
	69 :	1111111111011000;
	68 :	1111111111010111;
	67 :	1111111111100001;
	66 :	1111111111010011;
	65 :	1111111111010011;
	64 :	1111111111111000;
	63 :	1111111111011111;
	62 :	1111111111011101;
	61 :	0000000000001100;
	60 :	1111111111000000;
	59 :	1111111111010111;
	58 :	0000000000000101;
	57 :	0000000000010000;
	56 :	0000000000001011;
	55 :	0000000000000110;
	54 :	1111111111110010;
	53 :	1111111111101010;
	52 :	1111111111110010;
	51 :	1111111111001000;
	50 :	1111111111110111;
	49 :	1111111111100010;
	48 :	1111111111001010;
	47 :	1111111111101111;
	46 :	1111111111110101;
	45 :	1111111111011100;
	44 :	1111111111100011;
	43 :	1111111111111101;
	42 :	0000000000100001;
	41 :	1111111111111111;
	40 :	1111111111011011;
	39 :	1111111111111111;
	38 :	0000000000000001;
	37 :	1111111111101110;
	36 :	1111111111110100;
	35 :	1111111111100010;
	34 :	1111111111011110;
	33 :	1111111111110101;
	32 :	1111111111110011;
	31 :	1111111111110001;
	30 :	1111111111111101;
	29 :	1111111111110111;
	28 :	1111111111110010;
	27 :	0000000000010001;
	26 :	1111111111110111;
	25 :	0000000000001111;
	24 :	1111111111101011;
	23 :	1111111111111000;
	22 :	0000000000010101;
	21 :	1111111111110100;
	20 :	1111111111111101;
	19 :	1111111111111000;
	18 :	0000000000001100;
	17 :	1111111111111000;
	16 :	1111111111111010;
	15 :	0000000000001011;
	14 :	1111111111110111;
	13 :	1111111111110001;
	12 :	1111111111100100;
	11 :	0000000000000100;
	10 :	0000000000010000;
	9 :	0000000000000000;
	8 :	0000000000000110;
	7 :	0000000000001000;
	6 :	1111111111110001;
	5 :	0000000000001110;
	4 :	0000000000010011;
	3 :	1111111111110011;
	2 :	1111111111101011;
	1 :	1111111111111001;
	0 :	0000000000010001;
END;
