-- begin_signature
-- weights(numWeights
-- 16
-- neuronNumber
-- 0
-- layerNumber
-- 1
-- addressWidth
-- 4
-- dataWidth
-- 16
-- weightFile
-- "weights/weight_L1_N0.mif")
-- end_signature
WIDTH=16;
DEPTH=16;

ADDRESS_RADIX=UNS;
DATA_RADIX=BIN;

CONTENT BEGIN
	15 :	0000000000010101;
	14 :	0000000000011010;
	13 :	0000000000011110;
	12 :	1111111111100111;
	11 :	0000000001110101;
	10 :	0000000001101000;
	9 :	0000000000001101;
	8 :	0000000001011110;
	7 :	1111111111110011;
	6 :	0000000000011111;
	5 :	0000000000010010;
	4 :	0000000000010111;
	3 :	0000000001010011;
	2 :	0000000000100001;
	1 :	1111111111100100;
	0 :	1111111111100000;
END;
