-- begin_signature
-- weights(numWeights
-- 16
-- neuronNumber
-- 0
-- layerNumber
-- 1
-- addressWidth
-- 4
-- dataWidth
-- 16
-- weightFile
-- "weights/weight_L1_N0.mif")
-- end_signature
WIDTH=16;
DEPTH=16;

ADDRESS_RADIX=UNS;
DATA_RADIX=BIN;

CONTENT BEGIN
	15 :	1111111111011101;
	14 :	0000000000001000;
	13 :	0000000000001001;
	12 :	1111111110011101;
	11 :	1111111111011110;
	10 :	1111111111101111;
	9 :	0000000000100000;
	8 :	0000000000100001;
	7 :	0000000000111001;
	6 :	0000000000110011;
	5 :	1111111111010111;
	4 :	0000000000101101;
	3 :	0000000000101011;
	2 :	0000000000110101;
	1 :	1111111111100100;
	0 :	1111111111010101;
END;
