-- begin_signature
-- weights(numWeights
-- 16
-- neuronNumber
-- 9
-- layerNumber
-- 1
-- addressWidth
-- 4
-- dataWidth
-- 16
-- weightFile
-- "weights/weight_L1_N9.mif")
-- end_signature
WIDTH=16;
DEPTH=16;

ADDRESS_RADIX=UNS;
DATA_RADIX=BIN;

CONTENT BEGIN
	15 :	0000000000010110;
	14 :	0000000000011011;
	13 :	0000000001110001;
	12 :	1111111110110010;
	11 :	1111111111111010;
	10 :	1111111110111101;
	9 :	0000000001000101;
	8 :	1111111111010001;
	7 :	0000000000111110;
	6 :	1111111111101100;
	5 :	1111111111101000;
	4 :	1111111111111011;
	3 :	0000000000011101;
	2 :	1111111111110110;
	1 :	0000000000000101;
	0 :	0000000000011010;
END;
