-- begin_signature
-- weights(numWeights
-- 16
-- neuronNumber
-- 5
-- layerNumber
-- 1
-- addressWidth
-- 4
-- dataWidth
-- 16
-- weightFile
-- "weights/weight_L1_N5.mif")
-- end_signature
WIDTH=16;
DEPTH=16;

ADDRESS_RADIX=UNS;
DATA_RADIX=BIN;

CONTENT BEGIN
	15 :	0000000000010001;
	14 :	0000000000010010;
	13 :	1111111111111010;
	12 :	0000000001100101;
	11 :	1111111111101010;
	10 :	0000000000010110;
	9 :	0000000001000101;
	8 :	0000000000100010;
	7 :	1111111111011101;
	6 :	1111111110101010;
	5 :	1111111111101000;
	4 :	1111111111101100;
	3 :	0000000000111011;
	2 :	0000000000010100;
	1 :	0000000001001000;
	0 :	1111111111001100;
END;
