-- begin_signature
-- weights(numWeights
-- 784
-- neuronNumber
-- 5
-- layerNumber
-- 0
-- addressWidth
-- 10
-- dataWidth
-- 16
-- weightFile
-- "weights/weight_L0_N5.mif")
-- end_signature
WIDTH=16;
DEPTH=784;

ADDRESS_RADIX=UNS;
DATA_RADIX=BIN;

CONTENT BEGIN
	783 :	0000000000001110;
	782 :	0000000000010011;
	781 :	1111111111110010;
	780 :	1111111111110110;
	779 :	0000000000000100;
	778 :	1111111111110101;
	777 :	0000000000011011;
	776 :	0000000000011001;
	775 :	0000000001000010;
	774 :	0000000000010001;
	773 :	0000000000111101;
	772 :	0000000000100110;
	771 :	0000000000010000;
	770 :	0000000000110110;
	769 :	0000000000100101;
	768 :	1111111111110010;
	767 :	0000000000010110;
	766 :	0000000000011110;
	765 :	0000000000000001;
	764 :	0000000000011001;
	763 :	1111111111110001;
	762 :	0000000000001001;
	761 :	0000000000001011;
	760 :	0000000000010010;
	759 :	0000000000001110;
	758 :	1111111111111110;
	757 :	1111111111110111;
	756 :	1111111111111111;
	755 :	1111111111101011;
	754 :	0000000000000101;
	753 :	0000000000001111;
	752 :	1111111111010010;
	751 :	0000000000010101;
	750 :	0000000000000000;
	749 :	0000000000000100;
	748 :	0000000000010010;
	747 :	0000000000111101;
	746 :	0000000000011110;
	745 :	0000000000100011;
	744 :	0000000000100011;
	743 :	0000000000001101;
	742 :	0000000000001110;
	741 :	0000000000011001;
	740 :	0000000000000011;
	739 :	0000000000000011;
	738 :	0000000000010001;
	737 :	0000000000001100;
	736 :	0000000000011001;
	735 :	0000000000010000;
	734 :	1111111111101011;
	733 :	1111111111101110;
	732 :	1111111111011110;
	731 :	1111111111110111;
	730 :	1111111111111101;
	729 :	1111111111110001;
	728 :	1111111111111100;
	727 :	1111111111110011;
	726 :	1111111111101101;
	725 :	1111111111100010;
	724 :	0000000000010111;
	723 :	1111111111111001;
	722 :	1111111111111001;
	721 :	1111111111111000;
	720 :	1111111111111101;
	719 :	1111111111111011;
	718 :	0000000000001001;
	717 :	1111111111111001;
	716 :	0000000000001010;
	715 :	0000000000001110;
	714 :	1111111111111110;
	713 :	0000000000000111;
	712 :	0000000000001101;
	711 :	0000000000010110;
	710 :	1111111111111010;
	709 :	0000000000001100;
	708 :	0000000000010110;
	707 :	0000000000010100;
	706 :	0000000000000111;
	705 :	1111111111101110;
	704 :	0000000000001100;
	703 :	0000000000010111;
	702 :	1111111111101010;
	701 :	0000000000000000;
	700 :	0000000000000001;
	699 :	1111111111110011;
	698 :	1111111111101101;
	697 :	1111111111111010;
	696 :	1111111111110101;
	695 :	1111111111010000;
	694 :	1111111111100011;
	693 :	1111111111100000;
	692 :	1111111111111010;
	691 :	1111111111110100;
	690 :	1111111111111010;
	689 :	0000000000001011;
	688 :	1111111111111111;
	687 :	0000000000000000;
	686 :	1111111111111101;
	685 :	1111111111110100;
	684 :	1111111111101111;
	683 :	1111111111111000;
	682 :	0000000000000000;
	681 :	1111111111111100;
	680 :	0000000000000111;
	679 :	0000000000001001;
	678 :	0000000000011110;
	677 :	0000000000111011;
	676 :	0000000000100111;
	675 :	0000000000001011;
	674 :	0000000000001111;
	673 :	0000000000001101;
	672 :	1111111111101111;
	671 :	1111111111111000;
	670 :	1111111111110011;
	669 :	1111111111110110;
	668 :	1111111111101010;
	667 :	1111111111101101;
	666 :	1111111111100000;
	665 :	1111111111110100;
	664 :	1111111111111000;
	663 :	1111111111100010;
	662 :	1111111111110100;
	661 :	1111111111111010;
	660 :	1111111111111101;
	659 :	0000000000001001;
	658 :	0000000000001011;
	657 :	0000000000000001;
	656 :	1111111111111111;
	655 :	1111111111111110;
	654 :	1111111111111010;
	653 :	1111111111101000;
	652 :	1111111111111111;
	651 :	0000000000011000;
	650 :	0000000000001100;
	649 :	0000000000010110;
	648 :	0000000000000010;
	647 :	1111111111011110;
	646 :	1111111111101011;
	645 :	0000000000000011;
	644 :	1111111111101011;
	643 :	0000000000010010;
	642 :	1111111111111001;
	641 :	1111111111101000;
	640 :	0000000000001101;
	639 :	1111111111111001;
	638 :	1111111111100100;
	637 :	1111111111101100;
	636 :	1111111111101001;
	635 :	1111111111110110;
	634 :	1111111111101101;
	633 :	1111111111111111;
	632 :	1111111111110111;
	631 :	0000000000001000;
	630 :	0000000000000100;
	629 :	1111111111110100;
	628 :	0000000000000000;
	627 :	1111111111100100;
	626 :	0000000000001001;
	625 :	0000000000001011;
	624 :	1111111111101111;
	623 :	0000000000000111;
	622 :	0000000000000000;
	621 :	1111111111110110;
	620 :	1111111111011010;
	619 :	1111111111000010;
	618 :	1111111111110111;
	617 :	0000000000010100;
	616 :	0000000000011000;
	615 :	1111111111111110;
	614 :	1111111111101010;
	613 :	0000000000001110;
	612 :	0000000000100101;
	611 :	1111111111011101;
	610 :	1111111111011010;
	609 :	1111111111110010;
	608 :	1111111111100110;
	607 :	1111111111111111;
	606 :	1111111111101111;
	605 :	1111111111110011;
	604 :	1111111111111010;
	603 :	0000000000000010;
	602 :	1111111111111101;
	601 :	0000000000001111;
	600 :	0000000000000010;
	599 :	0000000000001101;
	598 :	1111111111110111;
	597 :	1111111111101100;
	596 :	1111111111111100;
	595 :	1111111111101101;
	594 :	1111111111011010;
	593 :	1111111111010011;
	592 :	1111111111101010;
	591 :	1111111111101100;
	590 :	1111111111101001;
	589 :	0000000000001101;
	588 :	0000000000000010;
	587 :	1111111111101110;
	586 :	0000000000001011;
	585 :	1111111111110101;
	584 :	1111111111111100;
	583 :	1111111111100010;
	582 :	1111111111100100;
	581 :	1111111111101010;
	580 :	1111111111101001;
	579 :	1111111111110101;
	578 :	1111111111010111;
	577 :	1111111111110100;
	576 :	1111111111110010;
	575 :	1111111111101101;
	574 :	1111111111110010;
	573 :	1111111111111011;
	572 :	0000000000000101;
	571 :	1111111111111100;
	570 :	1111111111110111;
	569 :	1111111111110011;
	568 :	1111111111111011;
	567 :	1111111111110110;
	566 :	1111111111011110;
	565 :	1111111111110011;
	564 :	1111111111100011;
	563 :	0000000000000101;
	562 :	0000000000100101;
	561 :	0000000000000001;
	560 :	1111111111110000;
	559 :	0000000000010001;
	558 :	0000000000001000;
	557 :	1111111111111010;
	556 :	1111111111101011;
	555 :	0000000000011011;
	554 :	1111111111100110;
	553 :	1111111111011101;
	552 :	1111111111110110;
	551 :	1111111111110111;
	550 :	1111111111110110;
	549 :	1111111111111111;
	548 :	1111111111110010;
	547 :	0000000000000001;
	546 :	0000000000001001;
	545 :	0000000000001000;
	544 :	0000000000000001;
	543 :	1111111111110110;
	542 :	1111111111101010;
	541 :	1111111111110000;
	540 :	1111111111111000;
	539 :	1111111111100011;
	538 :	1111111111011101;
	537 :	1111111111101011;
	536 :	0000000000011110;
	535 :	1111111111111010;
	534 :	0000000000101111;
	533 :	0000000000000110;
	532 :	1111111111110100;
	531 :	1111111111110111;
	530 :	1111111111011011;
	529 :	1111111111111000;
	528 :	1111111111111010;
	527 :	1111111111100011;
	526 :	1111111111110110;
	525 :	0000000000000011;
	524 :	1111111111111010;
	523 :	1111111111111111;
	522 :	1111111111111100;
	521 :	1111111111110111;
	520 :	0000000000000001;
	519 :	1111111111110101;
	518 :	0000000000001100;
	517 :	0000000000000101;
	516 :	1111111111110111;
	515 :	1111111111110100;
	514 :	1111111111101010;
	513 :	1111111111101001;
	512 :	1111111111101110;
	511 :	1111111111110101;
	510 :	1111111111110101;
	509 :	1111111111110000;
	508 :	0000000000000010;
	507 :	0000000000001111;
	506 :	0000000000100111;
	505 :	1111111111111011;
	504 :	0000000000100100;
	503 :	1111111111001011;
	502 :	0000000000000000;
	501 :	0000000000011001;
	500 :	0000000000100010;
	499 :	0000000000001111;
	498 :	1111111111110100;
	497 :	1111111111110010;
	496 :	0000000000000000;
	495 :	0000000000000110;
	494 :	0000000000001000;
	493 :	0000000000000101;
	492 :	0000000000000111;
	491 :	0000000000000111;
	490 :	0000000000001011;
	489 :	1111111111111000;
	488 :	1111111111111100;
	487 :	1111111111111001;
	486 :	1111111111111000;
	485 :	1111111111111010;
	484 :	1111111111110101;
	483 :	1111111111101111;
	482 :	0000000000000000;
	481 :	1111111111110001;
	480 :	1111111111111111;
	479 :	1111111111110010;
	478 :	0000000000110011;
	477 :	0000000000000100;
	476 :	0000000000001011;
	475 :	1111111111001001;
	474 :	0000000000000011;
	473 :	1111111111001001;
	472 :	1111111111111111;
	471 :	1111111111111010;
	470 :	1111111111110111;
	469 :	0000000000010010;
	468 :	0000000000000100;
	467 :	1111111111110101;
	466 :	0000000000010010;
	465 :	0000000000000101;
	464 :	1111111111110011;
	463 :	0000000000010001;
	462 :	0000000000010000;
	461 :	1111111111111010;
	460 :	1111111111110101;
	459 :	1111111111100000;
	458 :	1111111111111000;
	457 :	1111111111101100;
	456 :	1111111111111011;
	455 :	1111111111111001;
	454 :	1111111111111010;
	453 :	1111111111110101;
	452 :	1111111111111111;
	451 :	0000000000010001;
	450 :	1111111111101010;
	449 :	0000000000000110;
	448 :	0000000000001100;
	447 :	0000000000000000;
	446 :	1111111111110010;
	445 :	1111111111100111;
	444 :	1111111111111100;
	443 :	0000000000000010;
	442 :	0000000000001110;
	441 :	0000000000011000;
	440 :	0000000000000101;
	439 :	0000000000010000;
	438 :	0000000000000111;
	437 :	0000000000001010;
	436 :	1111111111111000;
	435 :	0000000000000101;
	434 :	0000000000000010;
	433 :	1111111111110110;
	432 :	1111111111110111;
	431 :	1111111111111111;
	430 :	1111111111110010;
	429 :	1111111111111000;
	428 :	1111111111010101;
	427 :	1111111111110111;
	426 :	1111111111111101;
	425 :	1111111111110001;
	424 :	1111111111100100;
	423 :	0000000000000101;
	422 :	0000000000100101;
	421 :	1111111111101100;
	420 :	1111111111111010;
	419 :	1111111111101011;
	418 :	1111111111110011;
	417 :	0000000000010101;
	416 :	1111111111101111;
	415 :	0000000000101000;
	414 :	0000000000001010;
	413 :	0000000000000001;
	412 :	1111111111111101;
	411 :	0000000000011000;
	410 :	1111111111111010;
	409 :	0000000000010011;
	408 :	0000000000001000;
	407 :	0000000000000100;
	406 :	0000000000000110;
	405 :	1111111111101011;
	404 :	1111111111100000;
	403 :	1111111111101110;
	402 :	1111111111111100;
	401 :	1111111111110010;
	400 :	1111111111110101;
	399 :	1111111111110011;
	398 :	1111111111100111;
	397 :	1111111111110001;
	396 :	1111111111110000;
	395 :	0000000000010110;
	394 :	0000000000100000;
	393 :	0000000000110001;
	392 :	1111111111110110;
	391 :	1111111111111110;
	390 :	0000000000000111;
	389 :	1111111111100011;
	388 :	1111111111011001;
	387 :	1111111111101011;
	386 :	0000000000000000;
	385 :	1111111111101100;
	384 :	1111111111101110;
	383 :	1111111111110101;
	382 :	1111111111110111;
	381 :	0000000000000000;
	380 :	0000000000001101;
	379 :	0000000000001000;
	378 :	0000000000000100;
	377 :	1111111111101001;
	376 :	1111111111011010;
	375 :	1111111111101101;
	374 :	1111111111111010;
	373 :	1111111111110000;
	372 :	1111111111111111;
	371 :	0000000000000000;
	370 :	0000000000000000;
	369 :	0000000000011000;
	368 :	0000000000000000;
	367 :	0000000000010001;
	366 :	0000000000001111;
	365 :	0000000001001010;
	364 :	0000000000010000;
	363 :	0000000000010101;
	362 :	1111111111110010;
	361 :	1111111111110111;
	360 :	1111111111010101;
	359 :	1111111111111110;
	358 :	1111111111110001;
	357 :	1111111111110010;
	356 :	0000000000000010;
	355 :	1111111111100101;
	354 :	0000000000001001;
	353 :	0000000000000001;
	352 :	0000000000010011;
	351 :	1111111111111011;
	350 :	1111111111111011;
	349 :	1111111111101010;
	348 :	1111111111100100;
	347 :	0000000000000101;
	346 :	1111111111110001;
	345 :	0000000000000000;
	344 :	1111111111111110;
	343 :	0000000000000101;
	342 :	1111111111111101;
	341 :	0000000000000110;
	340 :	0000000000100110;
	339 :	0000000000010111;
	338 :	0000000000001001;
	337 :	0000000000110000;
	336 :	0000000000011100;
	335 :	0000000000010110;
	334 :	1111111111111101;
	333 :	0000000000001100;
	332 :	1111111111111001;
	331 :	1111111111111001;
	330 :	0000000000000001;
	329 :	1111111111101000;
	328 :	1111111111111111;
	327 :	0000000000001101;
	326 :	0000000000010000;
	325 :	0000000000010100;
	324 :	1111111111111110;
	323 :	0000000000010110;
	322 :	0000000000011100;
	321 :	0000000000001010;
	320 :	0000000000000110;
	319 :	0000000000000110;
	318 :	0000000000001100;
	317 :	1111111111111011;
	316 :	0000000000001110;
	315 :	0000000000010101;
	314 :	1111111111110111;
	313 :	0000000000010000;
	312 :	0000000000101000;
	311 :	0000000000010101;
	310 :	0000000000110011;
	309 :	0000000000101111;
	308 :	0000000000001100;
	307 :	1111111111111101;
	306 :	1111111111011111;
	305 :	0000000000000001;
	304 :	1111111111110100;
	303 :	0000000000001001;
	302 :	1111111111111011;
	301 :	0000000000010110;
	300 :	0000000000000100;
	299 :	1111111111111000;
	298 :	0000000000001001;
	297 :	1111111111111110;
	296 :	0000000000001011;
	295 :	0000000000001110;
	294 :	0000000000010100;
	293 :	0000000000011010;
	292 :	0000000000001011;
	291 :	1111111111111100;
	290 :	0000000000001011;
	289 :	0000000000001111;
	288 :	1111111111110010;
	287 :	0000000000000110;
	286 :	0000000000001011;
	285 :	0000000000001111;
	284 :	0000000000100000;
	283 :	0000000000011011;
	282 :	0000000000011000;
	281 :	0000000000111110;
	280 :	0000000000011011;
	279 :	1111111111101011;
	278 :	1111111111110101;
	277 :	1111111111100111;
	276 :	0000000000001011;
	275 :	0000000000000001;
	274 :	0000000000000011;
	273 :	0000000000000110;
	272 :	0000000000000101;
	271 :	1111111111111111;
	270 :	0000000000000111;
	269 :	1111111111111111;
	268 :	0000000000000101;
	267 :	0000000000010110;
	266 :	0000000000010111;
	265 :	0000000000000110;
	264 :	0000000000000111;
	263 :	0000000000001001;
	262 :	0000000000001001;
	261 :	1111111111111111;
	260 :	0000000000001100;
	259 :	0000000000010100;
	258 :	0000000000010101;
	257 :	0000000000000010;
	256 :	1111111111111111;
	255 :	0000000000000100;
	254 :	0000000000010001;
	253 :	0000000001000111;
	252 :	0000000000011100;
	251 :	1111111111111011;
	250 :	1111111111010111;
	249 :	1111111111110010;
	248 :	1111111111100010;
	247 :	0000000000010101;
	246 :	1111111111110111;
	245 :	1111111111111011;
	244 :	1111111111110111;
	243 :	1111111111111011;
	242 :	0000000000000011;
	241 :	0000000000001001;
	240 :	1111111111110110;
	239 :	0000000000001111;
	238 :	0000000000011101;
	237 :	0000000000000101;
	236 :	0000000000001000;
	235 :	0000000000001011;
	234 :	0000000000010110;
	233 :	0000000000011001;
	232 :	0000000000001000;
	231 :	0000000000100100;
	230 :	0000000000000100;
	229 :	0000000000001100;
	228 :	0000000000001000;
	227 :	0000000000010100;
	226 :	0000000000011011;
	225 :	0000000000101010;
	224 :	1111111111100000;
	223 :	0000000000001001;
	222 :	1111111111111011;
	221 :	1111111111100110;
	220 :	0000000000001011;
	219 :	1111111111101101;
	218 :	0000000000000010;
	217 :	0000000000001001;
	216 :	0000000000010000;
	215 :	1111111111111010;
	214 :	0000000000001011;
	213 :	0000000000001111;
	212 :	1111111111111111;
	211 :	0000000000000100;
	210 :	0000000000001001;
	209 :	0000000000010110;
	208 :	0000000000011001;
	207 :	1111111111110111;
	206 :	1111111111111100;
	205 :	0000000000010100;
	204 :	0000000000001000;
	203 :	1111111111111111;
	202 :	0000000000011000;
	201 :	0000000000000100;
	200 :	1111111111111110;
	199 :	0000000000101011;
	198 :	0000000000011001;
	197 :	0000000001000110;
	196 :	0000000000001110;
	195 :	0000000000000011;
	194 :	1111111111100101;
	193 :	1111111111111100;
	192 :	0000000000000000;
	191 :	1111111111110001;
	190 :	1111111111111010;
	189 :	0000000000001111;
	188 :	1111111111110011;
	187 :	1111111111101011;
	186 :	0000000000001010;
	185 :	1111111111111100;
	184 :	0000000000010000;
	183 :	1111111111111000;
	182 :	1111111111111111;
	181 :	1111111111111101;
	180 :	0000000000010000;
	179 :	0000000000010001;
	178 :	1111111111111000;
	177 :	1111111111111111;
	176 :	0000000000001100;
	175 :	0000000000001110;
	174 :	0000000000010101;
	173 :	1111111111111101;
	172 :	0000000000000001;
	171 :	0000000000010010;
	170 :	0000000000001101;
	169 :	0000000000001010;
	168 :	0000000000001111;
	167 :	1111111111110111;
	166 :	0000000000000111;
	165 :	1111111111101011;
	164 :	1111111111100011;
	163 :	1111111111101010;
	162 :	1111111111100101;
	161 :	1111111111101001;
	160 :	1111111111110100;
	159 :	1111111111100000;
	158 :	1111111111100101;
	157 :	1111111111100111;
	156 :	1111111111110110;
	155 :	1111111111110101;
	154 :	1111111111110100;
	153 :	1111111111110110;
	152 :	0000000000010000;
	151 :	1111111111110100;
	150 :	1111111111111100;
	149 :	0000000000010010;
	148 :	0000000000000111;
	147 :	0000000000000000;
	146 :	0000000000000011;
	145 :	0000000000101010;
	144 :	1111111111111000;
	143 :	0000000000010001;
	142 :	1111111111110110;
	141 :	0000000000001111;
	140 :	1111111111110111;
	139 :	0000000000000010;
	138 :	1111111111110011;
	137 :	0000000000010011;
	136 :	0000000000001001;
	135 :	1111111111111010;
	134 :	0000000000001011;
	133 :	0000000000010000;
	132 :	1111111111100110;
	131 :	1111111111110010;
	130 :	1111111111100110;
	129 :	1111111111011101;
	128 :	1111111111011000;
	127 :	1111111111100010;
	126 :	1111111111101100;
	125 :	1111111111110111;
	124 :	1111111111100100;
	123 :	1111111111011011;
	122 :	1111111111010100;
	121 :	1111111111110010;
	120 :	1111111111111110;
	119 :	1111111111010101;
	118 :	1111111111110000;
	117 :	0000000000010101;
	116 :	1111111111111110;
	115 :	0000000000000110;
	114 :	1111111111111110;
	113 :	1111111111111100;
	112 :	1111111111111001;
	111 :	0000000000010011;
	110 :	1111111111111110;
	109 :	0000000000000110;
	108 :	1111111111101110;
	107 :	0000000000001110;
	106 :	0000000000010101;
	105 :	0000000000000111;
	104 :	0000000000000111;
	103 :	1111111111101011;
	102 :	0000000000001111;
	101 :	0000000000001011;
	100 :	1111111111110011;
	99 :	1111111111100100;
	98 :	1111111111101001;
	97 :	1111111111101100;
	96 :	1111111111110011;
	95 :	1111111111100110;
	94 :	1111111111110110;
	93 :	1111111111100111;
	92 :	0000000000000001;
	91 :	1111111111101101;
	90 :	0000000000010000;
	89 :	1111111111101011;
	88 :	1111111111110111;
	87 :	0000000000001001;
	86 :	1111111111111000;
	85 :	0000000000001111;
	84 :	1111111111111000;
	83 :	0000000000010011;
	82 :	1111111111110111;
	81 :	1111111111101011;
	80 :	1111111111110110;
	79 :	0000000000000110;
	78 :	0000000000010110;
	77 :	1111111111110011;
	76 :	1111111111110011;
	75 :	1111111111110111;
	74 :	0000000000001000;
	73 :	1111111111111110;
	72 :	1111111111110010;
	71 :	1111111111100111;
	70 :	0000000000001011;
	69 :	0000000000010001;
	68 :	0000000000010011;
	67 :	1111111111110010;
	66 :	1111111111101110;
	65 :	1111111111111001;
	64 :	0000000000011111;
	63 :	1111111111111011;
	62 :	0000000000001101;
	61 :	1111111111101101;
	60 :	0000000000000000;
	59 :	0000000000001010;
	58 :	1111111111110111;
	57 :	1111111111110000;
	56 :	0000000000001010;
	55 :	1111111111101110;
	54 :	1111111111110010;
	53 :	1111111111110011;
	52 :	0000000000010000;
	51 :	0000000000001010;
	50 :	1111111111110101;
	49 :	1111111111101110;
	48 :	0000000000001111;
	47 :	1111111111101111;
	46 :	1111111111101111;
	45 :	1111111111110101;
	44 :	0000000000001110;
	43 :	0000000000001001;
	42 :	1111111111111010;
	41 :	1111111111111000;
	40 :	1111111111111001;
	39 :	1111111111110011;
	38 :	1111111111110100;
	37 :	0000000000010001;
	36 :	0000000000010111;
	35 :	1111111111110011;
	34 :	1111111111110010;
	33 :	0000000000010001;
	32 :	0000000000001100;
	31 :	0000000000010110;
	30 :	1111111111101011;
	29 :	1111111111111011;
	28 :	1111111111101110;
	27 :	1111111111111110;
	26 :	0000000000000010;
	25 :	1111111111110110;
	24 :	0000000000001010;
	23 :	1111111111110110;
	22 :	0000000000001011;
	21 :	1111111111101111;
	20 :	1111111111111011;
	19 :	0000000000001110;
	18 :	0000000000000110;
	17 :	0000000000000100;
	16 :	1111111111111000;
	15 :	0000000000000100;
	14 :	1111111111101111;
	13 :	0000000000010010;
	12 :	1111111111110011;
	11 :	0000000000001100;
	10 :	1111111111110101;
	9 :	1111111111110111;
	8 :	0000000000001010;
	7 :	0000000000010000;
	6 :	0000000000001010;
	5 :	0000000000010100;
	4 :	0000000000010000;
	3 :	1111111111110111;
	2 :	0000000000010001;
	1 :	1111111111111000;
	0 :	0000000000001011;
END;
