-- begin_signature
-- weights(numWeights
-- 784
-- neuronNumber
-- 6
-- layerNumber
-- 0
-- addressWidth
-- 10
-- dataWidth
-- 16
-- weightFile
-- "weights/weight_L0_N6.mif")
-- end_signature
WIDTH=16;
DEPTH=784;

ADDRESS_RADIX=UNS;
DATA_RADIX=BIN;

CONTENT BEGIN
	783 :	1111111111110110;
	782 :	0000000000000010;
	781 :	1111111111101110;
	780 :	1111111111111110;
	779 :	1111111111101011;
	778 :	1111111111110100;
	777 :	1111111111110001;
	776 :	0000000000010011;
	775 :	0000000000000111;
	774 :	1111111111111010;
	773 :	0000000000000110;
	772 :	0000000000001111;
	771 :	0000000000010010;
	770 :	1111111111110100;
	769 :	1111111111111101;
	768 :	0000000000010000;
	767 :	0000000000001001;
	766 :	1111111111101111;
	765 :	0000000000001101;
	764 :	0000000000000001;
	763 :	0000000000001010;
	762 :	0000000000001111;
	761 :	1111111111111011;
	760 :	0000000000010101;
	759 :	0000000000001111;
	758 :	0000000000000110;
	757 :	1111111111101111;
	756 :	0000000000001000;
	755 :	1111111111110000;
	754 :	0000000000001011;
	753 :	0000000000010110;
	752 :	1111111111111100;
	751 :	0000000000000100;
	750 :	0000000000001101;
	749 :	0000000000000010;
	748 :	0000000000000010;
	747 :	1111111111110001;
	746 :	0000000000001001;
	745 :	1111111111110011;
	744 :	0000000000010000;
	743 :	1111111111101110;
	742 :	1111111111111010;
	741 :	0000000000001000;
	740 :	1111111111100111;
	739 :	1111111111111111;
	738 :	1111111111100110;
	737 :	1111111111110100;
	736 :	1111111111111001;
	735 :	0000000000001101;
	734 :	1111111111101101;
	733 :	0000000000000011;
	732 :	1111111111110000;
	731 :	0000000000000110;
	730 :	0000000000010001;
	729 :	0000000000010110;
	728 :	1111111111110110;
	727 :	1111111111101101;
	726 :	0000000000000010;
	725 :	0000000000010100;
	724 :	0000000000000100;
	723 :	1111111111111011;
	722 :	1111111111111110;
	721 :	1111111111110001;
	720 :	1111111111110111;
	719 :	1111111111111011;
	718 :	1111111111101000;
	717 :	1111111111110011;
	716 :	1111111111100001;
	715 :	1111111111110000;
	714 :	1111111111011110;
	713 :	1111111111101000;
	712 :	1111111111111000;
	711 :	1111111111111111;
	710 :	1111111111111011;
	709 :	1111111111110011;
	708 :	0000000000000011;
	707 :	1111111111110011;
	706 :	0000000000011001;
	705 :	1111111111111000;
	704 :	1111111111101100;
	703 :	1111111111111011;
	702 :	0000000000001111;
	701 :	1111111111101010;
	700 :	0000000000010110;
	699 :	1111111111111100;
	698 :	0000000000000110;
	697 :	0000000000000011;
	696 :	0000000000000110;
	695 :	1111111111110010;
	694 :	0000000000000000;
	693 :	1111111111110110;
	692 :	1111111111100010;
	691 :	1111111111111001;
	690 :	1111111111111011;
	689 :	1111111111110101;
	688 :	1111111111101111;
	687 :	1111111111110111;
	686 :	1111111111111011;
	685 :	1111111111111010;
	684 :	1111111111110010;
	683 :	1111111111111001;
	682 :	0000000000000110;
	681 :	1111111111111000;
	680 :	0000000000001100;
	679 :	1111111111111111;
	678 :	0000000000011001;
	677 :	1111111111111010;
	676 :	0000000000000001;
	675 :	0000000000000101;
	674 :	1111111111111101;
	673 :	0000000000000100;
	672 :	1111111111110100;
	671 :	1111111111110011;
	670 :	0000000000000000;
	669 :	0000000000010100;
	668 :	1111111111101000;
	667 :	1111111111100101;
	666 :	0000000000001101;
	665 :	0000000000000101;
	664 :	1111111111111011;
	663 :	0000000000011001;
	662 :	0000000000000101;
	661 :	1111111111101010;
	660 :	0000000000000001;
	659 :	0000000000001011;
	658 :	1111111111110011;
	657 :	1111111111110110;
	656 :	0000000000000100;
	655 :	1111111111110101;
	654 :	0000000000001100;
	653 :	0000000000000110;
	652 :	0000000000000100;
	651 :	0000000000010001;
	650 :	1111111111110001;
	649 :	1111111111110101;
	648 :	1111111111111101;
	647 :	1111111111111110;
	646 :	0000000000001110;
	645 :	1111111111101011;
	644 :	1111111111101111;
	643 :	0000000000000000;
	642 :	0000000000001011;
	641 :	1111111111110001;
	640 :	0000000000000111;
	639 :	1111111111111010;
	638 :	1111111111101011;
	637 :	1111111111111011;
	636 :	1111111111111111;
	635 :	1111111111110011;
	634 :	0000000000010010;
	633 :	1111111111111101;
	632 :	1111111111110010;
	631 :	0000000000001011;
	630 :	1111111111110000;
	629 :	1111111111111101;
	628 :	1111111111111011;
	627 :	1111111111111111;
	626 :	1111111111110101;
	625 :	0000000000001001;
	624 :	1111111111101111;
	623 :	0000000000000101;
	622 :	0000000000000101;
	621 :	0000000000000011;
	620 :	0000000000000100;
	619 :	0000000000100010;
	618 :	0000000000011001;
	617 :	0000000000100001;
	616 :	1111111111101110;
	615 :	1111111111111110;
	614 :	1111111111111101;
	613 :	0000000000001010;
	612 :	1111111111101000;
	611 :	1111111111100101;
	610 :	1111111111110101;
	609 :	1111111111110010;
	608 :	0000000000001010;
	607 :	0000000000001001;
	606 :	0000000000001111;
	605 :	0000000000000110;
	604 :	0000000000010000;
	603 :	0000000000010001;
	602 :	1111111111101101;
	601 :	1111111111111010;
	600 :	0000000000000111;
	599 :	1111111111101100;
	598 :	1111111111111100;
	597 :	1111111111110110;
	596 :	1111111111110100;
	595 :	0000000000000101;
	594 :	1111111111110100;
	593 :	0000000000000100;
	592 :	0000000000001110;
	591 :	1111111111110101;
	590 :	0000000000010100;
	589 :	0000000000010110;
	588 :	0000000000010011;
	587 :	0000000000010101;
	586 :	1111111111110001;
	585 :	0000000000001111;
	584 :	1111111111110001;
	583 :	1111111111111111;
	582 :	1111111111101010;
	581 :	0000000000011001;
	580 :	1111111111111111;
	579 :	0000000000000111;
	578 :	0000000000001010;
	577 :	0000000000000001;
	576 :	1111111111110100;
	575 :	1111111111110101;
	574 :	0000000000001001;
	573 :	1111111111110011;
	572 :	1111111111100100;
	571 :	1111111111101100;
	570 :	1111111111110110;
	569 :	1111111111111010;
	568 :	1111111111111100;
	567 :	1111111111111101;
	566 :	1111111111111011;
	565 :	0000000000010001;
	564 :	0000000000001001;
	563 :	0000000000001011;
	562 :	0000000000000010;
	561 :	0000000000001000;
	560 :	0000000000001100;
	559 :	0000000000010011;
	558 :	0000000000000001;
	557 :	1111111111110011;
	556 :	1111111111110111;
	555 :	1111111111101011;
	554 :	0000000000000110;
	553 :	0000000000001010;
	552 :	0000000000011110;
	551 :	0000000000010000;
	550 :	1111111111111101;
	549 :	0000000000010011;
	548 :	0000000000000001;
	547 :	0000000000000100;
	546 :	1111111111111000;
	545 :	1111111111110011;
	544 :	1111111111100101;
	543 :	1111111111110011;
	542 :	1111111111111000;
	541 :	1111111111111011;
	540 :	1111111111111111;
	539 :	0000000000010000;
	538 :	1111111111111111;
	537 :	0000000000100010;
	536 :	0000000000000000;
	535 :	1111111111110111;
	534 :	0000000000000010;
	533 :	0000000000000011;
	532 :	0000000000001010;
	531 :	1111111111111110;
	530 :	1111111111100110;
	529 :	1111111111111001;
	528 :	1111111111110100;
	527 :	0000000000001100;
	526 :	0000000000000100;
	525 :	1111111111110111;
	524 :	0000000000010011;
	523 :	1111111111110111;
	522 :	0000000000001001;
	521 :	1111111111110001;
	520 :	1111111111110100;
	519 :	1111111111100010;
	518 :	0000000000000011;
	517 :	1111111111100011;
	516 :	1111111111111010;
	515 :	1111111111111111;
	514 :	1111111111111000;
	513 :	1111111111111010;
	512 :	0000000000001001;
	511 :	0000000000010110;
	510 :	0000000000001101;
	509 :	0000000000010101;
	508 :	0000000000011100;
	507 :	0000000000000011;
	506 :	0000000000100110;
	505 :	1111111111111001;
	504 :	0000000000000010;
	503 :	1111111111111101;
	502 :	1111111111101001;
	501 :	1111111111110111;
	500 :	1111111111101110;
	499 :	0000000000000110;
	498 :	0000000000011011;
	497 :	1111111111111011;
	496 :	0000000000001000;
	495 :	0000000000000100;
	494 :	0000000000001011;
	493 :	0000000000000100;
	492 :	1111111111100110;
	491 :	1111111111110101;
	490 :	1111111111011000;
	489 :	0000000000000011;
	488 :	1111111111110000;
	487 :	1111111111110110;
	486 :	1111111111111000;
	485 :	0000000000001101;
	484 :	0000000000001101;
	483 :	0000000000000101;
	482 :	0000000000000100;
	481 :	0000000000000100;
	480 :	1111111111110110;
	479 :	1111111111111101;
	478 :	0000000001010100;
	477 :	1111111111110101;
	476 :	1111111111111100;
	475 :	1111111111111101;
	474 :	0000000000010011;
	473 :	0000000000001011;
	472 :	0000000000001010;
	471 :	1111111111111101;
	470 :	1111111111111101;
	469 :	0000000000000001;
	468 :	1111111111111011;
	467 :	0000000000000010;
	466 :	1111111111110110;
	465 :	1111111111110001;
	464 :	1111111111110011;
	463 :	0000000000000101;
	462 :	0000000000001110;
	461 :	1111111111101111;
	460 :	1111111111101101;
	459 :	0000000000000111;
	458 :	0000000000000011;
	457 :	1111111111110010;
	456 :	0000000000100111;
	455 :	1111111111111111;
	454 :	1111111111111110;
	453 :	0000000000001010;
	452 :	1111111111100100;
	451 :	0000000000011110;
	450 :	0000000000110010;
	449 :	1111111111111111;
	448 :	1111111111111100;
	447 :	1111111111110100;
	446 :	1111111111100010;
	445 :	0000000000010011;
	444 :	1111111111100011;
	443 :	1111111111111101;
	442 :	0000000000001000;
	441 :	0000000000001110;
	440 :	1111111111111100;
	439 :	1111111111101111;
	438 :	1111111111110001;
	437 :	1111111111111110;
	436 :	0000000000000011;
	435 :	1111111111110001;
	434 :	0000000000000010;
	433 :	1111111111111110;
	432 :	0000000000000110;
	431 :	1111111111110111;
	430 :	1111111111111010;
	429 :	0000000000001101;
	428 :	1111111111111000;
	427 :	0000000000001010;
	426 :	0000000000000101;
	425 :	0000000000010011;
	424 :	0000000000010000;
	423 :	0000000000010010;
	422 :	0000000000100100;
	421 :	1111111111110100;
	420 :	1111111111110101;
	419 :	1111111111110001;
	418 :	1111111111110000;
	417 :	0000000000001011;
	416 :	0000000000000101;
	415 :	0000000000001111;
	414 :	0000000000000010;
	413 :	1111111111111100;
	412 :	0000000000001001;
	411 :	0000000000001101;
	410 :	1111111111101101;
	409 :	0000000000000110;
	408 :	0000000000000001;
	407 :	1111111111110101;
	406 :	1111111111111001;
	405 :	1111111111111100;
	404 :	0000000000001010;
	403 :	1111111111101100;
	402 :	1111111111111011;
	401 :	0000000000001001;
	400 :	0000000000000111;
	399 :	0000000000000000;
	398 :	1111111111110000;
	397 :	1111111111101100;
	396 :	1111111111101001;
	395 :	1111111111101001;
	394 :	1111111111110010;
	393 :	0000000000010001;
	392 :	1111111111110000;
	391 :	1111111111100000;
	390 :	0000000000011011;
	389 :	0000000000011100;
	388 :	0000000000011101;
	387 :	1111111111111001;
	386 :	1111111111111001;
	385 :	1111111111101111;
	384 :	0000000000000000;
	383 :	1111111111111111;
	382 :	1111111111100010;
	381 :	0000000000000100;
	380 :	1111111111101111;
	379 :	0000000000001101;
	378 :	0000000000010010;
	377 :	0000000000010000;
	376 :	0000000000010001;
	375 :	1111111111111000;
	374 :	0000000000010101;
	373 :	0000000000000000;
	372 :	1111111111110101;
	371 :	1111111111110100;
	370 :	0000000000000111;
	369 :	1111111111101110;
	368 :	0000000000000000;
	367 :	1111111111110001;
	366 :	0000000000000100;
	365 :	1111111111111110;
	364 :	0000000000010001;
	363 :	0000000000000000;
	362 :	1111111111111100;
	361 :	0000000000011001;
	360 :	1111111111110110;
	359 :	1111111111110000;
	358 :	1111111111110100;
	357 :	1111111111100111;
	356 :	1111111111111010;
	355 :	1111111111100001;
	354 :	1111111111011111;
	353 :	1111111111111110;
	352 :	1111111111111011;
	351 :	0000000000000100;
	350 :	0000000000001101;
	349 :	1111111111111111;
	348 :	0000000000000110;
	347 :	1111111111110011;
	346 :	1111111111110100;
	345 :	0000000000000111;
	344 :	1111111111110000;
	343 :	1111111111011111;
	342 :	1111111111110111;
	341 :	1111111111101000;
	340 :	0000000000001011;
	339 :	1111111111101110;
	338 :	0000000000001111;
	337 :	0000000000001101;
	336 :	1111111111101011;
	335 :	0000000000001001;
	334 :	1111111111111010;
	333 :	1111111111111000;
	332 :	1111111111111011;
	331 :	1111111111110100;
	330 :	1111111111011101;
	329 :	1111111111110101;
	328 :	1111111111101101;
	327 :	1111111111110111;
	326 :	1111111111111111;
	325 :	1111111111111111;
	324 :	1111111111110101;
	323 :	0000000000010000;
	322 :	0000000000011100;
	321 :	1111111111111111;
	320 :	0000000000001110;
	319 :	1111111111110100;
	318 :	0000000000001000;
	317 :	1111111111100010;
	316 :	1111111111011110;
	315 :	1111111111110001;
	314 :	1111111111100010;
	313 :	0000000000001011;
	312 :	0000000000000111;
	311 :	0000000000000001;
	310 :	0000000000001000;
	309 :	1111111111110001;
	308 :	0000000000010010;
	307 :	0000000000010100;
	306 :	0000000000010100;
	305 :	1111111111101100;
	304 :	1111111111100011;
	303 :	1111111111101001;
	302 :	1111111111111101;
	301 :	1111111111100010;
	300 :	1111111111101011;
	299 :	1111111111110010;
	298 :	0000000000010101;
	297 :	1111111111111100;
	296 :	0000000000010000;
	295 :	0000000000011100;
	294 :	1111111111110110;
	293 :	0000000000010000;
	292 :	1111111111110110;
	291 :	1111111111011101;
	290 :	1111111111011010;
	289 :	1111111111111001;
	288 :	1111111111010101;
	287 :	1111111111110010;
	286 :	1111111111010111;
	285 :	0000000000001000;
	284 :	1111111111100100;
	283 :	1111111111111111;
	282 :	1111111111111010;
	281 :	1111111111101111;
	280 :	1111111111111100;
	279 :	0000000000000110;
	278 :	1111111111110001;
	277 :	1111111111101100;
	276 :	1111111111111010;
	275 :	1111111111011101;
	274 :	1111111111110010;
	273 :	1111111111101011;
	272 :	1111111111101111;
	271 :	1111111111111111;
	270 :	0000000000010001;
	269 :	0000000000010000;
	268 :	0000000000010110;
	267 :	1111111111111101;
	266 :	1111111111110011;
	265 :	1111111111100100;
	264 :	1111111111101110;
	263 :	1111111111100000;
	262 :	1111111111100110;
	261 :	1111111111011011;
	260 :	1111111111100110;
	259 :	1111111111101001;
	258 :	0000000000000100;
	257 :	0000000000001000;
	256 :	1111111111111111;
	255 :	1111111111111110;
	254 :	1111111111110100;
	253 :	0000000000000111;
	252 :	1111111111101011;
	251 :	0000000000010101;
	250 :	1111111111111001;
	249 :	0000000000001000;
	248 :	1111111111110011;
	247 :	1111111111110111;
	246 :	1111111111010011;
	245 :	1111111111110111;
	244 :	0000000000000100;
	243 :	1111111111111100;
	242 :	0000000000010011;
	241 :	0000000000001011;
	240 :	0000000000000011;
	239 :	1111111111110111;
	238 :	1111111111101100;
	237 :	0000000000000010;
	236 :	1111111111100010;
	235 :	1111111111101110;
	234 :	1111111111100011;
	233 :	1111111111101000;
	232 :	0000000000000111;
	231 :	0000000000000000;
	230 :	0000000000000010;
	229 :	0000000000000001;
	228 :	0000000000101101;
	227 :	0000000000011110;
	226 :	0000000000000010;
	225 :	1111111111101010;
	224 :	0000000000001011;
	223 :	0000000000010100;
	222 :	1111111111111001;
	221 :	1111111111110111;
	220 :	1111111111100100;
	219 :	1111111111111100;
	218 :	1111111111010000;
	217 :	1111111111111000;
	216 :	1111111111100110;
	215 :	0000000000000110;
	214 :	1111111111111010;
	213 :	0000000000010101;
	212 :	0000000000010001;
	211 :	1111111111111110;
	210 :	1111111111110001;
	209 :	1111111111111000;
	208 :	0000000000001010;
	207 :	0000000000000101;
	206 :	0000000000001101;
	205 :	0000000000001111;
	204 :	1111111111110110;
	203 :	1111111111111100;
	202 :	0000000000011011;
	201 :	0000000000001011;
	200 :	0000000000011011;
	199 :	0000000000100111;
	198 :	0000000000000011;
	197 :	0000000000100011;
	196 :	0000000000010100;
	195 :	1111111111110000;
	194 :	0000000000001010;
	193 :	1111111111111001;
	192 :	1111111111111110;
	191 :	1111111111101000;
	190 :	1111111111101011;
	189 :	1111111111100100;
	188 :	0000000000000110;
	187 :	0000000000001000;
	186 :	1111111111111000;
	185 :	1111111111111101;
	184 :	1111111111111011;
	183 :	1111111111111100;
	182 :	1111111111110111;
	181 :	1111111111110001;
	180 :	1111111111111100;
	179 :	0000000000001100;
	178 :	0000000000010011;
	177 :	1111111111111011;
	176 :	0000000000011001;
	175 :	1111111111111010;
	174 :	0000000000010111;
	173 :	0000000000100101;
	172 :	0000000000100100;
	171 :	0000000000100101;
	170 :	1111111111111101;
	169 :	1111111111111011;
	168 :	1111111111101100;
	167 :	0000000000010001;
	166 :	0000000000001101;
	165 :	1111111111111000;
	164 :	1111111111110010;
	163 :	0000000000000000;
	162 :	1111111111100101;
	161 :	1111111111101111;
	160 :	1111111111101101;
	159 :	1111111111101100;
	158 :	0000000000000110;
	157 :	0000000000000001;
	156 :	0000000000001111;
	155 :	1111111111111010;
	154 :	0000000000010101;
	153 :	0000000000010010;
	152 :	1111111111110000;
	151 :	1111111111101101;
	150 :	0000000000010010;
	149 :	1111111111110101;
	148 :	0000000000000001;
	147 :	0000000000001111;
	146 :	0000000000010000;
	145 :	0000000000000101;
	144 :	0000000000000101;
	143 :	1111111111101111;
	142 :	0000000000001111;
	141 :	1111111111110010;
	140 :	0000000000000010;
	139 :	1111111111110101;
	138 :	0000000000001001;
	137 :	0000000000001011;
	136 :	1111111111101001;
	135 :	0000000000000010;
	134 :	1111111111100000;
	133 :	1111111111101001;
	132 :	1111111111101111;
	131 :	1111111111101001;
	130 :	1111111111110001;
	129 :	0000000000000111;
	128 :	1111111111110100;
	127 :	0000000000011101;
	126 :	0000000000000111;
	125 :	1111111111111011;
	124 :	0000000000001111;
	123 :	0000000000010100;
	122 :	0000000000000110;
	121 :	1111111111111010;
	120 :	0000000000000000;
	119 :	1111111111101111;
	118 :	1111111111101101;
	117 :	1111111111101010;
	116 :	1111111111101100;
	115 :	0000000000011001;
	114 :	1111111111110000;
	113 :	0000000000000011;
	112 :	0000000000001000;
	111 :	1111111111111011;
	110 :	0000000000010100;
	109 :	0000000000001010;
	108 :	1111111111111001;
	107 :	1111111111110010;
	106 :	1111111111110101;
	105 :	1111111111011101;
	104 :	1111111111010111;
	103 :	1111111111110011;
	102 :	1111111111101001;
	101 :	0000000000000110;
	100 :	1111111111110111;
	99 :	0000000000000011;
	98 :	1111111111110000;
	97 :	1111111111111101;
	96 :	0000000000010000;
	95 :	1111111111111111;
	94 :	0000000000000100;
	93 :	0000000000011000;
	92 :	0000000000010001;
	91 :	0000000000000000;
	90 :	0000000000010001;
	89 :	0000000000001010;
	88 :	0000000000001100;
	87 :	0000000000001100;
	86 :	0000000000010101;
	85 :	0000000000010011;
	84 :	1111111111111001;
	83 :	0000000000000011;
	82 :	1111111111110000;
	81 :	0000000000000110;
	80 :	0000000000000101;
	79 :	0000000000000111;
	78 :	1111111111111111;
	77 :	1111111111111010;
	76 :	1111111111100110;
	75 :	1111111111110111;
	74 :	1111111111111011;
	73 :	0000000000000101;
	72 :	1111111111101111;
	71 :	1111111111101111;
	70 :	1111111111101100;
	69 :	0000000000001001;
	68 :	1111111111110111;
	67 :	1111111111111011;
	66 :	1111111111110111;
	65 :	1111111111110110;
	64 :	1111111111100001;
	63 :	1111111111101100;
	62 :	1111111111100111;
	61 :	1111111111110000;
	60 :	1111111111110010;
	59 :	0000000000001000;
	58 :	1111111111101010;
	57 :	1111111111101011;
	56 :	1111111111110110;
	55 :	0000000000010000;
	54 :	1111111111110000;
	53 :	1111111111110010;
	52 :	1111111111111011;
	51 :	0000000000001101;
	50 :	1111111111101111;
	49 :	0000000000010010;
	48 :	1111111111101111;
	47 :	0000000000001011;
	46 :	1111111111111100;
	45 :	1111111111101010;
	44 :	1111111111110000;
	43 :	0000000000000011;
	42 :	0000000000000101;
	41 :	1111111111101010;
	40 :	1111111111101010;
	39 :	0000000000000111;
	38 :	0000000000001000;
	37 :	0000000000001000;
	36 :	0000000000001010;
	35 :	0000000000010000;
	34 :	1111111111111001;
	33 :	1111111111111100;
	32 :	1111111111111100;
	31 :	1111111111110011;
	30 :	0000000000000101;
	29 :	1111111111111001;
	28 :	1111111111110100;
	27 :	0000000000001101;
	26 :	1111111111101101;
	25 :	1111111111111111;
	24 :	1111111111111111;
	23 :	0000000000000001;
	22 :	1111111111101100;
	21 :	1111111111111111;
	20 :	0000000000000001;
	19 :	0000000000001010;
	18 :	0000000000001100;
	17 :	1111111111111000;
	16 :	0000000000000101;
	15 :	1111111111110001;
	14 :	1111111111110011;
	13 :	1111111111111010;
	12 :	0000000000010000;
	11 :	0000000000000000;
	10 :	0000000000010001;
	9 :	1111111111111110;
	8 :	0000000000001000;
	7 :	1111111111110100;
	6 :	0000000000000111;
	5 :	1111111111101011;
	4 :	0000000000001011;
	3 :	0000000000010010;
	2 :	1111111111111011;
	1 :	0000000000000110;
	0 :	0000000000000110;
END;
