-- begin_signature
-- weights(numWeights
-- 784
-- neuronNumber
-- 9
-- layerNumber
-- 0
-- addressWidth
-- 10
-- dataWidth
-- 16
-- weightFile
-- "weights/weight_L0_N9.mif")
-- end_signature
WIDTH=16;
DEPTH=784;

ADDRESS_RADIX=UNS;
DATA_RADIX=BIN;

CONTENT BEGIN
	783 :	0000000000001011;
	782 :	1111111111101100;
	781 :	0000000000010010;
	780 :	0000000000010000;
	779 :	1111111111101111;
	778 :	1111111111100011;
	777 :	0000000000010101;
	776 :	1111111111111011;
	775 :	1111111111111110;
	774 :	1111111110111101;
	773 :	0000000000001100;
	772 :	1111111111111000;
	771 :	0000000000001010;
	770 :	1111111111101111;
	769 :	1111111111111011;
	768 :	0000000000010000;
	767 :	1111111111110111;
	766 :	0000000000000110;
	765 :	0000000000001000;
	764 :	0000000000000000;
	763 :	1111111111111100;
	762 :	1111111111101111;
	761 :	1111111111111010;
	760 :	1111111111111010;
	759 :	0000000000001001;
	758 :	1111111111110000;
	757 :	1111111111111110;
	756 :	0000000000001101;
	755 :	1111111111101100;
	754 :	0000000000001100;
	753 :	0000000000010101;
	752 :	0000000000001010;
	751 :	1111111111101011;
	750 :	1111111111100011;
	749 :	1111111111100011;
	748 :	0000000000001110;
	747 :	1111111111100100;
	746 :	1111111111011100;
	745 :	1111111111110101;
	744 :	1111111111111101;
	743 :	1111111111101110;
	742 :	1111111111011010;
	741 :	1111111111110101;
	740 :	1111111111110100;
	739 :	1111111111110110;
	738 :	0000000000001011;
	737 :	1111111111110001;
	736 :	0000000000001001;
	735 :	0000000000001011;
	734 :	0000000000000111;
	733 :	1111111111111000;
	732 :	0000000000000111;
	731 :	0000000000001110;
	730 :	0000000000010101;
	729 :	1111111111111111;
	728 :	1111111111111001;
	727 :	0000000000010010;
	726 :	0000000000010010;
	725 :	1111111111101101;
	724 :	1111111111111101;
	723 :	1111111111100111;
	722 :	0000000000000000;
	721 :	0000000000000001;
	720 :	1111111111111001;
	719 :	0000000000000110;
	718 :	1111111111101110;
	717 :	1111111111010000;
	716 :	1111111111101111;
	715 :	1111111111100101;
	714 :	1111111111101010;
	713 :	1111111111101010;
	712 :	0000000000000100;
	711 :	0000000000001111;
	710 :	1111111111111111;
	709 :	0000000000010011;
	708 :	0000000000001111;
	707 :	0000000000010101;
	706 :	1111111111101101;
	705 :	1111111111110110;
	704 :	1111111111110011;
	703 :	0000000000010010;
	702 :	0000000000001101;
	701 :	0000000000010010;
	700 :	1111111111110111;
	699 :	1111111111111101;
	698 :	0000000000010110;
	697 :	0000000000000101;
	696 :	0000000000001000;
	695 :	0000000000000110;
	694 :	0000000000001010;
	693 :	0000000000001110;
	692 :	0000000000000101;
	691 :	0000000000001111;
	690 :	0000000000001011;
	689 :	1111111111111000;
	688 :	1111111111111110;
	687 :	1111111111100101;
	686 :	0000000000000000;
	685 :	0000000000000110;
	684 :	1111111111111110;
	683 :	0000000000000010;
	682 :	0000000000000111;
	681 :	0000000000000100;
	680 :	0000000000000010;
	679 :	0000000000000101;
	678 :	0000000000001101;
	677 :	1111111111100111;
	676 :	1111111111110001;
	675 :	0000000000001000;
	674 :	1111111111110100;
	673 :	0000000000000100;
	672 :	0000000000000010;
	671 :	0000000000000001;
	670 :	0000000000000000;
	669 :	1111111111111100;
	668 :	1111111111101111;
	667 :	0000000000011011;
	666 :	0000000000100100;
	665 :	0000000000100101;
	664 :	0000000000011100;
	663 :	0000000000001010;
	662 :	0000000000000101;
	661 :	1111111111100011;
	660 :	1111111111100110;
	659 :	0000000000000000;
	658 :	1111111111110000;
	657 :	1111111111100001;
	656 :	1111111111110111;
	655 :	1111111111111101;
	654 :	1111111111110111;
	653 :	1111111111110101;
	652 :	0000000000000000;
	651 :	0000000000001110;
	650 :	1111111111111001;
	649 :	1111111111110110;
	648 :	1111111111101011;
	647 :	0000000000100000;
	646 :	0000000000010011;
	645 :	1111111111110001;
	644 :	1111111111111011;
	643 :	1111111111101101;
	642 :	1111111111101101;
	641 :	0000000000001001;
	640 :	0000000000000001;
	639 :	0000000000100001;
	638 :	0000000000001101;
	637 :	0000000000011001;
	636 :	0000000000001001;
	635 :	0000000000001111;
	634 :	0000000000010101;
	633 :	0000000000001101;
	632 :	1111111111101100;
	631 :	1111111111100010;
	630 :	1111111111111010;
	629 :	1111111111101001;
	628 :	0000000000000110;
	627 :	1111111111101010;
	626 :	1111111111101011;
	625 :	1111111111110100;
	624 :	1111111111101101;
	623 :	1111111111110110;
	622 :	1111111111101001;
	621 :	1111111111110101;
	620 :	0000000000000000;
	619 :	0000000000000011;
	618 :	1111111111111101;
	617 :	0000000000010000;
	616 :	1111111111110000;
	615 :	1111111111101100;
	614 :	1111111111111010;
	613 :	1111111111111011;
	612 :	0000000000001011;
	611 :	0000000000011111;
	610 :	0000000000000111;
	609 :	1111111111110100;
	608 :	0000000000010110;
	607 :	0000000000011000;
	606 :	0000000000010011;
	605 :	1111111111101011;
	604 :	1111111111111110;
	603 :	1111111111110011;
	602 :	1111111111100011;
	601 :	1111111111101000;
	600 :	0000000000010000;
	599 :	1111111111101011;
	598 :	0000000000000001;
	597 :	1111111111110101;
	596 :	1111111111111011;
	595 :	1111111111111000;
	594 :	1111111111101110;
	593 :	0000000000001101;
	592 :	1111111111111100;
	591 :	1111111111110111;
	590 :	1111111111111010;
	589 :	1111111111111110;
	588 :	0000000000000010;
	587 :	0000000000000110;
	586 :	0000000000001000;
	585 :	1111111111100110;
	584 :	0000000000011001;
	583 :	1111111111110001;
	582 :	0000000000000101;
	581 :	1111111111111110;
	580 :	1111111111110011;
	579 :	0000000000000110;
	578 :	0000000000000101;
	577 :	1111111111111101;
	576 :	1111111111011000;
	575 :	1111111111100000;
	574 :	1111111111011111;
	573 :	0000000000000010;
	572 :	1111111111110000;
	571 :	1111111111111110;
	570 :	0000000000000010;
	569 :	1111111111101100;
	568 :	0000000000001010;
	567 :	1111111111111011;
	566 :	1111111111101110;
	565 :	1111111111011101;
	564 :	0000000000000101;
	563 :	1111111111110001;
	562 :	0000000000001101;
	561 :	1111111111111100;
	560 :	0000000000001000;
	559 :	0000000000010000;
	558 :	0000000000010001;
	557 :	1111111111111011;
	556 :	1111111111110001;
	555 :	1111111111111110;
	554 :	0000000000000111;
	553 :	0000000000010000;
	552 :	0000000000000011;
	551 :	0000000000000011;
	550 :	0000000000001011;
	549 :	1111111111110101;
	548 :	0000000000001000;
	547 :	1111111111100001;
	546 :	1111111111101111;
	545 :	0000000000000100;
	544 :	1111111111111110;
	543 :	1111111111101100;
	542 :	0000000000000110;
	541 :	0000000000001101;
	540 :	0000000000001101;
	539 :	1111111111101111;
	538 :	1111111111110110;
	537 :	0000000000000111;
	536 :	1111111111110010;
	535 :	0000000000001011;
	534 :	1111111111110000;
	533 :	1111111111110101;
	532 :	1111111111111111;
	531 :	0000000000000110;
	530 :	1111111111110000;
	529 :	1111111111100111;
	528 :	1111111111111111;
	527 :	1111111111101010;
	526 :	1111111111111100;
	525 :	0000000000000110;
	524 :	0000000000001100;
	523 :	0000000000001011;
	522 :	0000000000001001;
	521 :	1111111111101011;
	520 :	1111111111110101;
	519 :	1111111111111000;
	518 :	0000000000001110;
	517 :	0000000000010000;
	516 :	1111111111111101;
	515 :	0000000000010111;
	514 :	0000000000011100;
	513 :	0000000000000010;
	512 :	0000000000000010;
	511 :	0000000000001011;
	510 :	0000000000000000;
	509 :	1111111111110000;
	508 :	0000000000000011;
	507 :	1111111111110111;
	506 :	0000000000000100;
	505 :	1111111111101101;
	504 :	1111111111111110;
	503 :	1111111111111110;
	502 :	1111111111101001;
	501 :	1111111111111111;
	500 :	0000000000000001;
	499 :	1111111111111100;
	498 :	1111111111111100;
	497 :	0000000000000000;
	496 :	1111111111110110;
	495 :	0000000000000111;
	494 :	0000000000001100;
	493 :	0000000000000011;
	492 :	1111111111011101;
	491 :	1111111111110010;
	490 :	1111111111101000;
	489 :	1111111111110111;
	488 :	0000000000001000;
	487 :	0000000000001100;
	486 :	0000000000000100;
	485 :	0000000000001001;
	484 :	0000000000010001;
	483 :	1111111111111001;
	482 :	0000000000001101;
	481 :	1111111111110101;
	480 :	1111111111100101;
	479 :	0000000000010110;
	478 :	0000000000000001;
	477 :	1111111111111000;
	476 :	1111111111110001;
	475 :	1111111111111100;
	474 :	1111111111110010;
	473 :	1111111111100011;
	472 :	1111111111101010;
	471 :	1111111111111101;
	470 :	1111111111110010;
	469 :	1111111111111101;
	468 :	0000000000000111;
	467 :	0000000000011011;
	466 :	1111111111111110;
	465 :	1111111111110000;
	464 :	0000000000000011;
	463 :	1111111111110101;
	462 :	0000000000000010;
	461 :	0000000000000000;
	460 :	1111111111101001;
	459 :	1111111111110010;
	458 :	0000000000001100;
	457 :	0000000000010010;
	456 :	0000000000010011;
	455 :	0000000000011110;
	454 :	0000000000011111;
	453 :	1111111111111101;
	452 :	0000000000010001;
	451 :	0000000000010110;
	450 :	1111111111101110;
	449 :	0000000000010010;
	448 :	0000000000001100;
	447 :	1111111111101110;
	446 :	0000000000000100;
	445 :	1111111111111001;
	444 :	1111111111101001;
	443 :	1111111111111111;
	442 :	1111111111111101;
	441 :	1111111111111001;
	440 :	1111111111111110;
	439 :	0000000000010011;
	438 :	1111111111110100;
	437 :	1111111111101011;
	436 :	0000000000000011;
	435 :	1111111111101101;
	434 :	1111111111101011;
	433 :	1111111111110110;
	432 :	0000000000000010;
	431 :	1111111111111010;
	430 :	0000000000000000;
	429 :	1111111111110010;
	428 :	1111111111110110;
	427 :	0000000000010101;
	426 :	1111111111110110;
	425 :	0000000000011001;
	424 :	0000000000010110;
	423 :	0000000000000011;
	422 :	0000000000001100;
	421 :	0000000000000111;
	420 :	1111111111110101;
	419 :	0000000000010000;
	418 :	1111111111110000;
	417 :	1111111111110101;
	416 :	1111111111011010;
	415 :	1111111111100010;
	414 :	0000000000001110;
	413 :	0000000000010000;
	412 :	0000000000010111;
	411 :	0000000000011011;
	410 :	0000000000010100;
	409 :	0000000000000101;
	408 :	1111111111101110;
	407 :	1111111111110111;
	406 :	1111111111111110;
	405 :	1111111111100111;
	404 :	1111111111111111;
	403 :	1111111111111100;
	402 :	1111111111111111;
	401 :	1111111111111000;
	400 :	1111111111110010;
	399 :	0000000000010110;
	398 :	1111111111110011;
	397 :	0000000000000000;
	396 :	0000000000100101;
	395 :	1111111111101110;
	394 :	0000000000010001;
	393 :	0000000000000110;
	392 :	1111111111110100;
	391 :	0000000000010101;
	390 :	1111111111110010;
	389 :	0000000000001100;
	388 :	1111111111110110;
	387 :	1111111111101001;
	386 :	1111111111110010;
	385 :	1111111111110111;
	384 :	1111111111110100;
	383 :	0000000000000111;
	382 :	0000000000000011;
	381 :	1111111111101011;
	380 :	1111111111110100;
	379 :	1111111111111010;
	378 :	1111111111100010;
	377 :	1111111111110100;
	376 :	1111111111101010;
	375 :	0000000000000000;
	374 :	1111111111110001;
	373 :	1111111111110000;
	372 :	0000000000010111;
	371 :	0000000000001011;
	370 :	0000000000000111;
	369 :	0000000000001001;
	368 :	0000000000010001;
	367 :	1111111111111010;
	366 :	1111111111011011;
	365 :	1111111111110001;
	364 :	0000000000000111;
	363 :	0000000000001100;
	362 :	1111111111111101;
	361 :	1111111111100110;
	360 :	1111111111100011;
	359 :	1111111111110001;
	358 :	0000000000000010;
	357 :	1111111111101110;
	356 :	0000000000001011;
	355 :	1111111111110101;
	354 :	0000000000001100;
	353 :	0000000000000000;
	352 :	1111111111100110;
	351 :	1111111111100011;
	350 :	1111111111110000;
	349 :	1111111111100111;
	348 :	0000000000000101;
	347 :	0000000000001000;
	346 :	1111111111110100;
	345 :	0000000000001111;
	344 :	0000000000000000;
	343 :	0000000000000101;
	342 :	0000000000000011;
	341 :	0000000000000000;
	340 :	0000000000000101;
	339 :	0000000000001001;
	338 :	1111111111110100;
	337 :	0000000000000010;
	336 :	1111111111110001;
	335 :	0000000000000000;
	334 :	1111111111110100;
	333 :	1111111111111001;
	332 :	0000000000001110;
	331 :	1111111111100100;
	330 :	1111111111111111;
	329 :	0000000000001101;
	328 :	1111111111101001;
	327 :	0000000000010101;
	326 :	0000000000000111;
	325 :	1111111111111101;
	324 :	1111111111101011;
	323 :	1111111111101000;
	322 :	1111111111110100;
	321 :	1111111111111011;
	320 :	1111111111110011;
	319 :	1111111111111000;
	318 :	0000000000001101;
	317 :	1111111111111110;
	316 :	1111111111101110;
	315 :	0000000000010000;
	314 :	0000000000000010;
	313 :	0000000000001111;
	312 :	1111111111101111;
	311 :	1111111111101000;
	310 :	1111111111101111;
	309 :	1111111111110101;
	308 :	1111111111110111;
	307 :	1111111111111011;
	306 :	0000000000001111;
	305 :	0000000000000011;
	304 :	1111111111101011;
	303 :	1111111111100111;
	302 :	0000000000000100;
	301 :	1111111111111011;
	300 :	1111111111111111;
	299 :	0000000000010011;
	298 :	0000000000001101;
	297 :	1111111111101100;
	296 :	1111111111111000;
	295 :	1111111111100100;
	294 :	1111111111011001;
	293 :	1111111111100101;
	292 :	1111111111111101;
	291 :	1111111111111100;
	290 :	0000000000001001;
	289 :	0000000000001111;
	288 :	0000000000001011;
	287 :	0000000000001011;
	286 :	0000000000001110;
	285 :	0000000000000110;
	284 :	0000000000001010;
	283 :	0000000000010010;
	282 :	0000000000001000;
	281 :	0000000000001010;
	280 :	1111111111101101;
	279 :	1111111111110101;
	278 :	1111111111101111;
	277 :	0000000000010100;
	276 :	1111111111111001;
	275 :	0000000000010010;
	274 :	1111111111110101;
	273 :	1111111111101111;
	272 :	1111111111110101;
	271 :	0000000000001101;
	270 :	0000000000000101;
	269 :	1111111111111001;
	268 :	1111111111110101;
	267 :	1111111111110000;
	266 :	0000000000000001;
	265 :	1111111111111000;
	264 :	0000000000001010;
	263 :	0000000000000001;
	262 :	0000000000001011;
	261 :	1111111111111100;
	260 :	1111111111101011;
	259 :	1111111111101010;
	258 :	1111111111110101;
	257 :	1111111111111011;
	256 :	0000000000011100;
	255 :	0000000000011111;
	254 :	1111111111111100;
	253 :	0000000000001100;
	252 :	0000000000010101;
	251 :	0000000000001110;
	250 :	0000000000000101;
	249 :	1111111111111111;
	248 :	1111111111111011;
	247 :	0000000000000111;
	246 :	0000000000010010;
	245 :	0000000000010000;
	244 :	1111111111111010;
	243 :	0000000000010100;
	242 :	0000000000001000;
	241 :	1111111111101010;
	240 :	1111111111111000;
	239 :	1111111111100111;
	238 :	1111111111111101;
	237 :	0000000000000010;
	236 :	0000000000000001;
	235 :	1111111111110111;
	234 :	1111111111110101;
	233 :	1111111111110001;
	232 :	0000000000000000;
	231 :	1111111111111011;
	230 :	1111111111110000;
	229 :	1111111111101110;
	228 :	0000000000101000;
	227 :	0000000000001011;
	226 :	1111111111100011;
	225 :	1111111111101110;
	224 :	0000000000001011;
	223 :	1111111111111000;
	222 :	1111111111110111;
	221 :	1111111111110110;
	220 :	0000000000001001;
	219 :	0000000000011000;
	218 :	0000000000010011;
	217 :	0000000000000110;
	216 :	1111111111110011;
	215 :	1111111111111100;
	214 :	0000000000000111;
	213 :	1111111111101111;
	212 :	1111111111110010;
	211 :	1111111111101110;
	210 :	1111111111110010;
	209 :	0000000000000101;
	208 :	0000000000011000;
	207 :	0000000000001111;
	206 :	1111111111111111;
	205 :	1111111111101011;
	204 :	0000000000000101;
	203 :	1111111111110110;
	202 :	1111111111110011;
	201 :	0000000000010011;
	200 :	0000000000001101;
	199 :	0000000000000001;
	198 :	1111111111110011;
	197 :	0000000000010101;
	196 :	0000000000010101;
	195 :	0000000000001010;
	194 :	1111111111111100;
	193 :	0000000000001001;
	192 :	1111111111111110;
	191 :	0000000000011000;
	190 :	1111111111111100;
	189 :	0000000000000100;
	188 :	0000000000011011;
	187 :	0000000000010000;
	186 :	1111111111111001;
	185 :	1111111111101010;
	184 :	1111111111101100;
	183 :	1111111111101101;
	182 :	1111111111100110;
	181 :	0000000000001101;
	180 :	1111111111110100;
	179 :	0000000000000010;
	178 :	1111111111111010;
	177 :	1111111111110000;
	176 :	0000000000000101;
	175 :	1111111111111000;
	174 :	1111111111111011;
	173 :	1111111111101100;
	172 :	1111111111110100;
	171 :	1111111111100110;
	170 :	0000000000001001;
	169 :	0000000000010001;
	168 :	0000000000001011;
	167 :	1111111111101010;
	166 :	0000000000001011;
	165 :	0000000000011101;
	164 :	1111111111110011;
	163 :	0000000000000000;
	162 :	1111111111101110;
	161 :	0000000000010110;
	160 :	0000000000010010;
	159 :	1111111111111110;
	158 :	1111111111111110;
	157 :	1111111111111100;
	156 :	1111111111010110;
	155 :	1111111111110011;
	154 :	0000000000000011;
	153 :	1111111111111111;
	152 :	1111111111111011;
	151 :	0000000000000101;
	150 :	0000000000000010;
	149 :	0000000000010000;
	148 :	0000000000001000;
	147 :	0000000000010010;
	146 :	1111111111111100;
	145 :	1111111111111111;
	144 :	1111111111110011;
	143 :	1111111111101100;
	142 :	0000000000001001;
	141 :	1111111111110000;
	140 :	1111111111101110;
	139 :	1111111111110000;
	138 :	1111111111110100;
	137 :	1111111111110001;
	136 :	0000000000001011;
	135 :	0000000000001111;
	134 :	0000000000011000;
	133 :	0000000000011101;
	132 :	0000000000001111;
	131 :	0000000000000011;
	130 :	1111111111101100;
	129 :	1111111111011111;
	128 :	1111111111101010;
	127 :	1111111111011011;
	126 :	0000000000000000;
	125 :	1111111111111111;
	124 :	0000000000000101;
	123 :	1111111111100010;
	122 :	1111111111110000;
	121 :	1111111111111001;
	120 :	0000000000011110;
	119 :	1111111111111100;
	118 :	1111111111111011;
	117 :	0000000000010010;
	116 :	1111111111110000;
	115 :	0000000000010101;
	114 :	0000000000010000;
	113 :	1111111111101101;
	112 :	1111111111101110;
	111 :	1111111111111011;
	110 :	1111111111110010;
	109 :	1111111111111001;
	108 :	1111111111101101;
	107 :	0000000000010110;
	106 :	1111111111101110;
	105 :	0000000000000101;
	104 :	1111111111111110;
	103 :	0000000000001101;
	102 :	1111111111111100;
	101 :	1111111111111000;
	100 :	1111111111111101;
	99 :	0000000000000010;
	98 :	1111111111100111;
	97 :	1111111111101000;
	96 :	1111111111110010;
	95 :	1111111111111001;
	94 :	1111111111110110;
	93 :	1111111111101001;
	92 :	1111111111101011;
	91 :	1111111111111100;
	90 :	1111111111101001;
	89 :	0000000000001000;
	88 :	1111111111101110;
	87 :	0000000000000010;
	86 :	1111111111111010;
	85 :	0000000000001101;
	84 :	0000000000000111;
	83 :	1111111111111101;
	82 :	0000000000000111;
	81 :	1111111111110110;
	80 :	1111111111100010;
	79 :	1111111111111000;
	78 :	1111111111111010;
	77 :	0000000000000101;
	76 :	1111111111111001;
	75 :	1111111111110010;
	74 :	1111111111101001;
	73 :	0000000000001011;
	72 :	1111111111110110;
	71 :	1111111111101111;
	70 :	0000000000001100;
	69 :	0000000000000110;
	68 :	1111111111101001;
	67 :	1111111111110111;
	66 :	1111111111110100;
	65 :	0000000000001101;
	64 :	1111111111100100;
	63 :	1111111111100101;
	62 :	1111111111111011;
	61 :	0000000000010010;
	60 :	1111111111101110;
	59 :	1111111111110101;
	58 :	1111111111110001;
	57 :	1111111111111111;
	56 :	1111111111110001;
	55 :	1111111111111111;
	54 :	1111111111110100;
	53 :	0000000000001001;
	52 :	0000000000000100;
	51 :	0000000000001100;
	50 :	0000000000001001;
	49 :	1111111111101111;
	48 :	1111111111111101;
	47 :	0000000000001000;
	46 :	1111111111111001;
	45 :	1111111111111101;
	44 :	0000000000010010;
	43 :	1111111111011011;
	42 :	0000000000001001;
	41 :	0000000000000110;
	40 :	1111111111110000;
	39 :	1111111111111011;
	38 :	1111111111110101;
	37 :	1111111111101011;
	36 :	1111111111100100;
	35 :	0000000000000000;
	34 :	0000000000000011;
	33 :	0000000000010100;
	32 :	1111111111110100;
	31 :	1111111111110000;
	30 :	1111111111110100;
	29 :	0000000000000010;
	28 :	0000000000000100;
	27 :	1111111111101011;
	26 :	0000000000000011;
	25 :	1111111111111011;
	24 :	1111111111101010;
	23 :	0000000000001001;
	22 :	1111111111110111;
	21 :	1111111111101010;
	20 :	0000000000001000;
	19 :	1111111111101110;
	18 :	1111111111101110;
	17 :	0000000000010011;
	16 :	0000000000010101;
	15 :	0000000000001100;
	14 :	0000000000010100;
	13 :	1111111111101100;
	12 :	0000000000010010;
	11 :	0000000000010101;
	10 :	0000000000010110;
	9 :	1111111111101111;
	8 :	1111111111111011;
	7 :	1111111111110011;
	6 :	1111111111101011;
	5 :	1111111111101010;
	4 :	0000000000000100;
	3 :	1111111111110010;
	2 :	0000000000001111;
	1 :	0000000000001001;
	0 :	1111111111110010;
END;
