-- begin_signature
-- weights(numWeights
-- 784
-- neuronNumber
-- 5
-- layerNumber
-- 0
-- addressWidth
-- 10
-- dataWidth
-- 16
-- weightFile
-- "weights/weight_L0_N5.mif")
-- end_signature
WIDTH=16;
DEPTH=784;

ADDRESS_RADIX=UNS;
DATA_RADIX=BIN;

CONTENT BEGIN
	783 :	0000000000010101;
	782 :	0000000000010100;
	781 :	0000000000000001;
	780 :	1111111111110110;
	779 :	1111111111110011;
	778 :	0000000000010000;
	777 :	1111111111110000;
	776 :	1111111111101100;
	775 :	1111111111111100;
	774 :	0000000000001111;
	773 :	1111111111111100;
	772 :	1111111111111100;
	771 :	1111111111110010;
	770 :	1111111111100010;
	769 :	0000000000001101;
	768 :	0000000000001011;
	767 :	0000000000000011;
	766 :	1111111111110110;
	765 :	0000000000011100;
	764 :	1111111111011110;
	763 :	1111111111110000;
	762 :	1111111111111011;
	761 :	1111111111110010;
	760 :	0000000000000010;
	759 :	0000000000001000;
	758 :	1111111111110011;
	757 :	1111111111111100;
	756 :	0000000000010101;
	755 :	1111111111110011;
	754 :	1111111111110010;
	753 :	1111111111110110;
	752 :	0000000000000001;
	751 :	1111111111111000;
	750 :	1111111111110010;
	749 :	1111111111110100;
	748 :	1111111111110010;
	747 :	0000000000001011;
	746 :	0000000000000100;
	745 :	1111111111100100;
	744 :	0000000000000111;
	743 :	0000000000010010;
	742 :	0000000000000010;
	741 :	1111111111100001;
	740 :	1111111111111000;
	739 :	1111111111111100;
	738 :	1111111111111001;
	737 :	1111111111100100;
	736 :	1111111111101001;
	735 :	1111111111011000;
	734 :	1111111111010100;
	733 :	1111111111110011;
	732 :	0000000000000011;
	731 :	0000000000000100;
	730 :	1111111111111011;
	729 :	0000000000000110;
	728 :	1111111111110001;
	727 :	1111111111110010;
	726 :	0000000000000000;
	725 :	1111111111111111;
	724 :	0000000000010101;
	723 :	0000000000001011;
	722 :	0000000000001100;
	721 :	1111111111111110;
	720 :	0000000000010000;
	719 :	1111111111111000;
	718 :	1111111111110111;
	717 :	1111111111111010;
	716 :	1111111111111111;
	715 :	1111111111111011;
	714 :	1111111111110011;
	713 :	1111111111111100;
	712 :	1111111111111010;
	711 :	1111111111101011;
	710 :	0000000000001100;
	709 :	1111111111110010;
	708 :	1111111111101111;
	707 :	1111111111101110;
	706 :	1111111111101110;
	705 :	1111111111101110;
	704 :	1111111111101010;
	703 :	0000000000001001;
	702 :	0000000000000111;
	701 :	1111111111110011;
	700 :	1111111111111010;
	699 :	0000000000001101;
	698 :	0000000000001011;
	697 :	1111111111111110;
	696 :	0000000000001111;
	695 :	0000000000001101;
	694 :	1111111111100101;
	693 :	0000000000001000;
	692 :	0000000000001000;
	691 :	0000000000001100;
	690 :	1111111111110101;
	689 :	0000000000010100;
	688 :	0000000000010101;
	687 :	1111111111110111;
	686 :	1111111111111010;
	685 :	1111111111110001;
	684 :	1111111111111011;
	683 :	1111111111010101;
	682 :	0000000000001100;
	681 :	0000000000000110;
	680 :	1111111111111010;
	679 :	1111111111011110;
	678 :	1111111111101000;
	677 :	1111111111110011;
	676 :	1111111111101001;
	675 :	1111111111110010;
	674 :	0000000000000010;
	673 :	0000000000010000;
	672 :	0000000000010010;
	671 :	1111111111101101;
	670 :	0000000000001011;
	669 :	0000000000000100;
	668 :	0000000000000101;
	667 :	0000000000000011;
	666 :	0000000000100011;
	665 :	0000000000000110;
	664 :	0000000000000000;
	663 :	1111111111101101;
	662 :	1111111111110000;
	661 :	1111111111101000;
	660 :	0000000000001001;
	659 :	1111111111101100;
	658 :	0000000000000011;
	657 :	1111111111111100;
	656 :	0000000000001101;
	655 :	1111111111101100;
	654 :	1111111111111101;
	653 :	1111111111111001;
	652 :	1111111111111010;
	651 :	0000000000001011;
	650 :	1111111111100101;
	649 :	1111111111111100;
	648 :	1111111111101101;
	647 :	0000000000001010;
	646 :	1111111111110100;
	645 :	0000000000000000;
	644 :	1111111111111001;
	643 :	0000000000001110;
	642 :	0000000000010110;
	641 :	1111111111111001;
	640 :	0000000000010110;
	639 :	0000000000001010;
	638 :	0000000000011101;
	637 :	0000000000001111;
	636 :	1111111111110101;
	635 :	1111111111111011;
	634 :	0000000000001000;
	633 :	1111111111111111;
	632 :	0000000000000010;
	631 :	1111111111111000;
	630 :	1111111111110011;
	629 :	0000000000000100;
	628 :	0000000000000110;
	627 :	0000000000000110;
	626 :	1111111111111000;
	625 :	1111111111111100;
	624 :	1111111111111011;
	623 :	0000000000001010;
	622 :	0000000000001101;
	621 :	1111111111111101;
	620 :	0000000000010011;
	619 :	1111111111101010;
	618 :	1111111111111100;
	617 :	1111111111110001;
	616 :	1111111111111011;
	615 :	1111111111101110;
	614 :	1111111111110011;
	613 :	0000000000010100;
	612 :	1111111111111100;
	611 :	0000000000000110;
	610 :	1111111111110110;
	609 :	0000000000000000;
	608 :	1111111111101100;
	607 :	0000000000010110;
	606 :	1111111111110111;
	605 :	0000000000000111;
	604 :	1111111111101111;
	603 :	0000000000001100;
	602 :	1111111111110011;
	601 :	0000000000000010;
	600 :	0000000000001001;
	599 :	1111111111110111;
	598 :	1111111111111100;
	597 :	0000000000000100;
	596 :	1111111111110110;
	595 :	1111111111111011;
	594 :	1111111111111010;
	593 :	1111111111111101;
	592 :	1111111111010011;
	591 :	1111111111111010;
	590 :	0000000000000100;
	589 :	1111111111111111;
	588 :	0000000000010011;
	587 :	0000000000001000;
	586 :	1111111111110101;
	585 :	0000000000000000;
	584 :	0000000000001110;
	583 :	1111111111101111;
	582 :	1111111111110010;
	581 :	0000000000000010;
	580 :	0000000000001001;
	579 :	1111111111101101;
	578 :	0000000000001100;
	577 :	0000000000010000;
	576 :	1111111111110110;
	575 :	1111111111101100;
	574 :	0000000000000001;
	573 :	0000000000000111;
	572 :	1111111111111100;
	571 :	0000000000001100;
	570 :	0000000000001010;
	569 :	1111111111110100;
	568 :	1111111111111100;
	567 :	0000000000000110;
	566 :	1111111111111001;
	565 :	0000000000000101;
	564 :	1111111111100100;
	563 :	1111111111100010;
	562 :	1111111111111011;
	561 :	1111111111110100;
	560 :	1111111111110100;
	559 :	0000000000010001;
	558 :	1111111111110101;
	557 :	0000000000000000;
	556 :	0000000000000001;
	555 :	0000000000001011;
	554 :	1111111111100110;
	553 :	1111111111110111;
	552 :	1111111111011011;
	551 :	1111111111111101;
	550 :	1111111111111110;
	549 :	0000000000000111;
	548 :	0000000000010000;
	547 :	0000000000001010;
	546 :	1111111111101001;
	545 :	0000000000000101;
	544 :	1111111111111110;
	543 :	0000000000001010;
	542 :	0000000000000111;
	541 :	0000000000100001;
	540 :	0000000000010000;
	539 :	1111111111111100;
	538 :	0000000000000000;
	537 :	1111111111101000;
	536 :	0000000000000011;
	535 :	1111111111110000;
	534 :	0000000000001010;
	533 :	0000000000001001;
	532 :	0000000000001110;
	531 :	0000000000010000;
	530 :	0000000000000001;
	529 :	1111111111110100;
	528 :	0000000000010000;
	527 :	1111111111110101;
	526 :	1111111111110101;
	525 :	1111111111110111;
	524 :	1111111111111011;
	523 :	0000000000000000;
	522 :	1111111111110111;
	521 :	1111111111110100;
	520 :	0000000000000001;
	519 :	0000000000001101;
	518 :	0000000000000000;
	517 :	0000000000000110;
	516 :	0000000000010101;
	515 :	0000000000000100;
	514 :	0000000000001000;
	513 :	1111111111111110;
	512 :	1111111111111111;
	511 :	0000000000001011;
	510 :	1111111111111111;
	509 :	1111111111111101;
	508 :	1111111111111111;
	507 :	1111111111110011;
	506 :	0000000000000001;
	505 :	1111111111101100;
	504 :	1111111111101100;
	503 :	0000000000010110;
	502 :	0000000000000011;
	501 :	1111111111101001;
	500 :	1111111111110110;
	499 :	1111111111101010;
	498 :	0000000000000000;
	497 :	1111111111100101;
	496 :	0000000000001001;
	495 :	0000000000001001;
	494 :	0000000000000101;
	493 :	1111111111111100;
	492 :	1111111111111010;
	491 :	1111111111101110;
	490 :	0000000000001001;
	489 :	1111111111101111;
	488 :	1111111111110111;
	487 :	1111111111100011;
	486 :	0000000000001000;
	485 :	1111111111111110;
	484 :	1111111111111111;
	483 :	0000000000010001;
	482 :	0000000000001001;
	481 :	1111111111111110;
	480 :	0000000000001011;
	479 :	1111111111010011;
	478 :	1111111111110111;
	477 :	1111111111111101;
	476 :	0000000000001110;
	475 :	1111111111100100;
	474 :	1111111111100101;
	473 :	0000000000010000;
	472 :	0000000000010011;
	471 :	1111111111101010;
	470 :	1111111111101101;
	469 :	1111111111100100;
	468 :	1111111111111111;
	467 :	1111111111101111;
	466 :	0000000000000100;
	465 :	1111111111111001;
	464 :	0000000000000010;
	463 :	1111111111110101;
	462 :	1111111111100101;
	461 :	1111111111100110;
	460 :	1111111111101011;
	459 :	1111111111111110;
	458 :	1111111111100110;
	457 :	1111111111110101;
	456 :	1111111111110000;
	455 :	1111111111011101;
	454 :	0000000000001110;
	453 :	0000000000000001;
	452 :	0000000000001111;
	451 :	1111111111111000;
	450 :	0000000000000110;
	449 :	0000000000001001;
	448 :	0000000000000000;
	447 :	0000000000001000;
	446 :	0000000000001110;
	445 :	0000000000011000;
	444 :	0000000000000111;
	443 :	0000000000000110;
	442 :	1111111111111001;
	441 :	1111111111110001;
	440 :	1111111111111101;
	439 :	0000000000000100;
	438 :	1111111111101001;
	437 :	1111111111111010;
	436 :	1111111111110010;
	435 :	1111111111111011;
	434 :	1111111111111110;
	433 :	1111111111101100;
	432 :	0000000000001001;
	431 :	0000000000000000;
	430 :	1111111111110001;
	429 :	1111111111110110;
	428 :	1111111111110010;
	427 :	1111111111100111;
	426 :	1111111111111100;
	425 :	1111111111111011;
	424 :	1111111111110100;
	423 :	1111111111111011;
	422 :	1111111111111001;
	421 :	0000000000000001;
	420 :	0000000000010100;
	419 :	1111111111110111;
	418 :	1111111111101111;
	417 :	1111111111111100;
	416 :	1111111111110001;
	415 :	1111111111010110;
	414 :	1111111111010111;
	413 :	1111111111100111;
	412 :	1111111111100000;
	411 :	1111111111111011;
	410 :	0000000000000101;
	409 :	0000000000000110;
	408 :	1111111111111010;
	407 :	1111111111111000;
	406 :	0000000000000001;
	405 :	0000000000001110;
	404 :	0000000000001011;
	403 :	1111111111111010;
	402 :	1111111111110100;
	401 :	0000000000001100;
	400 :	0000000000001010;
	399 :	1111111111011110;
	398 :	1111111111101001;
	397 :	0000000000001011;
	396 :	1111111111111010;
	395 :	1111111111101011;
	394 :	1111111111111000;
	393 :	0000000000000101;
	392 :	0000000000001001;
	391 :	0000000000001011;
	390 :	0000000000000111;
	389 :	1111111111110011;
	388 :	1111111111100111;
	387 :	1111111111001100;
	386 :	1111111111011000;
	385 :	1111111111001100;
	384 :	1111111111011101;
	383 :	1111111111101111;
	382 :	1111111111100110;
	381 :	1111111111011111;
	380 :	0000000000000010;
	379 :	1111111111111101;
	378 :	1111111111110101;
	377 :	1111111111111001;
	376 :	0000000000001100;
	375 :	1111111111110111;
	374 :	1111111111111111;
	373 :	1111111111111010;
	372 :	0000000000000100;
	371 :	1111111111111110;
	370 :	1111111111111010;
	369 :	1111111111110011;
	368 :	1111111111101101;
	367 :	1111111111110101;
	366 :	0000000000001111;
	365 :	0000000000000011;
	364 :	0000000000010110;
	363 :	0000000000010000;
	362 :	0000000000000101;
	361 :	1111111111110001;
	360 :	1111111111100010;
	359 :	1111111111001110;
	358 :	1111111110110010;
	357 :	1111111111000110;
	356 :	1111111111001110;
	355 :	1111111111001101;
	354 :	1111111111101011;
	353 :	1111111111101111;
	352 :	1111111111110000;
	351 :	0000000000000001;
	350 :	1111111111111110;
	349 :	1111111111111111;
	348 :	1111111111111110;
	347 :	0000000000010111;
	346 :	0000000000000011;
	345 :	1111111111111111;
	344 :	1111111111110101;
	343 :	1111111111101001;
	342 :	0000000000000000;
	341 :	0000000000010000;
	340 :	1111111111101001;
	339 :	1111111111101110;
	338 :	1111111111111000;
	337 :	0000000000000110;
	336 :	0000000000001000;
	335 :	0000000000010011;
	334 :	1111111111111111;
	333 :	0000000000000001;
	332 :	1111111111101001;
	331 :	0000000000001000;
	330 :	1111111111101000;
	329 :	1111111111101110;
	328 :	1111111111111100;
	327 :	1111111111011110;
	326 :	1111111111101111;
	325 :	1111111111110110;
	324 :	1111111111111001;
	323 :	1111111111111110;
	322 :	1111111111111010;
	321 :	0000000000001101;
	320 :	0000000000001101;
	319 :	0000000000000100;
	318 :	1111111111110001;
	317 :	1111111111111110;
	316 :	1111111111110101;
	315 :	1111111111110110;
	314 :	1111111111100111;
	313 :	1111111111110101;
	312 :	1111111111101101;
	311 :	1111111111110100;
	310 :	0000000000000111;
	309 :	1111111111111011;
	308 :	1111111111110010;
	307 :	0000000000010011;
	306 :	0000000001000000;
	305 :	0000000001000101;
	304 :	0000000000010101;
	303 :	0000000000100101;
	302 :	0000000000011001;
	301 :	0000000000001110;
	300 :	0000000000010111;
	299 :	1111111111110011;
	298 :	0000000000000100;
	297 :	0000000000000000;
	296 :	0000000000010110;
	295 :	1111111111111100;
	294 :	0000000000011010;
	293 :	0000000000001001;
	292 :	0000000000000001;
	291 :	1111111111110010;
	290 :	0000000000001010;
	289 :	1111111111110101;
	288 :	1111111111111000;
	287 :	0000000000001111;
	286 :	1111111111111011;
	285 :	1111111111110100;
	284 :	0000000000000010;
	283 :	1111111111111010;
	282 :	1111111111110000;
	281 :	0000000000001100;
	280 :	0000000000001010;
	279 :	0000000000010010;
	278 :	0000000001001011;
	277 :	0000000000101010;
	276 :	0000000000011000;
	275 :	0000000000010000;
	274 :	1111111111111010;
	273 :	0000000000010001;
	272 :	0000000000011001;
	271 :	0000000000011110;
	270 :	0000000000001101;
	269 :	0000000000011011;
	268 :	0000000000010100;
	267 :	0000000000010111;
	266 :	0000000000011101;
	265 :	1111111111111110;
	264 :	0000000000010011;
	263 :	0000000000000011;
	262 :	1111111111111001;
	261 :	1111111111101101;
	260 :	1111111111110011;
	259 :	0000000000001101;
	258 :	1111111111110011;
	257 :	1111111111101000;
	256 :	0000000000000111;
	255 :	1111111111101110;
	254 :	1111111111110110;
	253 :	0000000000000001;
	252 :	0000000000001001;
	251 :	0000000000101001;
	250 :	0000000000011110;
	249 :	0000000000101000;
	248 :	0000000000011111;
	247 :	0000000000011100;
	246 :	0000000000010001;
	245 :	0000000000000100;
	244 :	0000000000011101;
	243 :	0000000000000110;
	242 :	0000000000000100;
	241 :	0000000000000001;
	240 :	0000000000000100;
	239 :	1111111111111001;
	238 :	0000000000010011;
	237 :	0000000000000001;
	236 :	0000000000001110;
	235 :	1111111111110010;
	234 :	1111111111110000;
	233 :	1111111111110100;
	232 :	1111111111011110;
	231 :	1111111111101010;
	230 :	1111111111111100;
	229 :	1111111111110101;
	228 :	1111111111110001;
	227 :	1111111111110101;
	226 :	1111111111110111;
	225 :	0000000000010011;
	224 :	0000000000001101;
	223 :	0000000000100110;
	222 :	1111111111110000;
	221 :	1111111111101110;
	220 :	1111111111111001;
	219 :	0000000000010011;
	218 :	0000000000000000;
	217 :	0000000000010000;
	216 :	0000000000001001;
	215 :	1111111111101111;
	214 :	1111111111110000;
	213 :	0000000000000101;
	212 :	1111111111110110;
	211 :	1111111111111011;
	210 :	1111111111110110;
	209 :	0000000000000000;
	208 :	0000000000000110;
	207 :	1111111111111110;
	206 :	1111111111101111;
	205 :	1111111111101100;
	204 :	0000000000001011;
	203 :	1111111111101001;
	202 :	1111111111110011;
	201 :	1111111111111111;
	200 :	1111111111101101;
	199 :	1111111111110010;
	198 :	0000000000001000;
	197 :	0000000000001100;
	196 :	1111111111110110;
	195 :	1111111111111111;
	194 :	0000000000010110;
	193 :	0000000000001001;
	192 :	1111111111110101;
	191 :	0000000000000011;
	190 :	1111111111111000;
	189 :	1111111111110111;
	188 :	0000000000001011;
	187 :	1111111111100001;
	186 :	1111111111111110;
	185 :	0000000000001000;
	184 :	1111111111101100;
	183 :	0000000000000101;
	182 :	1111111111111001;
	181 :	0000000000001010;
	180 :	1111111111110000;
	179 :	0000000000001010;
	178 :	0000000000000110;
	177 :	1111111111101111;
	176 :	0000000000000001;
	175 :	1111111111100110;
	174 :	0000000000000100;
	173 :	1111111111110010;
	172 :	1111111111101010;
	171 :	0000000000010000;
	170 :	0000000000010100;
	169 :	0000000000000001;
	168 :	1111111111110000;
	167 :	0000000000010011;
	166 :	0000000000001101;
	165 :	1111111111110011;
	164 :	1111111111100001;
	163 :	1111111111111111;
	162 :	1111111111100100;
	161 :	1111111111010111;
	160 :	1111111111111000;
	159 :	1111111111011011;
	158 :	1111111111100010;
	157 :	1111111111110101;
	156 :	1111111111101101;
	155 :	1111111111111101;
	154 :	1111111111110101;
	153 :	1111111111101101;
	152 :	1111111111111011;
	151 :	1111111111110001;
	150 :	1111111111111101;
	149 :	1111111111101110;
	148 :	1111111111110011;
	147 :	1111111111101000;
	146 :	0000000000000000;
	145 :	0000000000001100;
	144 :	0000000000001001;
	143 :	0000000000000000;
	142 :	1111111111110000;
	141 :	0000000000001010;
	140 :	1111111111101011;
	139 :	1111111111101110;
	138 :	0000000000001100;
	137 :	1111111111110111;
	136 :	0000000000000001;
	135 :	0000000000001011;
	134 :	1111111111111101;
	133 :	1111111111101011;
	132 :	1111111111110011;
	131 :	1111111111011100;
	130 :	1111111111111001;
	129 :	1111111111110010;
	128 :	1111111111110000;
	127 :	1111111111111111;
	126 :	1111111111110001;
	125 :	1111111111101100;
	124 :	0000000000000101;
	123 :	1111111111110001;
	122 :	1111111111011111;
	121 :	1111111111111010;
	120 :	0000000000010010;
	119 :	0000000000000001;
	118 :	0000000000000000;
	117 :	0000000000000111;
	116 :	0000000000001010;
	115 :	0000000000001100;
	114 :	1111111111110110;
	113 :	0000000000010110;
	112 :	0000000000001101;
	111 :	0000000000001110;
	110 :	0000000000000010;
	109 :	0000000000001001;
	108 :	1111111111100010;
	107 :	1111111111100011;
	106 :	1111111111110001;
	105 :	1111111111101111;
	104 :	1111111111110011;
	103 :	1111111111110000;
	102 :	1111111111110110;
	101 :	1111111111100110;
	100 :	1111111111110001;
	99 :	1111111111011111;
	98 :	1111111111010100;
	97 :	1111111111110010;
	96 :	1111111111111101;
	95 :	1111111111110001;
	94 :	1111111111110111;
	93 :	1111111111111000;
	92 :	0000000000000011;
	91 :	0000000000001011;
	90 :	1111111111110001;
	89 :	1111111111110011;
	88 :	0000000000001111;
	87 :	0000000000001000;
	86 :	1111111111111101;
	85 :	1111111111110000;
	84 :	0000000000001001;
	83 :	0000000000001111;
	82 :	1111111111110001;
	81 :	0000000000000101;
	80 :	0000000000000001;
	79 :	1111111111110110;
	78 :	0000000000000010;
	77 :	0000000000000110;
	76 :	1111111111110101;
	75 :	1111111111111101;
	74 :	1111111111110110;
	73 :	1111111111101000;
	72 :	1111111111101100;
	71 :	1111111111101110;
	70 :	0000000000000000;
	69 :	1111111111100110;
	68 :	1111111111101100;
	67 :	0000000000001111;
	66 :	0000000000001010;
	65 :	0000000000000100;
	64 :	0000000000000110;
	63 :	0000000000011001;
	62 :	0000000000010101;
	61 :	0000000000001000;
	60 :	0000000000000010;
	59 :	0000000000000111;
	58 :	1111111111101110;
	57 :	0000000000000110;
	56 :	1111111111111100;
	55 :	0000000000010010;
	54 :	0000000000001000;
	53 :	1111111111111110;
	52 :	1111111111111100;
	51 :	0000000000010010;
	50 :	1111111111110111;
	49 :	0000000000001101;
	48 :	0000000000000000;
	47 :	1111111111111101;
	46 :	1111111111111111;
	45 :	1111111111110000;
	44 :	0000000000000000;
	43 :	0000000000010000;
	42 :	1111111111110101;
	41 :	1111111111111000;
	40 :	1111111111111110;
	39 :	0000000000010011;
	38 :	0000000000010011;
	37 :	1111111111101101;
	36 :	0000000000000011;
	35 :	0000000000010011;
	34 :	0000000000000100;
	33 :	0000000000010101;
	32 :	1111111111110110;
	31 :	0000000000000011;
	30 :	0000000000001010;
	29 :	0000000000000101;
	28 :	0000000000000100;
	27 :	1111111111101110;
	26 :	1111111111111110;
	25 :	1111111111101111;
	24 :	0000000000000000;
	23 :	0000000000001000;
	22 :	0000000000010001;
	21 :	0000000000000000;
	20 :	0000000000010001;
	19 :	0000000000000110;
	18 :	1111111111111100;
	17 :	0000000000001110;
	16 :	1111111111110110;
	15 :	0000000000001101;
	14 :	1111111111101011;
	13 :	0000000000001100;
	12 :	1111111111101010;
	11 :	0000000000001111;
	10 :	0000000000000101;
	9 :	0000000000001110;
	8 :	1111111111101011;
	7 :	1111111111110100;
	6 :	1111111111110110;
	5 :	0000000000001111;
	4 :	0000000000000100;
	3 :	0000000000000011;
	2 :	1111111111111110;
	1 :	1111111111101011;
	0 :	1111111111111000;
END;
