-- begin_signature
-- weights(numWeights
-- 784
-- neuronNumber
-- 9
-- layerNumber
-- 0
-- addressWidth
-- 10
-- dataWidth
-- 16
-- weightFile
-- "weights/weight_L0_N9.mif")
-- end_signature
WIDTH=16;
DEPTH=784;

ADDRESS_RADIX=UNS;
DATA_RADIX=BIN;

CONTENT BEGIN
	783 :	1111111111111111;
	782 :	0000000000001011;
	781 :	1111111111111011;
	780 :	1111111111111011;
	779 :	0000000000010010;
	778 :	1111111111111011;
	777 :	0000000000001101;
	776 :	1111111111110001;
	775 :	1111111111101101;
	774 :	1111111111100011;
	773 :	0000000000000110;
	772 :	0000000000000111;
	771 :	1111111111011001;
	770 :	1111111111011000;
	769 :	0000000000000110;
	768 :	1111111111110010;
	767 :	0000000000000110;
	766 :	0000000000000011;
	765 :	0000000000001000;
	764 :	1111111111111100;
	763 :	1111111111100000;
	762 :	1111111111110011;
	761 :	1111111111111110;
	760 :	1111111111101111;
	759 :	0000000000000010;
	758 :	0000000000000101;
	757 :	0000000000001000;
	756 :	0000000000001000;
	755 :	1111111111110110;
	754 :	0000000000000000;
	753 :	0000000000010000;
	752 :	0000000000001000;
	751 :	1111111111111011;
	750 :	1111111111110110;
	749 :	0000000000000010;
	748 :	1111111111101000;
	747 :	0000000000001010;
	746 :	1111111111101100;
	745 :	1111111111011111;
	744 :	1111111111111000;
	743 :	0000000000000011;
	742 :	1111111111000010;
	741 :	1111111111101111;
	740 :	1111111111011100;
	739 :	1111111111101100;
	738 :	1111111111010111;
	737 :	1111111111101101;
	736 :	1111111111111000;
	735 :	0000000000010010;
	734 :	1111111111110100;
	733 :	1111111111110110;
	732 :	0000000000001000;
	731 :	1111111111101010;
	730 :	1111111111110001;
	729 :	0000000000000001;
	728 :	0000000000001110;
	727 :	1111111111101100;
	726 :	0000000000010011;
	725 :	1111111111101111;
	724 :	1111111111111001;
	723 :	1111111111110000;
	722 :	1111111111110110;
	721 :	1111111111110011;
	720 :	1111111111110101;
	719 :	0000000000100100;
	718 :	1111111111011010;
	717 :	1111111111011100;
	716 :	1111111111111001;
	715 :	1111111111110001;
	714 :	1111111111110001;
	713 :	1111111111101011;
	712 :	0000000000010011;
	711 :	1111111111110101;
	710 :	0000000000000100;
	709 :	0000000000011011;
	708 :	0000000000010011;
	707 :	0000000000101110;
	706 :	0000000000011111;
	705 :	0000000000000101;
	704 :	1111111111111110;
	703 :	1111111111110100;
	702 :	0000000000001001;
	701 :	1111111111111110;
	700 :	0000000000010000;
	699 :	0000000000001110;
	698 :	1111111111101011;
	697 :	1111111111111110;
	696 :	1111111111101110;
	695 :	0000000000000001;
	694 :	1111111111110010;
	693 :	1111111111111100;
	692 :	1111111111111000;
	691 :	0000000000000100;
	690 :	0000000000001101;
	689 :	0000000000011111;
	688 :	1111111111110100;
	687 :	0000000000000101;
	686 :	0000000000011010;
	685 :	1111111111111100;
	684 :	1111111111110101;
	683 :	0000000000001110;
	682 :	0000000000011001;
	681 :	0000000000010100;
	680 :	0000000000000101;
	679 :	0000000000010111;
	678 :	0000000000001000;
	677 :	0000000000010111;
	676 :	0000000000011001;
	675 :	0000000000110011;
	674 :	1111111111111010;
	673 :	0000000000010101;
	672 :	0000000000010011;
	671 :	1111111111110010;
	670 :	0000000000000111;
	669 :	0000000000010000;
	668 :	0000000000000010;
	667 :	1111111111100010;
	666 :	1111111111101100;
	665 :	1111111111100010;
	664 :	1111111111110001;
	663 :	1111111111101111;
	662 :	1111111111111100;
	661 :	0000000000000101;
	660 :	0000000000000011;
	659 :	0000000000000011;
	658 :	0000000000000100;
	657 :	1111111111111011;
	656 :	1111111111111000;
	655 :	1111111111111010;
	654 :	1111111111111000;
	653 :	0000000000000110;
	652 :	1111111111111000;
	651 :	0000000000001101;
	650 :	0000000000000111;
	649 :	1111111111100101;
	648 :	1111111111101010;
	647 :	0000000000100110;
	646 :	0000000000001001;
	645 :	0000000000001011;
	644 :	0000000000000000;
	643 :	1111111111110110;
	642 :	0000000000001011;
	641 :	1111111111110110;
	640 :	1111111111011011;
	639 :	1111111111110101;
	638 :	1111111111110111;
	637 :	1111111111011001;
	636 :	0000000000001010;
	635 :	1111111111110001;
	634 :	0000000000001110;
	633 :	0000000000000100;
	632 :	0000000000001001;
	631 :	0000000000000111;
	630 :	1111111111101110;
	629 :	0000000000001111;
	628 :	0000000000001101;
	627 :	1111111111111101;
	626 :	1111111111101111;
	625 :	0000000000010010;
	624 :	1111111111110001;
	623 :	0000000000010000;
	622 :	1111111111111001;
	621 :	1111111111011100;
	620 :	1111111111101101;
	619 :	0000000000001011;
	618 :	0000000000010101;
	617 :	0000000000001100;
	616 :	0000000000001000;
	615 :	0000000000001011;
	614 :	1111111111111011;
	613 :	1111111111110001;
	612 :	1111111111110001;
	611 :	1111111111100101;
	610 :	1111111111110001;
	609 :	1111111111100011;
	608 :	0000000000000001;
	607 :	1111111111111011;
	606 :	0000000000001011;
	605 :	1111111111110111;
	604 :	0000000000010001;
	603 :	0000000000001110;
	602 :	0000000000001010;
	601 :	1111111111111010;
	600 :	0000000000000101;
	599 :	0000000000000101;
	598 :	0000000000000011;
	597 :	0000000000001000;
	596 :	1111111111111001;
	595 :	1111111111111001;
	594 :	1111111111110000;
	593 :	1111111111101011;
	592 :	1111111111001011;
	591 :	1111111111011110;
	590 :	1111111111101100;
	589 :	0000000000010010;
	588 :	0000000000001100;
	587 :	0000000000000101;
	586 :	1111111111101100;
	585 :	1111111111111011;
	584 :	1111111110111101;
	583 :	0000000000000000;
	582 :	1111111111111111;
	581 :	1111111111111101;
	580 :	0000000000000101;
	579 :	1111111111110000;
	578 :	0000000000001101;
	577 :	0000000000000101;
	576 :	0000000000001110;
	575 :	0000000000100110;
	574 :	0000000000001000;
	573 :	0000000000010100;
	572 :	1111111111101001;
	571 :	0000000000000111;
	570 :	0000000000000001;
	569 :	0000000000000000;
	568 :	0000000000000001;
	567 :	0000000000001101;
	566 :	1111111111110100;
	565 :	1111111111101010;
	564 :	1111111111100001;
	563 :	1111111111110001;
	562 :	1111111111101110;
	561 :	1111111111110101;
	560 :	0000000000010001;
	559 :	1111111111111110;
	558 :	1111111111011111;
	557 :	1111111110110000;
	556 :	1111111111010111;
	555 :	1111111111101000;
	554 :	1111111111111011;
	553 :	0000000000001010;
	552 :	1111111111101000;
	551 :	1111111111111000;
	550 :	0000000000000110;
	549 :	1111111111100110;
	548 :	1111111111111010;
	547 :	0000000000010100;
	546 :	0000000000000110;
	545 :	0000000000000111;
	544 :	1111111111111001;
	543 :	1111111111110000;
	542 :	0000000000001001;
	541 :	1111111111110110;
	540 :	0000000000010010;
	539 :	1111111111011010;
	538 :	1111111111101011;
	537 :	0000000000001111;
	536 :	1111111111100100;
	535 :	1111111111110101;
	534 :	0000000000010010;
	533 :	1111111111110101;
	532 :	1111111111111110;
	531 :	1111111111110100;
	530 :	1111111111101001;
	529 :	1111111111011010;
	528 :	1111111111100000;
	527 :	1111111111110111;
	526 :	0000000000001010;
	525 :	0000000000001101;
	524 :	0000000000001111;
	523 :	1111111111111010;
	522 :	1111111111110010;
	521 :	0000000000010001;
	520 :	1111111111110000;
	519 :	1111111111110010;
	518 :	1111111111111001;
	517 :	1111111111111100;
	516 :	0000000000000000;
	515 :	1111111111100001;
	514 :	1111111111111101;
	513 :	0000000000001100;
	512 :	0000000000000111;
	511 :	1111111111010010;
	510 :	1111111111111011;
	509 :	1111111111011000;
	508 :	1111111111101000;
	507 :	1111111111110010;
	506 :	0000000000001110;
	505 :	0000000000010010;
	504 :	1111111111101110;
	503 :	0000000000001010;
	502 :	0000000000100100;
	501 :	0000000000010001;
	500 :	1111111111010110;
	499 :	1111111111111100;
	498 :	0000000000010011;
	497 :	0000000000001001;
	496 :	0000000000000001;
	495 :	0000000000001110;
	494 :	1111111111110100;
	493 :	0000000000001000;
	492 :	0000000000000101;
	491 :	0000000000000101;
	490 :	0000000000000000;
	489 :	0000000000011101;
	488 :	1111111111111100;
	487 :	0000000000000000;
	486 :	1111111111101001;
	485 :	1111111111100101;
	484 :	0000000000010010;
	483 :	0000000000010001;
	482 :	0000000000000010;
	481 :	1111111111011110;
	480 :	0000000000000101;
	479 :	0000000000010000;
	478 :	0000000000000101;
	477 :	1111111111110011;
	476 :	1111111111101101;
	475 :	1111111111100110;
	474 :	1111111111010110;
	473 :	1111111111111001;
	472 :	0000000000010110;
	471 :	0000000000010111;
	470 :	0000000000010110;
	469 :	0000000000001001;
	468 :	0000000000001001;
	467 :	1111111111110110;
	466 :	0000000000001001;
	465 :	1111111111101001;
	464 :	0000000000001101;
	463 :	1111111111110010;
	462 :	0000000000001001;
	461 :	1111111111110010;
	460 :	0000000000000000;
	459 :	1111111111110111;
	458 :	1111111111111001;
	457 :	1111111111111100;
	456 :	0000000000001100;
	455 :	1111111111111000;
	454 :	0000000000001001;
	453 :	1111111111010111;
	452 :	1111111111001010;
	451 :	0000000000000100;
	450 :	0000000000001110;
	449 :	1111111111101101;
	448 :	0000000000000001;
	447 :	0000000000001101;
	446 :	0000000000000111;
	445 :	1111111111110111;
	444 :	0000000000001010;
	443 :	0000000000010111;
	442 :	0000000000000011;
	441 :	0000000000100000;
	440 :	0000000000000001;
	439 :	0000000000011011;
	438 :	0000000000000101;
	437 :	0000000000000111;
	436 :	0000000000000100;
	435 :	1111111111110111;
	434 :	0000000000010110;
	433 :	1111111111111100;
	432 :	0000000000010011;
	431 :	0000000000000100;
	430 :	1111111111110110;
	429 :	0000000000010001;
	428 :	0000000000000111;
	427 :	0000000000000100;
	426 :	0000000000010011;
	425 :	1111111111000100;
	424 :	1111111111101001;
	423 :	0000000000110000;
	422 :	0000000000010011;
	421 :	1111111111111110;
	420 :	1111111111111001;
	419 :	1111111111110001;
	418 :	1111111111001111;
	417 :	1111111111011100;
	416 :	1111111111111100;
	415 :	0000000000101100;
	414 :	0000000000101001;
	413 :	0000000000011100;
	412 :	0000000000001010;
	411 :	0000000000000000;
	410 :	0000000000000001;
	409 :	0000000000000001;
	408 :	1111111111111001;
	407 :	1111111111111111;
	406 :	1111111111111010;
	405 :	0000000000000011;
	404 :	1111111111111101;
	403 :	1111111111110010;
	402 :	0000000000000010;
	401 :	0000000000010001;
	400 :	1111111111111001;
	399 :	1111111111110111;
	398 :	0000000000110100;
	397 :	0000000000011011;
	396 :	1111111111111001;
	395 :	0000000000110000;
	394 :	1111111111111010;
	393 :	1111111111110110;
	392 :	0000000000000010;
	391 :	1111111111110001;
	390 :	1111111111111111;
	389 :	1111111111100111;
	388 :	1111111111101111;
	387 :	0000000000110010;
	386 :	0000000000011000;
	385 :	1111111111111100;
	384 :	1111111111111111;
	383 :	1111111111111110;
	382 :	1111111111111100;
	381 :	1111111111101001;
	380 :	1111111111110001;
	379 :	1111111111110111;
	378 :	0000000000000010;
	377 :	0000000000010000;
	376 :	0000000000001011;
	375 :	1111111111110001;
	374 :	1111111111111001;
	373 :	0000000000110110;
	372 :	0000000000011011;
	371 :	0000000000011100;
	370 :	0000000000001001;
	369 :	1111111111111111;
	368 :	1111111111101011;
	367 :	0000000000000010;
	366 :	0000000000001000;
	365 :	0000000000000000;
	364 :	0000000000000011;
	363 :	0000000000011101;
	362 :	1111111111010111;
	361 :	1111111111101010;
	360 :	1111111111011111;
	359 :	1111111111100110;
	358 :	1111111111110011;
	357 :	0000000000010000;
	356 :	1111111111110111;
	355 :	1111111111111110;
	354 :	1111111111101001;
	353 :	1111111111100011;
	352 :	1111111111101100;
	351 :	1111111111100011;
	350 :	0000000000001100;
	349 :	0000000000001000;
	348 :	0000000000110010;
	347 :	0000000000100100;
	346 :	0000000000100000;
	345 :	0000000000100010;
	344 :	0000000000100110;
	343 :	1111111111111000;
	342 :	1111111111001100;
	341 :	0000000000100000;
	340 :	1111111111000110;
	339 :	0000000000000101;
	338 :	1111111111111101;
	337 :	1111111111110001;
	336 :	1111111111110111;
	335 :	0000000000000000;
	334 :	1111111111011010;
	333 :	1111111111101101;
	332 :	1111111111100010;
	331 :	1111111111110000;
	330 :	1111111111110010;
	329 :	1111111111100011;
	328 :	1111111111111010;
	327 :	0000000000000011;
	326 :	1111111111100100;
	325 :	1111111111101101;
	324 :	1111111111101111;
	323 :	1111111111101000;
	322 :	0000000000000111;
	321 :	0000000000100110;
	320 :	0000000000101010;
	319 :	0000000000011110;
	318 :	0000000000001001;
	317 :	1111111111111000;
	316 :	1111111111110000;
	315 :	1111111111111000;
	314 :	1111111110111010;
	313 :	1111111111100111;
	312 :	1111111111100010;
	311 :	0000000000100100;
	310 :	0000000000001010;
	309 :	0000000000011000;
	308 :	0000000000001010;
	307 :	0000000000010110;
	306 :	0000000000000111;
	305 :	1111111111111100;
	304 :	1111111111000110;
	303 :	1111111111010100;
	302 :	1111111111101111;
	301 :	1111111111101100;
	300 :	1111111111110001;
	299 :	1111111111101010;
	298 :	1111111111100101;
	297 :	1111111111010011;
	296 :	1111111111101000;
	295 :	1111111111101111;
	294 :	0000000000101100;
	293 :	0000000000110101;
	292 :	0000000000010010;
	291 :	0000000000001101;
	290 :	1111111111100011;
	289 :	1111111111011110;
	288 :	1111111111100110;
	287 :	1111111111011010;
	286 :	1111111111100000;
	285 :	1111111111010001;
	284 :	1111111111100101;
	283 :	0000000000100101;
	282 :	1111111111010101;
	281 :	1111111111101110;
	280 :	0000000000000001;
	279 :	0000000000001010;
	278 :	0000000000010010;
	277 :	1111111111111110;
	276 :	1111111111100110;
	275 :	1111111111111001;
	274 :	1111111111110111;
	273 :	1111111111101101;
	272 :	1111111111000101;
	271 :	1111111111001011;
	270 :	1111111111000000;
	269 :	1111111111111111;
	268 :	1111111111111000;
	267 :	0000000000010001;
	266 :	0000000000101111;
	265 :	0000000000101010;
	264 :	1111111111101011;
	263 :	1111111111101100;
	262 :	1111111111001110;
	261 :	1111111111010101;
	260 :	1111111111000111;
	259 :	0000000000000011;
	258 :	0000000000000100;
	257 :	0000000000000011;
	256 :	0000000000011101;
	255 :	0000000000010010;
	254 :	1111111111110100;
	253 :	1111111111110011;
	252 :	1111111111011110;
	251 :	1111111111101111;
	250 :	1111111111111010;
	249 :	0000000000001111;
	248 :	1111111111111110;
	247 :	0000000000000000;
	246 :	1111111111111010;
	245 :	1111111111110011;
	244 :	1111111110110100;
	243 :	1111111110101011;
	242 :	1111111111000100;
	241 :	1111111111110101;
	240 :	1111111111111010;
	239 :	0000000000010000;
	238 :	0000000000011001;
	237 :	0000000000010000;
	236 :	1111111111110110;
	235 :	1111111111011111;
	234 :	1111111111110110;
	233 :	1111111111111110;
	232 :	1111111111101011;
	231 :	1111111111111110;
	230 :	1111111111101001;
	229 :	1111111111111110;
	228 :	0000000000100100;
	227 :	0000000000100111;
	226 :	0000000000101000;
	225 :	0000000000000110;
	224 :	1111111111111011;
	223 :	1111111111110011;
	222 :	1111111111110001;
	221 :	1111111111111111;
	220 :	0000000000011001;
	219 :	0000000000011000;
	218 :	1111111111011011;
	217 :	1111111111001011;
	216 :	1111111110111010;
	215 :	1111111110111000;
	214 :	1111111111110010;
	213 :	0000000000001000;
	212 :	1111111111110010;
	211 :	0000000000001001;
	210 :	0000000000000000;
	209 :	1111111111111010;
	208 :	0000000000001111;
	207 :	1111111111101011;
	206 :	1111111111101000;
	205 :	1111111111111111;
	204 :	1111111111111101;
	203 :	0000000000010101;
	202 :	0000000000100011;
	201 :	0000000000011111;
	200 :	0000000000110011;
	199 :	1111111111111011;
	198 :	1111111111110111;
	197 :	0000000000010001;
	196 :	0000000000000011;
	195 :	0000000000010100;
	194 :	0000000000011100;
	193 :	0000000000001110;
	192 :	0000000000001011;
	191 :	1111111111101000;
	190 :	1111111111100100;
	189 :	1111111111001001;
	188 :	1111111111011110;
	187 :	1111111111010000;
	186 :	1111111111111010;
	185 :	1111111111011011;
	184 :	1111111111111011;
	183 :	1111111111110011;
	182 :	1111111111111111;
	181 :	0000000000001111;
	180 :	1111111111101110;
	179 :	0000000000000011;
	178 :	0000000000001010;
	177 :	0000000000001010;
	176 :	0000000000000011;
	175 :	0000000000011010;
	174 :	0000000000100011;
	173 :	1111111111101100;
	172 :	0000000000100110;
	171 :	0000000000010110;
	170 :	0000000000010000;
	169 :	0000000000000000;
	168 :	1111111111110110;
	167 :	0000000000001011;
	166 :	1111111111111000;
	165 :	0000000000011001;
	164 :	0000000000001010;
	163 :	1111111111110101;
	162 :	1111111111001110;
	161 :	1111111111011001;
	160 :	1111111111010101;
	159 :	1111111111011001;
	158 :	1111111111110011;
	157 :	1111111111100100;
	156 :	1111111111111110;
	155 :	0000000000001001;
	154 :	0000000000001001;
	153 :	0000000000011001;
	152 :	0000000000000000;
	151 :	1111111111111010;
	150 :	0000000000011001;
	149 :	0000000000001111;
	148 :	0000000000001101;
	147 :	0000000000001000;
	146 :	0000000000100001;
	145 :	0000000000100001;
	144 :	0000000000110001;
	143 :	0000000000001011;
	142 :	1111111111111000;
	141 :	1111111111110011;
	140 :	0000000000000000;
	139 :	0000000000000010;
	138 :	1111111111111111;
	137 :	1111111111001110;
	136 :	1111111111110011;
	135 :	1111111111011110;
	134 :	1111111111011101;
	133 :	1111111111011001;
	132 :	1111111111101110;
	131 :	1111111111101111;
	130 :	1111111111111000;
	129 :	1111111111100111;
	128 :	0000000000000010;
	127 :	1111111111110110;
	126 :	1111111111110000;
	125 :	0000000000000000;
	124 :	1111111111111110;
	123 :	0000000000011001;
	122 :	1111111111110101;
	121 :	0000000000000100;
	120 :	1111111111110110;
	119 :	1111111111111001;
	118 :	0000000000001000;
	117 :	0000000000011001;
	116 :	0000000000100101;
	115 :	0000000000001010;
	114 :	0000000000010100;
	113 :	0000000000010110;
	112 :	1111111111111011;
	111 :	1111111111110101;
	110 :	1111111111111100;
	109 :	1111111111111111;
	108 :	1111111111011000;
	107 :	1111111111101110;
	106 :	0000000000100001;
	105 :	0000000001000001;
	104 :	0000000000001101;
	103 :	0000000000100010;
	102 :	1111111111111110;
	101 :	0000000000001000;
	100 :	0000000000010100;
	99 :	1111111111110010;
	98 :	1111111111111010;
	97 :	0000000000001000;
	96 :	1111111111111010;
	95 :	1111111111110110;
	94 :	1111111111111111;
	93 :	1111111111100010;
	92 :	0000000000001110;
	91 :	0000000000001000;
	90 :	1111111111110110;
	89 :	0000000000010101;
	88 :	0000000000010001;
	87 :	1111111111111101;
	86 :	1111111111110101;
	85 :	1111111111110001;
	84 :	0000000000000110;
	83 :	0000000000010000;
	82 :	1111111111110001;
	81 :	0000000000000010;
	80 :	1111111111110000;
	79 :	0000000000101100;
	78 :	0000000000101000;
	77 :	0000000000001111;
	76 :	0000000000000111;
	75 :	0000000000001001;
	74 :	0000000000011111;
	73 :	0000000000011110;
	72 :	0000000000100101;
	71 :	0000000000100000;
	70 :	0000000000101011;
	69 :	0000000000010000;
	68 :	1111111111011100;
	67 :	0000000000100000;
	66 :	0000000000001011;
	65 :	1111111111111001;
	64 :	1111111111111111;
	63 :	1111111111110111;
	62 :	0000000000100001;
	61 :	0000000000000011;
	60 :	1111111111110011;
	59 :	1111111111110001;
	58 :	1111111111111011;
	57 :	0000000000001010;
	56 :	0000000000001010;
	55 :	1111111111101101;
	54 :	1111111111101011;
	53 :	1111111111111011;
	52 :	0000000000001101;
	51 :	1111111111101011;
	50 :	0000000000010110;
	49 :	0000000000010110;
	48 :	0000000000100111;
	47 :	0000000000100000;
	46 :	0000000000000110;
	45 :	0000000000111111;
	44 :	1111111111110100;
	43 :	0000000000110111;
	42 :	0000000000100001;
	41 :	0000000000101100;
	40 :	1111111111011110;
	39 :	0000000000011011;
	38 :	0000000000110111;
	37 :	0000000000010000;
	36 :	0000000000000000;
	35 :	0000000000011001;
	34 :	0000000000001100;
	33 :	1111111111101011;
	32 :	0000000000000111;
	31 :	1111111111110101;
	30 :	1111111111101100;
	29 :	0000000000001001;
	28 :	1111111111101111;
	27 :	0000000000010011;
	26 :	1111111111110000;
	25 :	1111111111111011;
	24 :	0000000000010100;
	23 :	0000000000000000;
	22 :	1111111111111111;
	21 :	0000000000000110;
	20 :	1111111111111010;
	19 :	1111111111111001;
	18 :	0000000000001000;
	17 :	1111111111110100;
	16 :	0000000000010000;
	15 :	1111111111110101;
	14 :	0000000000000110;
	13 :	1111111111110101;
	12 :	0000000000001110;
	11 :	1111111111101011;
	10 :	1111111111111101;
	9 :	0000000000001100;
	8 :	1111111111111001;
	7 :	0000000000001110;
	6 :	1111111111111110;
	5 :	1111111111101011;
	4 :	1111111111111000;
	3 :	0000000000001011;
	2 :	1111111111110011;
	1 :	1111111111111010;
	0 :	0000000000010001;
END;
