-- begin_signature
-- weights(numWeights
-- 256
-- neuronNumber
-- 0
-- layerNumber
-- 0
-- addressWidth
-- 8
-- dataWidth
-- 8
-- weightFile
-- "w_l0_n0.mif")
-- end_signature
WIDTH=8;
DEPTH=256;

ADDRESS_RADIX=UNS;
DATA_RADIX=BIN;

CONTENT BEGIN
	255 :	00010101;
	254 :	00000001;
	253 :	00000111;
	252 :	00001010;
	251 :	00111101;
	250 :	00000010;
	249 :	00000001;
	248 :	00000111;
	247 :	00001010;
	246 :	00001001;
	245 :	00001000;
	244 :	00000111;
	243 :	00000011;
	242 :	00000010;
	241 :	00000001;
	240 :	00000000;
	239 :	00010101;
	238 :	00000001;
	237 :	00000111;
	236 :	00001010;
	235 :	00111101;
	234 :	00000010;
	233 :	00000001;
	232 :	00000111;
	231 :	00001010;
	230 :	00001001;
	229 :	00001000;
	228 :	00000111;
	227 :	00000011;
	226 :	00000010;
	225 :	00000001;
	224 :	00000000;
	223 :	00010101;
	222 :	00000001;
	221 :	00000111;
	220 :	00001010;
	219 :	00111101;
	218 :	00000010;
	217 :	00000001;
	216 :	00000111;
	215 :	00001010;
	214 :	00001001;
	213 :	00001000;
	212 :	00000111;
	211 :	00000011;
	210 :	00000010;
	209 :	00000001;
	208 :	00000000;
	207 :	00010101;
	206 :	00000001;
	205 :	00000111;
	204 :	00001010;
	203 :	00111101;
	202 :	00000010;
	201 :	00000001;
	200 :	00000111;
	199 :	00001010;
	198 :	00001001;
	197 :	00001000;
	196 :	00000111;
	195 :	00000011;
	194 :	00000010;
	193 :	00000001;
	192 :	00000000;
	191 :	00010101;
	190 :	00000001;
	189 :	00000111;
	188 :	00001010;
	187 :	00111101;
	186 :	00000010;
	185 :	00000001;
	184 :	00000111;
	183 :	00001010;
	182 :	00001001;
	181 :	00001000;
	180 :	00000111;
	179 :	00000011;
	178 :	00000010;
	177 :	00000001;
	176 :	00000000;
	175 :	00010101;
	174 :	00000001;
	173 :	00000111;
	172 :	00001010;
	171 :	00111101;
	170 :	00000010;
	169 :	00000001;
	168 :	00000111;
	167 :	00001010;
	166 :	00001001;
	165 :	00001000;
	164 :	00000111;
	163 :	00000011;
	162 :	00000010;
	161 :	00000001;
	160 :	00000000;
	159 :	00010101;
	158 :	00000001;
	157 :	00000111;
	156 :	00001010;
	155 :	00111101;
	154 :	00000010;
	153 :	00000001;
	152 :	00000111;
	151 :	00001010;
	150 :	00001001;
	149 :	00001000;
	148 :	00000111;
	147 :	00000011;
	146 :	00000010;
	145 :	00000001;
	144 :	00000000;
	143 :	00010101;
	142 :	00000001;
	141 :	00000111;
	140 :	00001010;
	139 :	00111101;
	138 :	00000010;
	137 :	00000001;
	136 :	00000111;
	135 :	00001010;
	134 :	00001001;
	133 :	00001000;
	132 :	00000111;
	131 :	00000011;
	130 :	00000010;
	129 :	00000001;
	128 :	00000000;
	127 :	00010101;
	126 :	00000001;
	125 :	00000111;
	124 :	00001010;
	123 :	00111101;
	122 :	00000010;
	121 :	00000001;
	120 :	00000111;
	119 :	00001010;
	118 :	00001001;
	117 :	00001000;
	116 :	00000111;
	115 :	00000011;
	114 :	00000010;
	113 :	00000001;
	112 :	00000000;
	111 :	00010101;
	110 :	00000001;
	109 :	00000111;
	108 :	00001010;
	107 :	00111101;
	106 :	00000010;
	105 :	00000001;
	104 :	00000111;
	103 :	00001010;
	102 :	00001001;
	101 :	00001000;
	100 :	00000111;
	99 :	00000011;
	98 :	00000010;
	97 :	00000001;
	96 :	00000000;
	95 :	00010101;
	94 :	00000001;
	93 :	00000111;
	92 :	00001010;
	91 :	00111101;
	90 :	00000010;
	89 :	00000001;
	88 :	00000111;
	87 :	00001010;
	86 :	00001001;
	85 :	00001000;
	84 :	00000111;
	83 :	00000011;
	82 :	00000010;
	81 :	00000001;
	80 :	00000000;
	79 :	00010101;
	78 :	00000001;
	77 :	00000111;
	76 :	00001010;
	75 :	00111101;
	74 :	00000010;
	73 :	00000001;
	72 :	00000111;
	71 :	00001010;
	70 :	00001001;
	69 :	00001000;
	68 :	00000111;
	67 :	00000011;
	66 :	00000010;
	65 :	00000001;
	64 :	00000000;
	63 :	00010101;
	62 :	00000001;
	61 :	00000111;
	60 :	00001010;
	59 :	00111101;
	58 :	00000010;
	57 :	00000001;
	56 :	00000111;
	55 :	00001010;
	54 :	00001001;
	53 :	00001000;
	52 :	00000111;
	51 :	00000011;
	50 :	00000010;
	49 :	00000001;
	48 :	00000000;
	47 :	00010101;
	46 :	00000001;
	45 :	00000111;
	44 :	00001010;
	43 :	00111101;
	42 :	00000010;
	41 :	00000001;
	40 :	00000111;
	39 :	00001010;
	38 :	00001001;
	37 :	00001000;
	36 :	00000111;
	35 :	00000011;
	34 :	00000010;
	33 :	00000001;
	32 :	00000000;
	31 :	00010101;
	30 :	00000001;
	29 :	00000111;
	28 :	00001010;
	27 :	00111101;
	26 :	00000010;
	25 :	00000001;
	24 :	00000111;
	23 :	00001010;
	22 :	00001001;
	21 :	00001000;
	20 :	00000111;
	19 :	00000011;
	18 :	00000010;
	17 :	00000001;
	16 :	00000000;
	15 :	00010101;
	14 :	00000001;
	13 :	00000111;
	12 :	00001010;
	11 :	00111101;
	10 :	00000010;
	9 :	00000001;
	8 :	00000111;
	7 :	00001010;
	6 :	00001001;
	5 :	00001000;
	4 :	00000111;
	3 :	00000011;
	2 :	00000010;
	1 :	00000001;
	0 :	00000000;
END;
