-- begin_signature
-- weights(numWeights
-- 784
-- neuronNumber
-- 14
-- layerNumber
-- 0
-- addressWidth
-- 10
-- dataWidth
-- 16
-- weightFile
-- "weights/weight_L0_N14.mif")
-- end_signature
WIDTH=16;
DEPTH=784;

ADDRESS_RADIX=UNS;
DATA_RADIX=BIN;

CONTENT BEGIN
	783 :	0000000000000010;
	782 :	1111111111110001;
	781 :	1111111111111001;
	780 :	0000000000010010;
	779 :	1111111111011110;
	778 :	1111111111100110;
	777 :	0000000000011111;
	776 :	1111111111101101;
	775 :	0000000000100001;
	774 :	0000000000011001;
	773 :	0000000000000100;
	772 :	0000000000101010;
	771 :	0000000000100110;
	770 :	0000000001000101;
	769 :	1111111111110011;
	768 :	0000000000100011;
	767 :	0000000000010010;
	766 :	0000000000000100;
	765 :	0000000000010001;
	764 :	0000000000100101;
	763 :	0000000000001010;
	762 :	0000000000001001;
	761 :	1111111111011010;
	760 :	1111111111111001;
	759 :	1111111111101010;
	758 :	0000000000000110;
	757 :	1111111111111000;
	756 :	0000000000001110;
	755 :	0000000000001101;
	754 :	0000000000001110;
	753 :	1111111111100001;
	752 :	0000000000101011;
	751 :	0000000000011110;
	750 :	1111111111111011;
	749 :	0000000000100010;
	748 :	0000000000010110;
	747 :	0000000000011000;
	746 :	0000000000010101;
	745 :	0000000000010010;
	744 :	0000000000011101;
	743 :	0000000000011110;
	742 :	0000000000110001;
	741 :	0000000000100010;
	740 :	0000000000111100;
	739 :	0000000000011101;
	738 :	0000000000111010;
	737 :	0000000000110100;
	736 :	0000000000110100;
	735 :	0000000001001010;
	734 :	0000000001000000;
	733 :	0000000000011011;
	732 :	0000000000110111;
	731 :	0000000000101110;
	730 :	1111111111101111;
	729 :	0000000000000010;
	728 :	0000000000001001;
	727 :	1111111111111111;
	726 :	1111111111111100;
	725 :	0000000000100000;
	724 :	0000000000010000;
	723 :	0000000000011101;
	722 :	0000000000000010;
	721 :	0000000000101000;
	720 :	0000000000101001;
	719 :	0000000000011001;
	718 :	0000000000000000;
	717 :	0000000000000100;
	716 :	0000000000001011;
	715 :	1111111111110110;
	714 :	0000000000001101;
	713 :	1111111111110110;
	712 :	0000000000000000;
	711 :	1111111111111100;
	710 :	1111111111110010;
	709 :	0000000000001000;
	708 :	1111111111111011;
	707 :	1111111111111101;
	706 :	0000000000001100;
	705 :	0000000000101011;
	704 :	1111111111101100;
	703 :	0000000000000111;
	702 :	0000000000010110;
	701 :	0000000000000110;
	700 :	1111111111101100;
	699 :	1111111111101110;
	698 :	1111111111100100;
	697 :	0000000000001011;
	696 :	1111111111111000;
	695 :	0000000000101101;
	694 :	0000000000011011;
	693 :	0000000000000000;
	692 :	0000000000010000;
	691 :	0000000000000100;
	690 :	0000000000000101;
	689 :	1111111111111110;
	688 :	1111111111100111;
	687 :	1111111111111011;
	686 :	1111111111101001;
	685 :	1111111111110000;
	684 :	1111111111101101;
	683 :	1111111111111101;
	682 :	1111111111110011;
	681 :	1111111111100010;
	680 :	0000000000010010;
	679 :	0000000000001101;
	678 :	1111111111110110;
	677 :	0000000000010011;
	676 :	1111111111110110;
	675 :	1111111111011000;
	674 :	1111111111011111;
	673 :	0000000000000110;
	672 :	0000000000010011;
	671 :	0000000000001110;
	670 :	1111111111100010;
	669 :	0000000000000010;
	668 :	0000000000000100;
	667 :	0000000000000011;
	666 :	0000000000001010;
	665 :	0000000000000011;
	664 :	0000000000000001;
	663 :	1111111111110010;
	662 :	1111111111101100;
	661 :	1111111111110101;
	660 :	1111111111110011;
	659 :	1111111111101001;
	658 :	1111111111110101;
	657 :	1111111111111000;
	656 :	1111111111111011;
	655 :	1111111111110001;
	654 :	1111111111111000;
	653 :	1111111111101011;
	652 :	0000000000000010;
	651 :	0000000000000001;
	650 :	1111111111011100;
	649 :	1111111111110001;
	648 :	0000000000000100;
	647 :	0000000000000001;
	646 :	1111111111100011;
	645 :	1111111111110010;
	644 :	0000000000000000;
	643 :	1111111111111100;
	642 :	1111111111010001;
	641 :	1111111111111101;
	640 :	0000000000011001;
	639 :	1111111111111001;
	638 :	0000000000000000;
	637 :	0000000000000000;
	636 :	1111111111101000;
	635 :	1111111111110111;
	634 :	1111111111111110;
	633 :	1111111111101110;
	632 :	1111111111111111;
	631 :	1111111111110000;
	630 :	1111111111110001;
	629 :	1111111111100111;
	628 :	1111111111111111;
	627 :	0000000000000010;
	626 :	1111111111111010;
	625 :	0000000000010010;
	624 :	0000000000000011;
	623 :	1111111111110010;
	622 :	1111111111100111;
	621 :	1111111111110110;
	620 :	1111111111111110;
	619 :	0000000000000010;
	618 :	1111111111110001;
	617 :	1111111111111101;
	616 :	0000000000010110;
	615 :	0000000000010010;
	614 :	1111111111001001;
	613 :	0000000000011011;
	612 :	0000000000000011;
	611 :	1111111111110010;
	610 :	1111111111101001;
	609 :	0000000000000010;
	608 :	0000000000000111;
	607 :	1111111111111011;
	606 :	1111111111100111;
	605 :	0000000000001001;
	604 :	0000000000000110;
	603 :	1111111111111011;
	602 :	0000000000000001;
	601 :	1111111111110111;
	600 :	1111111111111001;
	599 :	1111111111101110;
	598 :	1111111111110110;
	597 :	1111111111101101;
	596 :	1111111111101011;
	595 :	1111111111101110;
	594 :	1111111111110000;
	593 :	1111111111111000;
	592 :	1111111111110001;
	591 :	1111111111101000;
	590 :	1111111111101001;
	589 :	1111111111011111;
	588 :	1111111111111000;
	587 :	1111111111101010;
	586 :	0000000000100000;
	585 :	0000000000001001;
	584 :	0000000000000011;
	583 :	0000000000000000;
	582 :	0000000000000110;
	581 :	1111111111011001;
	580 :	1111111111111000;
	579 :	1111111111111110;
	578 :	0000000000000001;
	577 :	1111111111111110;
	576 :	1111111111101100;
	575 :	1111111111111111;
	574 :	1111111111111111;
	573 :	0000000000011101;
	572 :	1111111111110001;
	571 :	0000000000001100;
	570 :	1111111111101011;
	569 :	1111111111111000;
	568 :	0000000000000000;
	567 :	1111111111010100;
	566 :	1111111111011000;
	565 :	1111111111101111;
	564 :	1111111111011110;
	563 :	1111111111111101;
	562 :	1111111111111110;
	561 :	1111111111001101;
	560 :	1111111111101110;
	559 :	0000000000000110;
	558 :	0000000000101000;
	557 :	0000000000010101;
	556 :	1111111111111010;
	555 :	1111111111110111;
	554 :	1111111111111101;
	553 :	1111111111101110;
	552 :	0000000000000100;
	551 :	1111111111111100;
	550 :	1111111111111100;
	549 :	1111111111111111;
	548 :	0000000000000000;
	547 :	1111111111110011;
	546 :	0000000000000101;
	545 :	1111111111110110;
	544 :	0000000000001011;
	543 :	1111111111101110;
	542 :	1111111111111110;
	541 :	1111111111110001;
	540 :	1111111111110100;
	539 :	1111111111110101;
	538 :	0000000000000010;
	537 :	1111111111100111;
	536 :	1111111111011100;
	535 :	1111111111101110;
	534 :	1111111111101110;
	533 :	1111111111010011;
	532 :	1111111111101011;
	531 :	0000000000011011;
	530 :	0000000000000111;
	529 :	0000000000100101;
	528 :	1111111111101110;
	527 :	1111111111111111;
	526 :	1111111111110100;
	525 :	1111111111111100;
	524 :	0000000000001000;
	523 :	1111111111111010;
	522 :	1111111111111100;
	521 :	1111111111111101;
	520 :	0000000000000111;
	519 :	0000000000000110;
	518 :	0000000000000100;
	517 :	1111111111110101;
	516 :	1111111111100111;
	515 :	0000000000010100;
	514 :	1111111111111001;
	513 :	1111111111111101;
	512 :	0000000000000110;
	511 :	0000000000010010;
	510 :	0000000000000001;
	509 :	1111111111011110;
	508 :	1111111111101111;
	507 :	1111111111001110;
	506 :	1111111111100101;
	505 :	0000000000001101;
	504 :	0000000000011001;
	503 :	0000000000101111;
	502 :	1111111111111111;
	501 :	0000000000000011;
	500 :	1111111111111111;
	499 :	1111111111110000;
	498 :	0000000000001010;
	497 :	1111111111110111;
	496 :	1111111111111101;
	495 :	1111111111111100;
	494 :	1111111111111011;
	493 :	0000000000001011;
	492 :	0000000000000001;
	491 :	0000000000001001;
	490 :	1111111111110110;
	489 :	0000000000001001;
	488 :	0000000000000101;
	487 :	0000000000000110;
	486 :	0000000000001010;
	485 :	0000000000001001;
	484 :	0000000000001001;
	483 :	0000000000001010;
	482 :	1111111111110111;
	481 :	1111111111100110;
	480 :	1111111111101000;
	479 :	1111111111101111;
	478 :	1111111111011011;
	477 :	0000000000000001;
	476 :	0000000000010001;
	475 :	0000000000100000;
	474 :	0000000000101110;
	473 :	0000000000100000;
	472 :	1111111111111000;
	471 :	1111111111111101;
	470 :	1111111111111111;
	469 :	0000000000000110;
	468 :	1111111111111100;
	467 :	1111111111111111;
	466 :	1111111111111110;
	465 :	1111111111111110;
	464 :	1111111111111100;
	463 :	1111111111111000;
	462 :	1111111111101101;
	461 :	0000000000001000;
	460 :	1111111111111001;
	459 :	0000000000010111;
	458 :	0000000000010000;
	457 :	1111111111110101;
	456 :	0000000000001100;
	455 :	0000000000001010;
	454 :	0000000000000111;
	453 :	0000000000001000;
	452 :	1111111111111100;
	451 :	1111111111110101;
	450 :	1111111111111101;
	449 :	0000000000000111;
	448 :	1111111111110010;
	447 :	1111111111111000;
	446 :	0000000000011001;
	445 :	1111111111110001;
	444 :	1111111111110111;
	443 :	1111111111101101;
	442 :	1111111111111001;
	441 :	0000000000000011;
	440 :	0000000000001110;
	439 :	1111111111111001;
	438 :	0000000000010010;
	437 :	0000000000001010;
	436 :	0000000000000111;
	435 :	0000000000000010;
	434 :	0000000000000000;
	433 :	1111111111110110;
	432 :	1111111111111011;
	431 :	1111111111111111;
	430 :	0000000000001001;
	429 :	0000000000000010;
	428 :	0000000000001011;
	427 :	0000000000000000;
	426 :	0000000000000110;
	425 :	0000000000011010;
	424 :	0000000000000100;
	423 :	0000000000000001;
	422 :	1111111110111101;
	421 :	1111111111111101;
	420 :	1111111111011111;
	419 :	0000000000100100;
	418 :	0000000001000101;
	417 :	0000000000000000;
	416 :	1111111111111001;
	415 :	1111111111011101;
	414 :	0000000000001001;
	413 :	0000000000001100;
	412 :	0000000000001010;
	411 :	1111111111111100;
	410 :	0000000000000000;
	409 :	1111111111111011;
	408 :	0000000000001000;
	407 :	0000000000001000;
	406 :	1111111111111100;
	405 :	1111111111111111;
	404 :	0000000000001010;
	403 :	1111111111111100;
	402 :	0000000000001100;
	401 :	1111111111110101;
	400 :	0000000000010010;
	399 :	0000000000000111;
	398 :	0000000000010000;
	397 :	0000000000001010;
	396 :	0000000000010000;
	395 :	0000000000000000;
	394 :	1111111111110011;
	393 :	1111111111111110;
	392 :	1111111111101000;
	391 :	0000000000000111;
	390 :	0000000000100010;
	389 :	0000000000000010;
	388 :	1111111111100000;
	387 :	1111111111110000;
	386 :	0000000000001101;
	385 :	0000000000000100;
	384 :	1111111111111011;
	383 :	0000000000001100;
	382 :	1111111111110101;
	381 :	0000000000000110;
	380 :	1111111111111010;
	379 :	0000000000001110;
	378 :	0000000000000110;
	377 :	0000000000000010;
	376 :	1111111111111000;
	375 :	1111111111101110;
	374 :	1111111111111111;
	373 :	0000000000000101;
	372 :	0000000000001011;
	371 :	0000000000001111;
	370 :	0000000000000101;
	369 :	1111111111111110;
	368 :	0000000000010110;
	367 :	0000000000000000;
	366 :	1111111111111011;
	365 :	1111111111100101;
	364 :	1111111111011010;
	363 :	0000000000010010;
	362 :	0000000000010010;
	361 :	1111111111100000;
	360 :	1111111111100111;
	359 :	1111111111111111;
	358 :	0000000000000100;
	357 :	1111111111110110;
	356 :	0000000000000111;
	355 :	0000000000000011;
	354 :	0000000000000000;
	353 :	0000000000000110;
	352 :	0000000000001011;
	351 :	0000000000000101;
	350 :	0000000000000001;
	349 :	0000000000000100;
	348 :	1111111111100111;
	347 :	0000000000001111;
	346 :	1111111111111011;
	345 :	0000000000010000;
	344 :	1111111111111111;
	343 :	0000000000010100;
	342 :	0000000000010101;
	341 :	0000000000000101;
	340 :	0000000000010111;
	339 :	1111111111101000;
	338 :	0000000000001010;
	337 :	1111111111101000;
	336 :	1111111111110010;
	335 :	1111111111111011;
	334 :	1111111111101111;
	333 :	0000000000000010;
	332 :	1111111111011101;
	331 :	1111111111101110;
	330 :	0000000000001000;
	329 :	0000000000000001;
	328 :	1111111111111111;
	327 :	0000000000000011;
	326 :	0000000000001100;
	325 :	1111111111111111;
	324 :	1111111111111000;
	323 :	0000000000000001;
	322 :	0000000000010000;
	321 :	0000000000001001;
	320 :	0000000000000110;
	319 :	0000000000000111;
	318 :	1111111111111111;
	317 :	0000000000001110;
	316 :	0000000000010011;
	315 :	0000000000001110;
	314 :	0000000000001111;
	313 :	0000000000000011;
	312 :	1111111111110100;
	311 :	1111111111101010;
	310 :	1111111111111011;
	309 :	0000000000000000;
	308 :	1111111111101110;
	307 :	1111111111111110;
	306 :	0000000000000111;
	305 :	0000000000100111;
	304 :	0000000000001101;
	303 :	0000000000000010;
	302 :	0000000000000111;
	301 :	0000000000001001;
	300 :	0000000000001000;
	299 :	0000000000000001;
	298 :	0000000000000001;
	297 :	1111111111111001;
	296 :	0000000000000100;
	295 :	1111111111111100;
	294 :	0000000000001101;
	293 :	1111111111111110;
	292 :	0000000000011010;
	291 :	0000000000001100;
	290 :	0000000000000111;
	289 :	0000000000001001;
	288 :	0000000000001001;
	287 :	1111111111110111;
	286 :	0000000000001101;
	285 :	0000000000000010;
	284 :	1111111111100111;
	283 :	0000000000000100;
	282 :	0000000000000011;
	281 :	0000000000000110;
	280 :	1111111111110010;
	279 :	0000000000101101;
	278 :	0000000000001000;
	277 :	0000000000000011;
	276 :	0000000000000011;
	275 :	1111111111111000;
	274 :	1111111111110110;
	273 :	1111111111110011;
	272 :	1111111111111011;
	271 :	1111111111111111;
	270 :	1111111111110010;
	269 :	1111111111110000;
	268 :	1111111111101111;
	267 :	0000000000001001;
	266 :	0000000000001010;
	265 :	0000000000000010;
	264 :	0000000000001011;
	263 :	0000000000010000;
	262 :	0000000000000100;
	261 :	1111111111111100;
	260 :	0000000000000011;
	259 :	0000000000000001;
	258 :	0000000000000101;
	257 :	1111111111110111;
	256 :	1111111111101110;
	255 :	1111111111100010;
	254 :	0000000000000010;
	253 :	1111111111110001;
	252 :	0000000000001000;
	251 :	0000000000000011;
	250 :	1111111111100011;
	249 :	1111111111010011;
	248 :	1111111111011111;
	247 :	1111111111100101;
	246 :	0000000000000001;
	245 :	1111111111111000;
	244 :	1111111111101110;
	243 :	1111111111110111;
	242 :	0000000000000001;
	241 :	0000000000001011;
	240 :	0000000000010001;
	239 :	0000000000001111;
	238 :	0000000000001001;
	237 :	0000000000001001;
	236 :	1111111111111010;
	235 :	1111111111111011;
	234 :	0000000000000011;
	233 :	0000000000000101;
	232 :	1111111111111110;
	231 :	1111111111101100;
	230 :	1111111111110010;
	229 :	1111111111010011;
	228 :	1111111111001001;
	227 :	1111111111101100;
	226 :	1111111111110011;
	225 :	1111111111110000;
	224 :	1111111111001010;
	223 :	0000000000001110;
	222 :	1111111111100100;
	221 :	0000000000101000;
	220 :	0000000000000011;
	219 :	1111111111110101;
	218 :	1111111111111011;
	217 :	0000000000000011;
	216 :	0000000000001101;
	215 :	0000000000000111;
	214 :	0000000000000111;
	213 :	0000000000001101;
	212 :	0000000000011110;
	211 :	0000000000101010;
	210 :	0000000000010110;
	209 :	0000000000001111;
	208 :	0000000000010111;
	207 :	0000000000000000;
	206 :	0000000000001010;
	205 :	0000000000001000;
	204 :	1111111111110100;
	203 :	1111111111100110;
	202 :	1111111111000101;
	201 :	1111111111000111;
	200 :	1111111111011000;
	199 :	1111111111101110;
	198 :	1111111111011011;
	197 :	1111111111101010;
	196 :	0000000000001111;
	195 :	0000000000101000;
	194 :	0000000000101000;
	193 :	0000000001000010;
	192 :	0000000000001010;
	191 :	0000000000001101;
	190 :	1111111111101111;
	189 :	0000000000001001;
	188 :	1111111111111110;
	187 :	1111111111110111;
	186 :	0000000000001110;
	185 :	0000000000010010;
	184 :	0000000000001010;
	183 :	0000000000000111;
	182 :	0000000000010101;
	181 :	0000000000000110;
	180 :	1111111111111110;
	179 :	0000000000001011;
	178 :	1111111111110110;
	177 :	1111111111110000;
	176 :	0000000000000110;
	175 :	1111111111100001;
	174 :	1111111111011100;
	173 :	1111111111010100;
	172 :	1111111111111101;
	171 :	1111111111111000;
	170 :	1111111111111100;
	169 :	1111111111011110;
	168 :	0000000000000110;
	167 :	0000000000001111;
	166 :	0000000000100000;
	165 :	0000000000000110;
	164 :	0000000000010000;
	163 :	1111111111111101;
	162 :	0000000000000101;
	161 :	1111111111110100;
	160 :	1111111111111010;
	159 :	0000000000000000;
	158 :	1111111111101101;
	157 :	1111111111100010;
	156 :	1111111111010110;
	155 :	1111111111011100;
	154 :	1111111111101101;
	153 :	1111111111111011;
	152 :	1111111111110001;
	151 :	1111111111101000;
	150 :	1111111111011101;
	149 :	1111111111101000;
	148 :	1111111111100011;
	147 :	1111111111100001;
	146 :	1111111111110110;
	145 :	1111111111111001;
	144 :	1111111111111111;
	143 :	1111111111100000;
	142 :	1111111111010010;
	141 :	0000000000010000;
	140 :	1111111111110100;
	139 :	1111111111111111;
	138 :	0000000000100010;
	137 :	0000000000100000;
	136 :	0000000000001000;
	135 :	0000000000000110;
	134 :	1111111111101111;
	133 :	1111111111010111;
	132 :	1111111111010111;
	131 :	1111111111001110;
	130 :	1111111111000000;
	129 :	1111111111010010;
	128 :	1111111111010101;
	127 :	1111111111010110;
	126 :	1111111111000011;
	125 :	1111111111000101;
	124 :	1111111111001111;
	123 :	1111111111010001;
	122 :	1111111111100110;
	121 :	1111111111110010;
	120 :	1111111111110101;
	119 :	1111111111110001;
	118 :	0000000000000111;
	117 :	1111111111111111;
	116 :	1111111111110010;
	115 :	0000000000010010;
	114 :	1111111111011111;
	113 :	1111111111101010;
	112 :	1111111111111000;
	111 :	1111111111110010;
	110 :	0000000000000110;
	109 :	0000000000000000;
	108 :	0000000000000111;
	107 :	1111111111100001;
	106 :	0000000000010110;
	105 :	1111111111110000;
	104 :	1111111111000001;
	103 :	1111111111011000;
	102 :	1111111111100001;
	101 :	1111111111010110;
	100 :	1111111111011111;
	99 :	1111111111010111;
	98 :	1111111110111001;
	97 :	1111111111011100;
	96 :	1111111111100101;
	95 :	1111111111101000;
	94 :	1111111111110000;
	93 :	1111111111111100;
	92 :	1111111111101110;
	91 :	0000000000000101;
	90 :	1111111111101000;
	89 :	1111111111110100;
	88 :	1111111111111010;
	87 :	1111111111101000;
	86 :	1111111111100111;
	85 :	1111111111110001;
	84 :	1111111111110011;
	83 :	0000000000010101;
	82 :	0000000000010100;
	81 :	1111111111110000;
	80 :	0000000000000001;
	79 :	1111111111101111;
	78 :	1111111111011101;
	77 :	1111111111001100;
	76 :	1111111111001100;
	75 :	1111111111100000;
	74 :	1111111111101011;
	73 :	1111111111101101;
	72 :	1111111111100000;
	71 :	1111111111011001;
	70 :	1111111111111111;
	69 :	1111111111100001;
	68 :	1111111111110101;
	67 :	1111111111100011;
	66 :	1111111111011010;
	65 :	0000000000001000;
	64 :	1111111111111111;
	63 :	1111111111101110;
	62 :	1111111111101101;
	61 :	1111111111110010;
	60 :	1111111111100000;
	59 :	1111111111010110;
	58 :	0000000000001100;
	57 :	1111111111110110;
	56 :	1111111111110100;
	55 :	0000000000001001;
	54 :	0000000000001010;
	53 :	0000000000010101;
	52 :	0000000000000100;
	51 :	1111111111101000;
	50 :	1111111111011110;
	49 :	0000000000000111;
	48 :	1111111111110101;
	47 :	1111111111111001;
	46 :	1111111111101100;
	45 :	1111111111110010;
	44 :	1111111111100001;
	43 :	1111111111111111;
	42 :	1111111111011011;
	41 :	0000000000000101;
	40 :	0000000000000010;
	39 :	0000000000000001;
	38 :	1111111111100100;
	37 :	1111111111011010;
	36 :	1111111111110110;
	35 :	0000000000000100;
	34 :	1111111111010111;
	33 :	1111111111110111;
	32 :	0000000000001001;
	31 :	0000000000001011;
	30 :	1111111111111111;
	29 :	1111111111101110;
	28 :	1111111111110000;
	27 :	0000000000000111;
	26 :	1111111111110001;
	25 :	1111111111110111;
	24 :	1111111111110110;
	23 :	1111111111101011;
	22 :	1111111111110000;
	21 :	1111111111111011;
	20 :	0000000000000000;
	19 :	1111111111110110;
	18 :	1111111111110100;
	17 :	1111111111110100;
	16 :	1111111111110011;
	15 :	1111111111111001;
	14 :	0000000000000001;
	13 :	1111111111111101;
	12 :	1111111111111110;
	11 :	0000000000010010;
	10 :	0000000000001011;
	9 :	0000000000000101;
	8 :	1111111111110101;
	7 :	1111111111111111;
	6 :	1111111111110000;
	5 :	0000000000001001;
	4 :	1111111111101011;
	3 :	1111111111111000;
	2 :	0000000000000111;
	1 :	0000000000001111;
	0 :	1111111111111000;
END;
