-- begin_signature
-- weights(numWeights
-- 784
-- neuronNumber
-- 1
-- layerNumber
-- 0
-- addressWidth
-- 10
-- dataWidth
-- 16
-- weightFile
-- "weights/weight_L0_N1.mif")
-- end_signature
WIDTH=16;
DEPTH=784;

ADDRESS_RADIX=UNS;
DATA_RADIX=BIN;

CONTENT BEGIN
	783 :	1111111111101110;
	782 :	1111111111111001;
	781 :	1111111111110000;
	780 :	0000000000000001;
	779 :	1111111111111110;
	778 :	0000000000000011;
	777 :	1111111111001110;
	776 :	0000000000001001;
	775 :	1111111111111110;
	774 :	0000000000001100;
	773 :	1111111111110111;
	772 :	1111111111110101;
	771 :	0000000000101111;
	770 :	0000000000101000;
	769 :	1111111111111011;
	768 :	0000000000001000;
	767 :	0000000000001000;
	766 :	1111111111111111;
	765 :	1111111111110100;
	764 :	1111111111101110;
	763 :	1111111111110000;
	762 :	1111111111011000;
	761 :	0000000000010010;
	760 :	1111111111111100;
	759 :	1111111111110111;
	758 :	0000000000000011;
	757 :	0000000000010001;
	756 :	0000000000001000;
	755 :	1111111111110101;
	754 :	0000000000010010;
	753 :	1111111111101101;
	752 :	1111111111111111;
	751 :	0000000000000001;
	750 :	0000000000111011;
	749 :	0000000000011011;
	748 :	0000000000011111;
	747 :	0000000000011100;
	746 :	0000000000010110;
	745 :	0000000000101000;
	744 :	0000000000010100;
	743 :	0000000000010111;
	742 :	0000000000001101;
	741 :	1111111111110111;
	740 :	1111111111111101;
	739 :	0000000000000111;
	738 :	1111111111101110;
	737 :	0000000000000001;
	736 :	1111111111100000;
	735 :	1111111111111100;
	734 :	0000000000000010;
	733 :	0000000000010011;
	732 :	0000000000100110;
	731 :	0000000000001010;
	730 :	1111111111110011;
	729 :	1111111111101100;
	728 :	1111111111101100;
	727 :	1111111111111001;
	726 :	0000000000000101;
	725 :	1111111111110001;
	724 :	0000000000010110;
	723 :	1111111111101101;
	722 :	1111111111110001;
	721 :	0000000000001111;
	720 :	1111111111100111;
	719 :	0000000000000110;
	718 :	0000000000001000;
	717 :	0000000000000000;
	716 :	0000000000001010;
	715 :	0000000000000110;
	714 :	0000000000000110;
	713 :	0000000000011111;
	712 :	0000000000010100;
	711 :	0000000000010100;
	710 :	0000000000011110;
	709 :	0000000000010010;
	708 :	0000000000110000;
	707 :	0000000001000110;
	706 :	0000000000010111;
	705 :	0000000001000010;
	704 :	0000000000010011;
	703 :	1111111111010001;
	702 :	0000000000010111;
	701 :	1111111111110000;
	700 :	0000000000000001;
	699 :	1111111111101101;
	698 :	0000000000011110;
	697 :	0000000000010010;
	696 :	1111111111011000;
	695 :	0000000000001000;
	694 :	1111111111100110;
	693 :	0000000000000111;
	692 :	1111111111100011;
	691 :	1111111111100100;
	690 :	1111111111110010;
	689 :	0000000000001000;
	688 :	0000000000000011;
	687 :	0000000000000110;
	686 :	0000000000000001;
	685 :	0000000000001010;
	684 :	0000000000000010;
	683 :	0000000000000110;
	682 :	0000000000001100;
	681 :	0000000000000000;
	680 :	0000000000001011;
	679 :	0000000000010111;
	678 :	0000000000100001;
	677 :	0000000000000000;
	676 :	0000000000111011;
	675 :	0000000000101011;
	674 :	0000000000000001;
	673 :	1111111111111111;
	672 :	1111111111101101;
	671 :	1111111111111011;
	670 :	0000000000010101;
	669 :	1111111111011110;
	668 :	1111111111111000;
	667 :	1111111111100111;
	666 :	1111111111100000;
	665 :	1111111111111100;
	664 :	1111111111111010;
	663 :	0000000000001111;
	662 :	0000000000001010;
	661 :	0000000000001000;
	660 :	1111111111110010;
	659 :	0000000000001111;
	658 :	1111111111111111;
	657 :	1111111111111001;
	656 :	0000000000000111;
	655 :	0000000000001100;
	654 :	0000000000010011;
	653 :	0000000000010111;
	652 :	1111111111111101;
	651 :	0000000000001010;
	650 :	1111111111110111;
	649 :	0000000000011110;
	648 :	0000000000101111;
	647 :	0000000001000110;
	646 :	0000000000110100;
	645 :	0000000000001111;
	644 :	1111111111110010;
	643 :	0000000000010001;
	642 :	0000000000101000;
	641 :	1111111111100000;
	640 :	1111111110111111;
	639 :	0000000000001000;
	638 :	1111111111110111;
	637 :	1111111111111010;
	636 :	0000000000000111;
	635 :	0000000000000001;
	634 :	1111111111110001;
	633 :	0000000000000110;
	632 :	0000000000000001;
	631 :	0000000000001000;
	630 :	0000000000000111;
	629 :	0000000000001001;
	628 :	1111111111111101;
	627 :	0000000000001000;
	626 :	0000000000000001;
	625 :	1111111111110010;
	624 :	1111111111111001;
	623 :	1111111111111001;
	622 :	1111111111110011;
	621 :	0000000000000001;
	620 :	1111111111111001;
	619 :	0000000000000111;
	618 :	1111111111111110;
	617 :	0000000000000001;
	616 :	1111111111111111;
	615 :	1111111111110010;
	614 :	0000000000000101;
	613 :	1111111111110110;
	612 :	1111111111100011;
	611 :	0000000000000010;
	610 :	1111111111111110;
	609 :	1111111111111101;
	608 :	1111111111111101;
	607 :	0000000000000110;
	606 :	1111111111111000;
	605 :	1111111111111010;
	604 :	1111111111110100;
	603 :	0000000000000000;
	602 :	0000000000000001;
	601 :	0000000000001101;
	600 :	0000000000001001;
	599 :	0000000000000010;
	598 :	0000000000000111;
	597 :	0000000000000100;
	596 :	0000000000010001;
	595 :	0000000000010000;
	594 :	0000000000010010;
	593 :	1111111111111100;
	592 :	0000000000011101;
	591 :	1111111111111101;
	590 :	1111111111111010;
	589 :	0000000000101010;
	588 :	0000000000001001;
	587 :	0000000000001101;
	586 :	0000000000011011;
	585 :	1111111111100111;
	584 :	1111111111111101;
	583 :	1111111111110110;
	582 :	1111111111111100;
	581 :	1111111111110010;
	580 :	1111111111111110;
	579 :	0000000000000101;
	578 :	1111111111111111;
	577 :	0000000000001000;
	576 :	0000000000000010;
	575 :	1111111111101111;
	574 :	1111111111111110;
	573 :	0000000000000110;
	572 :	0000000000001011;
	571 :	0000000000001100;
	570 :	0000000000010100;
	569 :	0000000000000100;
	568 :	0000000000001011;
	567 :	1111111111111111;
	566 :	0000000000001000;
	565 :	1111111111111110;
	564 :	0000000000100010;
	563 :	0000000000011111;
	562 :	1111111111100110;
	561 :	1111111111111011;
	560 :	0000000000000110;
	559 :	0000000000000110;
	558 :	0000000000001101;
	557 :	1111111111111000;
	556 :	1111111111110111;
	555 :	0000000000000011;
	554 :	1111111111111110;
	553 :	0000000000011001;
	552 :	1111111111110111;
	551 :	1111111111111110;
	550 :	0000000000000111;
	549 :	0000000000000000;
	548 :	0000000000001101;
	547 :	0000000000000100;
	546 :	0000000000000101;
	545 :	1111111111110000;
	544 :	0000000000000010;
	543 :	0000000000001000;
	542 :	0000000000001010;
	541 :	0000000000010111;
	540 :	0000000000000100;
	539 :	0000000000000111;
	538 :	0000000000001110;
	537 :	0000000000000111;
	536 :	0000000000000011;
	535 :	0000000000011111;
	534 :	1111111111110011;
	533 :	1111111111101100;
	532 :	1111111111111000;
	531 :	0000000000000010;
	530 :	1111111111100010;
	529 :	1111111111001111;
	528 :	1111111111011111;
	527 :	1111111111111100;
	526 :	0000000000001001;
	525 :	0000000000000000;
	524 :	0000000000001001;
	523 :	0000000000000100;
	522 :	0000000000000101;
	521 :	0000000000000110;
	520 :	1111111111111011;
	519 :	0000000000001000;
	518 :	1111111111101101;
	517 :	1111111111001011;
	516 :	1111111110011001;
	515 :	1111111110101000;
	514 :	1111111110111010;
	513 :	1111111110111111;
	512 :	1111111111111001;
	511 :	1111111111110001;
	510 :	0000000000000000;
	509 :	0000000000001010;
	508 :	0000000000001111;
	507 :	0000000000101010;
	506 :	0000000000010101;
	505 :	0000000000011001;
	504 :	1111111111000110;
	503 :	0000000000010110;
	502 :	1111111111111100;
	501 :	1111111111001010;
	500 :	0000000000000010;
	499 :	0000000000010000;
	498 :	0000000000001000;
	497 :	0000000000010000;
	496 :	0000000000000111;
	495 :	0000000000010011;
	494 :	1111111111111010;
	493 :	0000000000001101;
	492 :	1111111111110011;
	491 :	1111111111100111;
	490 :	1111111111100000;
	489 :	1111111111101000;
	488 :	1111111111001111;
	487 :	1111111111001010;
	486 :	1111111110101000;
	485 :	1111111110110101;
	484 :	1111111110111111;
	483 :	1111111111100111;
	482 :	1111111111011110;
	481 :	1111111111100010;
	480 :	0000000000000101;
	479 :	0000000000001001;
	478 :	0000000000001101;
	477 :	0000000000011000;
	476 :	1111111111101011;
	475 :	0000000000100101;
	474 :	1111111111111111;
	473 :	1111111111001010;
	472 :	0000000000011100;
	471 :	0000000000101000;
	470 :	0000000000001100;
	469 :	0000000000011000;
	468 :	1111111111111001;
	467 :	0000000000001111;
	466 :	0000000000000100;
	465 :	1111111111111001;
	464 :	1111111111111001;
	463 :	0000000000000100;
	462 :	0000000000001111;
	461 :	0000000000001011;
	460 :	0000000000011101;
	459 :	1111111111111011;
	458 :	1111111111111100;
	457 :	1111111111101010;
	456 :	1111111111010010;
	455 :	1111111111001000;
	454 :	1111111111011000;
	453 :	1111111111101100;
	452 :	1111111111100110;
	451 :	0000000000001110;
	450 :	0000000000110100;
	449 :	0000000000110101;
	448 :	1111111111111001;
	447 :	0000000000010010;
	446 :	0000000000011110;
	445 :	1111111111100110;
	444 :	0000000000011100;
	443 :	0000000000010101;
	442 :	0000000000011101;
	441 :	0000000000010110;
	440 :	0000000000001110;
	439 :	0000000000001110;
	438 :	0000000000000001;
	437 :	1111111111111011;
	436 :	0000000000000001;
	435 :	1111111111111010;
	434 :	0000000000000010;
	433 :	0000000000000101;
	432 :	0000000000010000;
	431 :	0000000000001011;
	430 :	0000000000010010;
	429 :	1111111111110000;
	428 :	1111111111101100;
	427 :	1111111111110001;
	426 :	1111111111011111;
	425 :	1111111111010000;
	424 :	1111111110111000;
	423 :	1111111111101010;
	422 :	0000000000011100;
	421 :	1111111111111001;
	420 :	1111111111110110;
	419 :	1111111111011010;
	418 :	1111111111110001;
	417 :	1111111111011100;
	416 :	1111111111100100;
	415 :	1111111111111100;
	414 :	1111111111110011;
	413 :	1111111111110110;
	412 :	1111111111101010;
	411 :	1111111111110000;
	410 :	1111111111110010;
	409 :	0000000000000010;
	408 :	0000000000000011;
	407 :	1111111111111101;
	406 :	0000000000011100;
	405 :	1111111111111010;
	404 :	0000000000001000;
	403 :	1111111111110111;
	402 :	1111111111110110;
	401 :	0000000000001000;
	400 :	0000000000001001;
	399 :	0000000000000011;
	398 :	0000000000000010;
	397 :	1111111111110001;
	396 :	1111111111011000;
	395 :	0000000000000101;
	394 :	1111111111111101;
	393 :	0000000000010110;
	392 :	0000000000001101;
	391 :	1111111111110000;
	390 :	1111111111101011;
	389 :	1111111110111001;
	388 :	1111111111000111;
	387 :	1111111111100001;
	386 :	1111111111011110;
	385 :	1111111111110010;
	384 :	1111111111101011;
	383 :	1111111111111011;
	382 :	0000000000001110;
	381 :	1111111111111011;
	380 :	0000000000001000;
	379 :	0000000000000001;
	378 :	0000000000000110;
	377 :	0000000000010111;
	376 :	0000000000001000;
	375 :	0000000000000010;
	374 :	0000000000010010;
	373 :	1111111111111110;
	372 :	1111111111110111;
	371 :	0000000000000100;
	370 :	1111111111111010;
	369 :	0000000000010000;
	368 :	0000000000001000;
	367 :	1111111111111000;
	366 :	1111111111110000;
	365 :	0000000000010000;
	364 :	1111111111101100;
	363 :	0000000000100010;
	362 :	0000000000100101;
	361 :	1111111111101011;
	360 :	1111111111001001;
	359 :	1111111111001110;
	358 :	1111111111010001;
	357 :	1111111111101100;
	356 :	1111111111110010;
	355 :	1111111111101001;
	354 :	0000000000000000;
	353 :	0000000000001000;
	352 :	1111111111111110;
	351 :	0000000000001100;
	350 :	0000000000001010;
	349 :	0000000000001110;
	348 :	1111111111111111;
	347 :	0000000000011001;
	346 :	0000000000001001;
	345 :	0000000000000100;
	344 :	0000000000000111;
	343 :	0000000000000110;
	342 :	1111111111110100;
	341 :	1111111111101110;
	340 :	0000000000000000;
	339 :	0000000000000100;
	338 :	1111111111011010;
	337 :	1111111111110010;
	336 :	0000000000000001;
	335 :	0000000000001110;
	334 :	0000000000010111;
	333 :	0000000000110010;
	332 :	1111111111101101;
	331 :	0000000000000111;
	330 :	1111111111100100;
	329 :	1111111111111000;
	328 :	1111111111111110;
	327 :	0000000000000011;
	326 :	0000000000001101;
	325 :	0000000000000101;
	324 :	1111111111111110;
	323 :	1111111111111110;
	322 :	0000000000001011;
	321 :	0000000000010001;
	320 :	0000000000001100;
	319 :	0000000000000110;
	318 :	1111111111110101;
	317 :	1111111111101100;
	316 :	1111111111111000;
	315 :	1111111111110010;
	314 :	1111111111101111;
	313 :	1111111111101100;
	312 :	1111111111110000;
	311 :	0000000000100101;
	310 :	1111111111011100;
	309 :	0000000000000100;
	308 :	0000000000010100;
	307 :	0000000000000000;
	306 :	0000000000100101;
	305 :	0000000001000110;
	304 :	0000000000101001;
	303 :	1111111111110111;
	302 :	0000000000000010;
	301 :	1111111111111010;
	300 :	1111111111111101;
	299 :	1111111111101100;
	298 :	0000000000000111;
	297 :	1111111111110110;
	296 :	0000000000000110;
	295 :	0000000000000001;
	294 :	0000000000001111;
	293 :	0000000000001001;
	292 :	0000000000000000;
	291 :	1111111111111101;
	290 :	1111111111111101;
	289 :	1111111111111000;
	288 :	1111111111111000;
	287 :	1111111111111001;
	286 :	1111111111111110;
	285 :	1111111111110101;
	284 :	0000000000001010;
	283 :	0000000000110000;
	282 :	0000000000001010;
	281 :	1111111111110100;
	280 :	0000000000000010;
	279 :	0000000000001100;
	278 :	1111111111111010;
	277 :	0000000000101111;
	276 :	0000000000010000;
	275 :	0000000000000011;
	274 :	0000000000000010;
	273 :	0000000000001000;
	272 :	1111111111111100;
	271 :	0000000000000010;
	270 :	1111111111110001;
	269 :	0000000000000100;
	268 :	1111111111110101;
	267 :	0000000000000011;
	266 :	0000000000000011;
	265 :	0000000000000101;
	264 :	1111111111110000;
	263 :	1111111111110100;
	262 :	1111111111111011;
	261 :	0000000000001010;
	260 :	0000000000001001;
	259 :	0000000000010001;
	258 :	0000000000001001;
	257 :	1111111111111100;
	256 :	0000000000000000;
	255 :	0000000000010001;
	254 :	1111111111111100;
	253 :	0000000000001000;
	252 :	0000000000001101;
	251 :	0000000000110001;
	250 :	0000000000000101;
	249 :	0000000000110110;
	248 :	0000000000000111;
	247 :	1111111111101001;
	246 :	0000000000001110;
	245 :	0000000000000110;
	244 :	0000000000000100;
	243 :	0000000000000010;
	242 :	0000000000001001;
	241 :	1111111111111000;
	240 :	0000000000000100;
	239 :	0000000000000110;
	238 :	0000000000001010;
	237 :	0000000000000011;
	236 :	0000000000001100;
	235 :	0000000000001010;
	234 :	0000000000001001;
	233 :	1111111111111110;
	232 :	0000000000000011;
	231 :	1111111111111000;
	230 :	0000000000010000;
	229 :	0000000000001010;
	228 :	0000000000001010;
	227 :	0000000000001111;
	226 :	0000000000000110;
	225 :	1111111111111010;
	224 :	1111111111100001;
	223 :	0000000000100000;
	222 :	0000000000100011;
	221 :	0000000000101010;
	220 :	0000000000000101;
	219 :	1111111111110110;
	218 :	0000000000001010;
	217 :	0000000000000100;
	216 :	0000000000000001;
	215 :	0000000000000101;
	214 :	1111111111111101;
	213 :	0000000000000100;
	212 :	0000000000000010;
	211 :	1111111111110100;
	210 :	0000000000010000;
	209 :	0000000000000110;
	208 :	0000000000010010;
	207 :	1111111111110101;
	206 :	1111111111111101;
	205 :	1111111111110111;
	204 :	0000000000000101;
	203 :	0000000000000010;
	202 :	1111111111110111;
	201 :	0000000000010110;
	200 :	1111111111110110;
	199 :	1111111111111111;
	198 :	0000000000001010;
	197 :	0000000000101000;
	196 :	1111111111101011;
	195 :	0000000000011101;
	194 :	1111111111111110;
	193 :	0000000000110110;
	192 :	0000000000011100;
	191 :	0000000000010101;
	190 :	0000000000001000;
	189 :	1111111111111111;
	188 :	0000000000001100;
	187 :	1111111111110110;
	186 :	0000000000010000;
	185 :	1111111111111001;
	184 :	0000000000001101;
	183 :	0000000000000111;
	182 :	1111111111111000;
	181 :	0000000000001100;
	180 :	0000000000000100;
	179 :	0000000000010011;
	178 :	0000000000001100;
	177 :	0000000000010001;
	176 :	1111111111111111;
	175 :	0000000000000011;
	174 :	0000000000001110;
	173 :	1111111111111101;
	172 :	1111111111111010;
	171 :	0000000000001001;
	170 :	1111111111111111;
	169 :	0000000000010100;
	168 :	0000000000010100;
	167 :	1111111111110011;
	166 :	0000000000001101;
	165 :	0000000000001010;
	164 :	0000000000000101;
	163 :	0000000000010001;
	162 :	0000000000001111;
	161 :	1111111111111111;
	160 :	0000000000001110;
	159 :	1111111111111101;
	158 :	0000000000000011;
	157 :	1111111111111110;
	156 :	0000000000000111;
	155 :	1111111111111110;
	154 :	1111111111111100;
	153 :	0000000000000011;
	152 :	0000000000001011;
	151 :	0000000000001010;
	150 :	0000000000000111;
	149 :	1111111111111000;
	148 :	1111111111111101;
	147 :	1111111111110111;
	146 :	0000000000100000;
	145 :	0000000000010010;
	144 :	0000000000100010;
	143 :	0000000000101100;
	142 :	0000000000010110;
	141 :	0000000000000010;
	140 :	1111111111111010;
	139 :	1111111111101000;
	138 :	0000000000011010;
	137 :	0000000000000100;
	136 :	0000000000101001;
	135 :	1111111111110001;
	134 :	0000000000000000;
	133 :	0000000000001001;
	132 :	1111111111101001;
	131 :	0000000000001111;
	130 :	0000000000010111;
	129 :	1111111111111011;
	128 :	0000000000000101;
	127 :	0000000000010100;
	126 :	1111111111111001;
	125 :	0000000000000101;
	124 :	0000000000001000;
	123 :	0000000000001110;
	122 :	0000000000000011;
	121 :	0000000000001110;
	120 :	0000000000010110;
	119 :	1111111111110100;
	118 :	0000000000001110;
	117 :	0000000000101011;
	116 :	0000000000110100;
	115 :	0000000000111001;
	114 :	0000000000010000;
	113 :	1111111111110101;
	112 :	0000000000001010;
	111 :	0000000000010011;
	110 :	0000000000000000;
	109 :	1111111111010010;
	108 :	0000000000000111;
	107 :	1111111111100001;
	106 :	0000000000000110;
	105 :	0000000000000011;
	104 :	0000000000010100;
	103 :	1111111111111000;
	102 :	0000000000000101;
	101 :	1111111111110000;
	100 :	1111111111111111;
	99 :	0000000000000101;
	98 :	0000000000000101;
	97 :	0000000000001010;
	96 :	0000000000001001;
	95 :	0000000000001001;
	94 :	1111111111110000;
	93 :	0000000000001110;
	92 :	1111111111100100;
	91 :	1111111111111100;
	90 :	1111111111111111;
	89 :	0000000000101001;
	88 :	0000000000101010;
	87 :	1111111111110101;
	86 :	0000000000010010;
	85 :	1111111111101010;
	84 :	1111111111110001;
	83 :	0000000000001111;
	82 :	0000000000000101;
	81 :	0000000000000111;
	80 :	0000000000001100;
	79 :	0000000000001010;
	78 :	1111111111010111;
	77 :	1111111111001111;
	76 :	0000000000000000;
	75 :	1111111111101101;
	74 :	1111111111101000;
	73 :	1111111111010010;
	72 :	1111111111101000;
	71 :	1111111111111110;
	70 :	1111111111010011;
	69 :	1111111111011101;
	68 :	1111111111011111;
	67 :	0000000000000110;
	66 :	0000000000011111;
	65 :	1111111111111001;
	64 :	0000000000100100;
	63 :	0000000000100110;
	62 :	1111111111111110;
	61 :	1111111111101011;
	60 :	1111111111101010;
	59 :	0000000000000110;
	58 :	1111111111111101;
	57 :	0000000000001111;
	56 :	0000000000000000;
	55 :	1111111111110011;
	54 :	0000000000000110;
	53 :	0000000000001001;
	52 :	1111111111110011;
	51 :	0000000000000000;
	50 :	1111111111110000;
	49 :	0000000000001000;
	48 :	1111111111111111;
	47 :	1111111111111001;
	46 :	1111111111111000;
	45 :	0000000000010101;
	44 :	0000000000001001;
	43 :	1111111111100111;
	42 :	1111111111100110;
	41 :	1111111111101101;
	40 :	1111111111110011;
	39 :	0000000000001001;
	38 :	1111111111111100;
	37 :	1111111111101111;
	36 :	0000000000000100;
	35 :	1111111111110011;
	34 :	0000000000001001;
	33 :	0000000000001111;
	32 :	0000000000000000;
	31 :	0000000000010001;
	30 :	1111111111110001;
	29 :	1111111111111011;
	28 :	0000000000001111;
	27 :	0000000000010011;
	26 :	0000000000010011;
	25 :	0000000000010001;
	24 :	0000000000010001;
	23 :	1111111111110000;
	22 :	1111111111101010;
	21 :	0000000000001110;
	20 :	0000000000000100;
	19 :	0000000000001000;
	18 :	1111111111111000;
	17 :	1111111111110010;
	16 :	0000000000001101;
	15 :	1111111111111100;
	14 :	1111111111110001;
	13 :	1111111111110101;
	12 :	1111111111101010;
	11 :	1111111111111100;
	10 :	1111111111110001;
	9 :	0000000000000011;
	8 :	1111111111110000;
	7 :	1111111111111110;
	6 :	1111111111101011;
	5 :	1111111111110110;
	4 :	0000000000000100;
	3 :	1111111111110100;
	2 :	1111111111110000;
	1 :	1111111111110001;
	0 :	0000000000001000;
END;
