-- begin_signature
-- weights(numWeights
-- 16
-- neuronNumber
-- 4
-- layerNumber
-- 1
-- addressWidth
-- 4
-- dataWidth
-- 16
-- weightFile
-- "weights/weight_L1_N4.mif")
-- end_signature
WIDTH=16;
DEPTH=16;

ADDRESS_RADIX=UNS;
DATA_RADIX=BIN;

CONTENT BEGIN
	15 :	0000000001011100;
	14 :	1111111111111111;
	13 :	0000000000111000;
	12 :	1111111111110111;
	11 :	1111111111001010;
	10 :	1111111111111100;
	9 :	0000000000110011;
	8 :	0000000000101011;
	7 :	1111111111111000;
	6 :	0000000000110101;
	5 :	1111111111110111;
	4 :	1111111110101101;
	3 :	1111111111010000;
	2 :	1111111111101111;
	1 :	0000000000101010;
	0 :	1111111111111110;
END;
