-- begin_signature
-- weights(numWeights
-- 16
-- neuronNumber
-- 2
-- layerNumber
-- 1
-- addressWidth
-- 4
-- dataWidth
-- 16
-- weightFile
-- "weights/weight_L1_N2.mif")
-- end_signature
WIDTH=16;
DEPTH=16;

ADDRESS_RADIX=UNS;
DATA_RADIX=BIN;

CONTENT BEGIN
	15 :	0000000000010010;
	14 :	0000000000000111;
	13 :	1111111111011011;
	12 :	0000000000101000;
	11 :	0000000000101111;
	10 :	0000000000000011;
	9 :	0000000000001001;
	8 :	0000000000101101;
	7 :	1111111111100110;
	6 :	0000000001010011;
	5 :	0000000000010010;
	4 :	0000000001000000;
	3 :	1111111111100010;
	2 :	0000000000001100;
	1 :	0000000000011110;
	0 :	1111111111111010;
END;
