-- begin_signature
-- weights(numWeights
-- 784
-- neuronNumber
-- 8
-- layerNumber
-- 0
-- addressWidth
-- 10
-- dataWidth
-- 16
-- weightFile
-- "weights/weight_L0_N8.mif")
-- end_signature
WIDTH=16;
DEPTH=784;

ADDRESS_RADIX=UNS;
DATA_RADIX=BIN;

CONTENT BEGIN
	783 :	0000000000000110;
	782 :	1111111111110001;
	781 :	1111111111111111;
	780 :	0000000000010101;
	779 :	1111111111111001;
	778 :	0000000000010100;
	777 :	0000000000000100;
	776 :	0000000000010001;
	775 :	0000000000001110;
	774 :	1111111111101111;
	773 :	0000000000011001;
	772 :	0000000000000011;
	771 :	0000000000001110;
	770 :	1111111111111101;
	769 :	1111111111110111;
	768 :	1111111111111010;
	767 :	0000000000001101;
	766 :	1111111111111101;
	765 :	1111111111101011;
	764 :	1111111111101011;
	763 :	1111111111111111;
	762 :	0000000000001100;
	761 :	1111111111111110;
	760 :	1111111111111111;
	759 :	1111111111101011;
	758 :	1111111111110011;
	757 :	1111111111110001;
	756 :	1111111111111111;
	755 :	1111111111110001;
	754 :	0000000000010010;
	753 :	1111111111101011;
	752 :	1111111111111000;
	751 :	1111111111111000;
	750 :	0000000000010100;
	749 :	1111111111111001;
	748 :	1111111111100110;
	747 :	1111111111001111;
	746 :	1111111111110110;
	745 :	0000000000010111;
	744 :	0000000000000001;
	743 :	0000000000000001;
	742 :	0000000000011000;
	741 :	0000000000000001;
	740 :	1111111111110110;
	739 :	0000000000100101;
	738 :	1111111111101111;
	737 :	0000000000110001;
	736 :	0000000000000010;
	735 :	0000000000001010;
	734 :	0000000000001111;
	733 :	0000000000101110;
	732 :	0000000000001100;
	731 :	1111111111110010;
	730 :	0000000000001110;
	729 :	0000000000000011;
	728 :	1111111111111011;
	727 :	0000000000000010;
	726 :	0000000000010010;
	725 :	0000000000010101;
	724 :	1111111111110001;
	723 :	0000000000000000;
	722 :	0000000000001001;
	721 :	0000000000001011;
	720 :	1111111111100001;
	719 :	1111111111111000;
	718 :	1111111111110110;
	717 :	0000000000011110;
	716 :	1111111111101111;
	715 :	1111111111110101;
	714 :	1111111111111111;
	713 :	0000000000000100;
	712 :	0000000000000000;
	711 :	0000000000011001;
	710 :	1111111111111110;
	709 :	0000000000000111;
	708 :	0000000000011010;
	707 :	0000000000000001;
	706 :	1111111111111011;
	705 :	1111111111000010;
	704 :	1111111111001100;
	703 :	1111111111110001;
	702 :	0000000000001001;
	701 :	0000000000001000;
	700 :	1111111111111101;
	699 :	0000000000010110;
	698 :	1111111111110111;
	697 :	0000000000010000;
	696 :	1111111111111111;
	695 :	0000000000011000;
	694 :	0000000000010110;
	693 :	0000000000001110;
	692 :	0000000000100100;
	691 :	0000000001001011;
	690 :	1111111111110001;
	689 :	1111111111111010;
	688 :	0000000000000111;
	687 :	1111111111101111;
	686 :	0000000000100001;
	685 :	1111111111111100;
	684 :	1111111111110101;
	683 :	0000000000000101;
	682 :	1111111111110001;
	681 :	0000000000001010;
	680 :	1111111111111001;
	679 :	0000000000001010;
	678 :	1111111111110000;
	677 :	1111111111110110;
	676 :	0000000000010011;
	675 :	1111111111110111;
	674 :	1111111111101111;
	673 :	0000000000000111;
	672 :	1111111111111100;
	671 :	1111111111111010;
	670 :	0000000000111010;
	669 :	0000000000101011;
	668 :	0000000000001101;
	667 :	0000000000000011;
	666 :	0000000000011001;
	665 :	1111111111101011;
	664 :	1111111111110001;
	663 :	1111111111100111;
	662 :	1111111111110111;
	661 :	0000000000001011;
	660 :	0000000000000111;
	659 :	0000000000010000;
	658 :	1111111111110011;
	657 :	1111111111111010;
	656 :	1111111111111111;
	655 :	1111111111111101;
	654 :	1111111111101110;
	653 :	1111111111101110;
	652 :	0000000000000110;
	651 :	0000000000100001;
	650 :	0000000000011100;
	649 :	1111111111111110;
	648 :	0000000000110010;
	647 :	1111111111110101;
	646 :	1111111111110010;
	645 :	0000000000001000;
	644 :	1111111111110111;
	643 :	0000000000001110;
	642 :	0000000000010110;
	641 :	0000000000100101;
	640 :	0000000000011111;
	639 :	0000000000010111;
	638 :	0000000000001101;
	637 :	1111111111101001;
	636 :	1111111111110111;
	635 :	0000000000000110;
	634 :	1111111111110110;
	633 :	1111111111101011;
	632 :	0000000000001000;
	631 :	1111111111101101;
	630 :	0000000000001011;
	629 :	0000000000001000;
	628 :	1111111111101100;
	627 :	1111111111101011;
	626 :	1111111111111100;
	625 :	1111111111110111;
	624 :	1111111111110100;
	623 :	1111111111101111;
	622 :	1111111111111001;
	621 :	0000000000010110;
	620 :	0000000000001100;
	619 :	1111111111111110;
	618 :	1111111111110110;
	617 :	0000000000001000;
	616 :	0000000000001011;
	615 :	1111111111110001;
	614 :	0000000000000110;
	613 :	0000000000001110;
	612 :	0000000000001000;
	611 :	1111111111110001;
	610 :	0000000000101110;
	609 :	1111111111111110;
	608 :	0000000000101110;
	607 :	1111111111111010;
	606 :	1111111111111111;
	605 :	1111111111110001;
	604 :	1111111111110100;
	603 :	1111111111101111;
	602 :	0000000000001100;
	601 :	0000000000010101;
	600 :	0000000000001010;
	599 :	1111111111111010;
	598 :	0000000000001100;
	597 :	1111111111101110;
	596 :	0000000000000100;
	595 :	1111111111110100;
	594 :	1111111111100001;
	593 :	1111111111001111;
	592 :	0000000000010111;
	591 :	0000000000010100;
	590 :	1111111111100001;
	589 :	0000000000000001;
	588 :	1111111111111100;
	587 :	0000000000000101;
	586 :	0000000000100100;
	585 :	0000000000010011;
	584 :	1111111111101001;
	583 :	1111111111100011;
	582 :	0000000000100001;
	581 :	0000000000100110;
	580 :	1111111111111101;
	579 :	1111111111101110;
	578 :	1111111111111111;
	577 :	1111111111110001;
	576 :	1111111111101100;
	575 :	1111111111111010;
	574 :	1111111111110101;
	573 :	1111111111101010;
	572 :	0000000000001101;
	571 :	0000000000000011;
	570 :	0000000000001111;
	569 :	1111111111110111;
	568 :	0000000000000011;
	567 :	0000000000000111;
	566 :	1111111111101011;
	565 :	1111111111111110;
	564 :	1111111111101010;
	563 :	1111111111100101;
	562 :	0000000000001110;
	561 :	1111111111111110;
	560 :	0000000000010001;
	559 :	1111111111101111;
	558 :	0000000000010110;
	557 :	0000000000001110;
	556 :	1111111111011101;
	555 :	1111111111100011;
	554 :	0000000000000011;
	553 :	0000000000100101;
	552 :	0000000000001000;
	551 :	1111111111011110;
	550 :	0000000000011010;
	549 :	0000000000000101;
	548 :	0000000000001010;
	547 :	1111111111101001;
	546 :	1111111111110000;
	545 :	0000000000000000;
	544 :	0000000000100000;
	543 :	0000000000000100;
	542 :	1111111111110010;
	541 :	1111111111111100;
	540 :	1111111111110110;
	539 :	1111111111111011;
	538 :	0000000000010010;
	537 :	1111111111100011;
	536 :	0000000000100011;
	535 :	1111111111100001;
	534 :	0000000000000011;
	533 :	1111111111111111;
	532 :	1111111111101011;
	531 :	0000000000010001;
	530 :	0000000000100001;
	529 :	1111111111101010;
	528 :	0000000000100101;
	527 :	0000000000011100;
	526 :	1111111111010111;
	525 :	1111111110111010;
	524 :	1111111111010001;
	523 :	1111111111100111;
	522 :	1111111111111100;
	521 :	1111111111110001;
	520 :	1111111111100000;
	519 :	1111111111101011;
	518 :	1111111111100100;
	517 :	0000000000001101;
	516 :	0000000000001010;
	515 :	0000000000000011;
	514 :	0000000000000001;
	513 :	1111111111110000;
	512 :	0000000000001100;
	511 :	1111111111101110;
	510 :	1111111111100101;
	509 :	0000000000010010;
	508 :	1111111111110111;
	507 :	0000000000100110;
	506 :	0000000000000100;
	505 :	0000000000010011;
	504 :	0000000000000011;
	503 :	0000000000000101;
	502 :	1111111111101011;
	501 :	0000000000000110;
	500 :	0000000000001111;
	499 :	1111111111110000;
	498 :	0000000000010100;
	497 :	0000000000010100;
	496 :	0000000000001001;
	495 :	0000000000001011;
	494 :	0000000000011100;
	493 :	1111111111011111;
	492 :	1111111111111011;
	491 :	1111111111101101;
	490 :	1111111111110011;
	489 :	0000000000001010;
	488 :	0000000000001010;
	487 :	0000000000011001;
	486 :	0000000000001000;
	485 :	1111111111111010;
	484 :	0000000000001011;
	483 :	1111111111111011;
	482 :	0000000000011100;
	481 :	1111111111011001;
	480 :	0000000000000010;
	479 :	0000000000111011;
	478 :	1111111111110100;
	477 :	1111111111110111;
	476 :	1111111111111100;
	475 :	1111111111110101;
	474 :	0000000000110011;
	473 :	1111111111101111;
	472 :	1111111111101110;
	471 :	1111111111001111;
	470 :	1111111111010111;
	469 :	1111111111111111;
	468 :	0000000000000001;
	467 :	0000000000100001;
	466 :	1111111111111001;
	465 :	1111111111110011;
	464 :	1111111111110000;
	463 :	0000000000001011;
	462 :	1111111111110101;
	461 :	0000000000011001;
	460 :	0000000000001011;
	459 :	0000000000100111;
	458 :	1111111111110111;
	457 :	1111111111110101;
	456 :	0000000000000011;
	455 :	1111111111110000;
	454 :	1111111111001001;
	453 :	1111111111101101;
	452 :	1111111111101010;
	451 :	0000000000001000;
	450 :	1111111111101000;
	449 :	1111111111110101;
	448 :	0000000000000110;
	447 :	1111111111111001;
	446 :	0000000000010111;
	445 :	1111111111011000;
	444 :	1111111111010010;
	443 :	1111111111000011;
	442 :	0000000000010111;
	441 :	0000000000010101;
	440 :	1111111111111010;
	439 :	1111111111010100;
	438 :	1111111111110101;
	437 :	1111111111111100;
	436 :	1111111111101101;
	435 :	1111111111111110;
	434 :	0000000000000101;
	433 :	0000000000001010;
	432 :	1111111111111100;
	431 :	1111111111111100;
	430 :	1111111111110111;
	429 :	0000000000011000;
	428 :	0000000000010110;
	427 :	0000000000000010;
	426 :	1111111110110110;
	425 :	1111111111010011;
	424 :	1111111111110010;
	423 :	1111111111100110;
	422 :	0000000000000110;
	421 :	1111111111110110;
	420 :	1111111111110010;
	419 :	0000000000010011;
	418 :	1111111111011011;
	417 :	1111111111111100;
	416 :	1111111111111100;
	415 :	1111111111011101;
	414 :	1111111111100010;
	413 :	1111111111111010;
	412 :	1111111111100010;
	411 :	0000000000010101;
	410 :	1111111111111000;
	409 :	0000000000010111;
	408 :	0000000000100001;
	407 :	0000000000010011;
	406 :	0000000000011000;
	405 :	0000000000000101;
	404 :	1111111111111010;
	403 :	0000000000001010;
	402 :	1111111111011110;
	401 :	0000000000000110;
	400 :	1111111111110101;
	399 :	1111111111101100;
	398 :	1111111111011111;
	397 :	0000000000000101;
	396 :	1111111111111000;
	395 :	0000000000101100;
	394 :	0000000000000011;
	393 :	0000000000000111;
	392 :	0000000000010110;
	391 :	0000000000000000;
	390 :	1111111111100010;
	389 :	1111111110111001;
	388 :	0000000000001100;
	387 :	1111111111101100;
	386 :	1111111111100100;
	385 :	1111111111101110;
	384 :	0000000000010100;
	383 :	0000000000001000;
	382 :	1111111111111010;
	381 :	0000000000000100;
	380 :	0000000000001010;
	379 :	1111111111111110;
	378 :	0000000000010100;
	377 :	0000000000001110;
	376 :	0000000000000000;
	375 :	1111111111111100;
	374 :	0000000000001010;
	373 :	1111111111010011;
	372 :	1111111111010111;
	371 :	1111111111111000;
	370 :	1111111111100000;
	369 :	1111111111101011;
	368 :	0000000000100010;
	367 :	1111111111111110;
	366 :	0000000000010010;
	365 :	1111111111101110;
	364 :	1111111111110110;
	363 :	0000000000000000;
	362 :	0000000000011111;
	361 :	1111111111100000;
	360 :	1111111111111111;
	359 :	0000000000001001;
	358 :	0000000000010000;
	357 :	0000000000000010;
	356 :	1111111111010011;
	355 :	1111111111010111;
	354 :	1111111111111010;
	353 :	1111111111101110;
	352 :	0000000000001000;
	351 :	0000000000010000;
	350 :	1111111111111100;
	349 :	1111111111110110;
	348 :	1111111111110011;
	347 :	1111111111100011;
	346 :	0000000000001001;
	345 :	0000000000011000;
	344 :	1111111111101111;
	343 :	0000000000001110;
	342 :	0000000000000011;
	341 :	1111111111110100;
	340 :	0000000000001011;
	339 :	0000000000010100;
	338 :	0000000000011000;
	337 :	0000000000001101;
	336 :	1111111111111110;
	335 :	1111111111101111;
	334 :	1111111111111100;
	333 :	0000000000010010;
	332 :	1111111111011011;
	331 :	1111111111101101;
	330 :	1111111111010001;
	329 :	1111111111101111;
	328 :	1111111111001010;
	327 :	1111111111101101;
	326 :	1111111111111111;
	325 :	1111111111111110;
	324 :	0000000000010011;
	323 :	0000000000010111;
	322 :	0000000000011000;
	321 :	0000000000001000;
	320 :	1111111111110101;
	319 :	1111111111000011;
	318 :	1111111111111110;
	317 :	0000000000010101;
	316 :	0000000000010010;
	315 :	1111111111110111;
	314 :	1111111111100110;
	313 :	1111111111100000;
	312 :	0000000000000100;
	311 :	0000000000000100;
	310 :	0000000000001010;
	309 :	0000000000010110;
	308 :	1111111111111001;
	307 :	1111111111111011;
	306 :	1111111111111100;
	305 :	1111111111111110;
	304 :	1111111111010011;
	303 :	1111111111011010;
	302 :	1111111111010001;
	301 :	1111111111110100;
	300 :	1111111111100110;
	299 :	1111111111100101;
	298 :	1111111111111001;
	297 :	1111111111111110;
	296 :	0000000000011111;
	295 :	0000000000100001;
	294 :	0000000000000010;
	293 :	1111111111110010;
	292 :	1111111111100011;
	291 :	1111111111000110;
	290 :	0000000000000010;
	289 :	0000000000010001;
	288 :	0000000000100010;
	287 :	1111111111010110;
	286 :	1111111111010111;
	285 :	1111111111110010;
	284 :	1111111111100100;
	283 :	0000000000000000;
	282 :	0000000000010010;
	281 :	0000000000110110;
	280 :	0000000000010011;
	279 :	0000000000000101;
	278 :	1111111111110100;
	277 :	0000000000000001;
	276 :	1111111111101111;
	275 :	1111111111111110;
	274 :	1111111111110010;
	273 :	0000000000000000;
	272 :	1111111111110010;
	271 :	1111111111101001;
	270 :	0000000000000000;
	269 :	1111111111111011;
	268 :	0000000000011110;
	267 :	0000000000010100;
	266 :	1111111111110011;
	265 :	1111111111011110;
	264 :	1111111111110000;
	263 :	1111111111101011;
	262 :	1111111111101111;
	261 :	0000000000001001;
	260 :	1111111111110010;
	259 :	1111111111111101;
	258 :	1111111111010100;
	257 :	1111111111110110;
	256 :	1111111111101011;
	255 :	1111111111110101;
	254 :	0000000000000100;
	253 :	1111111111111001;
	252 :	1111111111111100;
	251 :	0000000000010010;
	250 :	0000000000000111;
	249 :	1111111111010100;
	248 :	1111111111011110;
	247 :	0000000000010101;
	246 :	1111111111111101;
	245 :	0000000000001000;
	244 :	0000000000000000;
	243 :	0000000000000111;
	242 :	1111111111101110;
	241 :	0000000000011110;
	240 :	0000000000000110;
	239 :	0000000000000111;
	238 :	0000000000001111;
	237 :	1111111111101110;
	236 :	1111111111001011;
	235 :	1111111111100111;
	234 :	1111111111111100;
	233 :	0000000000000111;
	232 :	0000000000000011;
	231 :	1111111111100001;
	230 :	1111111111001111;
	229 :	1111111110111110;
	228 :	1111111111110111;
	227 :	0000000000010010;
	226 :	0000000000000111;
	225 :	1111111111111100;
	224 :	1111111111110110;
	223 :	1111111111101100;
	222 :	1111111111101101;
	221 :	1111111111100010;
	220 :	1111111111001110;
	219 :	0000000000000001;
	218 :	0000000000000010;
	217 :	1111111111110100;
	216 :	0000000000001100;
	215 :	0000000000001001;
	214 :	0000000000001010;
	213 :	0000000000001101;
	212 :	0000000000000110;
	211 :	1111111111110100;
	210 :	0000000000000100;
	209 :	0000000000000100;
	208 :	1111111111001001;
	207 :	1111111111101001;
	206 :	0000000000010101;
	205 :	1111111111110100;
	204 :	0000000000000110;
	203 :	1111111111110001;
	202 :	1111111111100000;
	201 :	1111111111100100;
	200 :	0000000000001101;
	199 :	0000000000000100;
	198 :	0000000000010011;
	197 :	1111111111110011;
	196 :	0000000000001100;
	195 :	1111111111110000;
	194 :	0000000000000110;
	193 :	1111111111101001;
	192 :	1111111111101010;
	191 :	0000000000011001;
	190 :	0000000000001000;
	189 :	0000000000100011;
	188 :	0000000000000110;
	187 :	1111111111110011;
	186 :	0000000000001010;
	185 :	1111111111111110;
	184 :	1111111111111110;
	183 :	0000000000000001;
	182 :	1111111111110010;
	181 :	1111111111001111;
	180 :	1111111111101011;
	179 :	1111111111011100;
	178 :	0000000000001111;
	177 :	1111111111100010;
	176 :	0000000000000111;
	175 :	0000000000000010;
	174 :	1111111111001000;
	173 :	1111111111000011;
	172 :	0000000000001101;
	171 :	0000000000000010;
	170 :	0000000000001101;
	169 :	0000000000001110;
	168 :	1111111111110100;
	167 :	1111111111101100;
	166 :	0000000000000101;
	165 :	1111111111110101;
	164 :	0000000000011000;
	163 :	1111111111111111;
	162 :	0000000000011001;
	161 :	0000000000100111;
	160 :	1111111111111011;
	159 :	1111111111110111;
	158 :	1111111111111100;
	157 :	1111111111110100;
	156 :	1111111111101000;
	155 :	0000000000001100;
	154 :	1111111111110010;
	153 :	1111111110111101;
	152 :	1111111110110100;
	151 :	1111111111110101;
	150 :	1111111111100110;
	149 :	1111111111100001;
	148 :	1111111111010001;
	147 :	1111111111111111;
	146 :	0000000000000101;
	145 :	0000000000001001;
	144 :	0000000000001010;
	143 :	1111111111110010;
	142 :	0000000000000111;
	141 :	0000000000001111;
	140 :	0000000000010110;
	139 :	1111111111111011;
	138 :	1111111111110110;
	137 :	1111111111101000;
	136 :	1111111111100011;
	135 :	0000000000111001;
	134 :	1111111111100110;
	133 :	1111111111101001;
	132 :	0000000000101110;
	131 :	0000000000010011;
	130 :	0000000000001101;
	129 :	0000000000000010;
	128 :	1111111111111101;
	127 :	1111111111101110;
	126 :	1111111111110001;
	125 :	1111111110110001;
	124 :	1111111110101101;
	123 :	1111111111001101;
	122 :	0000000000100011;
	121 :	1111111111101000;
	120 :	0000000000001000;
	119 :	1111111111111101;
	118 :	1111111111101111;
	117 :	1111111111111100;
	116 :	1111111111111011;
	115 :	0000000000010001;
	114 :	0000000000001100;
	113 :	0000000000010101;
	112 :	0000000000010010;
	111 :	1111111111110100;
	110 :	0000000000001000;
	109 :	1111111111101111;
	108 :	0000000000110100;
	107 :	0000000000111110;
	106 :	0000000000110000;
	105 :	0000000000100011;
	104 :	0000000000100010;
	103 :	0000000001000110;
	102 :	1111111111110010;
	101 :	0000000000000110;
	100 :	1111111110110000;
	99 :	1111111111011011;
	98 :	1111111110110111;
	97 :	1111111110011011;
	96 :	1111111111001010;
	95 :	0000000000000101;
	94 :	0000000000010010;
	93 :	1111111111011010;
	92 :	1111111111010110;
	91 :	1111111111111001;
	90 :	0000000000001011;
	89 :	0000000000000110;
	88 :	1111111111110001;
	87 :	1111111111111000;
	86 :	0000000000010011;
	85 :	1111111111101101;
	84 :	0000000000000101;
	83 :	1111111111110110;
	82 :	1111111111111010;
	81 :	1111111111110011;
	80 :	0000000000001111;
	79 :	0000000000110111;
	78 :	0000000000101001;
	77 :	0000000000111101;
	76 :	0000000001100001;
	75 :	0000000001110110;
	74 :	0000000000100111;
	73 :	1111111110110010;
	72 :	1111111111010101;
	71 :	1111111111001011;
	70 :	1111111111011010;
	69 :	0000000000000100;
	68 :	0000000000011100;
	67 :	0000000000100000;
	66 :	1111111111111111;
	65 :	0000000000000011;
	64 :	0000000000010010;
	63 :	1111111111110001;
	62 :	1111111111101011;
	61 :	0000000000001110;
	60 :	1111111111101010;
	59 :	0000000000000110;
	58 :	1111111111101101;
	57 :	1111111111110011;
	56 :	0000000000000111;
	55 :	0000000000000010;
	54 :	1111111111111011;
	53 :	1111111111111011;
	52 :	0000000000000101;
	51 :	0000000000010110;
	50 :	0000000000000100;
	49 :	1111111111011111;
	48 :	0000000000100001;
	47 :	0000000000100100;
	46 :	0000000000000101;
	45 :	0000000000000111;
	44 :	1111111111100000;
	43 :	1111111111110010;
	42 :	1111111111111001;
	41 :	1111111111110100;
	40 :	1111111111111010;
	39 :	0000000000011000;
	38 :	0000000000001111;
	37 :	1111111111111000;
	36 :	1111111111101110;
	35 :	1111111111101010;
	34 :	1111111111101011;
	33 :	1111111111111001;
	32 :	1111111111101111;
	31 :	1111111111101100;
	30 :	1111111111110011;
	29 :	0000000000000010;
	28 :	0000000000000100;
	27 :	0000000000000011;
	26 :	0000000000001000;
	25 :	1111111111111111;
	24 :	0000000000000110;
	23 :	0000000000000101;
	22 :	0000000000001101;
	21 :	0000000000000000;
	20 :	0000000000000010;
	19 :	0000000000000110;
	18 :	1111111111111010;
	17 :	1111111111101100;
	16 :	0000000000001101;
	15 :	1111111111111001;
	14 :	1111111111110100;
	13 :	0000000000001100;
	12 :	0000000000000010;
	11 :	0000000000000100;
	10 :	0000000000000010;
	9 :	1111111111110000;
	8 :	0000000000000111;
	7 :	0000000000000101;
	6 :	0000000000000100;
	5 :	0000000000001011;
	4 :	1111111111111110;
	3 :	0000000000000011;
	2 :	1111111111110110;
	1 :	0000000000000110;
	0 :	1111111111111101;
END;
