-- begin_signature
-- weights(numWeights
-- 784
-- neuronNumber
-- 8
-- layerNumber
-- 0
-- addressWidth
-- 10
-- dataWidth
-- 16
-- weightFile
-- "weights/weight_L0_N8.mif")
-- end_signature
WIDTH=16;
DEPTH=784;

ADDRESS_RADIX=UNS;
DATA_RADIX=BIN;

CONTENT BEGIN
	783 :	1111111111101101;
	782 :	0000000000000111;
	781 :	0000000000000110;
	780 :	0000000000010000;
	779 :	0000000000001100;
	778 :	1111111111011010;
	777 :	1111111111111111;
	776 :	1111111111101001;
	775 :	1111111111101110;
	774 :	1111111111100110;
	773 :	1111111111011000;
	772 :	1111111111100111;
	771 :	1111111111010010;
	770 :	1111111111001000;
	769 :	1111111110110110;
	768 :	1111111111001111;
	767 :	1111111111010110;
	766 :	1111111111010111;
	765 :	1111111111001100;
	764 :	1111111111100010;
	763 :	1111111111010111;
	762 :	1111111111010100;
	761 :	0000000000001000;
	760 :	1111111111110100;
	759 :	0000000000010011;
	758 :	1111111111111110;
	757 :	1111111111111111;
	756 :	0000000000010011;
	755 :	0000000000000110;
	754 :	1111111111110111;
	753 :	0000000000010001;
	752 :	1111111111101110;
	751 :	1111111111101111;
	750 :	1111111111100101;
	749 :	1111111111111101;
	748 :	1111111111100101;
	747 :	1111111111001100;
	746 :	1111111110111010;
	745 :	1111111111000000;
	744 :	1111111111100000;
	743 :	1111111111001110;
	742 :	1111111110111010;
	741 :	1111111111100000;
	740 :	1111111111110100;
	739 :	1111111111011010;
	738 :	1111111111011000;
	737 :	1111111111110010;
	736 :	1111111111100101;
	735 :	1111111111010110;
	734 :	1111111111010110;
	733 :	1111111111011000;
	732 :	1111111111111000;
	731 :	1111111111111110;
	730 :	1111111111111011;
	729 :	0000000000000001;
	728 :	0000000000010010;
	727 :	0000000000001010;
	726 :	0000000000010110;
	725 :	0000000000101001;
	724 :	0000000000000100;
	723 :	0000000000100110;
	722 :	0000000000011010;
	721 :	0000000000011100;
	720 :	0000000000000000;
	719 :	1111111111110010;
	718 :	1111111111101100;
	717 :	1111111111111101;
	716 :	0000000000000010;
	715 :	1111111111111000;
	714 :	0000000000000011;
	713 :	1111111111101001;
	712 :	1111111111111111;
	711 :	1111111111110110;
	710 :	1111111111111000;
	709 :	1111111111100101;
	708 :	1111111111101001;
	707 :	1111111111100010;
	706 :	1111111111111100;
	705 :	1111111111010001;
	704 :	1111111111011010;
	703 :	0000000000001101;
	702 :	1111111111101011;
	701 :	1111111111101111;
	700 :	1111111111111001;
	699 :	0000000000010110;
	698 :	0000000000011110;
	697 :	0000000000100100;
	696 :	0000000000001110;
	695 :	0000000000100000;
	694 :	0000000000100011;
	693 :	0000000000001000;
	692 :	0000000000000111;
	691 :	0000000000010010;
	690 :	0000000000001001;
	689 :	0000000000001100;
	688 :	0000000000000000;
	687 :	1111111111110011;
	686 :	1111111111110100;
	685 :	1111111111101001;
	684 :	1111111111101010;
	683 :	1111111111111110;
	682 :	1111111111100001;
	681 :	1111111111110010;
	680 :	1111111111100000;
	679 :	0000000000000101;
	678 :	1111111111110000;
	677 :	1111111111111000;
	676 :	1111111111101100;
	675 :	0000000000000010;
	674 :	0000000000000100;
	673 :	1111111111111110;
	672 :	0000000000000010;
	671 :	1111111111110011;
	670 :	0000000000000100;
	669 :	1111111111110001;
	668 :	1111111111101110;
	667 :	0000000000001011;
	666 :	0000000000000000;
	665 :	0000000000010111;
	664 :	1111111111111100;
	663 :	1111111111111010;
	662 :	1111111111110010;
	661 :	1111111111101011;
	660 :	1111111111101110;
	659 :	1111111111110101;
	658 :	1111111111111100;
	657 :	1111111111101001;
	656 :	1111111111100101;
	655 :	1111111111111001;
	654 :	1111111111010100;
	653 :	1111111111111001;
	652 :	1111111111110010;
	651 :	1111111111101110;
	650 :	1111111111100110;
	649 :	1111111111100011;
	648 :	1111111111100111;
	647 :	1111111111111010;
	646 :	0000000000010001;
	645 :	0000000000001010;
	644 :	0000000000001100;
	643 :	1111111111110110;
	642 :	0000000000010110;
	641 :	0000000000001000;
	640 :	1111111111011010;
	639 :	1111111111100111;
	638 :	1111111111100000;
	637 :	1111111111110001;
	636 :	1111111111110110;
	635 :	0000000000001010;
	634 :	1111111111110011;
	633 :	1111111111100100;
	632 :	1111111111111110;
	631 :	1111111111111110;
	630 :	1111111111101010;
	629 :	0000000000000100;
	628 :	0000000000001111;
	627 :	0000000000000010;
	626 :	0000000000000000;
	625 :	1111111111111100;
	624 :	1111111111111100;
	623 :	1111111111110110;
	622 :	1111111111010001;
	621 :	1111111111110011;
	620 :	1111111111001101;
	619 :	1111111111101011;
	618 :	1111111111111101;
	617 :	1111111111111000;
	616 :	1111111111101111;
	615 :	1111111111101011;
	614 :	0000000000110101;
	613 :	0000000000000011;
	612 :	1111111111101100;
	611 :	1111111111110001;
	610 :	1111111111110010;
	609 :	1111111111110000;
	608 :	0000000000000000;
	607 :	1111111111111010;
	606 :	0000000000001010;
	605 :	0000000000011011;
	604 :	0000000000001001;
	603 :	0000000000000111;
	602 :	0000000000001001;
	601 :	0000000000010010;
	600 :	0000000000010111;
	599 :	0000000000000101;
	598 :	0000000000010101;
	597 :	0000000000001011;
	596 :	0000000000000100;
	595 :	1111111111101010;
	594 :	1111111111010010;
	593 :	1111111111110101;
	592 :	1111111111011010;
	591 :	0000000000000000;
	590 :	1111111111101010;
	589 :	1111111111101010;
	588 :	0000000000000001;
	587 :	0000000000010001;
	586 :	1111111111110001;
	585 :	0000000000001000;
	584 :	1111111111010011;
	583 :	1111111111101110;
	582 :	1111111111011100;
	581 :	1111111111111110;
	580 :	0000000000001111;
	579 :	1111111111110100;
	578 :	1111111111111000;
	577 :	1111111111110100;
	576 :	1111111111111011;
	575 :	0000000000000000;
	574 :	0000000000010110;
	573 :	1111111111111100;
	572 :	0000000000010101;
	571 :	0000000000010011;
	570 :	0000000000010000;
	569 :	1111111111110000;
	568 :	1111111111110000;
	567 :	1111111111110101;
	566 :	1111111111100011;
	565 :	1111111111010101;
	564 :	1111111111100111;
	563 :	0000000000000001;
	562 :	0000000000011010;
	561 :	0000000000010101;
	560 :	1111111111111101;
	559 :	0000000000011000;
	558 :	1111111111110011;
	557 :	0000000000110001;
	556 :	0000000000000100;
	555 :	1111111111111100;
	554 :	0000000000000101;
	553 :	1111111111101111;
	552 :	1111111111111101;
	551 :	0000000000000100;
	550 :	0000000000010011;
	549 :	0000000000001000;
	548 :	1111111111111101;
	547 :	0000000000010010;
	546 :	0000000000000111;
	545 :	0000000000001010;
	544 :	0000000000001101;
	543 :	0000000000000000;
	542 :	0000000000001100;
	541 :	0000000000000000;
	540 :	1111111111110011;
	539 :	1111111111111111;
	538 :	1111111111110011;
	537 :	1111111111101011;
	536 :	1111111111101001;
	535 :	1111111111110001;
	534 :	0000000000000001;
	533 :	1111111111011111;
	532 :	0000000000010110;
	531 :	0000000000110001;
	530 :	1111111111010011;
	529 :	0000000000100101;
	528 :	0000000000000001;
	527 :	0000000000010100;
	526 :	1111111111110010;
	525 :	0000000000001111;
	524 :	1111111111111111;
	523 :	0000000000001011;
	522 :	1111111111111100;
	521 :	0000000000000110;
	520 :	0000000000010111;
	519 :	1111111111110100;
	518 :	0000000000001101;
	517 :	0000000000010110;
	516 :	0000000000010101;
	515 :	0000000000000001;
	514 :	1111111111111100;
	513 :	1111111111111100;
	512 :	0000000000001110;
	511 :	0000000000001100;
	510 :	1111111111111100;
	509 :	1111111111101000;
	508 :	1111111111100011;
	507 :	0000000000000110;
	506 :	0000000000000001;
	505 :	0000000000001100;
	504 :	1111111111100100;
	503 :	1111111111101101;
	502 :	1111111111011111;
	501 :	0000000000010110;
	500 :	0000000000000011;
	499 :	0000000000000101;
	498 :	0000000000010010;
	497 :	0000000000001100;
	496 :	0000000000010000;
	495 :	0000000000000001;
	494 :	0000000000010010;
	493 :	0000000000000110;
	492 :	0000000000001001;
	491 :	0000000000001110;
	490 :	0000000000010010;
	489 :	0000000000001010;
	488 :	1111111111110101;
	487 :	0000000000011110;
	486 :	0000000000001100;
	485 :	0000000000011111;
	484 :	0000000000010001;
	483 :	0000000000010000;
	482 :	0000000000001011;
	481 :	1111111111101010;
	480 :	1111111111100101;
	479 :	1111111111110101;
	478 :	0000000001000101;
	477 :	1111111111101100;
	476 :	0000000000010010;
	475 :	0000000000010101;
	474 :	0000000000010000;
	473 :	0000000000100001;
	472 :	0000000000010010;
	471 :	0000000000010100;
	470 :	0000000000001100;
	469 :	0000000000010011;
	468 :	0000000000001110;
	467 :	0000000000010010;
	466 :	0000000000001000;
	465 :	1111111111111001;
	464 :	0000000000000010;
	463 :	0000000000010111;
	462 :	0000000000010011;
	461 :	0000000000011001;
	460 :	1111111111111110;
	459 :	0000000000100100;
	458 :	0000000000011100;
	457 :	0000000000000111;
	456 :	0000000000000110;
	455 :	0000000000000111;
	454 :	0000000000010011;
	453 :	1111111111111111;
	452 :	1111111111111101;
	451 :	0000000000001001;
	450 :	0000000001001101;
	449 :	0000000000001000;
	448 :	1111111111111000;
	447 :	1111111111111110;
	446 :	1111111111110001;
	445 :	0000000000010010;
	444 :	0000000000000110;
	443 :	0000000000000111;
	442 :	0000000000000110;
	441 :	0000000000010001;
	440 :	0000000000001011;
	439 :	1111111111110101;
	438 :	0000000000010010;
	437 :	0000000000011010;
	436 :	0000000000000111;
	435 :	0000000000001010;
	434 :	0000000000001010;
	433 :	0000000000001100;
	432 :	0000000000010111;
	431 :	0000000000010000;
	430 :	0000000000001101;
	429 :	0000000000010110;
	428 :	0000000000000100;
	427 :	0000000000010111;
	426 :	1111111111111011;
	425 :	0000000000011100;
	424 :	1111111111111110;
	423 :	0000000000001101;
	422 :	0000000001010110;
	421 :	0000000000001000;
	420 :	0000000000011000;
	419 :	1111111111101100;
	418 :	1111111111101001;
	417 :	1111111111110100;
	416 :	0000000000001001;
	415 :	0000000000001000;
	414 :	0000000000011110;
	413 :	1111111111111101;
	412 :	1111111111111001;
	411 :	1111111111111101;
	410 :	1111111111101100;
	409 :	0000000000001010;
	408 :	0000000000001100;
	407 :	0000000000011001;
	406 :	1111111111111100;
	405 :	0000000000001001;
	404 :	0000000000010111;
	403 :	0000000000011101;
	402 :	0000000000011001;
	401 :	0000000000001111;
	400 :	0000000000010101;
	399 :	0000000000001111;
	398 :	0000000000011011;
	397 :	0000000000001100;
	396 :	1111111111111101;
	395 :	0000000000000010;
	394 :	0000000000010111;
	393 :	0000000000001101;
	392 :	0000000000010111;
	391 :	0000000000100110;
	390 :	1111111111101000;
	389 :	1111111111101000;
	388 :	0000000000010011;
	387 :	0000000000011000;
	386 :	1111111111111100;
	385 :	1111111111111000;
	384 :	1111111111110100;
	383 :	0000000000001011;
	382 :	1111111111111010;
	381 :	0000000000001001;
	380 :	0000000000001011;
	379 :	0000000000001100;
	378 :	0000000000000110;
	377 :	0000000000000100;
	376 :	0000000000010110;
	375 :	0000000000010000;
	374 :	0000000000010110;
	373 :	0000000000010010;
	372 :	0000000000001011;
	371 :	0000000000000001;
	370 :	0000000000010011;
	369 :	0000000000010101;
	368 :	1111111111010001;
	367 :	1111111111100001;
	366 :	1111111111101011;
	365 :	0000000000110110;
	364 :	0000000000010010;
	363 :	0000000000000111;
	362 :	1111111110101100;
	361 :	1111111111001111;
	360 :	0000000000000101;
	359 :	0000000000000011;
	358 :	1111111111111010;
	357 :	1111111111111111;
	356 :	1111111111110100;
	355 :	1111111111101001;
	354 :	1111111111111011;
	353 :	1111111111101011;
	352 :	0000000000001011;
	351 :	1111111111110111;
	350 :	1111111111111100;
	349 :	0000000000000101;
	348 :	0000000000001110;
	347 :	0000000000011010;
	346 :	0000000000001001;
	345 :	0000000000000111;
	344 :	0000000000000101;
	343 :	0000000000011001;
	342 :	0000000000010001;
	341 :	1111111111110000;
	340 :	1111111111100100;
	339 :	1111111111001110;
	338 :	1111111111101000;
	337 :	0000000000010001;
	336 :	0000000000001010;
	335 :	1111111111110101;
	334 :	1111111111000100;
	333 :	1111111111110111;
	332 :	1111111111101111;
	331 :	1111111111110101;
	330 :	1111111111100110;
	329 :	1111111111110001;
	328 :	1111111111110010;
	327 :	1111111111111111;
	326 :	1111111111110011;
	325 :	1111111111111111;
	324 :	1111111111110010;
	323 :	1111111111110000;
	322 :	1111111111101111;
	321 :	1111111111101111;
	320 :	0000000000000010;
	319 :	1111111111110001;
	318 :	0000000000001110;
	317 :	0000000000001101;
	316 :	0000000000001000;
	315 :	0000000000000101;
	314 :	0000000000000001;
	313 :	1111111111111011;
	312 :	1111111111011010;
	311 :	0000000000000110;
	310 :	1111111111010100;
	309 :	0000000000000111;
	308 :	1111111111101101;
	307 :	1111111111010111;
	306 :	1111111111100110;
	305 :	0000000000100001;
	304 :	0000000000000100;
	303 :	1111111111110011;
	302 :	1111111111101001;
	301 :	1111111111111101;
	300 :	1111111111101011;
	299 :	1111111111111011;
	298 :	1111111111111001;
	297 :	1111111111101000;
	296 :	1111111111111111;
	295 :	1111111111101100;
	294 :	1111111111101100;
	293 :	0000000000000000;
	292 :	0000000000000001;
	291 :	0000000000000010;
	290 :	1111111111110110;
	289 :	0000000000000100;
	288 :	1111111111110111;
	287 :	0000000000000111;
	286 :	1111111111110101;
	285 :	1111111111101101;
	284 :	1111111111110100;
	283 :	1111111111100110;
	282 :	1111111111001101;
	281 :	0000000000000011;
	280 :	0000000000001111;
	279 :	1111111111011101;
	278 :	1111111111101010;
	277 :	0000000000001110;
	276 :	1111111111110110;
	275 :	1111111111110010;
	274 :	1111111111111010;
	273 :	1111111111110110;
	272 :	1111111111111111;
	271 :	1111111111100101;
	270 :	1111111111110001;
	269 :	1111111111101010;
	268 :	1111111111011110;
	267 :	1111111111101100;
	266 :	1111111111110101;
	265 :	1111111111101011;
	264 :	1111111111111011;
	263 :	1111111111111110;
	262 :	1111111111110110;
	261 :	1111111111110101;
	260 :	1111111111101101;
	259 :	1111111111111100;
	258 :	1111111111111000;
	257 :	1111111111001110;
	256 :	1111111111101000;
	255 :	0000000000000100;
	254 :	1111111111100100;
	253 :	1111111111011011;
	252 :	0000000000010001;
	251 :	1111111111011110;
	250 :	1111111111111011;
	249 :	0000000000100110;
	248 :	0000000000000111;
	247 :	1111111111100010;
	246 :	0000000000000011;
	245 :	1111111111111101;
	244 :	1111111111110101;
	243 :	1111111111100101;
	242 :	1111111111100100;
	241 :	1111111111110000;
	240 :	1111111111101101;
	239 :	1111111111101100;
	238 :	1111111111111110;
	237 :	1111111111101111;
	236 :	1111111111110100;
	235 :	1111111111111000;
	234 :	1111111111101111;
	233 :	0000000000000011;
	232 :	1111111111101111;
	231 :	1111111111101111;
	230 :	1111111111101110;
	229 :	1111111111101110;
	228 :	0000000000001110;
	227 :	1111111111101010;
	226 :	0000000000000001;
	225 :	1111111111110101;
	224 :	0000000000001011;
	223 :	0000000000000000;
	222 :	0000000000100100;
	221 :	0000000000010000;
	220 :	0000000000101000;
	219 :	0000000000000101;
	218 :	1111111111101001;
	217 :	1111111111101110;
	216 :	1111111111100101;
	215 :	1111111111100111;
	214 :	1111111111101011;
	213 :	1111111111101100;
	212 :	1111111111110110;
	211 :	1111111111101100;
	210 :	1111111111111000;
	209 :	1111111111111001;
	208 :	1111111111111110;
	207 :	1111111111111110;
	206 :	1111111111111001;
	205 :	1111111111111001;
	204 :	1111111111101100;
	203 :	0000000000000100;
	202 :	1111111111101000;
	201 :	1111111111110100;
	200 :	0000000000001011;
	199 :	1111111111001100;
	198 :	0000000000011111;
	197 :	0000000000001110;
	196 :	0000000000000110;
	195 :	0000000000000110;
	194 :	0000000000100101;
	193 :	0000000000011101;
	192 :	0000000000101101;
	191 :	0000000000011001;
	190 :	0000000000010010;
	189 :	1111111111101100;
	188 :	1111111111110000;
	187 :	1111111111101001;
	186 :	1111111111101010;
	185 :	1111111111100100;
	184 :	1111111111101100;
	183 :	1111111111111001;
	182 :	1111111111011110;
	181 :	1111111111100111;
	180 :	1111111111100100;
	179 :	1111111111111001;
	178 :	1111111111100010;
	177 :	1111111111111110;
	176 :	1111111111111111;
	175 :	1111111111110101;
	174 :	1111111111110110;
	173 :	0000000000000000;
	172 :	0000000000100101;
	171 :	1111111111010000;
	170 :	0000000000011011;
	169 :	0000000000010101;
	168 :	0000000000001010;
	167 :	0000000000101101;
	166 :	0000000000101000;
	165 :	0000000000000001;
	164 :	0000000000000011;
	163 :	0000000000011101;
	162 :	0000000000000011;
	161 :	0000000000001001;
	160 :	0000000000000110;
	159 :	0000000000010000;
	158 :	1111111111111101;
	157 :	0000000000000010;
	156 :	1111111111110101;
	155 :	1111111111100101;
	154 :	1111111111111100;
	153 :	1111111111101111;
	152 :	1111111111111101;
	151 :	1111111111101100;
	150 :	1111111111101110;
	149 :	1111111111111111;
	148 :	0000000000000000;
	147 :	1111111111100111;
	146 :	1111111111101000;
	145 :	1111111111010101;
	144 :	0000000000010001;
	143 :	1111111111011001;
	142 :	1111111111111011;
	141 :	1111111111110000;
	140 :	0000000000001111;
	139 :	0000000000011111;
	138 :	1111111111100110;
	137 :	1111111111100111;
	136 :	1111111111110100;
	135 :	0000000000001101;
	134 :	0000000000011010;
	133 :	0000000000000011;
	132 :	0000000000000110;
	131 :	1111111111111110;
	130 :	0000000000000011;
	129 :	0000000000001000;
	128 :	1111111111111111;
	127 :	1111111111110111;
	126 :	1111111111100101;
	125 :	0000000000000000;
	124 :	1111111111101001;
	123 :	1111111111110111;
	122 :	0000000000001011;
	121 :	1111111111111110;
	120 :	1111111111110101;
	119 :	0000000000001000;
	118 :	1111111111111101;
	117 :	1111111111111111;
	116 :	0000000000010110;
	115 :	1111111111100110;
	114 :	1111111111101100;
	113 :	0000000000000110;
	112 :	0000000000010001;
	111 :	0000000000001111;
	110 :	0000000000001101;
	109 :	1111111111111000;
	108 :	0000000000001001;
	107 :	0000000000101000;
	106 :	0000000000100101;
	105 :	0000000000001111;
	104 :	0000000000000010;
	103 :	0000000000011001;
	102 :	0000000000000111;
	101 :	1111111111111110;
	100 :	1111111111111111;
	99 :	0000000000001111;
	98 :	0000000000010001;
	97 :	1111111111111101;
	96 :	0000000000001110;
	95 :	0000000000001101;
	94 :	0000000000010011;
	93 :	0000000000011000;
	92 :	0000000000010111;
	91 :	0000000000011000;
	90 :	0000000000111100;
	89 :	0000000000111100;
	88 :	0000000000000111;
	87 :	0000000000011101;
	86 :	1111111111011011;
	85 :	0000000000000100;
	84 :	0000000000000001;
	83 :	1111111111110100;
	82 :	1111111111111110;
	81 :	1111111111101110;
	80 :	0000000000001101;
	79 :	0000000000110000;
	78 :	0000000001000111;
	77 :	0000000000110011;
	76 :	0000000000101111;
	75 :	0000000000011000;
	74 :	0000000000010111;
	73 :	0000000000010000;
	72 :	0000000000001101;
	71 :	0000000000010011;
	70 :	0000000000101000;
	69 :	0000000000000000;
	68 :	0000000000100101;
	67 :	0000000000101101;
	66 :	0000000000101111;
	65 :	0000000000101101;
	64 :	0000000000110100;
	63 :	0000000000100011;
	62 :	0000000000010111;
	61 :	0000000000111101;
	60 :	0000000000010100;
	59 :	0000000000101010;
	58 :	0000000000000100;
	57 :	0000000000000111;
	56 :	1111111111110111;
	55 :	1111111111110111;
	54 :	1111111111110001;
	53 :	0000000000010010;
	52 :	1111111111111100;
	51 :	0000000000110010;
	50 :	0000000000110110;
	49 :	0000000000110000;
	48 :	0000000000011110;
	47 :	0000000000100101;
	46 :	0000000000110111;
	45 :	0000000000111111;
	44 :	0000000000001000;
	43 :	0000000000001100;
	42 :	0000000000001001;
	41 :	0000000000011110;
	40 :	0000000000010011;
	39 :	0000000000001110;
	38 :	0000000000100100;
	37 :	0000000000100011;
	36 :	0000000000011101;
	35 :	0000000000001001;
	34 :	0000000000010011;
	33 :	0000000000011011;
	32 :	0000000000000011;
	31 :	0000000000000110;
	30 :	0000000000010101;
	29 :	0000000000010010;
	28 :	0000000000010100;
	27 :	0000000000000101;
	26 :	1111111111110011;
	25 :	1111111111110001;
	24 :	0000000000000001;
	23 :	1111111111101101;
	22 :	1111111111111110;
	21 :	1111111111111101;
	20 :	0000000000010001;
	19 :	1111111111111011;
	18 :	0000000000001010;
	17 :	1111111111111001;
	16 :	0000000000000011;
	15 :	0000000000010010;
	14 :	1111111111100101;
	13 :	0000000000100101;
	12 :	0000000000011000;
	11 :	1111111111110010;
	10 :	0000000000000101;
	9 :	1111111111110101;
	8 :	1111111111111000;
	7 :	1111111111111011;
	6 :	1111111111111000;
	5 :	1111111111101011;
	4 :	0000000000010011;
	3 :	1111111111111101;
	2 :	0000000000000000;
	1 :	1111111111111010;
	0 :	0000000000010010;
END;
