-- begin_signature
-- weights(numWeights
-- 784
-- neuronNumber
-- 11
-- layerNumber
-- 0
-- addressWidth
-- 10
-- dataWidth
-- 16
-- weightFile
-- "weights/weight_L0_N11.mif")
-- end_signature
WIDTH=16;
DEPTH=784;

ADDRESS_RADIX=UNS;
DATA_RADIX=BIN;

CONTENT BEGIN
	783 :	0000000000010100;
	782 :	0000000000010101;
	781 :	1111111111101011;
	780 :	1111111111101101;
	779 :	1111111111101111;
	778 :	1111111111110111;
	777 :	1111111111110101;
	776 :	1111111111101101;
	775 :	1111111111110011;
	774 :	1111111111101000;
	773 :	0000000000100000;
	772 :	0000000000000010;
	771 :	1111111111110101;
	770 :	0000000000010111;
	769 :	0000000000001111;
	768 :	1111111111111011;
	767 :	0000000000010100;
	766 :	1111111111110011;
	765 :	0000000000011101;
	764 :	0000000000000101;
	763 :	0000000000001111;
	762 :	0000000000010110;
	761 :	1111111111110011;
	760 :	0000000000001111;
	759 :	1111111111110000;
	758 :	1111111111101101;
	757 :	1111111111111001;
	756 :	1111111111101011;
	755 :	0000000000000010;
	754 :	0000000000001000;
	753 :	1111111111111001;
	752 :	1111111111111100;
	751 :	0000000000010000;
	750 :	1111111111110111;
	749 :	0000000000000010;
	748 :	1111111111101001;
	747 :	1111111111100011;
	746 :	1111111110010101;
	745 :	1111111111111001;
	744 :	0000000000000010;
	743 :	1111111111001110;
	742 :	1111111111101101;
	741 :	0000000000011000;
	740 :	0000000000001001;
	739 :	0000000000010101;
	738 :	1111111111100001;
	737 :	0000000000100111;
	736 :	1111111111111011;
	735 :	1111111111100000;
	734 :	1111111110111110;
	733 :	1111111111101001;
	732 :	0000000000000011;
	731 :	0000000000000000;
	730 :	0000000000010001;
	729 :	0000000000000111;
	728 :	1111111111110110;
	727 :	1111111111111110;
	726 :	1111111111110011;
	725 :	0000000000000100;
	724 :	0000000000000111;
	723 :	1111111111111101;
	722 :	0000000000000010;
	721 :	0000000000001000;
	720 :	1111111111100010;
	719 :	1111111111110001;
	718 :	1111111111010101;
	717 :	1111111111111001;
	716 :	0000000000000010;
	715 :	1111111111111000;
	714 :	1111111111110100;
	713 :	1111111111110010;
	712 :	0000000000001010;
	711 :	0000000000000010;
	710 :	1111111111101100;
	709 :	1111111111111000;
	708 :	1111111111100101;
	707 :	1111111111100011;
	706 :	0000000000000001;
	705 :	0000000000010011;
	704 :	0000000000010010;
	703 :	0000000000100011;
	702 :	0000000000001000;
	701 :	1111111111111010;
	700 :	0000000000001101;
	699 :	0000000000010011;
	698 :	1111111111111111;
	697 :	1111111111110011;
	696 :	0000000000001111;
	695 :	1111111111010111;
	694 :	0000000000010011;
	693 :	1111111111011010;
	692 :	1111111111010111;
	691 :	0000000000001100;
	690 :	0000000000001011;
	689 :	0000000000100111;
	688 :	1111111111111101;
	687 :	0000000000000000;
	686 :	1111111111111111;
	685 :	0000000000001111;
	684 :	1111111111101100;
	683 :	1111111111110010;
	682 :	0000000000011110;
	681 :	0000000000011111;
	680 :	1111111111111100;
	679 :	1111111111110111;
	678 :	1111111111110001;
	677 :	0000000000011110;
	676 :	1111111111110010;
	675 :	0000000000110111;
	674 :	1111111111111111;
	673 :	1111111111101111;
	672 :	1111111111101111;
	671 :	1111111111111100;
	670 :	1111111111110111;
	669 :	0000000000001001;
	668 :	0000000000000101;
	667 :	1111111111010101;
	666 :	0000000000000000;
	665 :	1111111111010010;
	664 :	0000000000010100;
	663 :	1111111111011011;
	662 :	0000000000000001;
	661 :	1111111111101010;
	660 :	1111111111111101;
	659 :	1111111111110010;
	658 :	1111111111111010;
	657 :	1111111111111000;
	656 :	0000000000001011;
	655 :	0000000000001000;
	654 :	0000000000011010;
	653 :	1111111111101101;
	652 :	1111111111111000;
	651 :	1111111111100001;
	650 :	1111111111110101;
	649 :	0000000000100101;
	648 :	0000000000101101;
	647 :	1111111111101011;
	646 :	1111111111110001;
	645 :	0000000000001001;
	644 :	1111111111110110;
	643 :	1111111111101111;
	642 :	1111111111110001;
	641 :	1111111111111011;
	640 :	1111111111111001;
	639 :	0000000000001010;
	638 :	0000000000101011;
	637 :	1111111111110101;
	636 :	1111111111111011;
	635 :	1111111111111010;
	634 :	0000000000001101;
	633 :	0000000000001110;
	632 :	1111111111110100;
	631 :	0000000000001001;
	630 :	1111111111100111;
	629 :	1111111111111111;
	628 :	1111111111111111;
	627 :	0000000000000001;
	626 :	1111111111101110;
	625 :	0000000000000101;
	624 :	0000000000001000;
	623 :	0000000000001001;
	622 :	0000000000001001;
	621 :	1111111111101111;
	620 :	1111111111101011;
	619 :	1111111111101001;
	618 :	1111111111101001;
	617 :	0000000000000101;
	616 :	1111111111101010;
	615 :	0000000000010011;
	614 :	0000000000001001;
	613 :	1111111111100011;
	612 :	1111111111010100;
	611 :	1111111111011001;
	610 :	1111111111101001;
	609 :	1111111111110001;
	608 :	0000000000001011;
	607 :	0000000000011110;
	606 :	1111111111111111;
	605 :	0000000000001011;
	604 :	1111111111110100;
	603 :	1111111111110110;
	602 :	0000000000001011;
	601 :	1111111111111110;
	600 :	0000000000001110;
	599 :	1111111111101010;
	598 :	1111111111101101;
	597 :	0000000000000001;
	596 :	1111111111110111;
	595 :	0000000000000011;
	594 :	1111111111111100;
	593 :	1111111111100101;
	592 :	1111111111100011;
	591 :	1111111111010101;
	590 :	1111111111110110;
	589 :	1111111111111000;
	588 :	1111111111110110;
	587 :	0000000000001101;
	586 :	0000000000001110;
	585 :	1111111111101000;
	584 :	1111111111010111;
	583 :	1111111111001100;
	582 :	0000000000001111;
	581 :	1111111111101011;
	580 :	0000000000001010;
	579 :	1111111111111101;
	578 :	0000000000000000;
	577 :	1111111111111001;
	576 :	1111111111111010;
	575 :	1111111111111101;
	574 :	1111111111111000;
	573 :	0000000000001001;
	572 :	0000000000000000;
	571 :	0000000000001111;
	570 :	0000000000001100;
	569 :	1111111111111000;
	568 :	0000000000001101;
	567 :	1111111111110101;
	566 :	1111111111110010;
	565 :	1111111111101010;
	564 :	1111111111010111;
	563 :	1111111111011111;
	562 :	1111111111110010;
	561 :	0000000000011001;
	560 :	1111111111101101;
	559 :	0000000000010100;
	558 :	1111111111110001;
	557 :	1111111111100110;
	556 :	1111111111110111;
	555 :	1111111111100011;
	554 :	1111111111111010;
	553 :	0000000000000010;
	552 :	1111111111110011;
	551 :	1111111111101011;
	550 :	0000000000010010;
	549 :	1111111111100100;
	548 :	0000000000000111;
	547 :	0000000000011101;
	546 :	0000000000000011;
	545 :	1111111111110101;
	544 :	0000000000001101;
	543 :	1111111111111111;
	542 :	1111111111111000;
	541 :	0000000000000111;
	540 :	1111111111111111;
	539 :	0000000000000111;
	538 :	0000000000011101;
	537 :	1111111111111111;
	536 :	0000000000010111;
	535 :	1111111110110111;
	534 :	0000000000000110;
	533 :	1111111111101101;
	532 :	1111111111101100;
	531 :	0000000000001001;
	530 :	1111111111110010;
	529 :	1111111111101001;
	528 :	1111111111011000;
	527 :	1111111111001110;
	526 :	1111111111100001;
	525 :	1111111111101111;
	524 :	1111111111111110;
	523 :	1111111111111110;
	522 :	1111111111111100;
	521 :	0000000000000011;
	520 :	1111111111111101;
	519 :	1111111111110110;
	518 :	0000000000000111;
	517 :	0000000000001011;
	516 :	0000000000001011;
	515 :	0000000000000001;
	514 :	1111111111111100;
	513 :	0000000000001101;
	512 :	0000000000010111;
	511 :	0000000000010110;
	510 :	0000000000011011;
	509 :	0000000000000011;
	508 :	0000000000000011;
	507 :	1111111111100110;
	506 :	1111111111101111;
	505 :	0000000000001000;
	504 :	0000000000001100;
	503 :	0000000000001011;
	502 :	0000000000001010;
	501 :	1111111111101011;
	500 :	1111111111000111;
	499 :	1111111111011101;
	498 :	1111111111100000;
	497 :	1111111111011101;
	496 :	0000000000000000;
	495 :	1111111111111010;
	494 :	0000000000010000;
	493 :	0000000000000111;
	492 :	1111111111111010;
	491 :	0000000000010101;
	490 :	0000000000001000;
	489 :	0000000000000111;
	488 :	1111111111011100;
	487 :	1111111111110001;
	486 :	0000000000011001;
	485 :	1111111111100011;
	484 :	0000000000000101;
	483 :	0000000000000101;
	482 :	0000000000010001;
	481 :	0000000000010100;
	480 :	1111111111111001;
	479 :	1111111110100011;
	478 :	1111111111111100;
	477 :	1111111111110110;
	476 :	1111111111111111;
	475 :	1111111111101011;
	474 :	1111111111011001;
	473 :	1111111111011101;
	472 :	1111111111010010;
	471 :	1111111111100100;
	470 :	1111111111001110;
	469 :	1111111111010111;
	468 :	1111111111111011;
	467 :	0000000000001100;
	466 :	1111111111101110;
	465 :	1111111111111111;
	464 :	0000000000000110;
	463 :	1111111111101111;
	462 :	1111111111110011;
	461 :	1111111111110011;
	460 :	1111111111110111;
	459 :	0000000000010001;
	458 :	1111111111001111;
	457 :	1111111111011111;
	456 :	1111111111110001;
	455 :	1111111111010111;
	454 :	0000000000000000;
	453 :	1111111111011011;
	452 :	0000000000000111;
	451 :	1111111111101100;
	450 :	1111111111101100;
	449 :	0000000000010110;
	448 :	1111111111101111;
	447 :	1111111111100010;
	446 :	1111111111010111;
	445 :	1111111111100111;
	444 :	1111111111100011;
	443 :	1111111111100110;
	442 :	1111111111011011;
	441 :	1111111111100010;
	440 :	1111111111101100;
	439 :	0000000000010011;
	438 :	0000000000001111;
	437 :	1111111111110111;
	436 :	1111111111101010;
	435 :	1111111111100011;
	434 :	1111111111111110;
	433 :	1111111111011001;
	432 :	1111111111111100;
	431 :	0000000000001001;
	430 :	1111111111111110;
	429 :	0000000000011111;
	428 :	1111111111110111;
	427 :	1111111111111010;
	426 :	0000000000011001;
	425 :	0000000000011000;
	424 :	1111111111111110;
	423 :	0000000000100100;
	422 :	1111111111100110;
	421 :	1111111111101010;
	420 :	1111111111101110;
	419 :	0000000000001010;
	418 :	0000000000001110;
	417 :	1111111111000011;
	416 :	1111111110111110;
	415 :	1111111110111000;
	414 :	1111111111011100;
	413 :	1111111110111011;
	412 :	1111111111010100;
	411 :	1111111111101000;
	410 :	1111111111101001;
	409 :	1111111111111011;
	408 :	1111111111110010;
	407 :	1111111111111000;
	406 :	1111111111111011;
	405 :	1111111111111110;
	404 :	1111111111110101;
	403 :	0000000000001011;
	402 :	0000000000001110;
	401 :	1111111111111100;
	400 :	0000000000000001;
	399 :	0000000000000000;
	398 :	0000000000001010;
	397 :	0000000000100011;
	396 :	1111111111001010;
	395 :	1111111111101110;
	394 :	1111111111110011;
	393 :	1111111111111100;
	392 :	1111111111110110;
	391 :	1111111111110111;
	390 :	0000000000001000;
	389 :	1111111111100110;
	388 :	1111111110110110;
	387 :	1111111110110100;
	386 :	1111111111010000;
	385 :	1111111110110000;
	384 :	1111111110001111;
	383 :	1111111111011000;
	382 :	1111111111101001;
	381 :	1111111111100101;
	380 :	0000000000000111;
	379 :	1111111111010101;
	378 :	1111111111110001;
	377 :	1111111111110001;
	376 :	0000000000011100;
	375 :	0000000000010011;
	374 :	0000000000000111;
	373 :	0000000000001111;
	372 :	0000000000000111;
	371 :	1111111111110010;
	370 :	1111111111111110;
	369 :	0000000000010001;
	368 :	1111111110111100;
	367 :	1111111111110110;
	366 :	1111111111101010;
	365 :	0000000000000000;
	364 :	1111111111110011;
	363 :	1111111111111101;
	362 :	0000000000111101;
	361 :	0000000000100110;
	360 :	1111111111111010;
	359 :	1111111110111010;
	358 :	1111111111011011;
	357 :	1111111110111010;
	356 :	1111111110111011;
	355 :	1111111111010111;
	354 :	1111111111000011;
	353 :	1111111111001000;
	352 :	1111111111100100;
	351 :	0000000000000100;
	350 :	0000000000010000;
	349 :	0000000000000101;
	348 :	1111111111111001;
	347 :	0000000000000100;
	346 :	0000000000010000;
	345 :	0000000000000010;
	344 :	0000000000001101;
	343 :	0000000000001110;
	342 :	0000000000101110;
	341 :	1111111111000001;
	340 :	1111111111100010;
	339 :	1111111111101111;
	338 :	0000000000000101;
	337 :	0000000000010000;
	336 :	0000000000010110;
	335 :	1111111111110101;
	334 :	0000000000110100;
	333 :	0000000001001010;
	332 :	0000000000101010;
	331 :	0000000000100100;
	330 :	0000000000011110;
	329 :	1111111111111111;
	328 :	0000000000001100;
	327 :	1111111111101010;
	326 :	1111111111101110;
	325 :	1111111111111110;
	324 :	0000000000001101;
	323 :	0000000000000101;
	322 :	1111111111111011;
	321 :	0000000000011011;
	320 :	1111111111111010;
	319 :	0000000000001000;
	318 :	0000000000000000;
	317 :	1111111111111011;
	316 :	0000000000001011;
	315 :	0000000000010010;
	314 :	1111111111111110;
	313 :	1111111111011010;
	312 :	0000000000000110;
	311 :	1111111111110000;
	310 :	1111111111110110;
	309 :	1111111111110011;
	308 :	0000000000000101;
	307 :	0000000001000101;
	306 :	0000000000101101;
	305 :	0000000001011010;
	304 :	0000000000101011;
	303 :	0000000000010101;
	302 :	0000000000001011;
	301 :	0000000000100100;
	300 :	0000000000001110;
	299 :	0000000000000111;
	298 :	0000000000010010;
	297 :	0000000000000011;
	296 :	0000000000001000;
	295 :	0000000000011110;
	294 :	0000000000011000;
	293 :	0000000000000011;
	292 :	0000000000001000;
	291 :	0000000000001001;
	290 :	0000000000000100;
	289 :	0000000000010101;
	288 :	1111111111111100;
	287 :	0000000000011101;
	286 :	1111111111111001;
	285 :	1111111111110000;
	284 :	0000000000010010;
	283 :	0000000000001000;
	282 :	0000000000000001;
	281 :	0000000000001011;
	280 :	0000000001000010;
	279 :	0000000000110000;
	278 :	1111111111010111;
	277 :	0000000001010010;
	276 :	0000000000110101;
	275 :	0000000000000000;
	274 :	1111111111111101;
	273 :	0000000000011010;
	272 :	0000000000010100;
	271 :	0000000000001000;
	270 :	0000000000011110;
	269 :	0000000000010011;
	268 :	0000000000011100;
	267 :	0000000000101000;
	266 :	0000000000011111;
	265 :	0000000000010010;
	264 :	0000000000000111;
	263 :	0000000000010011;
	262 :	1111111111111001;
	261 :	1111111111101101;
	260 :	1111111111110100;
	259 :	0000000000000001;
	258 :	0000000000010001;
	257 :	1111111111110011;
	256 :	0000000000101100;
	255 :	1111111111111000;
	254 :	1111111111110111;
	253 :	0000000000011010;
	252 :	0000000000110001;
	251 :	0000000000001000;
	250 :	0000000000001011;
	249 :	0000000000110111;
	248 :	0000000000110001;
	247 :	0000000000011001;
	246 :	1111111111110111;
	245 :	0000000000100011;
	244 :	0000000000000001;
	243 :	0000000000010000;
	242 :	0000000000011011;
	241 :	0000000000001110;
	240 :	0000000000000010;
	239 :	1111111111101011;
	238 :	0000000000000010;
	237 :	0000000000000011;
	236 :	0000000000000110;
	235 :	1111111111111111;
	234 :	1111111111111010;
	233 :	0000000000000010;
	232 :	0000000000010110;
	231 :	1111111111010111;
	230 :	1111111111011011;
	229 :	0000000000001110;
	228 :	1111111111111100;
	227 :	0000000000001001;
	226 :	0000000000011000;
	225 :	1111111111110101;
	224 :	1111111111111010;
	223 :	0000000000100001;
	222 :	0000000000010011;
	221 :	1111111111111000;
	220 :	1111111111111110;
	219 :	0000000000010111;
	218 :	0000000000100100;
	217 :	0000000000010100;
	216 :	1111111111111111;
	215 :	1111111111110101;
	214 :	1111111111111111;
	213 :	1111111111110011;
	212 :	1111111111111101;
	211 :	1111111111101010;
	210 :	1111111111101110;
	209 :	1111111111110011;
	208 :	0000000000000101;
	207 :	0000000000001010;
	206 :	0000000000001100;
	205 :	1111111111001100;
	204 :	1111111111111101;
	203 :	1111111111011100;
	202 :	1111111111100110;
	201 :	0000000000010000;
	200 :	1111111111111110;
	199 :	0000000000000000;
	198 :	0000000000000001;
	197 :	1111111111111110;
	196 :	1111111111101111;
	195 :	1111111111100011;
	194 :	1111111111101000;
	193 :	0000000000001010;
	192 :	0000000000001111;
	191 :	1111111111111001;
	190 :	0000000000010010;
	189 :	1111111111111110;
	188 :	1111111111111001;
	187 :	1111111111101111;
	186 :	1111111111101101;
	185 :	1111111111101110;
	184 :	1111111111100000;
	183 :	1111111111111001;
	182 :	1111111111111000;
	181 :	1111111111110011;
	180 :	1111111111101010;
	179 :	1111111111111100;
	178 :	0000000000001100;
	177 :	0000000000000111;
	176 :	1111111111111111;
	175 :	1111111111000111;
	174 :	1111111111111000;
	173 :	0000000000010000;
	172 :	0000000000001110;
	171 :	1111111111111000;
	170 :	0000000000000110;
	169 :	0000000000001010;
	168 :	0000000000001101;
	167 :	0000000000000001;
	166 :	0000000000000110;
	165 :	0000000000000100;
	164 :	1111111111001010;
	163 :	1111111111111110;
	162 :	0000000000001010;
	161 :	1111111111110010;
	160 :	1111111111111000;
	159 :	1111111111000111;
	158 :	1111111111101001;
	157 :	1111111111011010;
	156 :	1111111111101011;
	155 :	1111111111100010;
	154 :	1111111111110100;
	153 :	1111111111101000;
	152 :	1111111111101001;
	151 :	1111111111101010;
	150 :	1111111111110010;
	149 :	1111111111001110;
	148 :	1111111111100111;
	147 :	0000000000001110;
	146 :	1111111111111111;
	145 :	1111111111111101;
	144 :	1111111111101111;
	143 :	0000000000001000;
	142 :	0000000000001100;
	141 :	0000000000010010;
	140 :	0000000000000011;
	139 :	1111111111111111;
	138 :	0000000000110011;
	137 :	0000000000000011;
	136 :	1111111111101111;
	135 :	0000000000011111;
	134 :	1111111111100011;
	133 :	1111111111110110;
	132 :	1111111110101011;
	131 :	1111111110111110;
	130 :	1111111111110000;
	129 :	1111111111100101;
	128 :	1111111111110011;
	127 :	1111111111101100;
	126 :	1111111111111110;
	125 :	0000000000010010;
	124 :	1111111111100100;
	123 :	0000000000000010;
	122 :	1111111111011000;
	121 :	1111111111101010;
	120 :	1111111111110000;
	119 :	1111111111111101;
	118 :	1111111111111011;
	117 :	0000000000000111;
	116 :	1111111111100110;
	115 :	0000000000001101;
	114 :	1111111111101100;
	113 :	0000000000001001;
	112 :	0000000000001110;
	111 :	1111111111110110;
	110 :	0000000000001011;
	109 :	0000000000010110;
	108 :	1111111110110000;
	107 :	1111111110110011;
	106 :	1111111111100010;
	105 :	1111111111101110;
	104 :	1111111111101010;
	103 :	1111111111100101;
	102 :	1111111111100100;
	101 :	1111111111111101;
	100 :	1111111111100110;
	99 :	1111111111101000;
	98 :	1111111110111110;
	97 :	1111111111101010;
	96 :	0000000000010110;
	95 :	1111111111110110;
	94 :	1111111111111111;
	93 :	1111111111101010;
	92 :	1111111111101111;
	91 :	1111111111110010;
	90 :	0000000000001111;
	89 :	0000000000000001;
	88 :	1111111111111101;
	87 :	0000000000001001;
	86 :	0000000000010100;
	85 :	0000000000000010;
	84 :	1111111111111110;
	83 :	0000000000010110;
	82 :	1111111111101100;
	81 :	1111111111101100;
	80 :	0000000000000011;
	79 :	0000000000010101;
	78 :	0000000000000110;
	77 :	0000000000011001;
	76 :	0000000000001001;
	75 :	1111111111111101;
	74 :	1111111111010010;
	73 :	1111111111110001;
	72 :	1111111111100000;
	71 :	1111111111101011;
	70 :	0000000000001100;
	69 :	1111111111011000;
	68 :	1111111111101100;
	67 :	0000000000000110;
	66 :	1111111111101000;
	65 :	0000000000000010;
	64 :	1111111111110100;
	63 :	1111111111101000;
	62 :	1111111111111100;
	61 :	0000000000001100;
	60 :	1111111111110111;
	59 :	1111111111110001;
	58 :	1111111111101100;
	57 :	0000000000000000;
	56 :	0000000000000011;
	55 :	1111111111110011;
	54 :	0000000000000111;
	53 :	1111111111110000;
	52 :	0000000000001101;
	51 :	0000000000000011;
	50 :	1111111111111110;
	49 :	1111111111110100;
	48 :	1111111111100111;
	47 :	1111111111111111;
	46 :	0000000000001001;
	45 :	0000000000011000;
	44 :	0000000000001010;
	43 :	0000000000001111;
	42 :	1111111111110001;
	41 :	1111111111111100;
	40 :	1111111111100110;
	39 :	1111111111110001;
	38 :	0000000000010101;
	37 :	0000000000000101;
	36 :	0000000000000011;
	35 :	1111111111111001;
	34 :	0000000000001001;
	33 :	0000000000001000;
	32 :	1111111111101111;
	31 :	0000000000010011;
	30 :	1111111111101101;
	29 :	0000000000010000;
	28 :	1111111111101111;
	27 :	0000000000001001;
	26 :	1111111111101101;
	25 :	0000000000010110;
	24 :	1111111111101010;
	23 :	1111111111101100;
	22 :	1111111111111000;
	21 :	1111111111111011;
	20 :	0000000000000010;
	19 :	1111111111111101;
	18 :	1111111111110000;
	17 :	0000000000001000;
	16 :	0000000000001000;
	15 :	0000000000000010;
	14 :	0000000000001111;
	13 :	0000000000000101;
	12 :	0000000000001001;
	11 :	1111111111101111;
	10 :	0000000000000110;
	9 :	1111111111110101;
	8 :	1111111111111101;
	7 :	0000000000000100;
	6 :	0000000000001011;
	5 :	0000000000001011;
	4 :	1111111111110100;
	3 :	0000000000000000;
	2 :	0000000000000011;
	1 :	1111111111110111;
	0 :	1111111111110011;
END;
