-- begin_signature
-- weights(numWeights
-- 16
-- neuronNumber
-- 3
-- layerNumber
-- 1
-- addressWidth
-- 4
-- dataWidth
-- 16
-- weightFile
-- "weights/weight_L1_N3.mif")
-- end_signature
WIDTH=16;
DEPTH=16;

ADDRESS_RADIX=UNS;
DATA_RADIX=BIN;

CONTENT BEGIN
	15 :	0000000000000000;
	14 :	0000000000010000;
	13 :	1111111111011100;
	12 :	1111111111110111;
	11 :	0000000000001010;
	10 :	0000000000001000;
	9 :	0000000001011011;
	8 :	0000000000010100;
	7 :	1111111110101010;
	6 :	0000000001100100;
	5 :	1111111111111100;
	4 :	1111111110010001;
	3 :	0000000000011000;
	2 :	1111111111101000;
	1 :	0000000001011100;
	0 :	1111111111101100;
END;
