-- begin_signature
-- weights(numWeights
-- 784
-- neuronNumber
-- 12
-- layerNumber
-- 0
-- addressWidth
-- 10
-- dataWidth
-- 16
-- weightFile
-- "weights/weight_L0_N12.mif")
-- end_signature
WIDTH=16;
DEPTH=784;

ADDRESS_RADIX=UNS;
DATA_RADIX=BIN;

CONTENT BEGIN
	783 :	0000000000001011;
	782 :	0000000000000010;
	781 :	1111111111110100;
	780 :	0000000000000010;
	779 :	1111111111111100;
	778 :	0000000000001110;
	777 :	1111111111111001;
	776 :	0000000000001010;
	775 :	0000000000000011;
	774 :	0000000000000101;
	773 :	0000000000010010;
	772 :	1111111111110010;
	771 :	0000000000001011;
	770 :	0000000000010110;
	769 :	0000000000011010;
	768 :	0000000000111100;
	767 :	0000000000010000;
	766 :	0000000000011001;
	765 :	0000000000010010;
	764 :	0000000000010010;
	763 :	0000000000011010;
	762 :	1111111111110111;
	761 :	1111111111110011;
	760 :	1111111111101110;
	759 :	0000000000010000;
	758 :	0000000000000101;
	757 :	1111111111110011;
	756 :	1111111111101110;
	755 :	0000000000001000;
	754 :	0000000000001010;
	753 :	1111111111111100;
	752 :	0000000000001011;
	751 :	0000000000001111;
	750 :	0000000000010101;
	749 :	1111111111110101;
	748 :	0000000000000011;
	747 :	1111111111111010;
	746 :	1111111111110011;
	745 :	1111111111111011;
	744 :	0000000000001010;
	743 :	0000000000000110;
	742 :	0000000000001101;
	741 :	1111111111110111;
	740 :	0000000000010111;
	739 :	0000000000000110;
	738 :	0000000000000101;
	737 :	0000000000010100;
	736 :	0000000000000111;
	735 :	0000000000001110;
	734 :	1111111111010100;
	733 :	1111111111001111;
	732 :	0000000000010000;
	731 :	0000000000001100;
	730 :	0000000000000100;
	729 :	0000000000000000;
	728 :	0000000000001010;
	727 :	1111111111111110;
	726 :	0000000000001000;
	725 :	0000000000000111;
	724 :	1111111111110011;
	723 :	1111111111011001;
	722 :	0000000000001011;
	721 :	1111111110111100;
	720 :	1111111111100010;
	719 :	1111111111101000;
	718 :	1111111111110000;
	717 :	0000000000001000;
	716 :	0000000000001011;
	715 :	0000000000010101;
	714 :	0000000000000111;
	713 :	0000000000011001;
	712 :	0000000000010110;
	711 :	1111111111111001;
	710 :	0000000000010011;
	709 :	0000000000010010;
	708 :	0000000000000101;
	707 :	0000000000001000;
	706 :	0000000000000000;
	705 :	1111111111111010;
	704 :	0000000000010001;
	703 :	1111111111101111;
	702 :	0000000000001101;
	701 :	0000000000000011;
	700 :	1111111111111110;
	699 :	1111111111111011;
	698 :	1111111111110101;
	697 :	0000000000101100;
	696 :	0000000000111110;
	695 :	1111111111101011;
	694 :	0000000000010111;
	693 :	0000000000001011;
	692 :	1111111111110101;
	691 :	1111111111101111;
	690 :	1111111111111000;
	689 :	1111111111101010;
	688 :	0000000000001010;
	687 :	1111111111111110;
	686 :	0000000000000101;
	685 :	0000000000001010;
	684 :	0000000000000110;
	683 :	0000000000001010;
	682 :	0000000000000000;
	681 :	1111111111111011;
	680 :	0000000000010011;
	679 :	0000000000000001;
	678 :	1111111111110100;
	677 :	1111111111110110;
	676 :	0000000000001111;
	675 :	0000000000000111;
	674 :	0000000000010010;
	673 :	0000000000010101;
	672 :	0000000000010001;
	671 :	0000000000010101;
	670 :	1111111111111001;
	669 :	1111111111111000;
	668 :	0000000000001110;
	667 :	0000000000010100;
	666 :	0000000000100001;
	665 :	0000000000000101;
	664 :	1111111111111011;
	663 :	0000000000000011;
	662 :	1111111111111101;
	661 :	1111111111110101;
	660 :	1111111111111010;
	659 :	0000000000000011;
	658 :	1111111111111011;
	657 :	0000000000000001;
	656 :	1111111111111111;
	655 :	0000000000001001;
	654 :	1111111111111000;
	653 :	0000000000001110;
	652 :	0000000000001011;
	651 :	0000000000000111;
	650 :	0000000000001001;
	649 :	0000000000001011;
	648 :	1111111111100111;
	647 :	1111111111110101;
	646 :	0000000000001101;
	645 :	0000000000010110;
	644 :	1111111111101110;
	643 :	0000000000000111;
	642 :	1111111111110001;
	641 :	1111111111110111;
	640 :	0000000000100000;
	639 :	0000000000001111;
	638 :	0000000000001000;
	637 :	0000000000010000;
	636 :	0000000000010011;
	635 :	0000000000001101;
	634 :	0000000000000011;
	633 :	0000000000001000;
	632 :	0000000000000000;
	631 :	1111111111111100;
	630 :	0000000000000000;
	629 :	1111111111111100;
	628 :	1111111111111110;
	627 :	1111111111111011;
	626 :	1111111111110111;
	625 :	0000000000000100;
	624 :	0000000000001001;
	623 :	0000000000000011;
	622 :	1111111111111111;
	621 :	0000000000001011;
	620 :	0000000000010101;
	619 :	0000000000100100;
	618 :	0000000000101101;
	617 :	1111111111101101;
	616 :	1111111111111100;
	615 :	0000000000001001;
	614 :	0000000000011111;
	613 :	0000000000001110;
	612 :	1111111111110110;
	611 :	0000000000101010;
	610 :	0000000000001110;
	609 :	0000000000001011;
	608 :	0000000000000111;
	607 :	0000000000010110;
	606 :	0000000000000010;
	605 :	0000000000000101;
	604 :	1111111111111010;
	603 :	1111111111111010;
	602 :	1111111111111011;
	601 :	1111111111111100;
	600 :	0000000000000011;
	599 :	0000000000000001;
	598 :	0000000000001100;
	597 :	0000000000000010;
	596 :	0000000000000010;
	595 :	0000000000000100;
	594 :	0000000000000000;
	593 :	0000000000000110;
	592 :	1111111111111111;
	591 :	0000000001000000;
	590 :	0000000000101001;
	589 :	1111111111110110;
	588 :	1111111111111101;
	587 :	1111111111110101;
	586 :	0000000000001110;
	585 :	0000000000001110;
	584 :	0000000000011101;
	583 :	1111111111111100;
	582 :	0000000000001100;
	581 :	0000000000001100;
	580 :	1111111111111101;
	579 :	1111111111111101;
	578 :	1111111111111110;
	577 :	0000000000000011;
	576 :	0000000000000010;
	575 :	0000000000000101;
	574 :	1111111111111010;
	573 :	1111111111111110;
	572 :	0000000000000010;
	571 :	0000000000000001;
	570 :	0000000000000110;
	569 :	0000000000001011;
	568 :	0000000000001010;
	567 :	0000000000001110;
	566 :	0000000000001100;
	565 :	0000000000010111;
	564 :	0000000000011011;
	563 :	0000000000011110;
	562 :	1111111111110001;
	561 :	1111111111111011;
	560 :	1111111111110010;
	559 :	1111111111110111;
	558 :	0000000000101010;
	557 :	0000000000101000;
	556 :	0000000000011010;
	555 :	1111111111111101;
	554 :	0000000000010111;
	553 :	0000000000010001;
	552 :	0000000000010111;
	551 :	0000000000010011;
	550 :	0000000000000110;
	549 :	0000000000000101;
	548 :	0000000000001010;
	547 :	0000000000001010;
	546 :	0000000000000100;
	545 :	0000000000000011;
	544 :	1111111111111011;
	543 :	0000000000000101;
	542 :	0000000000000110;
	541 :	0000000000000010;
	540 :	1111111111111110;
	539 :	0000000000010100;
	538 :	1111111111111101;
	537 :	0000000000000111;
	536 :	0000000000001101;
	535 :	0000000000000111;
	534 :	1111111111100011;
	533 :	0000000000001111;
	532 :	0000000000010110;
	531 :	0000000000010101;
	530 :	0000000000010111;
	529 :	0000000000110000;
	528 :	0000000000100111;
	527 :	0000000000000110;
	526 :	0000000000000001;
	525 :	0000000000000001;
	524 :	1111111111111011;
	523 :	0000000000001001;
	522 :	0000000000000011;
	521 :	0000000000001100;
	520 :	0000000000000000;
	519 :	0000000000000101;
	518 :	0000000000001011;
	517 :	0000000000001010;
	516 :	0000000000001001;
	515 :	1111111111110110;
	514 :	1111111111111010;
	513 :	1111111111111111;
	512 :	1111111111111110;
	511 :	0000000000000101;
	510 :	0000000000000011;
	509 :	0000000000010001;
	508 :	0000000000001001;
	507 :	0000000000000011;
	506 :	0000000000000111;
	505 :	1111111111111011;
	504 :	0000000000010001;
	503 :	1111111111110101;
	502 :	0000000000110010;
	501 :	0000000000010111;
	500 :	0000000000000001;
	499 :	0000000000000100;
	498 :	1111111111111100;
	497 :	1111111111111111;
	496 :	1111111111111110;
	495 :	1111111111110111;
	494 :	0000000000000100;
	493 :	1111111111111111;
	492 :	0000000000000011;
	491 :	0000000000001111;
	490 :	0000000000000111;
	489 :	0000000000001110;
	488 :	0000000000000101;
	487 :	0000000000000101;
	486 :	1111111111111100;
	485 :	0000000000000011;
	484 :	0000000000000100;
	483 :	0000000000000011;
	482 :	0000000000001011;
	481 :	0000000000000010;
	480 :	0000000000000110;
	479 :	0000000000100010;
	478 :	0000000000010001;
	477 :	0000000000000011;
	476 :	1111111111110110;
	475 :	0000000000011111;
	474 :	0000000000100101;
	473 :	0000000000011011;
	472 :	0000000000011011;
	471 :	0000000000000111;
	470 :	0000000000010110;
	469 :	1111111111111011;
	468 :	1111111111110111;
	467 :	1111111111110100;
	466 :	0000000000000100;
	465 :	0000000000000011;
	464 :	1111111111111101;
	463 :	1111111111111100;
	462 :	0000000000000101;
	461 :	0000000000010011;
	460 :	0000000000001011;
	459 :	1111111111111111;
	458 :	0000000000000100;
	457 :	1111111111111110;
	456 :	1111111111111010;
	455 :	1111111111111001;
	454 :	0000000000001010;
	453 :	0000000000010111;
	452 :	1111111111111100;
	451 :	0000000000011111;
	450 :	0000000000101011;
	449 :	1111111111110001;
	448 :	1111111111111100;
	447 :	0000000000001111;
	446 :	0000000000110110;
	445 :	0000000000000001;
	444 :	0000000000010100;
	443 :	1111111111111101;
	442 :	1111111111100110;
	441 :	1111111111110110;
	440 :	1111111111101110;
	439 :	1111111111111010;
	438 :	1111111111110110;
	437 :	1111111111111100;
	436 :	0000000000001001;
	435 :	0000000000000000;
	434 :	1111111111111110;
	433 :	0000000000001110;
	432 :	0000000000000101;
	431 :	0000000000000101;
	430 :	1111111111111111;
	429 :	1111111111111110;
	428 :	0000000000000000;
	427 :	0000000000001101;
	426 :	0000000000010110;
	425 :	0000000000000011;
	424 :	0000000000000010;
	423 :	1111111111110100;
	422 :	0000000000001100;
	421 :	1111111111101011;
	420 :	1111111111110000;
	419 :	1111111111110010;
	418 :	0000000000100100;
	417 :	0000000000000111;
	416 :	0000000000000010;
	415 :	1111111111100111;
	414 :	1111111111100000;
	413 :	1111111111110100;
	412 :	1111111111111111;
	411 :	1111111111111100;
	410 :	0000000000000111;
	409 :	0000000000001000;
	408 :	1111111111111111;
	407 :	1111111111111111;
	406 :	0000000000001001;
	405 :	0000000000000100;
	404 :	0000000000000000;
	403 :	0000000000000101;
	402 :	1111111111111110;
	401 :	0000000000000111;
	400 :	0000000000000100;
	399 :	0000000000000101;
	398 :	0000000000000010;
	397 :	1111111111011001;
	396 :	0000000000000011;
	395 :	1111111111000101;
	394 :	1111111111101011;
	393 :	1111111111110011;
	392 :	0000000000000100;
	391 :	1111111111110010;
	390 :	0000000000011101;
	389 :	0000000000101010;
	388 :	1111111111111000;
	387 :	1111111111101011;
	386 :	1111111111110001;
	385 :	1111111111110001;
	384 :	1111111111101010;
	383 :	0000000000000010;
	382 :	1111111111111000;
	381 :	1111111111111011;
	380 :	1111111111110010;
	379 :	1111111111111101;
	378 :	0000000000000111;
	377 :	1111111111111101;
	376 :	0000000000000010;
	375 :	1111111111110111;
	374 :	0000000000000000;
	373 :	1111111111101100;
	372 :	1111111111110010;
	371 :	1111111111010111;
	370 :	1111111110111010;
	369 :	1111111110101101;
	368 :	1111111111000011;
	367 :	1111111111101001;
	366 :	0000000000001011;
	365 :	1111111111100010;
	364 :	0000000000001100;
	363 :	1111111111111010;
	362 :	0000000000010110;
	361 :	0000000000010001;
	360 :	1111111111100001;
	359 :	1111111111101110;
	358 :	1111111111101111;
	357 :	1111111111101101;
	356 :	0000000000010001;
	355 :	1111111111111010;
	354 :	0000000000000000;
	353 :	1111111111110001;
	352 :	1111111111111111;
	351 :	0000000000000011;
	350 :	1111111111110010;
	349 :	1111111111101101;
	348 :	1111111111111111;
	347 :	1111111111101101;
	346 :	1111111111101010;
	345 :	1111111111010110;
	344 :	1111111110110100;
	343 :	1111111110010000;
	342 :	1111111110010001;
	341 :	1111111110111011;
	340 :	1111111110101101;
	339 :	1111111111100100;
	338 :	0000000000000100;
	337 :	1111111111111010;
	336 :	1111111111111100;
	335 :	0000000000010100;
	334 :	1111111111011111;
	333 :	1111111111111101;
	332 :	1111111111101101;
	331 :	1111111111110100;
	330 :	0000000000000101;
	329 :	1111111111101100;
	328 :	0000000000000010;
	327 :	0000000000000101;
	326 :	1111111111111101;
	325 :	1111111111111111;
	324 :	1111111111111110;
	323 :	1111111111111100;
	322 :	1111111111101110;
	321 :	1111111111011101;
	320 :	1111111111011011;
	319 :	1111111111011100;
	318 :	1111111111000111;
	317 :	1111111111001011;
	316 :	1111111111000010;
	315 :	1111111111100100;
	314 :	1111111111110100;
	313 :	0000000000000100;
	312 :	1111111111111001;
	311 :	1111111111110110;
	310 :	0000000000001100;
	309 :	1111111111111100;
	308 :	0000000000011011;
	307 :	0000000000000010;
	306 :	0000000000000001;
	305 :	0000000000100001;
	304 :	1111111111110001;
	303 :	1111111111110011;
	302 :	1111111111111010;
	301 :	0000000000000000;
	300 :	0000000000000010;
	299 :	0000000000000010;
	298 :	0000000000000111;
	297 :	0000000000000110;
	296 :	0000000000001101;
	295 :	1111111111110100;
	294 :	1111111111001110;
	293 :	1111111111001111;
	292 :	1111111111011010;
	291 :	1111111111100000;
	290 :	1111111111110000;
	289 :	1111111111111000;
	288 :	0000000000000100;
	287 :	1111111111111011;
	286 :	0000000000000010;
	285 :	1111111111110011;
	284 :	1111111111110100;
	283 :	1111111111111000;
	282 :	1111111111110101;
	281 :	1111111111100011;
	280 :	1111111111101101;
	279 :	1111111111101110;
	278 :	1111111111010011;
	277 :	1111111111010010;
	276 :	1111111111001100;
	275 :	0000000000001100;
	274 :	1111111111111100;
	273 :	1111111111111111;
	272 :	0000000000000110;
	271 :	0000000000001000;
	270 :	0000000000001010;
	269 :	0000000000001001;
	268 :	0000000000001100;
	267 :	1111111111111101;
	266 :	1111111111110010;
	265 :	1111111111110011;
	264 :	1111111111111110;
	263 :	0000000000000001;
	262 :	1111111111111100;
	261 :	0000000000000100;
	260 :	0000000000010010;
	259 :	0000000000001011;
	258 :	1111111111110100;
	257 :	0000000000001010;
	256 :	0000000000000111;
	255 :	0000000000000001;
	254 :	1111111111101101;
	253 :	0000000000001100;
	252 :	1111111111110111;
	251 :	0000000000010010;
	250 :	0000000000010000;
	249 :	1111111111101001;
	248 :	1111111110111010;
	247 :	1111111111111011;
	246 :	0000000000011001;
	245 :	1111111111110001;
	244 :	0000000000001011;
	243 :	0000000000001100;
	242 :	1111111111111101;
	241 :	0000000000001011;
	240 :	0000000000000011;
	239 :	0000000000000110;
	238 :	0000000000001010;
	237 :	0000000000001011;
	236 :	0000000000000110;
	235 :	0000000000010000;
	234 :	0000000000010110;
	233 :	0000000000000010;
	232 :	0000000000000011;
	231 :	0000000000001010;
	230 :	0000000000010111;
	229 :	0000000000000000;
	228 :	0000000000110011;
	227 :	0000000000000101;
	226 :	0000000000101110;
	225 :	1111111111110111;
	224 :	0000000000010110;
	223 :	1111111111111101;
	222 :	1111111111100011;
	221 :	1111111111011010;
	220 :	1111111111110011;
	219 :	1111111111101101;
	218 :	0000000000001110;
	217 :	0000000000001111;
	216 :	1111111111111100;
	215 :	0000000000001001;
	214 :	0000000000000111;
	213 :	0000000000001000;
	212 :	0000000000000111;
	211 :	1111111111111110;
	210 :	0000000000000010;
	209 :	0000000000001100;
	208 :	0000000000000110;
	207 :	0000000000010111;
	206 :	0000000000001011;
	205 :	0000000000001010;
	204 :	0000000000010100;
	203 :	0000000000000100;
	202 :	0000000000011001;
	201 :	0000000000001011;
	200 :	0000000000110100;
	199 :	0000000000011111;
	198 :	0000000000001110;
	197 :	0000000000010011;
	196 :	1111111111110010;
	195 :	1111111111101101;
	194 :	1111111111101011;
	193 :	1111111111100000;
	192 :	1111111111011000;
	191 :	0000000000000110;
	190 :	1111111111111111;
	189 :	1111111111101111;
	188 :	0000000000000010;
	187 :	0000000000000111;
	186 :	0000000000001001;
	185 :	1111111111111101;
	184 :	0000000000001011;
	183 :	0000000000000100;
	182 :	0000000000000111;
	181 :	0000000000001100;
	180 :	0000000000000101;
	179 :	0000000000001000;
	178 :	0000000000010100;
	177 :	0000000000001011;
	176 :	1111111111111101;
	175 :	0000000000001011;
	174 :	0000000000000011;
	173 :	0000000000000001;
	172 :	0000000000001100;
	171 :	0000000000100100;
	170 :	1111111111111101;
	169 :	1111111111101010;
	168 :	1111111111101100;
	167 :	1111111111101111;
	166 :	1111111111010001;
	165 :	0000000000100011;
	164 :	1111111111001000;
	163 :	0000000000011011;
	162 :	0000000000000101;
	161 :	1111111111111011;
	160 :	0000000000001010;
	159 :	0000000000001000;
	158 :	0000000000000110;
	157 :	0000000000000011;
	156 :	0000000000000111;
	155 :	0000000000000000;
	154 :	0000000000000000;
	153 :	0000000000000011;
	152 :	0000000000000111;
	151 :	0000000000000110;
	150 :	0000000000001001;
	149 :	0000000000000110;
	148 :	0000000000001000;
	147 :	0000000000001100;
	146 :	0000000000000110;
	145 :	1111111111111001;
	144 :	0000000000111101;
	143 :	0000000001000111;
	142 :	1111111111111001;
	141 :	0000000000010001;
	140 :	0000000000001010;
	139 :	0000000000001001;
	138 :	0000000000001011;
	137 :	0000000000001101;
	136 :	1111111111110111;
	135 :	1111111111000111;
	134 :	1111111111111110;
	133 :	1111111111110101;
	132 :	0000000000000100;
	131 :	0000000000001010;
	130 :	0000000000001100;
	129 :	0000000000000010;
	128 :	0000000000000100;
	127 :	1111111111111111;
	126 :	0000000000001111;
	125 :	0000000000000011;
	124 :	0000000000001100;
	123 :	0000000000001001;
	122 :	0000000000011110;
	121 :	0000000000010011;
	120 :	0000000000010011;
	119 :	0000000000011000;
	118 :	0000000000010011;
	117 :	0000000000000011;
	116 :	0000000000000101;
	115 :	0000000000001001;
	114 :	0000000000001001;
	113 :	1111111111101111;
	112 :	1111111111110000;
	111 :	0000000000001100;
	110 :	1111111111110101;
	109 :	0000000000000110;
	108 :	1111111111101001;
	107 :	1111111111111000;
	106 :	0000000000000110;
	105 :	1111111111011001;
	104 :	0000000000000110;
	103 :	1111111111100101;
	102 :	0000000000000111;
	101 :	0000000000001111;
	100 :	1111111111111110;
	99 :	1111111111111010;
	98 :	0000000000010110;
	97 :	0000000000010000;
	96 :	1111111111111101;
	95 :	0000000000000111;
	94 :	0000000000010111;
	93 :	0000000000011100;
	92 :	0000000000011110;
	91 :	1111111111111010;
	90 :	0000000000010010;
	89 :	1111111111110000;
	88 :	1111111111101101;
	87 :	0000000000001110;
	86 :	1111111111110101;
	85 :	1111111111110101;
	84 :	0000000000001001;
	83 :	0000000000000010;
	82 :	1111111111111100;
	81 :	0000000000010111;
	80 :	0000000000000011;
	79 :	0000000000011010;
	78 :	1111111111011011;
	77 :	0000000000001010;
	76 :	0000000000001011;
	75 :	1111111111101011;
	74 :	0000000000001110;
	73 :	1111111111111101;
	72 :	0000000000100011;
	71 :	0000000000001010;
	70 :	1111111111111111;
	69 :	1111111111111110;
	68 :	1111111111110011;
	67 :	0000000000011100;
	66 :	1111111111001011;
	65 :	0000000000000001;
	64 :	1111111111011011;
	63 :	1111111111111101;
	62 :	0000000000010111;
	61 :	0000000000001001;
	60 :	1111111111110100;
	59 :	0000000000001110;
	58 :	0000000000000101;
	57 :	1111111111110111;
	56 :	0000000000000000;
	55 :	0000000000000000;
	54 :	1111111111111000;
	53 :	1111111111111001;
	52 :	1111111111110101;
	51 :	1111111111101011;
	50 :	0000000000001000;
	49 :	1111111111111111;
	48 :	1111111111110101;
	47 :	1111111111010111;
	46 :	1111111111111001;
	45 :	1111111111001101;
	44 :	0000000000001110;
	43 :	1111111111101000;
	42 :	0000000000000111;
	41 :	1111111111111101;
	40 :	1111111111110101;
	39 :	1111111111101101;
	38 :	1111111111111011;
	37 :	1111111111110011;
	36 :	0000000000010010;
	35 :	0000000000001110;
	34 :	1111111111110100;
	33 :	0000000000010000;
	32 :	0000000000001001;
	31 :	0000000000001110;
	30 :	0000000000000001;
	29 :	0000000000000011;
	28 :	0000000000001011;
	27 :	1111111111111111;
	26 :	1111111111111001;
	25 :	0000000000010100;
	24 :	1111111111111000;
	23 :	0000000000000000;
	22 :	1111111111111101;
	21 :	1111111111110000;
	20 :	1111111111110001;
	19 :	0000000000000100;
	18 :	0000000000001011;
	17 :	0000000000010100;
	16 :	1111111111111010;
	15 :	1111111111101111;
	14 :	0000000000010101;
	13 :	1111111111111000;
	12 :	0000000000001110;
	11 :	0000000000001010;
	10 :	0000000000001100;
	9 :	0000000000001111;
	8 :	0000000000001010;
	7 :	1111111111110100;
	6 :	1111111111110100;
	5 :	0000000000000010;
	4 :	0000000000000010;
	3 :	1111111111111000;
	2 :	0000000000000001;
	1 :	1111111111111000;
	0 :	1111111111110000;
END;
