-- begin_signature
-- weights(numWeights
-- 784
-- neuronNumber
-- 2
-- layerNumber
-- 0
-- addressWidth
-- 10
-- dataWidth
-- 16
-- weightFile
-- "weights/weight_L0_N2.mif")
-- end_signature
WIDTH=16;
DEPTH=784;

ADDRESS_RADIX=UNS;
DATA_RADIX=BIN;

CONTENT BEGIN
	783 :	0000000000001010;
	782 :	1111111111110100;
	781 :	0000000000000010;
	780 :	1111111111110101;
	779 :	0000000000010010;
	778 :	0000000000010101;
	777 :	1111111111110000;
	776 :	1111111111110000;
	775 :	1111111111101100;
	774 :	1111111111101110;
	773 :	1111111111111111;
	772 :	1111111111110111;
	771 :	1111111111100110;
	770 :	1111111111101100;
	769 :	0000000000010000;
	768 :	1111111111100110;
	767 :	1111111111011101;
	766 :	1111111111010001;
	765 :	0000000000000110;
	764 :	1111111111010100;
	763 :	1111111111011110;
	762 :	1111111111111110;
	761 :	1111111111110101;
	760 :	1111111111101010;
	759 :	1111111111110100;
	758 :	0000000000001011;
	757 :	1111111111111011;
	756 :	1111111111111011;
	755 :	0000000000000000;
	754 :	1111111111111101;
	753 :	0000000000010001;
	752 :	1111111111111100;
	751 :	0000000000000010;
	750 :	1111111111011000;
	749 :	1111111111101010;
	748 :	1111111111101010;
	747 :	1111111111100010;
	746 :	1111111111011101;
	745 :	1111111111100000;
	744 :	1111111111011101;
	743 :	1111111111010110;
	742 :	1111111111010011;
	741 :	1111111111010011;
	740 :	1111111111101100;
	739 :	1111111111010110;
	738 :	1111111111100000;
	737 :	1111111111010100;
	736 :	1111111111101000;
	735 :	1111111111001101;
	734 :	1111111111110000;
	733 :	1111111111011111;
	732 :	1111111111011111;
	731 :	1111111111110000;
	730 :	1111111111101101;
	729 :	1111111111111001;
	728 :	0000000000000100;
	727 :	1111111111111000;
	726 :	1111111111111111;
	725 :	0000000000001110;
	724 :	1111111111100101;
	723 :	1111111111100001;
	722 :	0000000000001000;
	721 :	1111111111101011;
	720 :	1111111111001111;
	719 :	1111111111010011;
	718 :	1111111111011011;
	717 :	1111111111100000;
	716 :	1111111111110000;
	715 :	1111111111101010;
	714 :	1111111111110000;
	713 :	1111111111100101;
	712 :	1111111111110010;
	711 :	1111111111101101;
	710 :	1111111111110110;
	709 :	1111111111011111;
	708 :	1111111111101100;
	707 :	1111111111100001;
	706 :	0000000000000101;
	705 :	1111111111011000;
	704 :	0000000000000100;
	703 :	1111111111110100;
	702 :	1111111111101100;
	701 :	1111111111111110;
	700 :	1111111111110111;
	699 :	1111111111111000;
	698 :	1111111111110101;
	697 :	0000000000101101;
	696 :	1111111111110010;
	695 :	1111111111111000;
	694 :	0000000000001110;
	693 :	0000000000000010;
	692 :	1111111111101000;
	691 :	1111111111101111;
	690 :	1111111111110100;
	689 :	1111111111111100;
	688 :	0000000000000000;
	687 :	1111111111110100;
	686 :	1111111111111101;
	685 :	1111111111111100;
	684 :	1111111111110110;
	683 :	1111111111110111;
	682 :	1111111111111101;
	681 :	1111111111110100;
	680 :	1111111111100011;
	679 :	1111111111100100;
	678 :	1111111111111110;
	677 :	1111111111101010;
	676 :	1111111111110011;
	675 :	1111111111101101;
	674 :	0000000000010100;
	673 :	0000000000010011;
	672 :	0000000000000110;
	671 :	0000000000001101;
	670 :	0000000000000000;
	669 :	1111111111110000;
	668 :	1111111111001010;
	667 :	1111111111111110;
	666 :	1111111111110010;
	665 :	1111111111111110;
	664 :	1111111111111110;
	663 :	0000000000000100;
	662 :	1111111111111100;
	661 :	1111111111110100;
	660 :	1111111111110101;
	659 :	0000000000000011;
	658 :	1111111111111011;
	657 :	1111111111110100;
	656 :	1111111111111011;
	655 :	1111111111110110;
	654 :	1111111111110001;
	653 :	1111111111111100;
	652 :	1111111111111011;
	651 :	1111111111110110;
	650 :	1111111111111000;
	649 :	1111111111011000;
	648 :	0000000000000110;
	647 :	0000000000100001;
	646 :	0000000000010100;
	645 :	1111111111110101;
	644 :	1111111111111110;
	643 :	0000000000001011;
	642 :	0000000000000000;
	641 :	1111111111011101;
	640 :	1111111111010001;
	639 :	1111111111101000;
	638 :	1111111111110000;
	637 :	1111111111110011;
	636 :	1111111111111010;
	635 :	1111111111111000;
	634 :	1111111111111001;
	633 :	1111111111101110;
	632 :	1111111111110101;
	631 :	0000000000000110;
	630 :	1111111111110000;
	629 :	0000000000001101;
	628 :	0000000000000000;
	627 :	0000000000000111;
	626 :	0000000000001000;
	625 :	0000000000000110;
	624 :	1111111111111111;
	623 :	1111111111100001;
	622 :	1111111111100000;
	621 :	1111111111111000;
	620 :	1111111111111110;
	619 :	1111111111101110;
	618 :	0000000000000001;
	617 :	0000000000010010;
	616 :	1111111111110100;
	615 :	1111111111110001;
	614 :	0000000000110001;
	613 :	1111111111101001;
	612 :	1111111111110110;
	611 :	1111111111111011;
	610 :	1111111111110110;
	609 :	0000000000000110;
	608 :	0000000000000000;
	607 :	1111111111111001;
	606 :	0000000000000011;
	605 :	0000000000001001;
	604 :	1111111111111110;
	603 :	1111111111111111;
	602 :	0000000000010000;
	601 :	0000000000001000;
	600 :	0000000000001110;
	599 :	0000000000001000;
	598 :	0000000000000111;
	597 :	0000000000000100;
	596 :	1111111111111101;
	595 :	1111111111101100;
	594 :	1111111111001000;
	593 :	1111111111101000;
	592 :	1111111111010101;
	591 :	0000000000000100;
	590 :	0000000000100001;
	589 :	1111111111101100;
	588 :	1111111111110001;
	587 :	0000000000010010;
	586 :	0000000000101000;
	585 :	1111111111110011;
	584 :	1111111111111000;
	583 :	1111111111101010;
	582 :	1111111111011101;
	581 :	1111111111111101;
	580 :	0000000000000110;
	579 :	0000000000000100;
	578 :	0000000000000001;
	577 :	0000000000000100;
	576 :	0000000000001001;
	575 :	0000000000001100;
	574 :	0000000000000011;
	573 :	0000000000000110;
	572 :	0000000000000101;
	571 :	0000000000001010;
	570 :	0000000000000101;
	569 :	1111111111111111;
	568 :	1111111111100011;
	567 :	1111111111101011;
	566 :	1111111111101101;
	565 :	1111111111010101;
	564 :	0000000000010010;
	563 :	0000000000010010;
	562 :	0000000000000010;
	561 :	1111111111101111;
	560 :	1111111111110001;
	559 :	1111111111111011;
	558 :	0000000000100101;
	557 :	0000000000000010;
	556 :	0000000000010101;
	555 :	1111111111111011;
	554 :	0000000000001000;
	553 :	0000000000001000;
	552 :	0000000000000100;
	551 :	0000000000000011;
	550 :	0000000000010010;
	549 :	1111111111111111;
	548 :	0000000000000011;
	547 :	0000000000001000;
	546 :	0000000000000101;
	545 :	0000000000000010;
	544 :	0000000000001010;
	543 :	0000000000001110;
	542 :	0000000000000110;
	541 :	1111111111111111;
	540 :	1111111111101110;
	539 :	0000000000000010;
	538 :	1111111111110000;
	537 :	1111111111101111;
	536 :	0000000000000011;
	535 :	0000000000010011;
	534 :	0000000000101010;
	533 :	1111111111110111;
	532 :	0000000000000010;
	531 :	0000000000010001;
	530 :	0000000000011100;
	529 :	0000000000001101;
	528 :	0000000000000111;
	527 :	1111111111111110;
	526 :	1111111111101110;
	525 :	0000000000000111;
	524 :	1111111111111011;
	523 :	0000000000000001;
	522 :	0000000000000001;
	521 :	0000000000001001;
	520 :	0000000000001000;
	519 :	0000000000000011;
	518 :	0000000000001010;
	517 :	1111111111111110;
	516 :	0000000000010100;
	515 :	1111111111111011;
	514 :	1111111111111111;
	513 :	0000000000000111;
	512 :	0000000000011010;
	511 :	0000000000000011;
	510 :	0000000000000000;
	509 :	1111111111110000;
	508 :	1111111111111001;
	507 :	0000000000001010;
	506 :	0000000000010100;
	505 :	0000000000010000;
	504 :	1111111111110111;
	503 :	0000000000010100;
	502 :	0000000000100000;
	501 :	0000000000110111;
	500 :	1111111111110000;
	499 :	1111111111111110;
	498 :	0000000000010010;
	497 :	0000000000001010;
	496 :	0000000000000101;
	495 :	1111111111111111;
	494 :	0000000000001100;
	493 :	0000000000001011;
	492 :	0000000000001010;
	491 :	0000000000000101;
	490 :	0000000000001111;
	489 :	0000000000001011;
	488 :	1111111111111010;
	487 :	0000000000000100;
	486 :	0000000000001001;
	485 :	0000000000010011;
	484 :	0000000000001110;
	483 :	0000000000011000;
	482 :	0000000000000000;
	481 :	1111111111111011;
	480 :	1111111111111101;
	479 :	0000000000001011;
	478 :	0000000000110101;
	477 :	1111111111111111;
	476 :	1111111111110100;
	475 :	1111111111111000;
	474 :	1111111111101110;
	473 :	0000000000100011;
	472 :	0000000000011100;
	471 :	0000000000000110;
	470 :	1111111111111111;
	469 :	0000000000011100;
	468 :	0000000000001001;
	467 :	0000000000000110;
	466 :	0000000000001101;
	465 :	0000000000001110;
	464 :	0000000000001110;
	463 :	0000000000010011;
	462 :	0000000000010110;
	461 :	0000000000001000;
	460 :	0000000000001111;
	459 :	0000000000010000;
	458 :	0000000000001111;
	457 :	0000000000001010;
	456 :	0000000000001011;
	455 :	0000000000000011;
	454 :	0000000000010001;
	453 :	0000000000001010;
	452 :	0000000000000000;
	451 :	1111111111111111;
	450 :	1111111111110100;
	449 :	0000000000000110;
	448 :	1111111111110111;
	447 :	0000000000101111;
	446 :	1111111111101100;
	445 :	0000000000011011;
	444 :	1111111111111100;
	443 :	0000000000010101;
	442 :	0000000000000100;
	441 :	0000000000000110;
	440 :	1111111111111101;
	439 :	0000000000000011;
	438 :	1111111111111110;
	437 :	0000000000010000;
	436 :	0000000000001001;
	435 :	0000000000001010;
	434 :	0000000000001100;
	433 :	0000000000001001;
	432 :	0000000000010101;
	431 :	0000000000010100;
	430 :	0000000000000011;
	429 :	0000000000001101;
	428 :	0000000000001101;
	427 :	0000000000001001;
	426 :	0000000000000110;
	425 :	1111111111110100;
	424 :	1111111111111100;
	423 :	0000000000010100;
	422 :	1111111111110011;
	421 :	0000000000001110;
	420 :	1111111111111110;
	419 :	0000000000001001;
	418 :	0000000000000100;
	417 :	1111111111111110;
	416 :	0000000000000101;
	415 :	0000000000000100;
	414 :	0000000000000111;
	413 :	0000000000001010;
	412 :	1111111111111111;
	411 :	1111111111111100;
	410 :	0000000000000111;
	409 :	0000000000001101;
	408 :	0000000000010000;
	407 :	0000000000000100;
	406 :	0000000000001000;
	405 :	0000000000001011;
	404 :	0000000000010111;
	403 :	0000000000100000;
	402 :	0000000000000101;
	401 :	0000000000010010;
	400 :	0000000000001101;
	399 :	0000000000000101;
	398 :	0000000000000111;
	397 :	0000000000011001;
	396 :	0000000000000110;
	395 :	0000000000001010;
	394 :	0000000000010011;
	393 :	0000000000010001;
	392 :	1111111111111111;
	391 :	1111111111110111;
	390 :	1111111111111011;
	389 :	1111111111110100;
	388 :	0000000000001001;
	387 :	0000000000001110;
	386 :	0000000000000001;
	385 :	1111111111111010;
	384 :	0000000000000001;
	383 :	0000000000000010;
	382 :	1111111111111111;
	381 :	0000000000001010;
	380 :	0000000000000101;
	379 :	0000000000000101;
	378 :	0000000000000110;
	377 :	0000000000001101;
	376 :	0000000000001111;
	375 :	0000000000011011;
	374 :	0000000000010100;
	373 :	0000000000000110;
	372 :	0000000000000010;
	371 :	0000000000000011;
	370 :	0000000000000100;
	369 :	1111111111110001;
	368 :	1111111111100001;
	367 :	1111111110110000;
	366 :	1111111111110011;
	365 :	1111111111111111;
	364 :	1111111111111011;
	363 :	0000000000111011;
	362 :	1111111111100110;
	361 :	1111111111111001;
	360 :	0000000000001000;
	359 :	1111111111111010;
	358 :	1111111111111000;
	357 :	0000000000001010;
	356 :	1111111111111101;
	355 :	1111111111111101;
	354 :	1111111111111010;
	353 :	1111111111111110;
	352 :	0000000000000111;
	351 :	1111111111101110;
	350 :	1111111111111000;
	349 :	0000000000001100;
	348 :	0000000000011010;
	347 :	0000000000011010;
	346 :	0000000000001101;
	345 :	1111111111111011;
	344 :	0000000000000100;
	343 :	0000000000000111;
	342 :	1111111111111111;
	341 :	1111111111110100;
	340 :	1111111111100010;
	339 :	1111111111011100;
	338 :	1111111111100111;
	337 :	1111111111111100;
	336 :	1111111111101111;
	335 :	0000000000101110;
	334 :	1111111111011010;
	333 :	1111111111100100;
	332 :	1111111111101010;
	331 :	1111111111100101;
	330 :	1111111111110101;
	329 :	1111111111111100;
	328 :	0000000000000000;
	327 :	0000000000000000;
	326 :	1111111111110101;
	325 :	1111111111110001;
	324 :	0000000000000111;
	323 :	1111111111101101;
	322 :	1111111111101000;
	321 :	1111111111101101;
	320 :	0000000000000011;
	319 :	1111111111111001;
	318 :	1111111111110000;
	317 :	1111111111111111;
	316 :	1111111111110011;
	315 :	1111111111110011;
	314 :	1111111111111110;
	313 :	1111111111110011;
	312 :	1111111111110111;
	311 :	1111111111110011;
	310 :	1111111111110101;
	309 :	0000000000000111;
	308 :	1111111111110001;
	307 :	1111111111110001;
	306 :	1111111111100010;
	305 :	1111111111110010;
	304 :	1111111111011011;
	303 :	1111111111011100;
	302 :	1111111111111100;
	301 :	1111111111111000;
	300 :	1111111111111011;
	299 :	0000000000000001;
	298 :	0000000000001001;
	297 :	0000000000000001;
	296 :	1111111111110001;
	295 :	1111111111101000;
	294 :	1111111111101110;
	293 :	1111111111111010;
	292 :	1111111111110010;
	291 :	1111111111110010;
	290 :	1111111111111011;
	289 :	1111111111110010;
	288 :	1111111111110000;
	287 :	1111111111111010;
	286 :	1111111111111101;
	285 :	0000000000000001;
	284 :	1111111111100110;
	283 :	1111111111110100;
	282 :	1111111111100001;
	281 :	1111111111111000;
	280 :	1111111111111000;
	279 :	1111111111010100;
	278 :	1111111111101111;
	277 :	0000000000010100;
	276 :	0000000000001000;
	275 :	1111111111110010;
	274 :	1111111111111010;
	273 :	0000000000001110;
	272 :	0000000000000011;
	271 :	0000000000000001;
	270 :	1111111111110101;
	269 :	0000000000000001;
	268 :	1111111111101110;
	267 :	1111111111110000;
	266 :	1111111111110101;
	265 :	1111111111110001;
	264 :	1111111111110101;
	263 :	1111111111110110;
	262 :	1111111111110110;
	261 :	1111111111110001;
	260 :	1111111111110100;
	259 :	0000000000000001;
	258 :	1111111111011111;
	257 :	1111111111100010;
	256 :	0000000000001110;
	255 :	1111111111111000;
	254 :	0000000000010100;
	253 :	0000000000001000;
	252 :	0000000000000100;
	251 :	1111111111111001;
	250 :	1111111111100010;
	249 :	0000000000101110;
	248 :	1111111111110111;
	247 :	1111111111110100;
	246 :	0000000000000010;
	245 :	0000000000000010;
	244 :	0000000000000001;
	243 :	1111111111111001;
	242 :	1111111111110100;
	241 :	1111111111110101;
	240 :	1111111111101101;
	239 :	1111111111110111;
	238 :	1111111111101100;
	237 :	1111111111110010;
	236 :	1111111111111100;
	235 :	1111111111111111;
	234 :	1111111111111000;
	233 :	1111111111111101;
	232 :	1111111111011010;
	231 :	1111111111111000;
	230 :	1111111111101011;
	229 :	0000000000000101;
	228 :	1111111111101010;
	227 :	1111111111101011;
	226 :	0000000000010110;
	225 :	1111111111111110;
	224 :	1111111111111100;
	223 :	1111111111111000;
	222 :	0000000000001101;
	221 :	0000000000010011;
	220 :	0000000000100000;
	219 :	1111111111100100;
	218 :	0000000000010111;
	217 :	1111111111110111;
	216 :	1111111111100010;
	215 :	1111111111101111;
	214 :	1111111111101011;
	213 :	1111111111101001;
	212 :	1111111111101010;
	211 :	1111111111110001;
	210 :	1111111111110001;
	209 :	1111111111110111;
	208 :	1111111111110101;
	207 :	1111111111111100;
	206 :	0000000000000111;
	205 :	1111111111111001;
	204 :	1111111111110010;
	203 :	1111111111110011;
	202 :	1111111111110100;
	201 :	0000000000001100;
	200 :	1111111111100111;
	199 :	1111111111010000;
	198 :	0000000000011001;
	197 :	1111111111110110;
	196 :	1111111111110011;
	195 :	1111111111111100;
	194 :	0000000000001110;
	193 :	0000000000000010;
	192 :	0000000000101011;
	191 :	0000000000010100;
	190 :	1111111111110100;
	189 :	1111111111110100;
	188 :	1111111111101110;
	187 :	1111111111101011;
	186 :	1111111111100110;
	185 :	1111111111101000;
	184 :	1111111111101011;
	183 :	1111111111101100;
	182 :	1111111111101010;
	181 :	1111111111101110;
	180 :	1111111111111001;
	179 :	0000000000000000;
	178 :	1111111111101110;
	177 :	1111111111111100;
	176 :	1111111111110100;
	175 :	0000000000000010;
	174 :	1111111111101001;
	173 :	1111111111111101;
	172 :	0000000000001101;
	171 :	1111111111111110;
	170 :	0000000000010100;
	169 :	0000000000001100;
	168 :	0000000000000000;
	167 :	0000000000010110;
	166 :	0000000000100010;
	165 :	1111111111111100;
	164 :	0000000000001110;
	163 :	0000000000001010;
	162 :	0000000000000011;
	161 :	1111111111111011;
	160 :	1111111111111011;
	159 :	0000000000010001;
	158 :	1111111111111110;
	157 :	0000000000001011;
	156 :	0000000000000001;
	155 :	1111111111111111;
	154 :	0000000000000111;
	153 :	1111111111111010;
	152 :	0000000000001000;
	151 :	1111111111101111;
	150 :	0000000000010010;
	149 :	1111111111111110;
	148 :	0000000000000101;
	147 :	0000000000000111;
	146 :	0000000000000011;
	145 :	1111111111111010;
	144 :	0000000000001101;
	143 :	1111111111011001;
	142 :	0000000000001111;
	141 :	0000000000001010;
	140 :	0000000000010001;
	139 :	0000000000000111;
	138 :	1111111111011011;
	137 :	1111111111111000;
	136 :	1111111111011101;
	135 :	0000000000100100;
	134 :	0000000000010101;
	133 :	0000000000010011;
	132 :	0000000000000110;
	131 :	0000000000001110;
	130 :	0000000000000101;
	129 :	0000000000000011;
	128 :	1111111111111101;
	127 :	1111111111110001;
	126 :	1111111111111100;
	125 :	1111111111111111;
	124 :	0000000000000111;
	123 :	0000000000000100;
	122 :	0000000000000111;
	121 :	0000000000001000;
	120 :	1111111111111101;
	119 :	0000000000010110;
	118 :	0000000000000000;
	117 :	1111111111111110;
	116 :	1111111111111110;
	115 :	1111111111110110;
	114 :	1111111111011111;
	113 :	0000000000000001;
	112 :	0000000000000110;
	111 :	0000000000001110;
	110 :	1111111111110100;
	109 :	1111111111101111;
	108 :	0000000000110010;
	107 :	0000000000001001;
	106 :	0000000000011101;
	105 :	0000000000001101;
	104 :	0000000000000101;
	103 :	0000000000001011;
	102 :	0000000000001010;
	101 :	0000000000100000;
	100 :	0000000000000010;
	99 :	0000000000010010;
	98 :	0000000000010001;
	97 :	0000000000001111;
	96 :	0000000000011001;
	95 :	0000000000011010;
	94 :	0000000000011100;
	93 :	0000000000111000;
	92 :	0000000000010100;
	91 :	0000000000001000;
	90 :	0000000000110101;
	89 :	0000000000001101;
	88 :	1111111111101011;
	87 :	0000000000001111;
	86 :	0000000000000100;
	85 :	1111111111111100;
	84 :	0000000000010011;
	83 :	0000000000000100;
	82 :	1111111111110001;
	81 :	0000000000010111;
	80 :	0000000000001010;
	79 :	0000000000110001;
	78 :	0000000001001100;
	77 :	0000000000100110;
	76 :	0000000000101100;
	75 :	0000000000110001;
	74 :	0000000000100110;
	73 :	0000000000100010;
	72 :	0000000000101001;
	71 :	0000000000101010;
	70 :	0000000001000000;
	69 :	0000000000010001;
	68 :	0000000000101010;
	67 :	0000000000100101;
	66 :	0000000000101111;
	65 :	0000000000100100;
	64 :	0000000000010000;
	63 :	0000000000010001;
	62 :	0000000000010100;
	61 :	0000000000000000;
	60 :	0000000000010000;
	59 :	1111111111101111;
	58 :	1111111111110100;
	57 :	0000000000001001;
	56 :	0000000000001001;
	55 :	0000000000000110;
	54 :	0000000000001000;
	53 :	0000000000000000;
	52 :	1111111111110011;
	51 :	0000000000001101;
	50 :	0000000000100101;
	49 :	0000000001000001;
	48 :	0000000001000100;
	47 :	0000000000101111;
	46 :	0000000000011000;
	45 :	0000000000011101;
	44 :	1111111111110111;
	43 :	0000000000010101;
	42 :	1111111111100111;
	41 :	0000000000100011;
	40 :	1111111111111011;
	39 :	0000000000100101;
	38 :	0000000000011100;
	37 :	0000000000001011;
	36 :	0000000000010100;
	35 :	0000000000110000;
	34 :	0000000000000010;
	33 :	0000000000001110;
	32 :	0000000000001010;
	31 :	0000000000000011;
	30 :	1111111111111000;
	29 :	1111111111101011;
	28 :	0000000000000101;
	27 :	0000000000000011;
	26 :	1111111111101101;
	25 :	0000000000000111;
	24 :	1111111111110010;
	23 :	1111111111101110;
	22 :	1111111111111001;
	21 :	0000000000010101;
	20 :	0000000000010001;
	19 :	1111111111111011;
	18 :	0000000000010100;
	17 :	0000000000010011;
	16 :	1111111111101010;
	15 :	1111111111111010;
	14 :	1111111111111000;
	13 :	0000000000000001;
	12 :	0000000000010110;
	11 :	0000000000000000;
	10 :	1111111111101011;
	9 :	1111111111111001;
	8 :	1111111111111110;
	7 :	1111111111101111;
	6 :	0000000000001001;
	5 :	0000000000000011;
	4 :	0000000000000101;
	3 :	0000000000010101;
	2 :	0000000000000101;
	1 :	0000000000000010;
	0 :	0000000000010001;
END;
