-- begin_signature
-- weights(numWeights
-- 16
-- neuronNumber
-- 3
-- layerNumber
-- 1
-- addressWidth
-- 4
-- dataWidth
-- 16
-- weightFile
-- "weights/weight_L1_N3.mif")
-- end_signature
WIDTH=16;
DEPTH=16;

ADDRESS_RADIX=UNS;
DATA_RADIX=BIN;

CONTENT BEGIN
	15 :	0000000000010100;
	14 :	0000000000101111;
	13 :	0000000000111011;
	12 :	0000000000001010;
	11 :	0000000001000010;
	10 :	0000000000101001;
	9 :	1111111111101111;
	8 :	1111111111011101;
	7 :	0000000001011100;
	6 :	1111111111111101;
	5 :	1111111111110001;
	4 :	0000000001011001;
	3 :	1111111111111110;
	2 :	0000000000010101;
	1 :	1111111111011111;
	0 :	0000000000011011;
END;
