-- begin_signature
-- weights(numWeights
-- 16
-- neuronNumber
-- 8
-- layerNumber
-- 1
-- addressWidth
-- 4
-- dataWidth
-- 16
-- weightFile
-- "weights/weight_L1_N8.mif")
-- end_signature
WIDTH=16;
DEPTH=16;

ADDRESS_RADIX=UNS;
DATA_RADIX=BIN;

CONTENT BEGIN
	15 :	1111111111111110;
	14 :	0000000000000111;
	13 :	1111111111111001;
	12 :	1111111110101001;
	11 :	1111111111100101;
	10 :	0000000000101100;
	9 :	0000000000100011;
	8 :	0000000000010001;
	7 :	1111111110011111;
	6 :	0000000001000111;
	5 :	1111111111111010;
	4 :	1111111110111011;
	3 :	0000000000001000;
	2 :	1111111111100111;
	1 :	0000000000010011;
	0 :	1111111111010001;
END;
