-- begin_signature
-- weights(numWeights
-- 784
-- neuronNumber
-- 10
-- layerNumber
-- 0
-- addressWidth
-- 10
-- dataWidth
-- 16
-- weightFile
-- "weights/weight_L0_N10.mif")
-- end_signature
WIDTH=16;
DEPTH=784;

ADDRESS_RADIX=UNS;
DATA_RADIX=BIN;

CONTENT BEGIN
	783 :	0000000000010011;
	782 :	1111111111110100;
	781 :	1111111111110101;
	780 :	0000000000000111;
	779 :	0000000000001001;
	778 :	1111111111111000;
	777 :	1111111111111110;
	776 :	0000000000010010;
	775 :	1111111111100011;
	774 :	0000000001001100;
	773 :	0000000000100110;
	772 :	0000000000001011;
	771 :	0000000000101111;
	770 :	0000000000011111;
	769 :	0000000000110011;
	768 :	0000000000011101;
	767 :	0000000000001111;
	766 :	0000000000111111;
	765 :	0000000000011011;
	764 :	0000000001001011;
	763 :	0000000000111101;
	762 :	0000000000011011;
	761 :	0000000000101100;
	760 :	0000000000010011;
	759 :	0000000000001101;
	758 :	1111111111101010;
	757 :	0000000000001001;
	756 :	0000000000000101;
	755 :	1111111111101110;
	754 :	0000000000010000;
	753 :	1111111111101100;
	752 :	0000000000010110;
	751 :	1111111111100111;
	750 :	0000000000101111;
	749 :	0000000000101010;
	748 :	0000000000100101;
	747 :	0000000000101000;
	746 :	0000000000101011;
	745 :	0000000000110011;
	744 :	0000000000111101;
	743 :	0000000000101101;
	742 :	0000000000111101;
	741 :	0000000000110100;
	740 :	0000000000100110;
	739 :	0000000000101000;
	738 :	0000000001000100;
	737 :	0000000001000110;
	736 :	0000000001010000;
	735 :	0000000000111010;
	734 :	0000000000001111;
	733 :	1111111111101111;
	732 :	0000000000011110;
	731 :	0000000000001100;
	730 :	1111111111110110;
	729 :	0000000000010010;
	728 :	0000000000001101;
	727 :	1111111111110100;
	726 :	1111111111111100;
	725 :	0000000000010010;
	724 :	0000000000001001;
	723 :	1111111111111000;
	722 :	1111111111110111;
	721 :	0000000000011110;
	720 :	0000000000000111;
	719 :	0000000000001100;
	718 :	0000000000010111;
	717 :	0000000000101101;
	716 :	0000000000100010;
	715 :	0000000000011000;
	714 :	0000000000110100;
	713 :	0000000000100000;
	712 :	0000000000100001;
	711 :	0000000000101010;
	710 :	0000000000010001;
	709 :	0000000000110000;
	708 :	0000000000011111;
	707 :	0000000000111101;
	706 :	0000000000001110;
	705 :	0000000000101011;
	704 :	0000000000000111;
	703 :	0000000000110011;
	702 :	0000000000010101;
	701 :	0000000000010101;
	700 :	0000000000001100;
	699 :	0000000000001110;
	698 :	0000000000001001;
	697 :	1111111111000011;
	696 :	1111111111110000;
	695 :	1111111111110111;
	694 :	1111111111110001;
	693 :	1111111111111111;
	692 :	0000000000011110;
	691 :	1111111111101011;
	690 :	1111111111111111;
	689 :	1111111111111010;
	688 :	1111111111111101;
	687 :	1111111111111011;
	686 :	1111111111111001;
	685 :	0000000000001101;
	684 :	0000000000000011;
	683 :	0000000000001101;
	682 :	0000000000001000;
	681 :	0000000000000010;
	680 :	0000000000100111;
	679 :	0000000000011100;
	678 :	0000000000010111;
	677 :	0000000000111111;
	676 :	0000000000011110;
	675 :	0000000000011001;
	674 :	1111111111110111;
	673 :	1111111111101011;
	672 :	1111111111110011;
	671 :	0000000000001000;
	670 :	0000000000000011;
	669 :	1111111111010011;
	668 :	0000000000000110;
	667 :	1111111111111010;
	666 :	0000000000000110;
	665 :	1111111111101010;
	664 :	1111111111011011;
	663 :	1111111111110011;
	662 :	0000000000000000;
	661 :	0000000000001001;
	660 :	0000000000000001;
	659 :	0000000000001000;
	658 :	1111111111111011;
	657 :	1111111111111101;
	656 :	1111111111111000;
	655 :	1111111111111101;
	654 :	1111111111111101;
	653 :	1111111111100111;
	652 :	1111111111101011;
	651 :	0000000000011001;
	650 :	0000000000011100;
	649 :	1111111111111000;
	648 :	0000000000110110;
	647 :	1111111111111110;
	646 :	0000000000000100;
	645 :	0000000000000110;
	644 :	1111111111110010;
	643 :	0000000000001011;
	642 :	1111111111110010;
	641 :	0000000000000011;
	640 :	0000000000011001;
	639 :	1111111111111000;
	638 :	0000000000011101;
	637 :	1111111111000011;
	636 :	0000000000000000;
	635 :	0000000000000111;
	634 :	1111111111101000;
	633 :	0000000000000010;
	632 :	1111111111111010;
	631 :	0000000000001101;
	630 :	1111111111111010;
	629 :	0000000000000011;
	628 :	0000000000001110;
	627 :	1111111111110111;
	626 :	1111111111110111;
	625 :	0000000000000101;
	624 :	0000000000001001;
	623 :	0000000000010101;
	622 :	1111111111100001;
	621 :	1111111111110110;
	620 :	1111111110101111;
	619 :	1111111111000100;
	618 :	1111111111101101;
	617 :	1111111111110101;
	616 :	1111111111110111;
	615 :	0000000000000001;
	614 :	0000000000000110;
	613 :	1111111111011111;
	612 :	1111111111011010;
	611 :	1111111111011000;
	610 :	1111111111010101;
	609 :	0000000000000011;
	608 :	1111111111111110;
	607 :	1111111111101011;
	606 :	1111111111100000;
	605 :	0000000000000010;
	604 :	1111111111111010;
	603 :	0000000000000000;
	602 :	0000000000001000;
	601 :	1111111111101110;
	600 :	0000000000000011;
	599 :	1111111111110101;
	598 :	0000000000000011;
	597 :	1111111111101111;
	596 :	1111111111101101;
	595 :	1111111111010100;
	594 :	1111111111100000;
	593 :	1111111110100001;
	592 :	1111111110100110;
	591 :	1111111111100001;
	590 :	1111111111111101;
	589 :	0000000000011001;
	588 :	0000000000000011;
	587 :	0000000000000000;
	586 :	1111111111000001;
	585 :	0000000000000010;
	584 :	0000000000010011;
	583 :	1111111111111001;
	582 :	1111111111111110;
	581 :	1111111111100011;
	580 :	1111111111011110;
	579 :	1111111111110001;
	578 :	1111111111001001;
	577 :	1111111111101101;
	576 :	1111111111110010;
	575 :	0000000000001100;
	574 :	0000000000010000;
	573 :	1111111111111011;
	572 :	0000000000000101;
	571 :	1111111111100011;
	570 :	1111111111101010;
	569 :	1111111111110011;
	568 :	1111111111101010;
	567 :	1111111111011100;
	566 :	1111111111010010;
	565 :	1111111110010100;
	564 :	1111111111001000;
	563 :	1111111111111011;
	562 :	0000000001001010;
	561 :	0000000000101000;
	560 :	0000000000010100;
	559 :	0000000000000100;
	558 :	1111111111010001;
	557 :	1111111111000110;
	556 :	1111111111111001;
	555 :	1111111111100110;
	554 :	1111111111011110;
	553 :	1111111111010111;
	552 :	1111111111110011;
	551 :	1111111111100100;
	550 :	1111111111110101;
	549 :	1111111111110001;
	548 :	1111111111101000;
	547 :	1111111111101111;
	546 :	1111111111111011;
	545 :	1111111111110010;
	544 :	1111111111100101;
	543 :	1111111111101000;
	542 :	1111111111100110;
	541 :	1111111111011000;
	540 :	1111111111100111;
	539 :	1111111111100001;
	538 :	1111111111001001;
	537 :	1111111111010111;
	536 :	0000000000101100;
	535 :	1111111111100110;
	534 :	0000000001000111;
	533 :	1111111111110001;
	532 :	1111111111111101;
	531 :	1111111111100011;
	530 :	1111111111110001;
	529 :	1111111111010000;
	528 :	1111111110110011;
	527 :	1111111111101011;
	526 :	1111111111011111;
	525 :	0000000000000011;
	524 :	1111111111111101;
	523 :	1111111111101001;
	522 :	0000000000000001;
	521 :	0000000000000110;
	520 :	0000000000000101;
	519 :	1111111111111100;
	518 :	0000000000001111;
	517 :	1111111111111010;
	516 :	1111111111100010;
	515 :	1111111111111001;
	514 :	1111111111101001;
	513 :	0000000000000000;
	512 :	1111111111110011;
	511 :	1111111111111101;
	510 :	1111111111100101;
	509 :	0000000000001010;
	508 :	0000000000010010;
	507 :	1111111111101010;
	506 :	0000000000001010;
	505 :	0000000000010010;
	504 :	1111111111110001;
	503 :	1111111111111111;
	502 :	1111111110101101;
	501 :	0000000000000010;
	500 :	0000000000001010;
	499 :	1111111111110001;
	498 :	0000000000000010;
	497 :	0000000000000111;
	496 :	0000000000001101;
	495 :	1111111111111100;
	494 :	1111111111111001;
	493 :	0000000000001011;
	492 :	1111111111111110;
	491 :	0000000000001110;
	490 :	0000000000000010;
	489 :	0000000000000111;
	488 :	1111111111111010;
	487 :	1111111111111000;
	486 :	1111111111111001;
	485 :	1111111111101110;
	484 :	1111111111111100;
	483 :	1111111111110000;
	482 :	1111111111111010;
	481 :	1111111111110011;
	480 :	0000000000000000;
	479 :	0000000000000111;
	478 :	1111111111110010;
	477 :	1111111111101100;
	476 :	0000000000001001;
	475 :	1111111111101111;
	474 :	1111111111001010;
	473 :	1111111111100111;
	472 :	1111111111011110;
	471 :	0000000000000101;
	470 :	0000000000010001;
	469 :	0000000000000010;
	468 :	1111111111111111;
	467 :	1111111111111110;
	466 :	1111111111111011;
	465 :	0000000000001111;
	464 :	0000000000001010;
	463 :	0000000000001110;
	462 :	0000000000000101;
	461 :	0000000000001111;
	460 :	0000000000000110;
	459 :	1111111111111101;
	458 :	1111111111110001;
	457 :	0000000000000000;
	456 :	0000000000000110;
	455 :	1111111111111110;
	454 :	0000000000001001;
	453 :	1111111111111001;
	452 :	0000000000011010;
	451 :	1111111111001000;
	450 :	1111111111100001;
	449 :	1111111111110010;
	448 :	0000000000000111;
	447 :	0000000000010000;
	446 :	1111111111100110;
	445 :	1111111110101011;
	444 :	1111111111011110;
	443 :	0000000000001111;
	442 :	0000000000000001;
	441 :	0000000000001111;
	440 :	0000000000010100;
	439 :	0000000000000000;
	438 :	0000000000100001;
	437 :	0000000000010100;
	436 :	0000000000001010;
	435 :	0000000000001010;
	434 :	1111111111111111;
	433 :	0000000000000100;
	432 :	1111111111110110;
	431 :	0000000000000011;
	430 :	1111111111110110;
	429 :	1111111111110011;
	428 :	1111111111111011;
	427 :	1111111111111011;
	426 :	0000000000001101;
	425 :	1111111111101010;
	424 :	1111111111110101;
	423 :	0000000000011100;
	422 :	0000000000111110;
	421 :	1111111111111000;
	420 :	1111111111110011;
	419 :	0000000000010010;
	418 :	1111111111110011;
	417 :	0000000000001100;
	416 :	1111111111011011;
	415 :	1111111111110110;
	414 :	0000000000011000;
	413 :	1111111111110110;
	412 :	1111111111111001;
	411 :	0000000000000110;
	410 :	1111111111111100;
	409 :	0000000000010010;
	408 :	0000000000000101;
	407 :	0000000000000000;
	406 :	0000000000010010;
	405 :	0000000000010000;
	404 :	1111111111110001;
	403 :	1111111111111101;
	402 :	0000000000001100;
	401 :	1111111111111110;
	400 :	1111111111111111;
	399 :	1111111111111100;
	398 :	0000000000010011;
	397 :	0000000000000111;
	396 :	0000000000001111;
	395 :	0000000000101000;
	394 :	0000000000111110;
	393 :	1111111111110100;
	392 :	1111111111111101;
	391 :	0000000000000100;
	390 :	1111111110111001;
	389 :	1111111111100111;
	388 :	1111111111010001;
	387 :	1111111111011100;
	386 :	1111111111101101;
	385 :	0000000000000011;
	384 :	0000000000000100;
	383 :	1111111111110011;
	382 :	0000000000010010;
	381 :	0000000000010110;
	380 :	0000000000010000;
	379 :	0000000000010001;
	378 :	0000000000001011;
	377 :	1111111111111110;
	376 :	1111111111110110;
	375 :	1111111111111000;
	374 :	0000000000001011;
	373 :	0000000000010110;
	372 :	0000000000000110;
	371 :	0000000000011010;
	370 :	0000000000000110;
	369 :	0000000000000101;
	368 :	0000000000010011;
	367 :	0000000000001110;
	366 :	0000000000111101;
	365 :	1111111111111100;
	364 :	1111111111110000;
	363 :	0000000000001100;
	362 :	1111111111000001;
	361 :	1111111111010101;
	360 :	1111111111010110;
	359 :	0000000000000100;
	358 :	0000000000010010;
	357 :	0000000000000000;
	356 :	1111111111111111;
	355 :	1111111111110010;
	354 :	0000000000001010;
	353 :	1111111111111111;
	352 :	0000000000010000;
	351 :	1111111111111010;
	350 :	0000000000010000;
	349 :	1111111111100110;
	348 :	1111111111111100;
	347 :	0000000000001101;
	346 :	1111111111111011;
	345 :	0000000000000011;
	344 :	0000000000010100;
	343 :	0000000000000010;
	342 :	0000000000000100;
	341 :	0000000000000100;
	340 :	1111111111111101;
	339 :	1111111111101000;
	338 :	1111111111110110;
	337 :	0000000000100110;
	336 :	0000000000101000;
	335 :	1111111111110001;
	334 :	1111111111101101;
	333 :	0000000000010011;
	332 :	1111111111111010;
	331 :	0000000000001100;
	330 :	0000000000000000;
	329 :	1111111111110101;
	328 :	0000000000001010;
	327 :	1111111111111000;
	326 :	0000000000010011;
	325 :	0000000000001100;
	324 :	0000000000001000;
	323 :	1111111111111001;
	322 :	1111111111111110;
	321 :	1111111111110101;
	320 :	0000000000001001;
	319 :	0000000000011010;
	318 :	0000000000001101;
	317 :	0000000000001000;
	316 :	0000000000010001;
	315 :	0000000000011010;
	314 :	0000000000001010;
	313 :	1111111111110111;
	312 :	1111111111101000;
	311 :	0000000000011111;
	310 :	0000000000101110;
	309 :	1111111111111111;
	308 :	0000000000100011;
	307 :	1111111111111000;
	306 :	1111111111111011;
	305 :	0000000000011010;
	304 :	1111111111101000;
	303 :	0000000000011100;
	302 :	1111111111111110;
	301 :	1111111111111100;
	300 :	0000000000000111;
	299 :	0000000000000010;
	298 :	0000000000000001;
	297 :	1111111111101100;
	296 :	0000000000001001;
	295 :	1111111111111110;
	294 :	1111111111111110;
	293 :	0000000000000100;
	292 :	1111111111111100;
	291 :	1111111111101010;
	290 :	0000000000001000;
	289 :	0000000000000110;
	288 :	0000000000000100;
	287 :	0000000000000110;
	286 :	0000000000000000;
	285 :	0000000000010110;
	284 :	0000000000001011;
	283 :	0000000000100110;
	282 :	0000000000010111;
	281 :	0000000000101000;
	280 :	0000000000011001;
	279 :	0000000000100100;
	278 :	0000000000011000;
	277 :	0000000000110111;
	276 :	1111111111010100;
	275 :	1111111111110100;
	274 :	0000000000001101;
	273 :	1111111111111011;
	272 :	1111111111111100;
	271 :	1111111111111000;
	270 :	1111111111110110;
	269 :	0000000000010111;
	268 :	1111111111111000;
	267 :	0000000000000111;
	266 :	0000000000001011;
	265 :	0000000000000011;
	264 :	0000000000010101;
	263 :	0000000000000110;
	262 :	0000000000001110;
	261 :	0000000000001000;
	260 :	0000000000001010;
	259 :	1111111111111110;
	258 :	0000000000101000;
	257 :	1111111111111100;
	256 :	0000000000001000;
	255 :	0000000000001001;
	254 :	0000000000101011;
	253 :	0000000000100100;
	252 :	0000000000011100;
	251 :	1111111111111110;
	250 :	0000000000110011;
	249 :	0000000000110001;
	248 :	0000000000100110;
	247 :	0000000000010010;
	246 :	0000000000011100;
	245 :	0000000000001011;
	244 :	1111111111111101;
	243 :	0000000000000110;
	242 :	0000000000000100;
	241 :	0000000000001010;
	240 :	0000000000010110;
	239 :	0000000000001001;
	238 :	0000000000100010;
	237 :	0000000000010011;
	236 :	0000000000010110;
	235 :	0000000000001110;
	234 :	0000000000001000;
	233 :	0000000000011000;
	232 :	0000000000011000;
	231 :	0000000000010001;
	230 :	0000000000010100;
	229 :	0000000000000110;
	228 :	0000000000010100;
	227 :	0000000000100011;
	226 :	1111111111100101;
	225 :	0000000000100001;
	224 :	0000000000001011;
	223 :	1111111111101001;
	222 :	0000000000000101;
	221 :	0000000000000111;
	220 :	0000000000010101;
	219 :	1111111111111110;
	218 :	1111111111111100;
	217 :	0000000000000100;
	216 :	0000000000100000;
	215 :	0000000000000101;
	214 :	0000000000001110;
	213 :	0000000000011001;
	212 :	0000000000011001;
	211 :	0000000000010011;
	210 :	0000000000010010;
	209 :	0000000000001100;
	208 :	0000000000011001;
	207 :	0000000000010101;
	206 :	0000000000100100;
	205 :	0000000000010101;
	204 :	0000000000000100;
	203 :	0000000000001110;
	202 :	0000000000000100;
	201 :	1111111111110100;
	200 :	1111111111111101;
	199 :	0000000000111100;
	198 :	0000000000110000;
	197 :	0000000000010000;
	196 :	1111111111110110;
	195 :	0000000000010100;
	194 :	0000000001000111;
	193 :	0000000000010011;
	192 :	0000000000100000;
	191 :	0000000000001010;
	190 :	0000000000001000;
	189 :	0000000000101011;
	188 :	0000000000000010;
	187 :	0000000000010000;
	186 :	0000000000000001;
	185 :	0000000000010111;
	184 :	0000000000001000;
	183 :	0000000000000101;
	182 :	0000000000010000;
	181 :	0000000000010010;
	180 :	0000000000000000;
	179 :	0000000000001101;
	178 :	0000000000010001;
	177 :	0000000000010000;
	176 :	0000000000001001;
	175 :	0000000000001100;
	174 :	0000000000001110;
	173 :	0000000000000110;
	172 :	0000000000101100;
	171 :	1111111111101100;
	170 :	1111111111100011;
	169 :	0000000000001111;
	168 :	1111111111110001;
	167 :	1111111111110100;
	166 :	1111111111110110;
	165 :	0000000000111011;
	164 :	1111111111111011;
	163 :	0000000000000110;
	162 :	0000000000001110;
	161 :	1111111111111111;
	160 :	1111111111110011;
	159 :	1111111111101100;
	158 :	1111111111111101;
	157 :	1111111111110101;
	156 :	1111111111101100;
	155 :	1111111111101011;
	154 :	1111111111101110;
	153 :	0000000000000111;
	152 :	0000000000000101;
	151 :	0000000000001110;
	150 :	1111111111101011;
	149 :	1111111111111100;
	148 :	0000000000010110;
	147 :	1111111111101110;
	146 :	0000000000110000;
	145 :	0000000001010011;
	144 :	0000000000010101;
	143 :	0000000000110111;
	142 :	1111111111111001;
	141 :	1111111111110111;
	140 :	0000000000000001;
	139 :	0000000000001010;
	138 :	0000000000000110;
	137 :	1111111111110101;
	136 :	1111111111110001;
	135 :	0000000000101001;
	134 :	0000000000001100;
	133 :	0000000000011000;
	132 :	1111111111110010;
	131 :	1111111111111000;
	130 :	0000000000001101;
	129 :	1111111111010110;
	128 :	1111111111011100;
	127 :	1111111111011100;
	126 :	1111111110101100;
	125 :	1111111111010100;
	124 :	1111111111001001;
	123 :	1111111110111111;
	122 :	1111111111001110;
	121 :	1111111110111100;
	120 :	1111111111010111;
	119 :	1111111111110010;
	118 :	1111111111011010;
	117 :	1111111111100101;
	116 :	0000000000011000;
	115 :	1111111111101111;
	114 :	1111111111111001;
	113 :	0000000000001010;
	112 :	1111111111110000;
	111 :	1111111111110010;
	110 :	1111111111111001;
	109 :	1111111111110010;
	108 :	1111111111110101;
	107 :	1111111111110101;
	106 :	1111111111010101;
	105 :	1111111111100011;
	104 :	1111111111110001;
	103 :	1111111111100101;
	102 :	1111111111100010;
	101 :	1111111111110011;
	100 :	1111111111011000;
	99 :	1111111111000000;
	98 :	1111111111001000;
	97 :	1111111110110100;
	96 :	1111111111010110;
	95 :	1111111111001001;
	94 :	0000000000100010;
	93 :	1111111111101011;
	92 :	1111111111011101;
	91 :	0000000000001001;
	90 :	0000000000010100;
	89 :	0000000000100100;
	88 :	0000000000010110;
	87 :	1111111111111001;
	86 :	1111111111111101;
	85 :	0000000000000110;
	84 :	1111111111110000;
	83 :	1111111111110111;
	82 :	0000000000001111;
	81 :	1111111111110110;
	80 :	0000000000000011;
	79 :	1111111111101110;
	78 :	1111111111011110;
	77 :	0000000000000101;
	76 :	1111111111110100;
	75 :	1111111111111111;
	74 :	1111111111100101;
	73 :	0000000000010001;
	72 :	1111111111100110;
	71 :	0000000000001000;
	70 :	1111111111111111;
	69 :	1111111111010110;
	68 :	1111111111101001;
	67 :	0000000000001011;
	66 :	1111111111011110;
	65 :	1111111111111111;
	64 :	1111111111111000;
	63 :	1111111111110011;
	62 :	1111111111110101;
	61 :	1111111111101111;
	60 :	1111111111111011;
	59 :	0000000000000110;
	58 :	1111111111110100;
	57 :	1111111111110000;
	56 :	1111111111111101;
	55 :	1111111111110010;
	54 :	0000000000000111;
	53 :	1111111111111111;
	52 :	0000000000001000;
	51 :	1111111111110110;
	50 :	1111111111010000;
	49 :	0000000000010110;
	48 :	1111111111111110;
	47 :	1111111111111001;
	46 :	1111111111011111;
	45 :	1111111111110011;
	44 :	1111111111010101;
	43 :	0000000000001101;
	42 :	1111111111110001;
	41 :	1111111111110011;
	40 :	1111111111011101;
	39 :	1111111111110111;
	38 :	0000000000000011;
	37 :	1111111111111101;
	36 :	0000000000000000;
	35 :	0000000000000100;
	34 :	0000000000001001;
	33 :	1111111111110000;
	32 :	1111111111110011;
	31 :	0000000000001011;
	30 :	0000000000010011;
	29 :	1111111111111111;
	28 :	0000000000001001;
	27 :	0000000000000000;
	26 :	0000000000000001;
	25 :	0000000000001011;
	24 :	1111111111110110;
	23 :	1111111111111110;
	22 :	0000000000001000;
	21 :	1111111111110111;
	20 :	0000000000001110;
	19 :	1111111111111111;
	18 :	1111111111101111;
	17 :	0000000000001101;
	16 :	0000000000001100;
	15 :	0000000000001101;
	14 :	0000000000001111;
	13 :	1111111111101100;
	12 :	1111111111110010;
	11 :	1111111111110111;
	10 :	0000000000000000;
	9 :	1111111111110000;
	8 :	0000000000001111;
	7 :	1111111111111000;
	6 :	1111111111110101;
	5 :	1111111111111101;
	4 :	1111111111110110;
	3 :	1111111111111111;
	2 :	0000000000001111;
	1 :	0000000000001111;
	0 :	1111111111110111;
END;
