-- begin_signature
-- weights(numWeights
-- 784
-- neuronNumber
-- 1
-- layerNumber
-- 0
-- addressWidth
-- 10
-- dataWidth
-- 16
-- weightFile
-- "weights/weight_L0_N1.mif")
-- end_signature
WIDTH=16;
DEPTH=784;

ADDRESS_RADIX=UNS;
DATA_RADIX=BIN;

CONTENT BEGIN
	783 :	1111111111111110;
	782 :	1111111111110011;
	781 :	0000000000001000;
	780 :	1111111111111001;
	779 :	0000000000010110;
	778 :	0000000000001100;
	777 :	1111111111101010;
	776 :	1111111111100010;
	775 :	1111111111110000;
	774 :	0000000000100110;
	773 :	0000000000000010;
	772 :	0000000000010100;
	771 :	0000000000111011;
	770 :	0000000000001100;
	769 :	1111111111101000;
	768 :	0000000001100101;
	767 :	0000000001011111;
	766 :	0000000000011101;
	765 :	0000000000101101;
	764 :	1111111111100001;
	763 :	1111111111100000;
	762 :	0000000000000101;
	761 :	0000000000000010;
	760 :	1111111111110111;
	759 :	1111111111110011;
	758 :	0000000000001101;
	757 :	0000000000001101;
	756 :	1111111111101100;
	755 :	1111111111101111;
	754 :	0000000000010001;
	753 :	0000000000001101;
	752 :	1111111111111110;
	751 :	0000000000000001;
	750 :	0000000000011101;
	749 :	1111111111101100;
	748 :	0000000000001011;
	747 :	0000000000011010;
	746 :	0000000000011111;
	745 :	0000000000100010;
	744 :	0000000000001111;
	743 :	0000000000010110;
	742 :	0000000000000011;
	741 :	1111111111111100;
	740 :	0000000000000101;
	739 :	0000000000001011;
	738 :	0000000000001101;
	737 :	0000000000001011;
	736 :	1111111111110100;
	735 :	1111111111101101;
	734 :	1111111111111011;
	733 :	0000000000011111;
	732 :	0000000000001101;
	731 :	1111111111110001;
	730 :	1111111111110100;
	729 :	0000000000000001;
	728 :	1111111111111001;
	727 :	0000000000001111;
	726 :	0000000000010001;
	725 :	1111111111111010;
	724 :	0000000000001111;
	723 :	0000000001000110;
	722 :	0000000000100111;
	721 :	0000000000001111;
	720 :	1111111111001111;
	719 :	1111111111100100;
	718 :	1111111111101110;
	717 :	1111111111101010;
	716 :	0000000000000001;
	715 :	1111111111101110;
	714 :	0000000000001100;
	713 :	0000000000000000;
	712 :	0000000000010011;
	711 :	0000000000000000;
	710 :	0000000000000011;
	709 :	0000000000000110;
	708 :	0000000000110110;
	707 :	0000000000001000;
	706 :	0000000000001010;
	705 :	0000000000101001;
	704 :	0000000000110110;
	703 :	1111111111101110;
	702 :	1111111111110111;
	701 :	1111111111111001;
	700 :	0000000000001010;
	699 :	0000000000010101;
	698 :	0000000000000101;
	697 :	0000000000101001;
	696 :	0000000000000101;
	695 :	0000000000011011;
	694 :	1111111111011011;
	693 :	1111111111110111;
	692 :	1111111111111101;
	691 :	1111111111011001;
	690 :	1111111111110110;
	689 :	0000000000000001;
	688 :	1111111111101010;
	687 :	0000000000000000;
	686 :	1111111111110110;
	685 :	1111111111111001;
	684 :	1111111111110111;
	683 :	0000000000000010;
	682 :	0000000000010010;
	681 :	0000000000001011;
	680 :	0000000000010011;
	679 :	0000000000011001;
	678 :	0000000000001101;
	677 :	0000000000100010;
	676 :	0000000001010101;
	675 :	0000000000100000;
	674 :	0000000000000101;
	673 :	1111111111110111;
	672 :	1111111111110000;
	671 :	1111111111110100;
	670 :	1111111111110000;
	669 :	1111111111111011;
	668 :	1111111111101001;
	667 :	1111111111110011;
	666 :	1111111110110111;
	665 :	1111111111101010;
	664 :	1111111111110001;
	663 :	0000000000001110;
	662 :	1111111111111100;
	661 :	0000000000000100;
	660 :	1111111111111011;
	659 :	0000000000001011;
	658 :	0000000000000101;
	657 :	0000000000010000;
	656 :	0000000000001010;
	655 :	0000000000000110;
	654 :	0000000000000111;
	653 :	0000000000000011;
	652 :	0000000000000001;
	651 :	0000000000010000;
	650 :	0000000000011001;
	649 :	0000000000000011;
	648 :	0000000000101101;
	647 :	0000000001001111;
	646 :	0000000000000000;
	645 :	1111111111110111;
	644 :	0000000000000100;
	643 :	1111111111111001;
	642 :	1111111111110100;
	641 :	0000000000000000;
	640 :	1111111111101100;
	639 :	1111111111100101;
	638 :	1111111111101101;
	637 :	0000000000001100;
	636 :	0000000000001111;
	635 :	0000000000000101;
	634 :	1111111111111001;
	633 :	0000000000000101;
	632 :	1111111111111010;
	631 :	1111111111111001;
	630 :	0000000000000010;
	629 :	0000000000000000;
	628 :	0000000000000100;
	627 :	0000000000010001;
	626 :	0000000000000111;
	625 :	0000000000000111;
	624 :	0000000000000101;
	623 :	0000000000000010;
	622 :	0000000000000110;
	621 :	0000000000011111;
	620 :	0000000000011001;
	619 :	0000000000000111;
	618 :	0000000000010100;
	617 :	1111111111111000;
	616 :	0000000000000001;
	615 :	1111111111110110;
	614 :	1111111111111000;
	613 :	0000000000101001;
	612 :	1111111111100111;
	611 :	0000000000000100;
	610 :	1111111111011000;
	609 :	1111111111110001;
	608 :	1111111111110110;
	607 :	0000000000000101;
	606 :	1111111111111010;
	605 :	1111111111111011;
	604 :	0000000000000110;
	603 :	1111111111110101;
	602 :	1111111111111001;
	601 :	1111111111110101;
	600 :	0000000000000010;
	599 :	0000000000001001;
	598 :	0000000000001100;
	597 :	0000000000010111;
	596 :	0000000000011010;
	595 :	0000000000001110;
	594 :	0000000000000001;
	593 :	0000000000010100;
	592 :	1111111111111101;
	591 :	1111111111101101;
	590 :	1111111111111011;
	589 :	0000000001000000;
	588 :	1111111111111111;
	587 :	1111111111110001;
	586 :	1111111111100011;
	585 :	0000000000010000;
	584 :	1111111111111011;
	583 :	1111111111101000;
	582 :	0000000000010001;
	581 :	1111111111110010;
	580 :	1111111111111101;
	579 :	0000000000000100;
	578 :	0000000000001011;
	577 :	1111111111111101;
	576 :	1111111111111111;
	575 :	1111111111110110;
	574 :	1111111111111111;
	573 :	1111111111110100;
	572 :	1111111111111010;
	571 :	0000000000001100;
	570 :	0000000000011000;
	569 :	0000000000010101;
	568 :	0000000000010111;
	567 :	0000000000000110;
	566 :	0000000000010010;
	565 :	0000000000000000;
	564 :	1111111111111101;
	563 :	0000000000000111;
	562 :	1111111111100100;
	561 :	0000000001011110;
	560 :	1111111111110011;
	559 :	0000000000001001;
	558 :	1111111111111110;
	557 :	0000000000001001;
	556 :	1111111111111100;
	555 :	0000000000010000;
	554 :	1111111111111111;
	553 :	0000000000000000;
	552 :	0000000000001001;
	551 :	1111111111100110;
	550 :	1111111111111011;
	549 :	1111111111111110;
	548 :	0000000000000111;
	547 :	1111111111111101;
	546 :	1111111111110110;
	545 :	1111111111101000;
	544 :	1111111111001100;
	543 :	1111111111101000;
	542 :	1111111111111000;
	541 :	0000000000000100;
	540 :	0000000000011001;
	539 :	0000000000011000;
	538 :	0000000000000010;
	537 :	0000000000010000;
	536 :	0000000000000001;
	535 :	0000000000011111;
	534 :	1111111111110001;
	533 :	0000000000101100;
	532 :	0000000000010011;
	531 :	0000000000100000;
	530 :	1111111111011110;
	529 :	0000000000010111;
	528 :	1111111111101000;
	527 :	1111111111101101;
	526 :	1111111111111101;
	525 :	0000000000001001;
	524 :	0000000000001100;
	523 :	0000000000001101;
	522 :	0000000000001001;
	521 :	1111111111110100;
	520 :	1111111111110111;
	519 :	1111111111111111;
	518 :	1111111111111101;
	517 :	1111111111001110;
	516 :	1111111110100011;
	515 :	1111111110000111;
	514 :	1111111101111011;
	513 :	1111111110001001;
	512 :	1111111111001001;
	511 :	1111111111011000;
	510 :	0000000000000011;
	509 :	1111111111110101;
	508 :	0000000000001010;
	507 :	0000000000101111;
	506 :	0000000001000100;
	505 :	0000000000001110;
	504 :	0000000000001000;
	503 :	0000000000010010;
	502 :	0000000000000011;
	501 :	1111111111001110;
	500 :	1111111111010110;
	499 :	0000000000010000;
	498 :	1111111111111100;
	497 :	0000000000000100;
	496 :	1111111111110110;
	495 :	1111111111101110;
	494 :	1111111111110010;
	493 :	1111111111111110;
	492 :	1111111111111010;
	491 :	1111111111111000;
	490 :	1111111111101111;
	489 :	1111111111100001;
	488 :	1111111111001111;
	487 :	1111111110111011;
	486 :	1111111101110110;
	485 :	1111111101101001;
	484 :	1111111110000000;
	483 :	1111111110101100;
	482 :	1111111111001110;
	481 :	1111111111110000;
	480 :	1111111111101011;
	479 :	0000000000110000;
	478 :	0000000000101100;
	477 :	0000000000101110;
	476 :	1111111111101110;
	475 :	0000000000001001;
	474 :	1111111111001110;
	473 :	1111111111100110;
	472 :	1111111111110001;
	471 :	0000000000010010;
	470 :	0000000000000010;
	469 :	0000000000001100;
	468 :	1111111111110010;
	467 :	0000000000001001;
	466 :	1111111111111110;
	465 :	1111111111101010;
	464 :	1111111111110111;
	463 :	0000000000000001;
	462 :	0000000000001111;
	461 :	0000000000000110;
	460 :	0000000000011101;
	459 :	0000000000010111;
	458 :	0000000000010000;
	457 :	1111111111010010;
	456 :	1111111110110110;
	455 :	1111111110010010;
	454 :	1111111110011110;
	453 :	1111111111100001;
	452 :	1111111111000101;
	451 :	0000000000011110;
	450 :	0000000001000110;
	449 :	0000000000010101;
	448 :	1111111111111100;
	447 :	1111111111101101;
	446 :	0000000000001101;
	445 :	1111111111100010;
	444 :	1111111111100000;
	443 :	0000000000101111;
	442 :	1111111111111010;
	441 :	1111111111111101;
	440 :	1111111111111010;
	439 :	0000000000001000;
	438 :	1111111111111011;
	437 :	0000000000000100;
	436 :	0000000000001010;
	435 :	0000000000000011;
	434 :	0000000000010000;
	433 :	0000000000001110;
	432 :	0000000000001001;
	431 :	0000000000011110;
	430 :	0000000000001100;
	429 :	0000000000010001;
	428 :	1111111111101110;
	427 :	1111111111100111;
	426 :	1111111111011110;
	425 :	1111111110011110;
	424 :	1111111110111111;
	423 :	1111111111100100;
	422 :	0000000000101010;
	421 :	0000000000000010;
	420 :	0000000000010100;
	419 :	0000000000001011;
	418 :	1111111111110101;
	417 :	1111111111110010;
	416 :	1111111111101010;
	415 :	1111111111101100;
	414 :	1111111111110000;
	413 :	0000000000001110;
	412 :	1111111111101101;
	411 :	1111111111101111;
	410 :	1111111111111010;
	409 :	1111111111110011;
	408 :	1111111111110110;
	407 :	0000000000001101;
	406 :	0000000000100101;
	405 :	0000000000001011;
	404 :	0000000000010010;
	403 :	0000000000010000;
	402 :	0000000000000110;
	401 :	0000000000000010;
	400 :	0000000000001001;
	399 :	0000000000000101;
	398 :	1111111111100010;
	397 :	1111111111101010;
	396 :	1111111110111001;
	395 :	1111111111011100;
	394 :	0000000000000100;
	393 :	1111111111111111;
	392 :	0000000000000101;
	391 :	1111111111111110;
	390 :	1111111111100001;
	389 :	1111111111101101;
	388 :	1111111111100001;
	387 :	1111111111111011;
	386 :	1111111111111011;
	385 :	0000000000000000;
	384 :	0000000000000001;
	383 :	0000000000000010;
	382 :	1111111111111011;
	381 :	1111111111111101;
	380 :	0000000000001100;
	379 :	0000000000001111;
	378 :	0000000000010111;
	377 :	0000000000010100;
	376 :	0000000000011100;
	375 :	0000000000010110;
	374 :	0000000000000010;
	373 :	0000000000000011;
	372 :	0000000000000100;
	371 :	0000000000000100;
	370 :	0000000000001001;
	369 :	0000000000001111;
	368 :	1111111111110101;
	367 :	1111111111011101;
	366 :	1111111110111110;
	365 :	0000000000010000;
	364 :	0000000000010010;
	363 :	0000000000001110;
	362 :	0000000000100110;
	361 :	0000000000010111;
	360 :	1111111111010111;
	359 :	1111111111000111;
	358 :	1111111111100011;
	357 :	1111111111110000;
	356 :	0000000000001000;
	355 :	1111111111110101;
	354 :	0000000000000111;
	353 :	0000000000000110;
	352 :	0000000000010000;
	351 :	0000000000010001;
	350 :	0000000000011110;
	349 :	0000000000100101;
	348 :	0000000000001000;
	347 :	0000000000000110;
	346 :	0000000000001100;
	345 :	0000000000001011;
	344 :	1111111111110110;
	343 :	0000000000001110;
	342 :	1111111111101111;
	341 :	1111111111111010;
	340 :	1111111111001001;
	339 :	0000000000010111;
	338 :	0000000000011010;
	337 :	1111111111000000;
	336 :	0000000000000110;
	335 :	1111111111110011;
	334 :	0000000000010110;
	333 :	0000000000100100;
	332 :	1111111111101110;
	331 :	1111111111101011;
	330 :	1111111111110000;
	329 :	0000000000000110;
	328 :	0000000000000101;
	327 :	0000000000001010;
	326 :	0000000000000110;
	325 :	0000000000001111;
	324 :	1111111111111111;
	323 :	0000000000000111;
	322 :	0000000000011010;
	321 :	0000000000001001;
	320 :	0000000000000101;
	319 :	0000000000000100;
	318 :	1111111111111101;
	317 :	1111111111101101;
	316 :	0000000000000000;
	315 :	0000000000000111;
	314 :	1111111111110100;
	313 :	1111111111111011;
	312 :	1111111111101010;
	311 :	0000000000110010;
	310 :	1111111111111011;
	309 :	1111111111001000;
	308 :	0000000000010001;
	307 :	0000000000000101;
	306 :	0000000000100100;
	305 :	0000000001010110;
	304 :	0000000000101010;
	303 :	1111111111101001;
	302 :	0000000000000111;
	301 :	1111111111111111;
	300 :	1111111111110011;
	299 :	0000000000000000;
	298 :	1111111111111010;
	297 :	1111111111111101;
	296 :	1111111111110111;
	295 :	0000000000000010;
	294 :	1111111111110110;
	293 :	0000000000000001;
	292 :	1111111111111111;
	291 :	0000000000000010;
	290 :	1111111111111110;
	289 :	1111111111111110;
	288 :	0000000000001001;
	287 :	0000000000010101;
	286 :	1111111111110000;
	285 :	0000000000001011;
	284 :	0000000000000100;
	283 :	0000000001000111;
	282 :	0000000000001001;
	281 :	1111111111010000;
	280 :	1111111111100000;
	279 :	1111111111110001;
	278 :	1111111111010001;
	277 :	1111111111111110;
	276 :	0000000000100000;
	275 :	0000000000010111;
	274 :	0000000000010010;
	273 :	1111111111111111;
	272 :	1111111111101101;
	271 :	1111111111101001;
	270 :	1111111111111101;
	269 :	1111111111110111;
	268 :	1111111111110100;
	267 :	0000000000000000;
	266 :	1111111111111100;
	265 :	0000000000000111;
	264 :	0000000000000100;
	263 :	0000000000000010;
	262 :	1111111111111110;
	261 :	0000000000001001;
	260 :	0000000000000010;
	259 :	0000000000000000;
	258 :	0000000000011000;
	257 :	1111111111101101;
	256 :	0000000000010101;
	255 :	0000000000001100;
	254 :	0000000000000101;
	253 :	0000000000100101;
	252 :	1111111111101010;
	251 :	0000000000010010;
	250 :	0000000001000111;
	249 :	0000000000100001;
	248 :	0000000000010011;
	247 :	1111111111110101;
	246 :	0000000000000111;
	245 :	0000000000000100;
	244 :	1111111111110010;
	243 :	0000000000000000;
	242 :	1111111111111010;
	241 :	1111111111111011;
	240 :	1111111111111100;
	239 :	0000000000001001;
	238 :	0000000000000011;
	237 :	0000000000000110;
	236 :	1111111111111001;
	235 :	0000000000001110;
	234 :	1111111111111100;
	233 :	0000000000000011;
	232 :	1111111111111100;
	231 :	0000000000000101;
	230 :	1111111111110110;
	229 :	1111111111110000;
	228 :	1111111111111000;
	227 :	0000000000001000;
	226 :	0000000000100001;
	225 :	1111111111111100;
	224 :	0000000000000111;
	223 :	0000000000100101;
	222 :	1111111111101110;
	221 :	0000000000100110;
	220 :	0000000000001111;
	219 :	1111111111101010;
	218 :	1111111111111100;
	217 :	0000000000001001;
	216 :	1111111111111111;
	215 :	0000000000001100;
	214 :	1111111111110011;
	213 :	0000000000001000;
	212 :	0000000000000011;
	211 :	0000000000000100;
	210 :	0000000000001100;
	209 :	0000000000000010;
	208 :	0000000000001001;
	207 :	0000000000000101;
	206 :	0000000000000111;
	205 :	1111111111101011;
	204 :	0000000000000011;
	203 :	0000000000000001;
	202 :	0000000000001010;
	201 :	1111111111111001;
	200 :	1111111111111111;
	199 :	0000000000001001;
	198 :	1111111111010001;
	197 :	0000000000010001;
	196 :	0000000000010110;
	195 :	0000000000101001;
	194 :	1111111111111001;
	193 :	1111111111111011;
	192 :	0000000000011111;
	191 :	0000000000010111;
	190 :	1111111111110100;
	189 :	1111111111110110;
	188 :	1111111111111110;
	187 :	1111111111111010;
	186 :	1111111111111011;
	185 :	0000000000000010;
	184 :	0000000000010011;
	183 :	0000000000001000;
	182 :	0000000000000001;
	181 :	0000000000001000;
	180 :	1111111111111101;
	179 :	0000000000001011;
	178 :	0000000000001010;
	177 :	0000000000000000;
	176 :	0000000000001011;
	175 :	1111111111111100;
	174 :	0000000000000111;
	173 :	1111111111111101;
	172 :	0000000000010000;
	171 :	0000000000000110;
	170 :	0000000001001001;
	169 :	0000000000001100;
	168 :	0000000000001011;
	167 :	0000000000010101;
	166 :	0000000000000000;
	165 :	0000000000100001;
	164 :	0000000000011010;
	163 :	0000000000101100;
	162 :	0000000000001100;
	161 :	0000000000010001;
	160 :	0000000000000100;
	159 :	1111111111111100;
	158 :	1111111111111000;
	157 :	1111111111111001;
	156 :	0000000000000010;
	155 :	0000000000001001;
	154 :	0000000000000000;
	153 :	1111111111111011;
	152 :	0000000000000101;
	151 :	1111111111111011;
	150 :	1111111111110110;
	149 :	1111111111110100;
	148 :	0000000000000000;
	147 :	1111111111110010;
	146 :	0000000000011010;
	145 :	0000000000101001;
	144 :	1111111111101001;
	143 :	1111111111101011;
	142 :	0000000000010000;
	141 :	1111111111111110;
	140 :	1111111111110010;
	139 :	0000000000010010;
	138 :	0000000000000001;
	137 :	0000000000001001;
	136 :	0000000000111100;
	135 :	0000000000010000;
	134 :	0000000000010001;
	133 :	0000000000001001;
	132 :	1111111111110111;
	131 :	0000000000011101;
	130 :	0000000000000000;
	129 :	1111111111101010;
	128 :	0000000000010011;
	127 :	0000000000010000;
	126 :	0000000000000001;
	125 :	0000000000001000;
	124 :	0000000000001100;
	123 :	0000000000010111;
	122 :	0000000000000100;
	121 :	1111111111110001;
	120 :	0000000000001010;
	119 :	1111111111110111;
	118 :	0000000000001100;
	117 :	0000000000100100;
	116 :	0000000000111001;
	115 :	0000000000000111;
	114 :	0000000000001110;
	113 :	0000000000001110;
	112 :	1111111111110101;
	111 :	0000000000010001;
	110 :	0000000000010001;
	109 :	1111111111110010;
	108 :	0000000000010010;
	107 :	0000000000000110;
	106 :	1111111111110011;
	105 :	0000000000001101;
	104 :	0000000000011101;
	103 :	0000000000001001;
	102 :	1111111111111101;
	101 :	0000000000011101;
	100 :	0000000000001101;
	99 :	0000000000000001;
	98 :	0000000000011011;
	97 :	0000000000000110;
	96 :	0000000000010001;
	95 :	1111111111110110;
	94 :	0000000000000101;
	93 :	0000000000000001;
	92 :	0000000000010011;
	91 :	0000000000100110;
	90 :	0000000000110101;
	89 :	0000000000110010;
	88 :	0000000000001100;
	87 :	0000000000010001;
	86 :	1111111111111100;
	85 :	0000000000000011;
	84 :	0000000000000011;
	83 :	0000000000000101;
	82 :	0000000000000010;
	81 :	0000000000010100;
	80 :	0000000000001111;
	79 :	1111111111110011;
	78 :	0000000000001100;
	77 :	1111111111110111;
	76 :	1111111111100001;
	75 :	0000000000000110;
	74 :	1111111111110101;
	73 :	1111111110110010;
	72 :	0000000000011101;
	71 :	0000000000101101;
	70 :	1111111111111101;
	69 :	0000000000000010;
	68 :	1111111111010100;
	67 :	0000000000000111;
	66 :	1111111111101100;
	65 :	1111111110100001;
	64 :	1111111111111101;
	63 :	1111111111101010;
	62 :	1111111111110100;
	61 :	1111111111110011;
	60 :	0000000000001010;
	59 :	0000000000010000;
	58 :	0000000000000010;
	57 :	1111111111110110;
	56 :	0000000000001110;
	55 :	0000000000000001;
	54 :	0000000000010011;
	53 :	0000000000001110;
	52 :	1111111111111101;
	51 :	1111111111101100;
	50 :	0000000000000011;
	49 :	1111111111111100;
	48 :	0000000000000100;
	47 :	0000000000001000;
	46 :	1111111111111000;
	45 :	1111111111110111;
	44 :	1111111111110010;
	43 :	0000000000101000;
	42 :	1111111111111101;
	41 :	0000000000000010;
	40 :	1111111111110011;
	39 :	1111111111101110;
	38 :	1111111111110110;
	37 :	1111111111110100;
	36 :	0000000000000010;
	35 :	1111111111111001;
	34 :	1111111111110101;
	33 :	1111111111111100;
	32 :	1111111111111011;
	31 :	0000000000000110;
	30 :	1111111111110010;
	29 :	1111111111101111;
	28 :	0000000000010000;
	27 :	1111111111110001;
	26 :	0000000000001010;
	25 :	0000000000000101;
	24 :	0000000000001010;
	23 :	0000000000000010;
	22 :	0000000000001010;
	21 :	1111111111111111;
	20 :	1111111111111101;
	19 :	1111111111111101;
	18 :	1111111111111111;
	17 :	1111111111110110;
	16 :	1111111111111001;
	15 :	1111111111110010;
	14 :	0000000000010011;
	13 :	1111111111111101;
	12 :	0000000000001000;
	11 :	0000000000001000;
	10 :	0000000000001011;
	9 :	0000000000010011;
	8 :	1111111111101110;
	7 :	1111111111111011;
	6 :	1111111111101100;
	5 :	1111111111101100;
	4 :	0000000000010001;
	3 :	1111111111110010;
	2 :	0000000000000100;
	1 :	0000000000000110;
	0 :	1111111111111100;
END;
