-- begin_signature
-- weights(numWeights
-- 784
-- neuronNumber
-- 3
-- layerNumber
-- 0
-- addressWidth
-- 10
-- dataWidth
-- 16
-- weightFile
-- "weights/weight_L0_N3.mif")
-- end_signature
WIDTH=16;
DEPTH=784;

ADDRESS_RADIX=UNS;
DATA_RADIX=BIN;

CONTENT BEGIN
	783 :	1111111111111111;
	782 :	1111111111110101;
	781 :	1111111111111110;
	780 :	1111111111111111;
	779 :	0000000000001011;
	778 :	1111111111110001;
	777 :	1111111111110010;
	776 :	1111111111110110;
	775 :	1111111111100110;
	774 :	1111111111110011;
	773 :	1111111111101110;
	772 :	1111111111111110;
	771 :	1111111111110101;
	770 :	0000000000001010;
	769 :	0000000000100010;
	768 :	1111111111111010;
	767 :	0000000000011111;
	766 :	1111111111110010;
	765 :	0000000000010101;
	764 :	1111111111111111;
	763 :	1111111111110100;
	762 :	1111111111110101;
	761 :	1111111111101110;
	760 :	1111111111111101;
	759 :	0000000000010010;
	758 :	0000000000001010;
	757 :	1111111111101100;
	756 :	1111111111110100;
	755 :	1111111111111011;
	754 :	1111111111111110;
	753 :	0000000000010101;
	752 :	1111111111111100;
	751 :	1111111111111110;
	750 :	0000000000000110;
	749 :	1111111111111100;
	748 :	0000000000001011;
	747 :	0000000000000101;
	746 :	1111111111111011;
	745 :	1111111111111010;
	744 :	0000000000001010;
	743 :	1111111111111001;
	742 :	1111111111011111;
	741 :	0000000000000011;
	740 :	0000000000000001;
	739 :	0000000000001001;
	738 :	1111111111011001;
	737 :	1111111111001000;
	736 :	1111111111100011;
	735 :	1111111111011111;
	734 :	1111111111101100;
	733 :	0000000000010111;
	732 :	1111111111110110;
	731 :	0000000000000001;
	730 :	0000000000000010;
	729 :	0000000000010100;
	728 :	0000000000010100;
	727 :	0000000000010011;
	726 :	0000000000001000;
	725 :	1111111111101011;
	724 :	1111111111110100;
	723 :	1111111111101111;
	722 :	1111111111111001;
	721 :	1111111111101111;
	720 :	1111111111100111;
	719 :	1111111111101010;
	718 :	1111111111101010;
	717 :	1111111111110011;
	716 :	1111111111110001;
	715 :	1111111111111000;
	714 :	1111111111101011;
	713 :	0000000000010000;
	712 :	0000000000001010;
	711 :	1111111111111111;
	710 :	0000000000000010;
	709 :	1111111111101110;
	708 :	1111111111101000;
	707 :	0000000000010101;
	706 :	1111111111111000;
	705 :	0000000000011001;
	704 :	0000000000010010;
	703 :	0000000000011100;
	702 :	1111111111110101;
	701 :	1111111111111111;
	700 :	1111111111101010;
	699 :	0000000000010000;
	698 :	1111111111101101;
	697 :	1111111111110101;
	696 :	1111111111110001;
	695 :	0000000000000001;
	694 :	1111111111011111;
	693 :	1111111111100111;
	692 :	1111111111101000;
	691 :	1111111111101111;
	690 :	1111111111111100;
	689 :	1111111111011110;
	688 :	1111111111101000;
	687 :	1111111111110010;
	686 :	0000000000100000;
	685 :	0000000000000110;
	684 :	0000000000010011;
	683 :	1111111111100010;
	682 :	0000000000000101;
	681 :	1111111111111001;
	680 :	0000000000001101;
	679 :	1111111111110011;
	678 :	1111111111101001;
	677 :	0000000000010000;
	676 :	0000000000001111;
	675 :	1111111111110000;
	674 :	0000000000100101;
	673 :	1111111111110000;
	672 :	0000000000000000;
	671 :	0000000000000010;
	670 :	0000000000001111;
	669 :	0000000000000000;
	668 :	1111111111111110;
	667 :	1111111111110101;
	666 :	0000000000001011;
	665 :	1111111111101001;
	664 :	1111111111100111;
	663 :	1111111111100010;
	662 :	1111111111110100;
	661 :	1111111111011111;
	660 :	1111111111011111;
	659 :	1111111111110011;
	658 :	1111111111111010;
	657 :	1111111111111011;
	656 :	1111111111110010;
	655 :	0000000000000100;
	654 :	1111111111111111;
	653 :	0000000000000000;
	652 :	0000000000001110;
	651 :	1111111111110011;
	650 :	1111111111110000;
	649 :	0000000000011100;
	648 :	0000000000001011;
	647 :	1111111111101011;
	646 :	0000000000001111;
	645 :	0000000000000001;
	644 :	1111111111111011;
	643 :	1111111111111101;
	642 :	0000000000011100;
	641 :	1111111111101100;
	640 :	1111111111111000;
	639 :	0000000000000001;
	638 :	0000000000010100;
	637 :	0000000000000001;
	636 :	1111111111100010;
	635 :	0000000000000110;
	634 :	1111111111111011;
	633 :	1111111111100010;
	632 :	1111111111110111;
	631 :	1111111111110100;
	630 :	1111111111110100;
	629 :	0000000000000001;
	628 :	0000000000011101;
	627 :	1111111111111010;
	626 :	0000000000000101;
	625 :	1111111111110101;
	624 :	1111111111101010;
	623 :	0000000000000011;
	622 :	0000000000001100;
	621 :	0000000000001011;
	620 :	0000000000001010;
	619 :	0000000000000100;
	618 :	0000000000100001;
	617 :	1111111111111001;
	616 :	1111111111111100;
	615 :	1111111111111000;
	614 :	1111111111001101;
	613 :	0000000000000101;
	612 :	0000000000000100;
	611 :	0000000000000010;
	610 :	1111111111101101;
	609 :	1111111111110111;
	608 :	0000000000000110;
	607 :	1111111111111101;
	606 :	1111111111110110;
	605 :	0000000000000100;
	604 :	0000000000001010;
	603 :	1111111111110101;
	602 :	0000000000000110;
	601 :	1111111111110110;
	600 :	1111111111111100;
	599 :	0000000000010000;
	598 :	0000000000001001;
	597 :	1111111111111001;
	596 :	0000000000001001;
	595 :	0000000000000010;
	594 :	1111111111101001;
	593 :	0000000000001000;
	592 :	0000000000000001;
	591 :	0000000000000010;
	590 :	0000000000001010;
	589 :	1111111111011110;
	588 :	1111111111111111;
	587 :	1111111111100010;
	586 :	1111111111110111;
	585 :	0000000000011110;
	584 :	1111111111101101;
	583 :	1111111111010011;
	582 :	1111111111100100;
	581 :	1111111111100110;
	580 :	1111111111100011;
	579 :	1111111111111001;
	578 :	1111111111110101;
	577 :	1111111111110000;
	576 :	1111111111111110;
	575 :	0000000000001011;
	574 :	0000000000000011;
	573 :	1111111111110101;
	572 :	0000000000010111;
	571 :	0000000000000011;
	570 :	1111111111111111;
	569 :	0000000000000010;
	568 :	0000000000000001;
	567 :	1111111111110111;
	566 :	0000000000001111;
	565 :	0000000000000010;
	564 :	1111111111010100;
	563 :	1111111111110101;
	562 :	1111111111110001;
	561 :	1111111111111000;
	560 :	1111111111111001;
	559 :	1111111111111010;
	558 :	1111111111110000;
	557 :	0000000000000110;
	556 :	1111111111111011;
	555 :	1111111111110010;
	554 :	1111111111110011;
	553 :	1111111111101001;
	552 :	1111111111100010;
	551 :	1111111111111101;
	550 :	0000000000001111;
	549 :	0000000000000010;
	548 :	0000000000010000;
	547 :	1111111111101111;
	546 :	1111111111111100;
	545 :	0000000000011011;
	544 :	0000000000001000;
	543 :	0000000000000111;
	542 :	0000000000011111;
	541 :	0000000000001100;
	540 :	0000000000000110;
	539 :	0000000000001101;
	538 :	1111111111111110;
	537 :	1111111111111000;
	536 :	0000000000010100;
	535 :	1111111111010000;
	534 :	1111111111011011;
	533 :	1111111111111001;
	532 :	1111111111100110;
	531 :	1111111111101100;
	530 :	0000000000001101;
	529 :	0000000000001100;
	528 :	1111111111111110;
	527 :	1111111111101000;
	526 :	1111111111101100;
	525 :	1111111111110101;
	524 :	1111111111110011;
	523 :	1111111111111100;
	522 :	1111111111101011;
	521 :	1111111111110000;
	520 :	1111111111111001;
	519 :	0000000000010001;
	518 :	1111111111111001;
	517 :	0000000000000101;
	516 :	0000000000001001;
	515 :	1111111111111011;
	514 :	0000000000001100;
	513 :	0000000000000101;
	512 :	1111111111110111;
	511 :	1111111111110111;
	510 :	0000000000010101;
	509 :	0000000000001100;
	508 :	1111111111101101;
	507 :	1111111111110001;
	506 :	1111111111011111;
	505 :	0000000000000000;
	504 :	0000000000011100;
	503 :	1111111111011110;
	502 :	0000000000010011;
	501 :	0000000000001001;
	500 :	0000000000000110;
	499 :	0000000000000011;
	498 :	1111111111101100;
	497 :	1111111111110010;
	496 :	0000000000000111;
	495 :	0000000000001011;
	494 :	0000000000000000;
	493 :	1111111111110101;
	492 :	1111111111110001;
	491 :	1111111111111100;
	490 :	1111111111110000;
	489 :	1111111111110111;
	488 :	1111111111111101;
	487 :	1111111111110001;
	486 :	1111111111111001;
	485 :	1111111111111011;
	484 :	0000000000000110;
	483 :	1111111111110001;
	482 :	0000000000011001;
	481 :	0000000000001000;
	480 :	1111111111111000;
	479 :	1111111111111010;
	478 :	1111111111100111;
	477 :	1111111111101011;
	476 :	1111111111101010;
	475 :	1111111111100101;
	474 :	1111111111001010;
	473 :	1111111111011101;
	472 :	0000000000000011;
	471 :	1111111111110111;
	470 :	1111111111011101;
	469 :	1111111111111111;
	468 :	1111111111111110;
	467 :	1111111111111000;
	466 :	0000000000001011;
	465 :	0000000000001110;
	464 :	0000000000010000;
	463 :	1111111111110110;
	462 :	0000000000001101;
	461 :	1111111111101011;
	460 :	1111111111110111;
	459 :	1111111111111000;
	458 :	1111111111101110;
	457 :	0000000000000100;
	456 :	1111111111101101;
	455 :	1111111111111111;
	454 :	0000000000000101;
	453 :	1111111111110011;
	452 :	0000000000010010;
	451 :	0000000000000001;
	450 :	1111111111111111;
	449 :	1111111111110011;
	448 :	0000000000010101;
	447 :	0000000000001101;
	446 :	1111111111011110;
	445 :	1111111111111001;
	444 :	1111111111100100;
	443 :	1111111111100010;
	442 :	1111111111111010;
	441 :	1111111111111111;
	440 :	0000000000000010;
	439 :	1111111111111110;
	438 :	1111111111101110;
	437 :	0000000000010100;
	436 :	1111111111111011;
	435 :	1111111111101111;
	434 :	1111111111111110;
	433 :	1111111111111111;
	432 :	1111111111110010;
	431 :	1111111111101111;
	430 :	1111111111111101;
	429 :	0000000000000010;
	428 :	1111111111110101;
	427 :	0000000000000000;
	426 :	0000000000000111;
	425 :	1111111111110000;
	424 :	1111111111100111;
	423 :	0000000000000100;
	422 :	0000000000000101;
	421 :	0000000000001000;
	420 :	0000000000000001;
	419 :	0000000000000100;
	418 :	1111111111101111;
	417 :	1111111111101010;
	416 :	1111111111100100;
	415 :	1111111111110110;
	414 :	1111111111111001;
	413 :	1111111111011011;
	412 :	1111111111100001;
	411 :	1111111111100100;
	410 :	0000000000001000;
	409 :	1111111111110101;
	408 :	0000000000000101;
	407 :	0000000000000110;
	406 :	1111111111111111;
	405 :	1111111111110110;
	404 :	1111111111110110;
	403 :	0000000000001101;
	402 :	1111111111111101;
	401 :	0000000000000110;
	400 :	0000000000001100;
	399 :	0000000000001100;
	398 :	1111111111100010;
	397 :	0000000000000000;
	396 :	1111111111110001;
	395 :	1111111111111000;
	394 :	1111111111101100;
	393 :	1111111111111001;
	392 :	1111111111111100;
	391 :	1111111111101111;
	390 :	0000000000000010;
	389 :	1111111111110111;
	388 :	1111111111010010;
	387 :	1111111111010001;
	386 :	1111111111011101;
	385 :	1111111111011010;
	384 :	1111111111101011;
	383 :	1111111111110111;
	382 :	1111111111111110;
	381 :	1111111111110001;
	380 :	1111111111101110;
	379 :	0000000000000100;
	378 :	0000000000001001;
	377 :	1111111111111011;
	376 :	1111111111110111;
	375 :	1111111111111111;
	374 :	0000000000001100;
	373 :	0000000000000110;
	372 :	1111111111110100;
	371 :	0000000000000111;
	370 :	0000000000000000;
	369 :	1111111111111001;
	368 :	0000000000001000;
	367 :	1111111111111010;
	366 :	1111111111101111;
	365 :	0000000000010110;
	364 :	1111111111111110;
	363 :	1111111111110010;
	362 :	0000000000001001;
	361 :	0000000000000010;
	360 :	1111111111010110;
	359 :	1111111111001011;
	358 :	1111111111101001;
	357 :	1111111111010111;
	356 :	1111111111100101;
	355 :	1111111111011001;
	354 :	1111111111100000;
	353 :	1111111111111010;
	352 :	0000000000000101;
	351 :	0000000000001010;
	350 :	1111111111111110;
	349 :	1111111111111011;
	348 :	1111111111110100;
	347 :	0000000000001100;
	346 :	1111111111111000;
	345 :	0000000000000100;
	344 :	1111111111111100;
	343 :	1111111111111100;
	342 :	1111111111111000;
	341 :	0000000000000000;
	340 :	0000000000010011;
	339 :	1111111111110010;
	338 :	1111111111101101;
	337 :	0000000000001111;
	336 :	1111111111101101;
	335 :	0000000000010100;
	334 :	0000000000011110;
	333 :	0000000000100110;
	332 :	0000000000000110;
	331 :	0000000000011100;
	330 :	1111111111110100;
	329 :	1111111111110010;
	328 :	0000000000001010;
	327 :	1111111111110011;
	326 :	1111111111110101;
	325 :	1111111111111011;
	324 :	1111111111111110;
	323 :	0000000000001000;
	322 :	0000000000000000;
	321 :	1111111111110000;
	320 :	1111111111110100;
	319 :	1111111111111110;
	318 :	1111111111101111;
	317 :	0000000000000000;
	316 :	1111111111111010;
	315 :	1111111111111000;
	314 :	1111111111100111;
	313 :	1111111111100111;
	312 :	1111111111111000;
	311 :	1111111111101110;
	310 :	1111111111111000;
	309 :	1111111111110000;
	308 :	1111111111110001;
	307 :	0000000000000000;
	306 :	1111111111110100;
	305 :	0000000001000101;
	304 :	0000000000111011;
	303 :	0000000000011110;
	302 :	0000000000100101;
	301 :	0000000000000011;
	300 :	0000000000100000;
	299 :	0000000000001011;
	298 :	0000000000000101;
	297 :	0000000000100000;
	296 :	0000000000011001;
	295 :	0000000000010001;
	294 :	1111111111111100;
	293 :	0000000000000010;
	292 :	1111111111011111;
	291 :	1111111111110111;
	290 :	1111111111101111;
	289 :	1111111111011101;
	288 :	1111111111100010;
	287 :	1111111111110110;
	286 :	1111111111110011;
	285 :	1111111111101101;
	284 :	1111111111110101;
	283 :	1111111111111011;
	282 :	1111111111111001;
	281 :	0000000000000011;
	280 :	0000000000010101;
	279 :	0000000000011010;
	278 :	1111111111111001;
	277 :	0000000000011011;
	276 :	0000000000101001;
	275 :	0000000000000011;
	274 :	0000000000001010;
	273 :	0000000000011001;
	272 :	1111111111111110;
	271 :	0000000000001000;
	270 :	0000000000100000;
	269 :	0000000000010110;
	268 :	0000000000100001;
	267 :	1111111111111111;
	266 :	0000000000001110;
	265 :	0000000000001011;
	264 :	1111111111110110;
	263 :	1111111111100110;
	262 :	1111111111110110;
	261 :	1111111111101111;
	260 :	1111111111100101;
	259 :	1111111111111100;
	258 :	1111111111011101;
	257 :	1111111111110010;
	256 :	0000000000001111;
	255 :	1111111111110100;
	254 :	1111111111110110;
	253 :	0000000000000101;
	252 :	0000000000000000;
	251 :	0000000000001010;
	250 :	0000000000101100;
	249 :	0000000000000010;
	248 :	0000000000100110;
	247 :	0000000000001100;
	246 :	0000000000010010;
	245 :	0000000000100000;
	244 :	0000000000011100;
	243 :	0000000000001110;
	242 :	0000000000010011;
	241 :	1111111111111110;
	240 :	0000000000010000;
	239 :	0000000000011011;
	238 :	0000000000000001;
	237 :	1111111111111000;
	236 :	0000000000000110;
	235 :	1111111111111111;
	234 :	1111111111110100;
	233 :	0000000000010000;
	232 :	0000000000001000;
	231 :	1111111111101000;
	230 :	1111111111011011;
	229 :	1111111111110111;
	228 :	1111111111111010;
	227 :	0000000000011000;
	226 :	0000000000011110;
	225 :	1111111111111010;
	224 :	1111111111111101;
	223 :	1111111111100110;
	222 :	1111111111111011;
	221 :	1111111111100101;
	220 :	1111111111111110;
	219 :	0000000000011010;
	218 :	0000000000001000;
	217 :	1111111111110110;
	216 :	1111111111111101;
	215 :	1111111111100101;
	214 :	1111111111110100;
	213 :	0000000000001000;
	212 :	0000000000000101;
	211 :	0000000000000010;
	210 :	0000000000001111;
	209 :	1111111111111110;
	208 :	0000000000010101;
	207 :	0000000000001000;
	206 :	0000000000011010;
	205 :	0000000000001110;
	204 :	1111111111110100;
	203 :	1111111111110110;
	202 :	1111111111101100;
	201 :	1111111111110011;
	200 :	1111111111110100;
	199 :	0000000000001001;
	198 :	0000000000010110;
	197 :	0000000000001001;
	196 :	1111111111111001;
	195 :	0000000000001010;
	194 :	0000000000001011;
	193 :	1111111111001111;
	192 :	1111111111100101;
	191 :	0000000000010011;
	190 :	1111111111111111;
	189 :	1111111111110110;
	188 :	0000000000000001;
	187 :	1111111111110000;
	186 :	0000000000001000;
	185 :	1111111111111011;
	184 :	1111111111101111;
	183 :	1111111111110110;
	182 :	1111111111101110;
	181 :	0000000000000110;
	180 :	0000000000000111;
	179 :	0000000000000101;
	178 :	0000000000010011;
	177 :	0000000000000110;
	176 :	1111111111110110;
	175 :	0000000000001011;
	174 :	1111111111111100;
	173 :	1111111111100001;
	172 :	1111111111101101;
	171 :	1111111111110111;
	170 :	0000000000010111;
	169 :	1111111111100111;
	168 :	1111111111111110;
	167 :	1111111111011001;
	166 :	1111111111110011;
	165 :	1111111111001100;
	164 :	1111111111100000;
	163 :	1111111111010101;
	162 :	1111111111111110;
	161 :	1111111111100111;
	160 :	0000000000000110;
	159 :	1111111111101101;
	158 :	1111111111010110;
	157 :	1111111111111000;
	156 :	1111111111101011;
	155 :	0000000000000011;
	154 :	0000000000000001;
	153 :	1111111111010101;
	152 :	1111111111100001;
	151 :	1111111111101001;
	150 :	0000000000000110;
	149 :	1111111111011110;
	148 :	1111111111100110;
	147 :	1111111111111111;
	146 :	1111111111110111;
	145 :	0000000000010101;
	144 :	0000000000000010;
	143 :	1111111111111010;
	142 :	0000000000001111;
	141 :	1111111111101010;
	140 :	0000000000010100;
	139 :	1111111111101011;
	138 :	1111111111100000;
	137 :	1111111111000111;
	136 :	0000000000010000;
	135 :	1111111111101100;
	134 :	1111111111010111;
	133 :	1111111111111101;
	132 :	1111111111101111;
	131 :	0000000000000101;
	130 :	1111111111111110;
	129 :	0000000000000011;
	128 :	0000000000000001;
	127 :	0000000000000001;
	126 :	0000000000000011;
	125 :	1111111111101001;
	124 :	1111111111011101;
	123 :	1111111111110010;
	122 :	1111111111010110;
	121 :	1111111111111001;
	120 :	1111111111011111;
	119 :	1111111111101010;
	118 :	1111111111110010;
	117 :	0000000000001101;
	116 :	0000000000000111;
	115 :	1111111111111101;
	114 :	1111111111111011;
	113 :	1111111111101001;
	112 :	0000000000001110;
	111 :	1111111111111111;
	110 :	1111111111111001;
	109 :	1111111111011110;
	108 :	0000000000000010;
	107 :	1111111111100000;
	106 :	1111111111101110;
	105 :	1111111111011111;
	104 :	1111111111110011;
	103 :	0000000000001011;
	102 :	0000000000010100;
	101 :	0000000000001110;
	100 :	0000000000001001;
	99 :	0000000000001011;
	98 :	1111111111111010;
	97 :	0000000000001010;
	96 :	1111111111110001;
	95 :	1111111111110010;
	94 :	0000000000001000;
	93 :	1111111111101111;
	92 :	1111111111111001;
	91 :	1111111111110111;
	90 :	1111111111110011;
	89 :	0000000000010001;
	88 :	0000000000001101;
	87 :	0000000000001000;
	86 :	1111111111111111;
	85 :	0000000000010100;
	84 :	1111111111110010;
	83 :	1111111111111010;
	82 :	1111111111110010;
	81 :	1111111111110111;
	80 :	1111111111100101;
	79 :	1111111111100010;
	78 :	1111111111101010;
	77 :	0000000000000110;
	76 :	1111111111110000;
	75 :	1111111111110100;
	74 :	0000000000000000;
	73 :	1111111111111111;
	72 :	0000000000000100;
	71 :	1111111111110111;
	70 :	0000000000010011;
	69 :	0000000000001011;
	68 :	1111111111101111;
	67 :	0000000000001011;
	66 :	0000000000000111;
	65 :	1111111111111110;
	64 :	1111111111110010;
	63 :	1111111111110111;
	62 :	0000000000010111;
	61 :	1111111111111010;
	60 :	0000000000010100;
	59 :	0000000000000000;
	58 :	0000000000010000;
	57 :	1111111111101110;
	56 :	1111111111110011;
	55 :	0000000000010101;
	54 :	0000000000000101;
	53 :	1111111111111101;
	52 :	1111111111111111;
	51 :	1111111111111100;
	50 :	0000000000000011;
	49 :	1111111111110111;
	48 :	1111111111011101;
	47 :	1111111111110101;
	46 :	1111111111110110;
	45 :	0000000000100101;
	44 :	0000000000101100;
	43 :	0000000000100000;
	42 :	0000000000000000;
	41 :	1111111111110011;
	40 :	1111111111101101;
	39 :	0000000000010010;
	38 :	1111111111111110;
	37 :	1111111111101010;
	36 :	1111111111110100;
	35 :	0000000000010000;
	34 :	0000000000001110;
	33 :	1111111111110001;
	32 :	0000000000000010;
	31 :	0000000000001110;
	30 :	1111111111110011;
	29 :	1111111111101110;
	28 :	0000000000010001;
	27 :	0000000000010110;
	26 :	1111111111111011;
	25 :	1111111111101101;
	24 :	0000000000000000;
	23 :	0000000000010100;
	22 :	0000000000000001;
	21 :	0000000000000110;
	20 :	0000000000001110;
	19 :	0000000000001100;
	18 :	0000000000010101;
	17 :	1111111111101100;
	16 :	1111111111110001;
	15 :	0000000000000111;
	14 :	0000000000001101;
	13 :	1111111111100011;
	12 :	1111111111111110;
	11 :	1111111111101100;
	10 :	0000000000000110;
	9 :	0000000000001111;
	8 :	0000000000001111;
	7 :	0000000000010000;
	6 :	1111111111110111;
	5 :	1111111111101011;
	4 :	1111111111101111;
	3 :	1111111111111001;
	2 :	1111111111111111;
	1 :	0000000000001100;
	0 :	0000000000001110;
END;
