-- begin_signature
-- weights(numWeights
-- 16
-- neuronNumber
-- 6
-- layerNumber
-- 1
-- addressWidth
-- 4
-- dataWidth
-- 16
-- weightFile
-- "weights/weight_L1_N6.mif")
-- end_signature
WIDTH=16;
DEPTH=16;

ADDRESS_RADIX=UNS;
DATA_RADIX=BIN;

CONTENT BEGIN
	15 :	0000000001000000;
	14 :	1111111111111010;
	13 :	0000000000101100;
	12 :	0000000000111101;
	11 :	0000000000110111;
	10 :	1111111110101011;
	9 :	0000000000100110;
	8 :	0000000000011101;
	7 :	1111111110001010;
	6 :	1111111111111101;
	5 :	1111111111011011;
	4 :	1111111111101000;
	3 :	0000000000110111;
	2 :	1111111111101100;
	1 :	1111111111101000;
	0 :	1111111110011000;
END;
