11111001
11111101
00001000
00001010
11111000
11111000
00000111
00000011
00000111
00001011
00000110
11111010
00010110
00001101
00000001
11111110
11111001
00000110
00000000
00000010
00001000
11110111
00000110
00000110
00000110
00001001
00000100
11111011
11111001
11110111
00001011
11111110
11111110
00000011
11110110
11111101
00010100
00010101
00011001
00011011
00110100
00010100
11101011
00011111
00010111
00110101
01000111
00110111
00110110
00100001
00100000
00000101
11110101
11111001
00000000
11111000
11111100
00001010
00001011
00010001
00011001
11111110
11110010
00001010
11110101
11010010
11100011
11101110
11110011
11110111
11100011
11101000
00010001
00100010
00011001
01001000
00000111
11110111
00010100
11111101
11100001
11011010
11111000
11111011
00001011
00001011
11010111
00100001
00110101
00011011
11111100
11100101
11100110
00000000
00011110
00011000
00100000
00001111
00010010
00001001
00000001
00100001
00110110
00011011
00110011
00101011
00000000
00010010
11111010
11110111
00011111
00001010
00000101
00001101
11100010
01000110
00011001
11100110
11011000
11101000
11111010
00010101
00001011
00010101
00000001
11111011
00001110
00100000
00010010
00010110
00011100
00001010
11110110
00011101
00010111
00011001
00010100
00001101
00111001
00001010
00000110
11111010
11110111
00100011
11111000
11100000
11110000
11111011
11111001
00000100
00010111
00001000
11111011
00000110
11111111
00000100
00000101
00000101
00000001
00001011
00001111
00001101
00010001
00000000
00000101
11111010
00011010
00010000
00000110
00010110
00010111
00000110
00001011
00001111
11110001
11110011
11101111
11110010
11111010
00010001
11111100
00010101
00000111
00001001
00000110
00001100
00000111
00000001
11111100
11111101
00100011
00011100
00101100
00010011
00011111
11101000
11111101
00001001
00001100
11111110
11110110
00010101
11101111
11110101
00000100
00000001
00010011
00000110
11110011
11111110
00001100
00010110
00011000
00100011
00010111
00000011
11111011
11100010
00001010
00011110
00100000
00011110
00010110
00010100
00001110
11001010
11110100
00001000
11101011
11111000
11110000
11110001
00000100
00001001
00001001
00001001
00000011
00001010
11111111
00010100
00110000
00101010
00011000
00000110
00000000
00010000
00010111
00001110
00111101
00010100
00001010
00110001
11100010
11110000
11000000
11101110
11111000
11010001
11111011
11111111
00001010
11110111
11110110
11110110
11110011
00000101
11111110
00010000
00100000
00010001
11101101
11110111
00001010
00000101
00010010
00000000
01010111
00101100
00011001
11101011
11100100
00000010
00010010
00000010
11111011
11010110
11100100
11101110
11111100
00000001
00000000
11110001
00001001
00011000
00100000
00101110
00101011
11110111
11100110
11010001
00000101
11111101
00000101
00100110
01001111
00110000
00110100
11011011
11110110
11001110
11011110
00000000
11100110
11011011
11110100
11111011
11111101
11110011
11110000
11110101
00001010
00111011
00111111
00110000
00010110
00000001
11100000
11010010
11010100
11101101
11110000
00010001
01000101
00101000
00101111
00011010
11111000
11010110
10111110
11110100
11101001
11101111
00000000
00001110
11111000
11111011
00000111
00011001
00100111
01000000
00111111
00011101
11101110
11110000
11100000
11010110
11011010
11100111
11011001
11111110
11100101
00001110
00100110
11111101
00000010
11101101
11000101
11111100
11110001
00000000
11111011
00011000
11111100
00010000
00001100
00010000
01000000
00100101
00001110
11111101
11100000
11011100
11110010
11100111
11100000
11100010
11111010
00010011
11011101
11010111
10111101
11010001
00010011
00011011
11001100
11001001
11111010
11110101
00000111
00001101
00001011
00001110
00011100
00011101
00110000
00011110
11111000
11110000
11100101
11100100
11101110
11011111
11110110
00001010
00001000
00000101
00010111
11010010
10111011
11010001
00000101
00100110
00001110
11001101
00001001
11111101
11111000
00001000
11111110
00001001
00001000
00011000
00100111
00001000
11101100
11010101
11011110
11101101
00001001
00001000
00001011
00000100
11111111
00100110
00101010
11110100
11001000
11000111
11011000
00101101
00011000
11100101
00010000
00011101
11111001
11110011
11111101
11101101
11111011
00010110
00010100
11110011
11100000
11011101
11010110
11101000
11111001
00001101
00001110
11111011
00010010
01000000
00011100
11001001
10101101
11011011
11111000
00110001
11111101
00000111
00011001
00010100
00010110
11111100
11111010
11110110
11110101
11110111
11101110
11100001
11001001
11011000
11011001
00000101
11111000
00011001
00001000
00000001
00001111
00101101
00000001
10110101
10100110
00011010
11010100
00010101
00001100
00001000
00001101
00000100
00011001
00000011
00000110
00001110
11111001
00000100
11100111
11100011
11011010
11110011
11101110
11111000
11110001
11111001
00000000
11111111
00011100
00001100
11110111
10110111
10100101
11001011
11111101
11100001
00011110
00001011
00000111
00010111
00010110
00000111
00011011
00001100
00010100
00001001
00010011
11111010
11101001
11111001
11101110
11111110
00011000
00000101
00010010
00010101
00011101
00101100
00011111
11000111
10111001
11010000
11110101
00101001
00001101
00001110
00000110
00100100
00010010
11111010
00010100
00110000
00101100
00100100
00100000
00010011
00001110
11111010
00000111
00001110
00010011
00001111
00010001
00010100
00011111
00001110
11111000
11010011
11101111
00001011
00000110
00000100
11100110
00001000
00001111
11111100
00001100
00010000
00011010
00011011
00011111
00101000
00100111
00011010
00010110
00010111
00000100
00000110
11111111
11110010
00010101
00001010
11111110
11101001
11010011
11010110
11010111
11111001
00001000
00011100
11101100
00001111
11110101
11100101
00000000
00000111
11111111
11111110
00001000
00011111
00011100
00100000
00010111
00011011
00011010
00001001
00000111
00000001
11110111
11111000
00000001
11101110
11000010
11010001
00000000
11111100
00000101
00000110
00010110
01000000
00010011
00011100
00001011
00000000
00010100
00001101
00101111
00100011
00100111
00100010
00100100
00011101
00001011
00000010
11101110
11110110
00000100
11101001
11011110
11000010
11001100
11011101
11100101
11111010
00000101
11111001
00011000
01010111
00111000
00011011
00001000
00100000
00100101
00111000
00110001
00100000
01000010
00101010
00100011
00010111
00000101
11110001
00000001
11100011
11110000
11010010
11011110
11101001
11101000
11001000
11100101
00000010
11111101
11111001
00101111
00011101
11110101
00010000
00001010
00010001
00010000
00011111
00100010
00011111
00000101
00000000
11100100
11101110
11110011
11111011
11101110
00100011
00011100
00010110
01000101
00011101
00001001
11111100
11111110
11111010
00000011
00000100
00001000
00010111
00000101
00010001
00000110
11111110
11101110
11111001
11101000
11111011
11101011
11010011
11011000
11011101
11111001
00001101
11111001
00001011
00010100
11110100
11101001
11010000
11101011
11110100
00001000
00001001
00001010
11111011
00001010
11111010
11111011
11101001
11110011
11100101
11100000
11111011
00010001
00001101
00000110
11101011
11110011
00011111
00010011
00001010
00011000
11110110
11010000
11000010
11010000
00000011
00001001
00000010
11111011
00000100
