00001000
11111100
11110111
11110101
11111011
11111010
00001010
00001010
00000000
11110110
00000101
11110101
00000111
11111011
11111101
11111011
11110110
11111100
11111001
00001001
11111110
11111100
11111010
11110111
11111001
11111110
00000110
11111001
11111100
11111000
00000010
00000110
00000110
00000000
00000010
11110101
11110111
00000101
11110011
11111000
11111001
11111000
11110101
11111101
11111010
11111001
00000001
00001001
11111000
11111001
11111100
00000110
11111011
11111000
00001001
00001001
11110111
00000101
11111111
00001010
00001001
11110110
11110011
11101101
11110000
11000011
11010011
11110111
11101101
11011000
11010001
00011010
00010101
00010100
00010000
00001100
00010111
00001000
11111100
11111000
11110110
00000110
00000000
00000110
11111111
11110111
00000100
00000110
00010011
00000110
00001010
11111010
11101110
11001101
11101001
11111001
00000101
11111100
00000110
11111101
11110001
11100011
11111100
11001110
11100001
11110101
11110001
11111100
00010111
11111101
00000010
11111011
11111010
00001010
00100101
00111111
00001111
00000011
00100000
00111100
00000101
11101101
11111010
00001001
00001101
11111111
00001001
00100001
00000100
00000110
00011100
00001000
11111101
11111011
00011001
11101101
11111001
00010111
00001101
11101011
00000000
11111101
00111010
00010111
00100101
00010010
00011101
00001011
11101010
00000111
00001100
00011000
00011110
00010011
11101111
00000111
00000001
00001101
00000000
11111011
11110111
11110110
00010101
00000110
11101110
00010011
11101010
11110000
00000010
11101011
00010100
11110010
11110111
00011001
00010000
00000011
00010111
11111011
11111101
00000100
11111010
00001101
00000011
11111100
00010100
11111110
11110011
00001000
00000100
00001101
00010100
00000001
11111010
11111101
11101110
00011001
11111100
11011010
00000110
11111011
11100111
00110100
11111101
00000110
00001001
11110101
11101011
00001000
11111110
00001101
00001101
00000111
00000100
00001100
11111100
11111110
00000001
00000001
00001100
11110011
00001110
00110010
11101101
00011110
11111011
11100000
00100001
00000100
11111001
00010111
00000101
11111001
11111100
00001111
00000101
00000001
11111000
00000010
00000100
00001110
00001101
11111111
11111101
11111111
11110111
00000001
00000000
11110011
00001111
00110001
11110100
11110101
11110110
11111110
00011110
00001001
11111011
00001110
00000101
00000000
00000111
11111111
00000101
11110101
00000011
11110110
11110100
00000011
00000001
11110010
11101010
11110111
11111001
11110001
00000000
11111011
00001111
00001011
11110011
11011011
00000111
11111011
11110111
00101011
00010000
00000101
11111001
00000101
00001111
00000101
11111000
11110111
00000110
11100100
11011010
11101110
11101100
11110101
11110111
11111011
00000100
00000100
00001101
00010101
00100000
01000000
00001111
11011110
00000010
11110101
11100011
00000000
11110101
00001100
11111110
00000110
00010111
00000110
11110111
11111111
00001000
11110110
00001000
00000000
00001000
00010000
00001111
11111110
00001100
00000000
00001000
00001010
00011011
01001110
00111011
11011111
00001011
11101010
00000101
10101011
11100010
11110110
00001000
00001101
00001101
00000010
00011001
00100011
00010111
00101001
00100000
00001001
00001011
00010011
00010001
00000111
00100101
00011000
00010010
00010100
11011111
00001101
00101001
11011010
11110001
11111001
11110110
10101101
11010010
11111010
11111010
00010110
00011000
00010111
00101101
00110011
00110110
00111000
00110100
00011010
00011000
11111100
00000001
00001011
00000001
00010100
00001110
00000101
11110110
11100000
11110101
11110101
11101011
00100011
11101110
10101000
10111101
11011010
11111110
00001100
00011001
00100010
00101110
00100110
00111001
00101100
00101101
00011111
00001000
00001001
00001100
11110011
11111000
11111011
00000100
00010100
00001111
11011001
11101001
11101110
11110110
00011111
00100101
11010000
11001001
10101010
11000111
11010100
11101010
00001100
00101010
00101110
00110101
00110001
00100101
00010101
00000011
11111110
00000100
11111000
11101101
11111111
00000000
00010100
00000110
11100000
11110100
11100100
00000000
00011011
00000001
11001011
11011100
10100110
10011001
10010001
10100101
11000101
11010111
11111011
00100101
00011100
00001011
00001100
00000001
11110001
00001010
11110110
11100011
11111000
11110011
00011100
00001011
11001011
11010010
11101000
00000110
00101110
11110001
11011000
11011010
10100111
10000110
10000000
10000000
10000000
10000000
10001111
11000010
11100100
11101100
11111000
11111100
11111101
11110001
11110010
11101110
00001000
11111011
00010101
00001110
11011100
00000000
11111010
11100100
00101101
11110000
00001101
11110111
11011001
11010001
10110101
10001010
10000000
10000000
10000000
10000000
10111010
11011101
11110001
11111101
11110100
11101101
11111100
00010000
00000001
11111110
00001011
00000110
11111000
11111101
11111001
00001010
11011100
11110010
00111010
00010111
00001111
00001101
00001010
11111000
11110111
00000000
11101000
11001100
11010111
11011111
11101000
11110011
11111000
11110110
11101101
00000001
00000111
11111100
00001111
00010101
00011101
11111110
11111001
00000110
00000110
00000011
00010101
00011011
00011111
00100110
00011110
00100000
00100100
00101010
00011110
11111111
11110010
11100111
11101101
11111000
11110111
11110110
00000000
00000001
00000101
00011110
00001001
11111100
11001011
00010000
00010011
00000110
00001111
00000000
11111000
00100011
00011101
00001010
00011010
00011000
00011110
00010110
00010011
00001000
00000001
11110000
11110101
11110010
11100111
11111000
11101100
00010000
00000000
11110100
00010001
11110101
11000100
00011000
11111011
00001011
00000110
11110111
00010110
00010100
00000111
00001001
00000011
00001011
00001111
00010010
00011110
00000011
00000111
00000001
11111001
11101110
00000000
11111000
00000011
11111110
11101101
11101100
00011001
11010101
11001110
00000101
00001000
00001000
00001000
00110110
01011110
00101110
00101000
00000100
00000001
00010010
00010110
00011011
00010111
00001100
00010001
00010101
11111000
00001011
11111010
00010011
11111100
11100011
11110011
11001111
11101000
11111111
11110001
11101100
00000100
11110111
11111110
11100101
00100010
00110010
00011011
00011000
00100001
00001101
11111110
00010001
11111111
00000011
11111110
00000111
00000000
00000111
00000001
11111001
11011001
11101101
00001010
11101110
00010101
00000101
11111110
11011010
00001001
11111111
11110111
00010111
11100101
00000100
00010010
11111100
11110001
00001000
11111100
00000010
11111000
00010001
00000011
11111110
11110111
11110001
11111100
00001001
11110100
00001010
11111111
11111110
01000001
00110111
00110001
11111000
00000001
00000100
11110111
11111101
00001110
00101000
11101111
11101010
11100100
11101100
00001010
00000001
11111011
11110000
11111110
00010010
00100011
00011110
00010010
00011111
00010010
00010110
00001010
11101011
11001010
00000000
00001010
11110111
11111000
11111111
11111011
11111111
00001000
11111000
11111101
11100100
11011000
11001110
00010001
11110001
00010010
11111100
11110110
00000000
00011110
11111100
11101000
11110111
11110011
11011011
11101110
11111100
00000001
00000010
00000100
11111011
00000010
