11111000
11111100
11111000
00000010
11111001
11111100
00000110
00000101
00000001
11111111
00000001
11110101
11110001
11101110
00101010
00001010
00001001
11111011
00001000
00000001
00000000
00000001
00001001
11111100
11111001
00001001
00000000
00001000
00000110
00000001
11111011
11110101
00000011
11111010
11101011
11101001
11011100
11100010
11100011
11001010
11001010
11011010
00000001
11111011
00010110
11111010
11001001
11011110
11010001
11011101
11101110
11111010
11111000
00000010
00001010
00001001
00000100
00000010
00000111
11100110
11110100
11110010
11110100
11110001
11110110
00011101
11110110
00010010
00010011
00101000
00100010
00010111
00100111
00001001
00000001
11100010
11010111
11001100
10111100
10111101
11101111
00000101
00001001
11111100
00000001
00000011
00100010
11101110
11111101
00000101
00101100
00011011
00110001
01001001
00011000
00110000
00111000
00110000
00100111
00010101
00011011
00011000
00001010
00001011
11111101
11011010
11000010
10001001
10011001
10110001
11010000
11111100
00000011
00001011
00101010
00111110
00010100
00100001
00101001
11101110
00001000
00010001
00001011
11111000
00000100
00001001
00000101
00001111
00011110
00010110
00010110
00010101
00010001
11110111
11111010
10101100
11000010
10101111
11000011
11001010
11111011
11111011
00110101
00110101
00100010
00100111
00010111
11110000
00010011
11111111
00010110
00001010
00001100
00000011
11110111
00001100
00010001
11111110
00000000
00000100
00000100
00000001
00101000
00001001
11011101
10011100
11010011
11010110
00000011
00010010
00101001
00100100
00011110
00100111
00100001
00000111
00000110
00001111
00100000
00010000
00000010
11111111
00001011
00000011
00010010
00000110
00000101
11111111
11111101
11111101
00010011
11111101
11101001
10101011
11010011
11110000
11111110
00101110
00101000
01001000
00111000
00100100
00010001
00011110
00011111
00010110
00001101
00011011
00010111
00011011
00100011
00001101
00010010
00001101
11111110
00011010
00001111
00001101
00011000
11111111
11110010
10100100
11110011
11101001
11110101
00110010
11110110
00110101
00100110
00000101
11111000
00001110
00001000
00001010
00010100
00011101
00000101
00001000
00010101
00100001
00001011
00010011
00000101
00010100
00010110
11111000
11111110
11111000
10110100
10110011
11011101
11111110
00001011
00010111
00100010
00001011
00001010
11110111
00001001
00010011
00001010
00000111
11110011
11100110
11010101
10111110
11000111
00011000
00010110
00000011
00000000
11111011
00000101
11101100
00000010
11111101
10110101
10111011
11001011
00001101
00001111
11111011
00110000
11111010
11011000
11101000
11110000
11001110
11001110
10111000
10011010
10001011
10001110
10010000
11000100
11111000
00011000
00000110
11111000
00000001
11111100
00000101
11110101
11010010
11000000
11110101
11111100
00101001
11111100
11100110
11100101
11110010
10101100
10100000
10010110
10000000
10000000
10000000
10000001
10110100
11001100
11011001
11110111
00010011
00001011
11111111
11111101
00000111
00010001
11111001
11101001
11011100
11101001
00011011
11101011
11110101
11111010
11101011
11100011
11001101
10000000
10000000
10000000
10000000
10100000
10111100
11110111
11111110
00011001
00001110
00000100
00000001
00010000
11110011
11111100
11111110
11101111
11100110
11100101
11100011
00000000
00010010
00001101
11100111
00001110
11101001
11111110
11010101
10000011
10010111
11001011
11011111
11111100
00001110
00011001
00010111
00010110
00010001
00001111
11110001
11111111
11101110
11111011
11110101
11110000
00001011
11111100
00001011
00101011
00011100
00011001
11110101
00000001
11110100
11110011
11100110
00000001
00000111
00101011
00110001
00101001
00110100
00100101
00010100
00000110
00000100
00010000
11110111
11111101
00000101
00000111
11111111
00001100
00011000
00001101
00011001
00000110
00000011
00100100
00010100
00000111
00100000
11101100
11101000
00011011
01000110
01001000
00101100
00011001
00010001
00011010
00000110
00001010
00001000
11111111
11111100
11111111
11110110
11111010
00000001
00000111
00010100
00000001
00011011
00101110
00010110
00111011
00100000
00000111
00011010
00010100
00001100
00101010
00110110
00011010
00001110
00000111
00010010
00001010
00000110
00010000
00000110
00000110
11110101
11111110
00000010
00000110
00011110
00010110
00010010
00000101
00000101
00011111
00111111
00111110
00101101
11111111
00010100
00011001
00000101
00011001
00001110
00010000
00000011
11111001
11110100
00000010
11111110
00001110
00000001
11110011
00000111
00001000
00001000
00001011
00000100
11110110
11111101
11111110
11110110
11101000
00100000
00111011
00111100
00100010
00011000
00001111
00100111
11111010
00000111
11110111
11111001
11111001
11110111
11111001
11111011
11110011
00000001
00000101
00001100
00001101
00011111
00000000
00001001
00000000
00000010
00000101
11101001
11101100
00001111
01000110
00111010
11111110
11110010
11101111
00011000
11111111
11111001
11110111
11111001
11111111
00000100
11110101
00001000
00000010
00010101
00001100
00001110
00001010
00000100
11110101
11110000
00000000
00001101
11111011
11111101
00001101
00010000
00101101
00101011
00000011
11101100
11111001
00100101
00001011
00000000
11111010
11110111
11111000
00001011
00001010
00011010
00001011
00010000
00000110
00000000
11101101
11110011
11111001
11111000
11110110
11111010
11101011
11011100
11111101
11101011
00011010
11110001
11110110
00001101
01000100
00011010
11111010
11111100
11111011
11110110
00000010
11111100
00000000
11111011
00000000
00001010
00000010
00000111
00000010
11110100
00000110
00011001
00001001
00001110
11011110
11101111
00100101
00001011
00100100
00000100
11111111
00000110
00110100
00011111
11101010
00001100
00000111
11111000
11110110
11101101
11111101
00000000
11111110
00000010
00001011
00000000
00010000
00001101
11111010
00000110
00001111
00001010
00000000
11110110
00010001
11101111
11101000
00000110
00000110
11110111
00101000
00010110
00000110
00010001
00001101
00010010
11111001
11111000
11111100
00000111
00000101
00000101
00001000
00001001
11110111
00000100
11110101
00000010
11110000
11111010
00001000
00000110
00001010
11100110
00010000
00000100
11111100
00001000
00010111
00100011
00100011
11101111
00000100
00011001
00000001
00001110
00001001
00000010
11111111
00001000
00001010
11101111
11111100
00000011
11110110
11110110
11100010
00000101
00001110
11111000
00010001
00001101
00000011
00000110
00001000
11111101
11101111
00001011
00110001
00011011
00010110
00011111
00101011
00011110
00010110
00010101
00100000
00011110
00001101
00001110
11111010
00000101
11111110
11011110
10110110
11000011
11001011
11110101
11111001
00000101
11111011
00000100
00001001
11111111
00000011
11110001
00000011
00000101
00000100
11111001
00001010
00001110
00100000
00000110
11111100
11111101
00010101
00110010
00101100
00100010
11110111
00000000
00001110
00001111
00010000
11111010
00000100
00000010
00000011
00000101
00000110
00000000
11111110
00001000
00000000
11111110
11111010
00000010
11111010
00001000
00000000
11111100
00000101
00100010
00001100
00001110
00010111
00001110
11111001
11111010
11111110
11111100
00000011
11111011
11111100
00000001
00000100
11111011
