11111111
00000010
00000001
11111010
00001000
00001001
11111110
11111101
00000011
00001000
11111010
00000010
00011001
00010100
11100010
11110000
00000011
00000101
11111101
00000100
11111000
00001011
00000011
11110111
11110111
00000001
00000110
11111100
00001000
00000111
00001000
00000101
00001101
00001011
11110011
00001110
00100001
00110010
01000110
11110110
11111010
11101010
00001001
11010111
11011010
11101001
01001000
01000000
00111001
00110000
00001110
00000110
11111001
11111100
11111100
00001001
00000011
00000111
11111111
11100010
11111000
00111110
00101011
00001101
00100010
11110001
00001100
00100011
00100000
00110001
01000110
00010111
11111001
00101010
11111110
11111011
00011010
00101101
00111010
00011110
11111001
11010110
11111011
11111011
00000011
11111101
11010101
11010101
11011100
01000001
00111000
00110001
00011101
11110100
00001011
00100100
11111100
11111000
00011100
00000100
00000001
11111100
00011000
00010010
11111111
00010001
00010101
00011110
00001100
11100111
00000000
00000010
11111100
00010000
11011101
00011100
01000001
00111011
00001111
00011000
00100010
00001010
11111101
11110111
00001011
00010001
00000001
11110111
00000101
00010000
11111111
00000011
00101001
00100001
00011110
00010110
00010001
00001100
00001001
00110001
00000011
11111011
11101101
11101001
00011101
00000101
00011000
00010100
00101011
00011110
11110100
00001000
00001110
00000110
00010011
11111010
11111000
11111101
11110010
11111001
11101110
11110110
11101011
00001110
00100011
00110000
00100001
00100101
11111010
11100101
00011000
00100011
00010110
00010101
00010000
00011110
00010001
00010111
00000010
11111110
11111011
11111000
11101000
00000110
00000111
00001001
11101000
11110011
11101101
11111011
11111010
00010000
00001111
00001100
00000001
00101100
00000101
11111111
00101011
00111010
00011011
00010001
00000000
00001000
00000010
00001110
11111111
00000100
11111001
11110000
11101110
00000110
11111101
00000011
11111010
11110111
11110011
00000001
11110101
00001100
00010101
00010011
11111111
00001010
11010011
00011000
00100010
01001001
00101100
00001010
00000000
00011101
00010101
00010111
11111110
00010111
00010011
00000010
11101110
00001101
11111110
11110110
00000000
11100111
11110010
11100111
11100000
11101010
11111111
00011000
00000011
11100011
00101011
00100111
00100101
00100101
00101110
00001100
00001000
00010101
00010101
00001110
11110001
00000000
11111111
11110111
11111101
11110011
00000000
11111100
11101000
00000011
00000010
00000111
11101010
11110110
11101011
11100110
11101101
00001001
00101000
00011001
00011000
00010001
00101111
00000001
00001001
00000111
00001001
00000010
00001001
11110010
11101101
11111000
11111001
11111110
11110110
11110001
00000001
00001011
00000101
11111010
11111100
11110101
11111010
11011000
10111011
00010111
00100010
11110001
00110100
00100100
00011000
11111011
00000100
00001111
00011000
00100100
00100001
00010001
00010011
00001001
00010111
00001100
00011000
00010011
00001000
00000001
00000001
11111011
11110111
11111011
11110001
11010010
11001110
00011101
00011101
01001000
00111010
00011001
11101000
11111001
00000010
00100011
00011000
00011010
00010010
00011111
00011110
00001011
00000010
00010001
00011111
00010101
00001110
00000110
11111101
00011101
00101101
00100111
00110110
11100011
10110010
00000000
11100100
00011100
01001010
11111010
11011110
00001000
00011000
11111011
00010010
00001111
00011100
00011011
00000101
11111101
11110010
00011110
00011111
00001001
00011111
11111111
00010100
00001100
00010100
00100111
00010100
00001101
10110010
11001111
11100000
00101101
01000010
00000011
11011100
00001110
11111011
00000000
00000110
00010010
00011111
00100110
00001001
11111110
00000111
00001011
00001101
00001110
00010101
00100010
11110111
00001000
00010011
00000111
11101010
00011000
10111000
11001110
11111011
00100010
00010100
11111110
11000011
11110011
11110111
00000101
00001101
00001110
00100101
00011110
00000011
00000000
00010110
00011111
00000100
00010011
00001001
00001110
00001101
00001000
00101010
00001011
11001110
00001010
11100101
11001001
00011101
00100010
11101111
11011011
11000101
11011110
00000001
00010110
00100110
00101011
00100001
00010011
00001101
00000100
00010100
00011000
00001101
00011010
00010000
00001100
00001000
11111111
11110101
11101111
11110001
11101100
11001001
10100110
00001000
00010101
00000100
11100011
11001000
11010110
11001111
11110110
00011001
00011001
00100010
00010101
00000001
00000010
00010101
00001001
00011010
00001011
00010000
00001100
11111101
11111011
00000000
00000001
00000110
11111011
11101010
10111111
00100100
00001111
00100110
11111101
10111111
10111000
11010111
11101110
00000111
00001110
00000001
11111111
00000100
00011101
00000100
00001110
00001100
00001011
00000010
00000110
00000010
00000011
11110011
11110011
11011010
11110010
00011101
11000111
11110010
00100100
00010010
00011000
11101000
11100000
11100111
11100101
11111011
11111011
11111010
11111101
11111010
00000011
00011010
00001001
11111111
00001001
11111100
11111100
11101001
11110001
11101110
11100011
11011000
10110011
11000101
11011010
11111010
00001101
00001110
00000000
11100001
11001011
11100100
11111111
11100010
11101111
11111010
11110000
00001001
00000101
00100010
00010000
11111011
11110001
11101101
11100010
11110101
11110001
11101000
11101000
11010001
11001100
11001100
11111000
11101000
11110111
11101111
11110000
11101100
11011011
11001110
11100101
00000100
00000011
11110011
00010011
00011110
00100111
00100001
00011100
00001000
00000011
11110010
11110100
11100110
11100001
11111101
11100001
10110010
10101000
11101001
11110011
11101100
11101010
11110011
11101110
11111000
11011110
11011001
11011111
11100011
11111101
00001101
00001011
00011001
00011011
00011100
00100100
00010001
00000100
11110000
11110110
11100110
11111001
11101111
11010011
10101101
11001100
11011100
11110100
11111100
11111111
11100010
11101111
11110001
11010000
11101000
11110110
11100101
11110010
11101111
11111010
11111111
00001100
00010110
00011011
00001001
11111111
00000010
11111000
11100011
11111100
11101011
11100111
11000101
11010011
11000010
11110101
11111110
00000001
11111000
00011010
11100101
00000010
00000101
00001011
00001000
11111001
11111010
00001010
11111010
00000010
00000000
00001000
00010001
11011111
11010101
11011111
11101001
11111011
11010110
11110001
11001101
11011101
11010010
00000011
11111111
00001001
11001110
11111100
11101101
11100101
11110111
00000001
00010001
00000100
00011010
00011100
00000000
11110111
00001010
00001001
11111111
11101110
11110010
11010110
11010100
11000100
10101000
11010101
11011010
11100000
11110101
11111110
11110111
00000000
11111100
11100000
11110001
11100011
00000010
00011100
00011001
00010110
00001000
11110011
11100100
11111000
11100000
11011010
11101010
11100101
11101110
11011110
10110010
11011011
11101101
00010011
00001010
00011010
00000000
11111000
11111100
00000110
00001000
00000000
00010101
00100011
11110000
11101111
11111110
00000000
11111101
11100111
11101000
00100001
11101011
11100110
00000001
00101110
00000110
11110101
11110101
00110001
00110000
00011000
11111010
00000001
00000000
00001010
