11111100
11111011
11111001
11111111
11111001
11110101
00001011
00000110
11111010
00000110
11111011
00001000
00000110
11111000
11111000
11111010
11111001
00000110
11111101
00001010
11111010
11111000
00000010
00001000
00000100
00000101
00000101
00001001
11111011
00000000
00000011
00000000
11111101
11111111
11101111
11101011
11110010
11100111
11011100
11010111
11101001
11110001
00011000
11101111
11101011
11010111
11111010
11111001
11011011
11011000
11010010
11011011
00000001
00001001
00000111
00001011
11110111
11111001
00001010
11110101
00000000
11110011
11101110
11100110
11101101
11111011
11110011
11111110
00010010
11111110
11101001
00001101
11110001
11011111
11011110
11010000
11100110
11010001
11010000
11011000
00001000
00000000
00000101
00001010
00001000
00001010
00011001
11100100
11110100
11001011
11100001
11011100
11010101
11011001
11011011
11000010
10111010
10011010
10001101
10110000
10101100
10110001
11101001
11010001
11000000
11001110
11011000
11100011
11101100
11111000
11101010
00000011
11111111
11111110
00100100
11110011
00000011
11001010
11010000
11011011
10101101
10000100
10010001
10111010
11001001
11010000
10110110
10110101
10101000
10100100
11000111
10111011
10111101
11110100
00000100
11110010
11010101
11100000
00001000
00011101
00000011
11111100
00000001
11100010
11000110
00001111
11110101
11110101
11100111
11101000
11010011
11111000
11110000
11111000
11100010
11101111
11100000
11011001
11010100
11000111
11001000
11101010
11110010
11011000
11001110
11110100
11110111
00001001
00000000
11101011
00001101
00100011
11111000
11010011
11110101
11111111
00000100
11111110
00001100
00010001
00001111
00011101
00011001
00100000
00011100
00100101
00010100
00000000
11101101
00010101
11101111
10111110
10111100
11101001
00001101
00010101
00001010
00001100
00011011
00111001
11100110
11001011
11111111
11111000
11110110
00001100
00000000
00010011
00010100
00101000
00011110
00100001
00100110
00011110
00001111
11111001
00000101
11111010
11110010
11100111
11100000
11101101
00001011
00011011
11100000
00111000
11110111
11111001
11110011
11101101
11111100
11111000
00100010
11111110
00010011
00001000
00001001
00001011
00010111
00011111
00010100
00010011
00000010
00000101
00000010
11110010
00000010
11100010
11100001
11100110
00001001
11100111
00100010
00110110
11111110
00000101
00000000
00000110
00011010
00100011
00011111
00011110
00100100
00010110
00101101
00001100
00010111
00100010
00000011
00010101
00000010
11110101
11111100
11111011
11111111
11101010
11110010
00000101
11101110
00101100
00100011
00101110
00100010
00000111
11110101
00010011
00011111
00010110
00011011
00100000
00010001
00000100
00000010
00001010
00011111
00011010
00010101
11111100
11111001
11111011
00001001
11111000
11110110
11010100
11011010
00010110
00000001
00110110
00001111
11110100
00101101
00000110
00001111
00001110
00010000
00010100
00010001
11111011
00000011
00000101
11101011
00000011
00100110
00110011
00011110
00011111
00100101
00010000
00010011
11110111
00000011
11011111
11011111
00000110
00100000
00110101
00011010
00000110
00100011
00000110
00100111
11111001
11110100
00001000
00000001
00000011
11100100
11101000
10111100
11010000
00100100
00110111
00011111
00011001
00011111
00001100
11111011
11111010
11111101
11111101
10011000
00010001
00101011
01000000
11111111
00000011
00010110
00010110
00100000
11100000
11110010
11111111
11110111
11110011
11101010
11100010
11000001
11111010
00100100
00011011
00010100
00010110
00100000
00000011
00001101
00000111
11100010
11100011
11001100
00010000
00010011
00110011
11101010
11111100
00110110
00101001
00011000
11011000
11101000
11101011
11110110
11110110
11110100
11110110
11101000
00010001
00010100
00010010
00011000
00011001
00010101
00011011
00011001
00000110
00000001
11110010
11011100
11110110
00100000
00101100
11110110
11101001
11011100
00001111
11110001
11100110
11111001
11110110
11111110
11101011
11111010
00000101
11111101
00001101
00001111
00010011
00011100
00100000
00100011
11111001
00000100
00001011
00001100
11110100
11100000
11001000
11010000
00101011
00011000
00001100
11011100
11011000
11101000
11110000
11101110
00000011
00010110
00000101
00001111
11111101
00010110
00010011
00001111
00001110
00010001
00011000
00000111
11110111
11110001
11111001
11110110
11100100
11010000
11011000
11001000
00010111
11111010
00010111
11010001
11011011
10111011
11110111
11110111
00000011
00010001
00000100
00000001
00000100
00011000
00101000
00010011
00011001
11111011
11110110
11110111
11110011
11111100
00001001
11111111
11111010
11101111
01000110
00010101
11010000
00110100
00010000
00010000
11110011
11000111
11101000
11110001
11110101
11111011
11100111
11111011
00001110
11110110
11111011
11111100
11101111
11110110
11111100
11111010
11111001
11110111
00010001
11110010
11000101
10111001
01000010
01000010
00011001
00001001
00011011
01001011
00001001
00001001
11001011
11010001
11101101
11101010
11101110
11011000
11100011
11101111
11101110
11100100
11100011
11011111
11110000
11011011
11110111
11111110
11011111
11011110
11000010
11011001
00011101
00010100
00101110
11111010
11011100
00001000
00110100
00010001
11010011
11010000
11010100
11101001
11101000
11011110
11010101
11011011
11101111
11101000
11100101
11101001
11100111
11100101
11110010
11101010
11100111
11101111
11110101
00011110
00110010
00000010
00001110
00001110
00010111
00010100
00001010
00000100
11100101
11010110
11010101
11110100
00000010
00001000
11101100
11111111
11100111
11101101
11100111
11110010
11011011
11100011
11101011
11111001
00000011
11011011
11010000
00011100
00100001
11010001
11110101
00000111
00000010
00000010
11100101
00010011
11111100
11110100
11111010
00000010
11111101
00010011
11111111
00001010
11101010
00001010
11110000
11110100
11100001
11100000
11100110
11111101
11100011
11100100
11100101
00000010
00100000
11010101
11111001
11111111
00000001
11011001
11001010
11101110
00001100
00010000
00011000
11110000
11110001
11110110
11110100
11111011
11110001
11110000
11110111
11100011
11101011
11100111
11100110
11101000
11110100
11100111
11110110
00101110
00000011
00001001
11110111
11111110
00001001
11110100
00011000
01000001
01000011
00100010
00011111
00000100
11101010
11111001
11101001
11101010
11011111
11011110
11110011
11010100
11101101
11010110
11101100
00000011
00001011
11110101
00001010
00001000
11110001
11110101
00001000
00000010
00000010
11111110
00100000
00111000
00111111
00011111
00100010
00110000
00011010
00001111
00010010
00000110
11110000
00000011
11110110
00000101
11110010
00000000
00001001
00001100
00011010
11110010
11111000
11111100
00000000
11110100
00000100
11111010
00001000
00001001
00011010
00000110
11110101
00011000
01000110
00110011
01101011
01011110
00110100
00011110
00110101
01011101
00111110
01000101
01000110
01001011
01000101
01000100
00111100
00111010
00110110
00110011
00000110
00001001
11111000
11111110
00000101
00000010
11111010
00011111
00101000
00011100
00101001
00100001
00101010
00111001
00010111
00100101
01000000
01110010
00111101
01011001
01111111
01010011
01001111
00101011
00111111
01000010
00100100
00000101
00000110
11111011
00001011
