00001000
11111100
11111011
11110111
00000000
00001001
11111000
00001010
00001001
11110101
00000011
00001010
00000001
11100111
11101101
11101100
00001010
00001011
00001001
00000010
11111000
00000011
00001001
00000001
00000010
00001000
11111001
11111000
11111001
11111110
00001001
00000101
00000100
11110010
11001110
11001001
11100101
11011101
11011100
11011000
11001001
11011011
11111111
11101010
10111011
10100011
10111101
11000111
11000111
11010111
11011010
11011011
11111000
11111111
11111010
00000101
11110111
00000001
00000000
11101111
11011111
11110000
11100101
11011010
11000101
10101001
10110001
10110110
10101101
11010010
11010101
11110010
11101111
11110010
11001111
11001011
10101111
11001101
11011100
10111101
11100001
11111100
11110110
00000110
00000011
00000001
00001101
11011010
11111011
11001011
10110101
10010001
10000111
10100101
10111101
10111100
10100110
10000110
11010101
11111010
00001101
00110000
00101111
00010111
00011101
11110110
11011101
10111101
10100000
11000110
11001111
11111110
11110110
11111010
00010000
00000000
00001010
11100100
11000010
11001000
11001101
10110011
11010011
11011010
11101101
11110110
11100010
00001010
00001111
00000011
11111111
00001101
00000011
00000101
11111100
11011100
11111001
11100011
11011101
11100000
11110111
11110111
11010110
00010101
11011100
00001011
11110100
11101010
11101010
11110110
11101110
11111110
00000111
11101100
00000010
00000110
00000110
11111000
11111110
11111000
11111110
11111100
11110111
11101010
11011110
11010010
10111001
11010101
11111100
11100101
00101100
00000001
11100111
00000101
11111100
11111101
11101011
00000010
00011001
00001010
11110000
00001011
00001001
11111001
00001001
00001000
00011111
00001010
00011110
00101010
00000001
11111010
11110010
11001101
11101001
11010011
11111001
11010010
00011001
00100000
11100111
11101110
00001001
00000001
11110111
00001110
00000011
11111101
00000001
00001011
00000110
00000100
00011010
00100011
00011000
00101110
00100100
00011110
00010010
00100111
11100001
11010101
00000001
11100110
11011011
11111101
00011101
00101000
11111111
00001001
11111100
11110110
00000110
11111011
11110110
11110100
00000001
11111111
00010010
00001110
00010010
00011110
01000100
00101100
00011100
00100010
00010000
00000010
00001111
00001000
11101111
11110010
00010101
01000001
00101111
11111110
11111011
11110001
00001101
11111000
11111101
00000101
11111010
11111100
11111101
00001110
11111101
00100101
00100111
00110110
00110101
00110011
00100111
00001010
00001110
00000001
11110101
11010010
11001100
11101000
00000111
00110010
00001001
11111011
11111110
11110110
11111001
11101111
11100111
11110110
11101101
11110011
00001100
11111101
11110000
00011101
00010100
00011110
00010111
00011010
00001110
00000101
11111010
11100000
11010111
00000100
11011000
00000001
00001101
11010101
00011110
00001001
11111101
11110001
11111111
11101110
00000101
11110110
00000101
00001010
00001110
11101010
11101111
00010000
00010000
00101000
00011100
00010001
00000110
11110100
11110111
11011010
11100111
11101000
00000110
01001001
00000000
00010100
00110000
11111010
00000101
11111001
00001000
00011010
00001101
11110101
00010000
00000111
00000111
11100111
11101110
00100001
00001101
11111111
00011010
00010011
00000111
11101110
00000001
11111100
11101010
00000101
00010001
00110000
00000110
00010101
00011111
11110111
00110000
00000011
00011010
00011010
00011110
00000100
11110011
11111000
11101000
11011110
11110011
00011100
00011000
00001110
00010100
00001000
00001011
11111110
11111110
11100110
11001100
11111111
00000110
11101101
11100110
00110010
00001001
00100000
01010010
00100011
00011011
00100001
00010010
00001001
11100111
11101000
11100101
11101110
00001010
00000111
00011101
00100011
00001110
00001101
00010000
11110101
11111100
11101100
11110110
11110110
11010000
11100100
11011011
00100100
00010111
00011101
00111000
00010110
00010101
00100000
00101001
00011101
00011101
00010111
00001000
11110001
11101011
00010010
00011110
00011011
00000101
11111111
00001001
00010010
00010000
11111110
11100000
11101011
00011101
11101000
00100000
00011100
00000011
11100101
00010011
00010111
00000110
00100110
00110100
00100000
00011101
00011000
00100010
00010010
00000101
00010011
00001001
00010001
00001010
11110101
00001111
00000010
11110001
11111000
11011001
11011110
11110111
11010111
00000101
00101110
11110000
11101011
00010001
00001111
11111100
00001111
00001111
00001010
00000110
00001000
00010100
00010011
00010101
00010011
00001001
00001010
00000100
11101110
00000000
00001010
11111010
11011100
11010110
11011111
11111010
11000111
11101100
00101110
00010101
11111011
11111100
11111001
11110000
11110010
11100100
11100011
11100001
11111010
11101000
00000101
00000100
00000100
00000010
11110100
11110111
11101011
11111111
00010011
11101010
10111011
10001100
10111000
11110001
00100111
00000110
11010101
00011001
00011100
00010010
00000001
11111001
11110000
11101001
11011111
11010111
11011001
11100010
11101001
00000001
11110100
00000000
00000010
11110011
11111101
11111111
11110110
11001100
11000011
10100111
11011101
11101101
00101000
11111001
11111010
11111111
11110101
00000001
00000011
00000001
11010011
11001111
11010000
11000111
11010101
11100111
11111101
00001111
00001001
00001011
00001101
00000110
00000111
11110010
11101011
11100001
11011010
11010110
00011110
11110111
00001101
00011101
00000011
11001110
11101100
11101011
00010001
00000000
11100101
11110011
11010111
11011001
11100011
11011011
11100001
11101000
11111101
00000001
11110001
11110111
11111000
11110011
00000111
11101101
11001000
11100101
00000101
11010101
11111111
00011100
00001010
11010101
11110100
00000110
00000000
00010010
00010110
00001001
11111010
11111010
00000010
11100111
11110100
00000000
11110111
11110111
11110111
11110010
11110001
00000111
00001011
11111110
11110110
11101100
11111010
00000001
11110111
11111011
00000101
11001100
11101101
11010010
11111111
00011111
00101010
00100011
00010100
00011001
00010010
00000100
11111011
00000001
00000101
11111101
11101111
11101110
11100011
11100111
11110110
11110010
11101100
11111101
00010000
00100011
00000010
11111100
11111001
00100100
00111001
00101100
00010111
00100000
01000010
00011111
00011101
00100111
00101001
00010000
00010100
00001100
11111011
11110101
11100100
11011010
11101101
11110111
11110110
00010100
00001100
11010000
11111011
11101001
11111011
00000110
11111100
00011000
00101110
00110111
01000110
11111110
00001010
00100111
01000011
00100011
00101100
00010001
00010110
00011101
00000010
11110110
11100100
11111111
11100100
11100111
00001010
11111110
00001100
11100000
00001010
11100010
00000001
11110110
00001010
11111000
00001111
00111010
00111101
01001011
00111100
01000101
00111111
00110000
11111100
00011010
00010111
00100111
00100111
00110100
00100010
00000100
11101011
00010100
00110100
00100010
00001001
00001001
11110110
00000100
11111101
11111100
11111111
00001000
00000110
11111000
11110010
00000111
00001110
11111100
00011010
00100000
11111111
00001101
00000110
00111000
00111001
00101010
00110100
00110110
01000100
00111011
00110100
00110011
00011001
00000000
11111000
11111111
11111000
