00000000
00001001
00000111
11111111
11111011
11110110
00000100
00001010
11111010
11110111
11111010
00000101
00100000
00100001
11110101
00000100
11111011
11111101
11110100
00000001
00000000
00000010
00001101
00000000
00000110
00000010
00000011
00000011
11110111
11111110
11110110
11111101
00000111
00000100
00100100
00011110
01111111
01111111
00110100
00100000
00111011
00111111
01000001
01111111
01111111
01111111
01100111
01011101
01100000
00000001
01011110
01101101
11110011
11110110
11111011
00000000
11110100
11110111
00000010
00001010
11111100
01000000
01111111
01111111
01111111
01111111
01111111
01111111
01111111
01111111
01111111
01111111
01111111
01111111
01111111
01110001
01111001
01111111
01111111
00110111
00110110
00110000
00001001
00000100
11111000
11111110
11111100
00110001
11011100
11010110
11011001
00000100
11010110
11010011
01111111
01111111
11101000
01111111
01111111
01010100
01101000
01111111
01010100
01111111
01000001
01000011
00111100
01010111
01111111
01111111
01010111
11110100
11111110
00000110
11111111
11100011
10010100
00010010
11011011
00000101
00001011
01110101
01001000
11110111
10000100
01100111
00001000
01010001
00101110
10111100
10000000
11101000
10100101
00100010
00110110
01111111
01111111
01111111
01111101
01111111
00001001
00001101
00001000
11001110
10110101
10000000
10000000
10010000
11110101
11111100
00010100
10000000
11001010
01011101
01000110
00001100
11000000
00111011
01101011
11100100
11110010
00010110
11101110
00111111
01111111
00000101
00110000
01110100
11111111
11111001
00111010
10111001
11100111
10000000
10100011
01011101
11000111
11010001
11110101
11000010
00100000
00000111
11110000
11101110
11101001
00010001
00111111
00001000
10111000
10010100
10100011
10000000
10000000
10000000
10000000
10000000
00000101
10110000
00010110
11110001
01010100
00011011
01010000
11111110
10110101
11101001
10011000
11101000
11001111
11101000
00011100
11100000
10101010
11100000
11111111
11010001
11000011
10010000
10101101
10000000
10000000
10000000
10000000
10000000
00001010
11011000
00100011
00001101
00100101
10010100
10000000
10000000
10011010
10000000
11101000
00011010
11100011
00110111
00101101
00101111
11111000
00101011
11001111
10111111
11011010
11001111
11010000
11101010
10000000
10000000
10000000
10000000
00001001
11010001
00010011
10011110
10000000
10000000
10000000
10000000
10000000
10100100
00101001
11100010
01000101
00101011
01001010
01010011
01010000
00000010
00110000
11011100
11011011
10100000
11100001
10000000
10000000
10000000
10000000
11111011
11111111
11111100
00001111
11001000
10000000
10000110
10000000
10000000
11011110
11110001
10000000
10010110
10100101
10110110
11111001
11110001
00001010
00111111
00000100
11100000
00100000
00011011
01010101
11000010
10000000
10000000
10000000
00000011
00001000
10100000
10100001
10111001
10000000
10001111
10000010
10000000
10111100
10000000
10000000
10000000
10000000
10000000
10000000
10000000
10000000
10000000
10101101
00111101
00100111
00101000
01000110
00000011
10101010
10000000
10000000
11110110
00001001
10011110
10000111
01100100
10000000
10100010
10000000
10000000
10000000
10000000
10000000
10000000
10000000
10000000
10000000
10000000
10000000
10000000
10000000
11010010
11011000
00100110
01100110
01001111
01111111
10000000
10000000
01111111
00001100
10010001
10001101
01000010
10000000
10011111
10110110
10001001
10000000
11101111
11000010
10000000
10011000
10000000
10000000
10000000
10000000
10000000
10000000
10001100
10101110
11111100
01100101
01111111
01111111
10000010
10110001
01111111
00000001
10011001
10000000
00100100
11010111
01100101
01101110
01000000
00111110
01111111
00001110
00001101
11110110
10000000
10000000
10000000
10000000
10000000
10000000
11010010
00001011
11111000
01111111
01111111
01111111
00111110
01111111
01111111
00000000
11010101
10011010
10010101
01111111
01111111
01111111
01111111
01111111
01111111
01010100
11111101
10001000
10000000
10000000
10000000
10000000
10100100
10111111
00100100
00111101
00111001
01110011
01100111
00001101
01111111
01111111
00101000
00000010
11001010
10000000
10000000
01111111
01111111
01111111
01111111
01111111
01111111
01111111
01010011
10010100
10000001
10100101
11000011
10101100
11000101
00100110
01100101
01111111
01101111
01111111
00001000
11001010
01111111
01111111
01111111
00001011
10100100
10000000
10000000
01010010
01111111
01111111
01111111
01111111
01111111
01111111
01111111
00011100
10111100
00000000
00010001
11101100
00010110
01110001
00111100
01111111
00101001
01110111
11110110
01111010
01111111
01111111
01111111
00001001
11000010
10000000
11001110
11110000
01110001
00000100
01111111
01111111
01111111
01111111
01111111
01111111
01011010
01000010
01111101
01100010
01011000
01011101
00011001
01001001
01111111
01111111
00100110
01111111
01111111
00101010
00010010
11111111
11101111
10000000
10001001
10111000
00110111
00010010
01101101
01001101
01111111
01111111
01111111
01111111
01111111
01111111
01010011
01100001
01000001
00001110
00110011
01011110
01100110
01111111
11100001
01111111
01111111
01011110
11110110
11111110
11010010
11110110
10111011
00000111
00110000
00100001
00111000
11110010
11010000
01010111
01111111
01001000
01100101
01001111
01111010
00110010
00011011
00001001
01111110
01111111
00101010
00101111
01111111
01111111
01111111
00110101
11111001
11110110
11100101
01000011
01100010
00010100
00111110
10010101
11111101
11101111
11100101
00100111
00101000
00110110
01000011
00111000
01110110
01100101
01011100
01000010
01111111
01010101
01111111
01010010
01111111
01111111
01101100
01111111
00001000
00001011
11111110
01010110
01111111
10111010
01111111
11000110
11110111
00110010
00111011
01001000
01010111
01111100
00011011
11011101
11111000
11111110
11100101
00010011
01101111
01111111
01111111
01111111
01111111
01111111
01111111
11010000
00000101
00001001
11111010
11111101
01010010
10000000
00011110
00101110
01100100
01111101
00010111
01000010
01110011
00111011
10010011
10000000
10000000
10000000
10000000
00000111
01111111
01111111
01111111
01111111
01111111
01100011
01111111
11000010
00001001
11111000
11110100
11000000
11110100
10001100
10000000
10010100
11001001
11011010
11101011
10010101
10100001
11111011
11011100
10010111
10000000
10000000
10000000
10000000
10000000
10001011
11010101
11100100
10001110
11111010
01111111
01111111
11111111
11111001
00001010
11010100
00000011
10000000
10000000
10000000
10000000
10000000
10000000
10000000
10000000
10000000
10000000
10000000
10000000
10000000
10000000
10000000
10000000
10000000
10000000
10000000
10000000
10101110
01111111
01111111
00000001
00001011
00001000
11111110
11111100
11011000
11010001
10000000
10000000
10000000
10000000
10000000
10000000
10000000
10000000
10000000
10000000
10000000
10000000
10000000
10000000
10000000
10011101
11010010
10010101
11100100
00000101
11110010
11110111
00001000
11111010
11110111
00001101
00000010
11111110
11111110
10111000
10000000
10000010
10000000
10000000
10000000
10000000
10000000
10000000
10000000
10101000
11111011
00010000
00100100
10011011
10101001
10000000
11111001
11111111
11111010
11111001
