00000001
11111010
00001001
00000110
00000110
11111100
00000101
11111111
11111101
00001010
11111110
00000010
11110100
11110101
11110011
11110011
00001000
00000101
11111101
11111010
11111101
00000010
00000001
11111110
00000111
00000000
00000011
00001001
00000110
00000011
00000110
11111111
00001111
00000111
11010101
11101101
00010001
00100010
00101100
00100010
00100101
00110000
11111100
11010111
11000011
11110111
00111001
00111011
00100100
11110010
11001101
11010011
00000000
00001001
11111001
11111110
11110101
00000110
00000101
00001010
00010100
00100010
00100010
00011101
00010110
11100100
11101000
00000100
11110010
11111011
00011101
11110101
11101000
11101110
11100011
11100010
00001111
00010011
00110010
00000011
11100010
11011001
11111001
00001011
11111011
00000101
11110111
00001011
00011111
11111010
00000011
11111111
00001111
11101111
00010010
00100001
00001100
11111000
11110000
11100011
11001001
11011001
00000001
00000111
00001010
00100110
00101000
00000110
11010111
11100001
00110000
11110110
00000000
00000101
00000000
00010001
00011001
11101001
11110010
00010110
00000101
00000111
00010000
00010100
00011101
00011001
00000011
00001000
00001000
11110010
11111101
11111111
00011010
00000010
00011111
01000000
01001010
00111000
00001101
11101110
11111111
11111101
00001001
11010010
11011010
11100011
11110111
00000011
00010110
00011100
00010101
00010101
00010001
00000100
00001100
00000001
11110010
11110101
11101001
11111100
11111000
11101000
00000001
00010101
00110010
01000001
00010010
00001100
11111000
00000000
00100000
11011101
00000001
00001100
00001000
00001001
00000101
00011011
00000111
00011010
00010101
00000000
11110110
11101111
11110101
11111011
11110000
00000100
11110110
11110101
11111111
11111111
00111010
01001111
00110100
00001000
00000111
00010111
00000101
11101100
11101011
11111001
11101001
00000100
00000110
00011000
00001101
00000110
00000010
11111010
11101100
11110011
11110011
00000001
11110001
11110010
11110101
00001110
11111110
00010000
00100111
00111111
00111000
00101001
11110110
00001011
00011011
11111001
11101010
11111111
00000000
11111000
00100001
00001110
11111111
11111111
11111010
11100100
11100000
11110001
00000110
00000001
00000011
11100111
11111100
00001111
11111001
11110100
01000000
01101111
00110101
00100111
11110100
00100000
00100001
11010100
11101011
11100111
11111001
00001110
00011101
00011001
00010001
00010000
11110010
11000111
11010101
11110011
11111111
11110111
11110000
11110010
00000111
00010100
11101111
11111111
00010110
00111011
00010000
11100101
00000101
00000111
11011100
11101110
11111111
11100111
11101101
00001111
00010101
00111001
00110001
00100010
11111011
11000110
11001110
11111111
00001001
11101011
11111000
00001010
00001011
00001000
11111010
11110100
00110100
01000100
00011100
11000110
00000010
11001100
11110101
11101010
11101010
00000000
11111111
00001101
00110101
00111101
01001110
00111100
00100101
11010101
11101110
00001100
00001110
11101111
11110010
00000010
00010001
00000000
00011001
00001000
00001111
00011000
00101011
11111011
11110110
11011011
11111010
11100101
11110101
11111001
00011000
00100100
00101100
00110100
01000111
01000000
11111100
11010001
11100101
00010110
00000000
11101100
11110101
11101010
11111110
00011110
00000011
00011001
11101101
11011100
11110000
11100100
11111101
11111011
11101010
11011100
11111011
00011001
00010010
00101010
00100000
00101000
00110100
00011111
11110111
11010100
11110011
00010000
11111011
11100001
11110011
00001101
00010011
00010101
00001100
11101111
11100011
11011100
11001000
11100000
00101001
00000111
11010111
11101001
11111101
00100001
00100001
00010110
00011110
00100011
00101111
00100100
11110110
11010111
11110100
11111100
11110010
11111001
11111111
00000100
00000111
00010001
00010000
11111011
11101010
11110001
10110010
11010100
00010001
00001100
11100011
11010110
11011011
00000011
00001011
00011101
00101001
00011011
00111000
00100100
00010000
11111010
11110110
11110101
11110101
00000010
00001000
00001010
00001001
00011000
00010010
00001101
11010111
11101010
11110100
11010100
11100110
00001000
11111100
11100100
11000111
11011100
11111101
00000101
00101010
00100100
00110100
00110000
00011000
11111101
11111101
11110100
11110101
11111000
00001101
00000111
00001100
00001101
00101000
00000000
11101110
11110101
11011100
11001011
11111111
11111111
00001111
11011011
11001110
11100001
11100000
00001111
00000011
00011111
00010111
00100100
00011110
00010110
00001000
11110000
11110000
00001100
00001101
00001010
00001111
00010111
00100001
00001010
00000011
11100000
11110001
10111110
11110111
11101100
00101110
11110100
11011100
11011110
11101000
11111010
11110010
00000010
00010000
00010010
00100101
00100000
00000111
11101110
11110010
11110111
11101010
00000001
00010111
00010110
11110011
11111101
11100110
11010011
11111100
11001110
11111101
11010100
00100000
00011001
11101101
11101111
11110101
11011101
11110110
11101101
11110101
11111101
00010111
00000111
00000011
11101110
11010110
11100101
11111001
00000101
00000000
00010100
11111010
11111011
00000011
11001110
10110011
11101001
00001000
11101101
00100011
00001111
11111101
11110001
11011111
11011001
11011110
11100011
11101111
11100001
00000010
00001000
00000100
00000000
11100111
11111110
00000010
00001110
00001100
00000101
11111110
00011110
11111010
00010011
10101111
00000100
00000001
00000001
00010001
11111101
11110110
11101101
11011011
11101110
00001010
11100111
11101010
11110111
00001000
00000010
00001111
00010001
00000000
00000110
00000101
00000100
00011000
00010011
00000110
00001000
11111011
11100100
11001011
00000100
11111001
11110111
11111000
00010011
00000110
11110100
11100001
11101000
11101000
11101101
11101011
11111010
11111101
11110010
00001000
00010100
00011100
00010000
00000110
00001110
11111110
00000101
00000101
00010111
11111100
11011101
00010101
00000001
11111100
00000110
00000001
00111011
00001000
00011111
11111011
11010001
00000000
11100011
11110110
11011011
11101110
00001011
00011010
00001010
00101000
00011001
00010011
11111100
11110111
11110011
11111000
11111111
11101100
11110111
00010111
00001010
11111001
11110110
00000100
00011111
00101111
00011100
00000110
11111101
11101101
00001000
00010001
00010010
00001111
00011011
00010001
00100011
00100111
00000001
11110100
11110110
11111010
11011101
00000011
11111101
10111101
10111000
11011101
00000111
11111011
11111111
00011010
00100011
00010000
00001001
00000011
11111010
11110010
00101000
00101111
00110110
00011110
00101010
00100001
00010101
00100101
00011111
00011100
00011101
00010001
00010011
00100110
01010001
01000000
11101101
11101001
11110111
11111010
11111101
00000000
11111111
00010110
00000111
11110000
11101101
00100011
00100110
00101010
00100110
01000011
00110011
00111110
00010010
00010000
00001011
00000110
11100100
00010101
00001111
11110100
00010010
00010101
11111110
11110111
11111000
00000000
11110110
00001000
11111001
11111011
11101010
00010111
00011101
00001011
00000101
00010110
00001100
00010100
11101111
11101110
11110110
00001001
11110001
00011101
00000010
00010000
11110101
11010101
11010110
00000001
00000111
11110110
00000011
