11110110
11111011
00000001
00000011
00001011
00001010
00000011
11111001
11111010
00000111
00001010
11111000
00011010
00011000
00010110
00010010
11110111
00001000
00000100
00001001
00000010
00000100
11111110
11111010
00000000
11110111
11110110
11110110
00000101
11111100
00001000
00000011
00001001
00010011
00101001
00101001
00011111
00111011
00111101
00111111
01001100
00100011
11101100
00010101
01011101
01100100
00110110
00110000
00101110
00100111
00110011
00100001
00000110
00000000
00000111
11111011
00000011
11111011
00000110
00000011
00000001
00010010
00011001
01000001
01010101
01101100
01111111
01110010
01000100
00001101
00110001
00010011
11111011
00011101
00010111
00010000
00101111
00110001
00111001
01001001
00110110
00011101
11111110
00001000
00000010
00001010
11011011
00001010
11100100
00000111
00100000
00001000
00010101
01001001
00100100
01001000
00000100
00001011
00001111
00000111
00010100
00000111
00001001
11111110
11101011
11111011
11110001
11110111
00010010
00000001
00100100
11111111
11110110
00000000
11011100
11001001
11111000
00010000
00101000
00010101
00011001
00011001
00010000
00010110
11111111
11100111
11111101
11111001
11111010
00001101
11110101
00000011
00000011
11101001
11110000
11110010
11001111
11011110
11100101
00101111
00000010
00000110
00011110
11100101
00011110
11101011
11110101
11100011
11101001
11010011
11101111
11110000
11101000
11101100
11111110
11111100
11111011
00001110
00010011
00001110
00000101
00000101
11101111
11101101
11101101
11110001
00011110
00011111
11110110
11110001
00101010
11101001
00100000
00000010
11110010
11010100
11000101
11010000
11011011
11101010
11101001
11100110
11110011
11111110
00001001
00000000
11111111
11111010
00001001
00001001
00000110
11101100
11101111
11001101
11010001
00011010
11110110
11001011
00011011
11110110
00101011
11100100
11100100
11001011
11010100
11101011
11011000
11111111
11100011
11111000
11101001
11111111
11110110
11111011
00000100
11111100
11111000
00000101
11111011
11110011
11111110
11101011
11011101
00010101
00100010
00000000
00101111
00010001
00000111
11010111
11001100
11010011
11010001
11101010
11110000
11110101
11100011
11110101
11111111
11111111
11110101
11111101
11110101
11111111
11110100
00001011
11111010
11101100
11110000
10111011
11001101
10111011
00000111
11010101
00001110
00010001
11111110
11010100
11011001
11011100
11100101
11111011
11111001
11110001
11110001
00010101
00001101
00010010
00000001
11101110
11101010
00000100
00000100
11111010
11110010
11101010
11101000
10011011
10101100
11010110
11110111
11100001
11110111
00010000
11110010
11101111
11101111
11100100
11110010
00000111
11111011
11111111
00010001
11111110
00000010
11110100
11100101
11111111
11100011
11101101
11101001
11100001
11011111
11111110
11011110
10110101
10110000
11010001
11110111
00011101
11111001
00001010
11110000
00000100
11111111
11111010
00001110
00001001
00000111
00000001
11110011
11100010
11011001
11010001
11010110
11101100
11110001
00001111
11111001
00001000
11111001
00000101
11101001
11011100
10011101
11000101
11110110
11100000
00010100
11110000
11110101
00000000
00010110
00000110
00011000
00010110
00001101
11101111
11101100
11100111
11100110
11001101
11101011
11110111
11111010
00010000
00001110
00011011
00100100
00110011
00110110
11111010
10011000
11011010
00000010
11010011
11111100
00000000
11111111
00000001
00011100
00011100
00100000
00010110
00011111
11111110
11110111
11110100
11111010
11101010
11110001
11101010
00000111
00000011
11110111
11111111
00011110
01000010
00101001
11111101
11101010
00101000
11011111
11011010
11011101
00000111
11111010
00001110
00100110
00110100
00100100
00110000
00100101
00100100
00000101
00001100
00000011
00000100
00000111
11110100
00010001
11111110
00000000
00011001
00011111
00010100
00001100
01000010
01010011
00110111
11011110
11100110
11101101
00011101
00000000
00100010
00010101
00111000
00101101
00100111
00100111
00101100
00100110
00010011
00000011
00001001
00010010
11111101
11110111
11111111
00001101
00011101
00011101
00001001
00011101
01011001
00000101
00101110
00000010
11100010
00001110
00101110
00001110
00011000
00010100
00100011
00100011
00101101
00111001
01010100
00101110
00100000
00011000
00010100
00001101
00011110
00010101
00001011
00000100
00100101
00011001
00000111
00000001
01111000
00101011
00111011
11111110
11011101
00010001
00011101
11110001
11110010
00000000
00001110
00011111
00011100
00111111
00111110
00101101
00100011
00001110
00010110
00011000
00000101
00001010
00010110
00000001
00011110
00011011
00000000
11100100
00111111
11110100
01010000
11110001
11011101
11010101
00011101
00000010
11011110
00000010
00010001
00000111
00010101
00100000
00010001
00001111
00001110
00010100
00010111
00010010
00011100
00001111
00010000
00000111
00011000
00011110
00010010
00000000
00111011
11100110
00010010
11110101
11101110
11000100
00000010
00000110
11110011
11110111
00001101
11111110
00001100
00100101
00011001
00010010
11111011
00001111
00001100
00001001
00010000
00010100
00011001
00001001
00011010
00101010
00001010
11101010
00100010
00101100
00010001
00000000
00011001
00001000
00101011
00001001
00010010
11100011
00010100
11111011
00001101
00000100
00001100
11111110
11110110
00010010
00010010
00000100
00001000
00100110
00011001
00010100
00011001
00010000
11110011
00000100
00000001
00000111
11110010
11101110
00000111
01001101
00011010
00001111
00000101
11100110
00000110
00001011
00000010
00001111
00000010
00001111
00010100
00000101
00001100
00001101
00010101
00010010
00001010
00001001
11110111
00000101
00001011
11100101
11110000
00100111
00001110
11100011
11111011
01001101
11111111
11101101
11111011
11111111
11101000
11110110
00000110
11111111
00000101
00000101
00010000
11110110
00000110
00000010
11110010
11111001
11110101
11111101
00000110
00000001
11100101
11101100
11011000
11011111
11111111
00001001
00000110
00001001
11111010
11100010
11110011
11011011
11101000
00000010
00000011
11111110
11110100
11100110
11101101
11110110
11101011
11100101
11010010
11110011
11110111
11110111
11111111
00000110
00001100
00001001
11101000
11000101
11111010
00001001
11111011
11111111
11010111
11111011
11011111
11100000
11100101
11101110
11111000
11110100
11100111
11101001
11010010
11010110
11011100
11011001
11011111
11011100
11100110
11100110
11101100
11100000
00010110
00010010
00101100
00100000
00000010
00000111
00001000
00100111
11011111
00000111
00000011
11111101
11100010
11011110
11010001
11100001
11111001
11111011
11111000
11111011
11111100
11111011
11101000
11111101
00010011
00010100
00001000
11011111
11100101
11011101
00101100
00010001
11111000
00001000
00000000
00001001
00011011
01000111
00110101
00110000
00011100
00100111
00000001
00000011
00001000
00011001
00000110
00100111
00001100
00100001
00011010
00011010
00000011
00100010
00000000
00000101
00100010
00101010
11100011
11111010
11111001
00000100
00000000
00000101
11111010
11100110
11010001
00001000
00100001
00010101
00011010
00110010
00100101
00101001
00010100
00010110
11101010
11111101
00001010
00110011
00110101
00011000
11111001
11111010
11010000
11111011
11111100
00000011
00000001
