00000011
11110101
00001000
11111110
11111111
00000111
00000011
11111101
11111001
11111101
00000100
00000100
00010101
00010110
00011010
00000000
00000011
11110110
00001001
00000000
00001000
11111011
00000110
11110110
00000001
00000010
00001000
00000001
11111101
00000100
11110111
11111100
11110010
11111110
00010110
00010001
00000011
00000011
00000010
11111011
11011111
11100100
11100011
11110001
00001000
11110001
11101001
11000111
11100000
11110001
00010100
00100010
00000101
11110111
00000001
00000101
00000101
00000010
00000110
00010111
11101111
11110110
00001101
00010010
00011111
00101101
00101101
00111100
01010110
00011000
00110000
01000000
01010111
01001111
01001011
00011010
00011100
11111111
11101000
00001001
00100011
00100000
00000010
00001001
11111111
00000110
00101000
00110011
00011111
00011001
00101010
00100111
00100101
00101101
00110010
00101001
00111101
00001101
00001111
00110000
00100001
00011111
00011110
00101100
00101001
00011100
00010010
11110111
00001001
00011000
11111110
11111101
00000000
11111001
00011011
00110000
11010100
00010101
01001001
00101100
00011010
00010010
00010111
00100101
00011111
00000011
00011000
00001110
00011101
00001000
00100010
00010100
00000010
11111001
11110000
11111011
00011010
00110111
00001110
11011101
00001000
11110111
11111011
00101101
11101101
00100111
00010011
00010111
00011001
00010110
00000011
00000001
00001100
11110110
11111010
11110100
00011011
00000000
11111011
11101111
00000001
00000101
00001110
00100101
00000011
00100010
00001011
11101101
00001000
00101010
00101111
00000011
00100000
00111000
00010011
00000010
00001000
00100101
00010100
00000000
00000011
11110110
11110100
00001010
11111011
11111011
11111110
11111100
11111101
11111110
11111000
00000001
00110000
01000100
00110101
00001101
00001001
01000101
00100110
00110010
00101011
00110011
00000011
11110100
00001101
00010001
00010000
00001000
00000001
11111101
00001110
11110010
00000000
11111110
00000011
00000111
00100000
00011001
00010111
00000010
11111001
00001001
00010111
00100100
11101011
00110100
00001001
00011000
00010110
00001001
11111010
00001011
11111001
11111101
00001101
00010111
00001011
00000100
00010101
00010111
00000010
00001111
00010010
00110001
00011001
00001011
00011110
00001011
00000000
00100001
01000000
00100011
00010000
00100001
00111000
00001111
00011011
00000100
11111111
00010001
00000111
00001100
11111100
00001001
00010111
00001000
00010000
00100101
00011110
00011010
00001101
00001001
00010111
00010111
00101100
00000001
00000100
00111010
00110111
00101010
00000010
00010101
00100101
00010001
00000001
00001001
00001100
00001101
00001011
11110010
11111011
11101110
11100011
00000010
00000100
00100000
00001001
11110100
11101101
11110000
11110010
11101000
11101001
11100100
00000011
00101001
01001110
00010001
00010101
00010010
00011111
00001001
00000011
00000001
11101111
11110000
11100101
11100011
11010010
11011101
11011100
11011111
11111100
00011101
00001110
11011011
11010110
11010011
10110101
10101011
10110001
10111000
11000111
00011010
00110010
00000111
00001000
00010011
11110110
11110110
11100111
11010000
11001110
11001101
11001101
11000110
11100001
11001010
11010000
11110000
00011011
00011101
00000100
11010100
11010100
11000111
11001010
10101101
10101011
10011110
10100110
00001111
01000000
00001100
11110110
00000000
00001000
11100001
10100001
10100011
10110000
10110100
11010001
11010001
11011101
11010000
11101001
00011011
00100100
00001001
00000110
11110011
11110010
11101101
11110010
11100000
11001010
11011010
11110110
00100000
01001110
00010110
00100011
11111011
00001011
11111001
11001011
10110000
11010001
11001001
11100010
11101101
11101101
11101100
11111101
00001110
00101011
00010110
00000001
11110100
11110101
00001101
11111001
11111111
11111000
11101101
11110110
11111010
01010011
00011110
00011110
00011011
00100000
11100010
11110000
11110010
11111010
11101000
11111001
00000001
00000000
00000101
00001110
00110001
00100101
00001000
00000100
11100000
11111011
00001011
11111100
11111011
11101011
11110011
00011101
11101110
00100001
00101011
11111101
00100010
00101101
00000011
11111110
00001111
00011110
11111001
11111001
11111001
11111100
11111111
00101101
00111110
00011101
00000011
11110100
11110010
00000011
00010001
00000000
00010110
00001001
11111111
00100011
00011111
00101100
00110100
11111010
00011000
01000101
00010111
00100110
00010101
00100001
00001100
00000111
00000111
11111111
00001011
00010010
00100111
00000110
11110111
11110111
00000011
00010011
00010001
11111110
00001001
11111110
11111100
00000011
00110100
00111110
01000011
11110111
00011001
00100111
00110001
00111000
00101111
00101000
00010011
00011011
00001110
00001010
00000011
00010011
00100011
00001101
00010010
00000111
00001100
00000101
00011001
00011001
00000111
00010000
00000111
00010110
00110000
00111100
00111010
11111001
11101110
00000010
00100011
00101010
00011100
00001011
00001111
00010010
00100110
00011010
00001100
00001100
00011110
00001110
00100011
00010000
00011011
11111101
00000010
00001010
00100100
00000011
00000111
00011000
01001011
00111111
00011001
00000100
11100100
00011111
01000111
00011001
00001110
00011110
00010000
00011111
00100010
00001010
00000011
00000001
00001011
00001011
00010111
00010110
00001111
00000111
00001001
00011111
00001001
00001011
00011111
00100011
00011110
00100101
00000001
11110100
00000000
01000000
00100001
00000110
11110000
00000010
00010001
00001101
00000110
00000100
00000100
00000111
00010000
00010110
00000101
00011001
00011001
00011000
00011011
00001001
11101110
00011110
00110101
00101100
00111011
00100010
00000001
11110110
00000111
00111111
00001001
00011101
00000110
11110001
00001100
11110110
00000101
11110100
00000101
00000110
11100111
11111100
11111100
00000100
00001010
00001100
00011100
00011011
11111110
00001001
00011000
00100111
00110000
00000111
11110110
00000110
00000001
00110000
00110111
01001011
00101101
00011001
00001111
11110010
00000000
11111001
00010010
11110110
11101100
11111101
00001101
11111000
11111110
00000101
00010000
00010000
11101011
11110111
00010011
00101000
00101011
01001001
11111111
11110110
00000000
00001111
01011000
00011111
00001011
00111010
00011010
00010001
00011011
00001111
00001110
00011001
00010110
00011011
00000100
11111100
11111100
11111010
11101101
11100110
11100111
11010101
11110100
01000000
00101000
00100000
00001000
00000001
11111100
11110110
01000100
00010011
11111101
00011111
00100111
00101101
01000111
00011101
00101110
00110000
00011010
00000100
00001100
00001011
00010001
11111110
11110011
00000000
11111110
00000100
00010101
00101000
00000000
00010001
00000101
11110111
00001011
11110110
11100101
10111100
11001001
11000110
11110011
00000001
00000010
11111111
00000011
11100110
11110110
11101010
00001001
00000100
00000101
11100010
11111010
11100101
11011111
11001101
00000101
00000011
00010011
00001010
00001010
00000110
11110111
00001010
00001010
00100111
00011001
11110001
11101011
11110111
00000000
00110111
01001100
00100111
00101001
11110101
01001000
00101001
11110010
11010010
11101001
11001100
11000111
11001110
00000011
00000101
00000011
11111110
00001000
