-- begin_signature
-- weights(numWeights
-- 16
-- neuronNumber
-- 6
-- layerNumber
-- 1
-- addressWidth
-- 4
-- dataWidth
-- 16
-- weightFile
-- "weights/weight_L1_N6.mif")
-- end_signature
WIDTH=16;
DEPTH=16;

ADDRESS_RADIX=UNS;
DATA_RADIX=BIN;

CONTENT BEGIN
	15 :	1111111111011111;
	14 :	1111111111000011;
	13 :	0000000000111000;
	12 :	1111111110000011;
	11 :	0000000000011111;
	10 :	0000000000000010;
	9 :	0000000000111111;
	8 :	0000000000010100;
	7 :	1111111111100010;
	6 :	1111111111110111;
	5 :	1111111111011011;
	4 :	0000000000110111;
	3 :	1111111111000111;
	2 :	0000000000011010;
	1 :	0000000000001110;
	0 :	1111111111100001;
END;
