-- begin_signature
-- weights(numWeights
-- 16
-- neuronNumber
-- 0
-- layerNumber
-- 1
-- addressWidth
-- 4
-- dataWidth
-- 16
-- weightFile
-- "weights/weight_L1_N0.mif")
-- end_signature
WIDTH=16;
DEPTH=16;

ADDRESS_RADIX=UNS;
DATA_RADIX=BIN;

CONTENT BEGIN
	15 :	0000000000000010;
	14 :	0000000000100110;
	13 :	1111111110010111;
	12 :	1111111111100111;
	11 :	1111111111010101;
	10 :	0000000000011110;
	9 :	1111111110001101;
	8 :	0000000000000011;
	7 :	1111111110101000;
	6 :	0000000000100001;
	5 :	0000000000000110;
	4 :	0000000001000011;
	3 :	1111111111100100;
	2 :	0000000000110001;
	1 :	1111111111111000;
	0 :	0000000000100110;
END;
