-- begin_signature
-- weights(numWeights
-- 784
-- neuronNumber
-- 13
-- layerNumber
-- 0
-- addressWidth
-- 10
-- dataWidth
-- 16
-- weightFile
-- "weights/weight_L0_N13.mif")
-- end_signature
WIDTH=16;
DEPTH=784;

ADDRESS_RADIX=UNS;
DATA_RADIX=BIN;

CONTENT BEGIN
	783 :	1111111111111000;
	782 :	1111111111111011;
	781 :	1111111111111001;
	780 :	1111111111101110;
	779 :	1111111111111110;
	778 :	0000000000000010;
	777 :	1111111111110110;
	776 :	1111111111101100;
	775 :	1111111111110011;
	774 :	0000000000001000;
	773 :	0000000000000111;
	772 :	1111111111111001;
	771 :	1111111111111001;
	770 :	0000000000101010;
	769 :	1111111111111011;
	768 :	0000000000010001;
	767 :	0000000000010000;
	766 :	1111111111101100;
	765 :	0000000000001100;
	764 :	0000000000001001;
	763 :	0000000000000010;
	762 :	0000000000010100;
	761 :	0000000000000000;
	760 :	0000000000010101;
	759 :	1111111111110100;
	758 :	0000000000001101;
	757 :	0000000000010000;
	756 :	1111111111110000;
	755 :	0000000000001001;
	754 :	1111111111101101;
	753 :	1111111111110110;
	752 :	1111111111110000;
	751 :	1111111111110000;
	750 :	1111111111101111;
	749 :	1111111111111110;
	748 :	0000000000000010;
	747 :	1111111111110111;
	746 :	1111111111111011;
	745 :	1111111111100011;
	744 :	1111111111110011;
	743 :	1111111111000100;
	742 :	0000000000010010;
	741 :	0000000000001101;
	740 :	0000000000001111;
	739 :	1111111111110111;
	738 :	0000000000000010;
	737 :	1111111111111011;
	736 :	0000000000000100;
	735 :	0000000000111001;
	734 :	0000000000000010;
	733 :	1111111111110010;
	732 :	1111111111111110;
	731 :	0000000000001101;
	730 :	1111111111111011;
	729 :	1111111111110110;
	728 :	1111111111110010;
	727 :	1111111111111100;
	726 :	1111111111111101;
	725 :	1111111111110001;
	724 :	0000000000001100;
	723 :	1111111111101100;
	722 :	1111111111111000;
	721 :	1111111111111001;
	720 :	1111111111011100;
	719 :	1111111111100000;
	718 :	1111111111111011;
	717 :	1111111111110111;
	716 :	1111111111011000;
	715 :	1111111111100001;
	714 :	1111111111011010;
	713 :	1111111111000001;
	712 :	1111111111101010;
	711 :	0000000000100100;
	710 :	1111111111100111;
	709 :	1111111111110110;
	708 :	1111111111011110;
	707 :	0000000000011011;
	706 :	0000000000010010;
	705 :	1111111111100101;
	704 :	1111111111110001;
	703 :	0000000000011001;
	702 :	1111111111110010;
	701 :	0000000000010001;
	700 :	0000000000010100;
	699 :	0000000000000111;
	698 :	1111111111101101;
	697 :	0000000000000100;
	696 :	1111111111100100;
	695 :	1111111111011000;
	694 :	1111111111111100;
	693 :	1111111111110111;
	692 :	1111111111011000;
	691 :	1111111111101100;
	690 :	1111111111110001;
	689 :	0000000000011000;
	688 :	0000000000001010;
	687 :	0000000000000101;
	686 :	1111111111100100;
	685 :	1111111111101010;
	684 :	1111111111110101;
	683 :	1111111111111101;
	682 :	0000000000000010;
	681 :	0000000000010011;
	680 :	0000000000000101;
	679 :	0000000000000011;
	678 :	1111111111100111;
	677 :	1111111111101101;
	676 :	1111111111110100;
	675 :	1111111111101100;
	674 :	0000000000001101;
	673 :	1111111111101011;
	672 :	0000000000000111;
	671 :	1111111111110010;
	670 :	1111111111101010;
	669 :	1111111111111001;
	668 :	1111111111101000;
	667 :	0000000000000010;
	666 :	1111111111111011;
	665 :	0000000000000100;
	664 :	0000000000000110;
	663 :	1111111111001111;
	662 :	1111111111000100;
	661 :	0000000000001010;
	660 :	0000000000001010;
	659 :	1111111111101001;
	658 :	1111111111101110;
	657 :	1111111111010100;
	656 :	1111111111110111;
	655 :	1111111111111100;
	654 :	0000000000000110;
	653 :	1111111111011000;
	652 :	1111111111110010;
	651 :	0000000000000000;
	650 :	1111111111110111;
	649 :	1111111111100000;
	648 :	0000000000000110;
	647 :	1111111111110100;
	646 :	1111111111111111;
	645 :	0000000000001101;
	644 :	1111111111101110;
	643 :	0000000000010100;
	642 :	0000000000001010;
	641 :	0000000000100111;
	640 :	1111111111111110;
	639 :	1111111111110110;
	638 :	0000000000001011;
	637 :	1111111111100011;
	636 :	1111111111110000;
	635 :	1111111111101000;
	634 :	1111111111011111;
	633 :	1111111111010011;
	632 :	1111111111001100;
	631 :	1111111111001111;
	630 :	1111111111110111;
	629 :	1111111111100001;
	628 :	1111111111100001;
	627 :	1111111111101111;
	626 :	1111111111110101;
	625 :	1111111110111010;
	624 :	1111111111001111;
	623 :	1111111111110000;
	622 :	0000000000000110;
	621 :	0000000000011110;
	620 :	0000000000110010;
	619 :	0000000000101011;
	618 :	1111111111110111;
	617 :	0000000000001011;
	616 :	1111111111110000;
	615 :	0000000000010101;
	614 :	0000000000101011;
	613 :	0000000000010111;
	612 :	0000000000011100;
	611 :	1111111111110100;
	610 :	0000000000000011;
	609 :	1111111111110000;
	608 :	1111111111110110;
	607 :	1111111111110000;
	606 :	1111111111101111;
	605 :	1111111111101110;
	604 :	1111111111011000;
	603 :	1111111111110111;
	602 :	1111111111101011;
	601 :	1111111111100110;
	600 :	1111111111010001;
	599 :	1111111111010011;
	598 :	0000000000000000;
	597 :	1111111111101111;
	596 :	0000000000010011;
	595 :	0000000000000111;
	594 :	1111111111101111;
	593 :	1111111111101101;
	592 :	0000000000001110;
	591 :	0000000000100100;
	590 :	0000000000100001;
	589 :	0000000000000001;
	588 :	1111111111111001;
	587 :	0000000000000010;
	586 :	0000000000101011;
	585 :	0000000000000000;
	584 :	1111111111011010;
	583 :	0000000000001000;
	582 :	0000000000101111;
	581 :	0000000000010101;
	580 :	0000000000010101;
	579 :	0000000000001100;
	578 :	0000000000001011;
	577 :	1111111111100110;
	576 :	1111111111101110;
	575 :	1111111111100001;
	574 :	1111111111111101;
	573 :	1111111111110010;
	572 :	1111111111100110;
	571 :	0000000000011110;
	570 :	1111111111110011;
	569 :	1111111111111111;
	568 :	1111111111101101;
	567 :	0000000000000000;
	566 :	1111111111111011;
	565 :	0000000000001000;
	564 :	0000000000010101;
	563 :	0000000001000000;
	562 :	1111111111111001;
	561 :	0000000000000010;
	560 :	1111111111101100;
	559 :	1111111111111000;
	558 :	0000000000001111;
	557 :	1111111111011100;
	556 :	1111111111110101;
	555 :	0000000000000011;
	554 :	1111111111110001;
	553 :	0000000000011000;
	552 :	0000000000000101;
	551 :	0000000000000100;
	550 :	0000000000001110;
	549 :	1111111111111100;
	548 :	0000000000001000;
	547 :	1111111111101110;
	546 :	1111111111111001;
	545 :	0000000000010010;
	544 :	0000000000000011;
	543 :	0000000000001011;
	542 :	0000000000011101;
	541 :	1111111111111000;
	540 :	0000000000011000;
	539 :	1111111111101011;
	538 :	0000000000001011;
	537 :	0000000000001010;
	536 :	0000000000110001;
	535 :	0000000000101110;
	534 :	0000000000000011;
	533 :	1111111111110010;
	532 :	1111111111110011;
	531 :	1111111111110011;
	530 :	0000000001000001;
	529 :	0000000000000101;
	528 :	1111111111111111;
	527 :	0000000000000000;
	526 :	0000000000000000;
	525 :	0000000000010111;
	524 :	0000000000000111;
	523 :	0000000000011001;
	522 :	0000000000001001;
	521 :	1111111111111111;
	520 :	0000000000000111;
	519 :	1111111111101100;
	518 :	0000000000001011;
	517 :	1111111111110110;
	516 :	0000000000001010;
	515 :	1111111111111010;
	514 :	0000000000010100;
	513 :	1111111111110111;
	512 :	0000000000000110;
	511 :	0000000000001000;
	510 :	0000000000100110;
	509 :	0000000000100010;
	508 :	0000000000000000;
	507 :	0000000000010010;
	506 :	1111111111101101;
	505 :	1111111111101101;
	504 :	0000000000000111;
	503 :	1111111111110110;
	502 :	0000000001100010;
	501 :	0000000000001110;
	500 :	0000000000011101;
	499 :	1111111111110011;
	498 :	0000000000000100;
	497 :	1111111111111101;
	496 :	1111111111111110;
	495 :	0000000000001001;
	494 :	0000000000011001;
	493 :	0000000000011011;
	492 :	0000000000000000;
	491 :	0000000000001001;
	490 :	1111111111110110;
	489 :	0000000000011000;
	488 :	1111111111101011;
	487 :	1111111111111011;
	486 :	1111111111110011;
	485 :	1111111111110101;
	484 :	0000000000010100;
	483 :	0000000000100000;
	482 :	0000000000010011;
	481 :	0000000000001111;
	480 :	1111111111110010;
	479 :	1111111111100011;
	478 :	0000000000011010;
	477 :	0000000000000001;
	476 :	1111111111101011;
	475 :	0000000000010110;
	474 :	0000000000011011;
	473 :	0000000001001010;
	472 :	0000000000011101;
	471 :	0000000000011000;
	470 :	0000000000100111;
	469 :	0000000000001100;
	468 :	0000000000100101;
	467 :	1111111111110011;
	466 :	1111111111111010;
	465 :	0000000000010011;
	464 :	0000000000001100;
	463 :	0000000000010001;
	462 :	0000000000100010;
	461 :	0000000000011110;
	460 :	0000000000001000;
	459 :	1111111111111111;
	458 :	1111111111111001;
	457 :	1111111111100000;
	456 :	1111111111111111;
	455 :	1111111111110110;
	454 :	1111111111111100;
	453 :	0000000000001100;
	452 :	0000000000001110;
	451 :	0000000000010010;
	450 :	0000000000000011;
	449 :	1111111111111011;
	448 :	0000000000010011;
	447 :	0000000000001100;
	446 :	0000000000000000;
	445 :	0000000000011001;
	444 :	0000000000110001;
	443 :	1111111111101110;
	442 :	0000000000001100;
	441 :	0000000000011010;
	440 :	0000000000000101;
	439 :	1111111111101111;
	438 :	0000000000000001;
	437 :	0000000000010100;
	436 :	0000000000001010;
	435 :	0000000000101000;
	434 :	0000000000010011;
	433 :	0000000000101001;
	432 :	0000000000001001;
	431 :	0000000000011100;
	430 :	0000000000000001;
	429 :	1111111111110010;
	428 :	1111111111011110;
	427 :	0000000000000010;
	426 :	1111111111111100;
	425 :	0000000000001001;
	424 :	1111111111011100;
	423 :	1111111111100010;
	422 :	0000000000001001;
	421 :	1111111111111101;
	420 :	1111111111101110;
	419 :	1111111111101010;
	418 :	0000000000110001;
	417 :	0000000000010010;
	416 :	0000000000010110;
	415 :	0000000000100001;
	414 :	0000000000101000;
	413 :	1111111111110111;
	412 :	0000000000000110;
	411 :	0000000000000111;
	410 :	0000000000010010;
	409 :	1111111111101011;
	408 :	1111111111111000;
	407 :	1111111111110011;
	406 :	1111111111110011;
	405 :	0000000000101101;
	404 :	0000000000000111;
	403 :	0000000000110011;
	402 :	1111111111111111;
	401 :	0000000000000100;
	400 :	1111111111100110;
	399 :	1111111111111010;
	398 :	1111111111010111;
	397 :	1111111111111010;
	396 :	1111111111011101;
	395 :	1111111111100001;
	394 :	1111111111110011;
	393 :	1111111111101101;
	392 :	0000000000010011;
	391 :	1111111111111100;
	390 :	0000000000001100;
	389 :	0000000000110100;
	388 :	0000000000001011;
	387 :	1111111111111111;
	386 :	1111111111011100;
	385 :	1111111110111010;
	384 :	1111111111001110;
	383 :	1111111111111000;
	382 :	1111111111110100;
	381 :	1111111111100001;
	380 :	0000000000001000;
	379 :	1111111111011000;
	378 :	1111111111101101;
	377 :	0000000000001011;
	376 :	0000000000000010;
	375 :	0000000000011100;
	374 :	1111111111011000;
	373 :	1111111111010100;
	372 :	1111111111110100;
	371 :	1111111111000101;
	370 :	1111111110111111;
	369 :	0000000000000100;
	368 :	1111111111001111;
	367 :	1111111111111110;
	366 :	0000000000000100;
	365 :	1111111111101100;
	364 :	1111111111111001;
	363 :	1111111111110110;
	362 :	0000000000100010;
	361 :	0000000001000101;
	360 :	1111111111111011;
	359 :	1111111111101011;
	358 :	1111111111101010;
	357 :	1111111111110001;
	356 :	1111111111111000;
	355 :	0000000000001100;
	354 :	0000000000000001;
	353 :	0000000000001000;
	352 :	0000000000001101;
	351 :	1111111111110101;
	350 :	1111111111101110;
	349 :	0000000000000001;
	348 :	0000000000001010;
	347 :	1111111111100110;
	346 :	1111111111111000;
	345 :	1111111111100001;
	344 :	1111111111000010;
	343 :	1111111111111000;
	342 :	1111111111111111;
	341 :	0000000000101011;
	340 :	1111111111110111;
	339 :	1111111111100000;
	338 :	1111111111111010;
	337 :	1111111111111010;
	336 :	0000000000001001;
	335 :	1111111111111011;
	334 :	1111111111100100;
	333 :	0000000000011100;
	332 :	0000000000010101;
	331 :	1111111111110111;
	330 :	0000000000001101;
	329 :	0000000000011000;
	328 :	0000000000001110;
	327 :	0000000000001000;
	326 :	0000000000011010;
	325 :	0000000000000110;
	324 :	0000000000010101;
	323 :	1111111111101001;
	322 :	1111111111111001;
	321 :	0000000000011101;
	320 :	1111111111101101;
	319 :	1111111111111111;
	318 :	1111111111111111;
	317 :	1111111111111111;
	316 :	1111111111110101;
	315 :	1111111111110110;
	314 :	0000000000010101;
	313 :	0000000000001110;
	312 :	1111111111010111;
	311 :	0000000000000100;
	310 :	0000000000010001;
	309 :	1111111111101100;
	308 :	0000000000001010;
	307 :	0000000000001011;
	306 :	0000000000101110;
	305 :	0000000000000101;
	304 :	0000000000111011;
	303 :	0000000000010001;
	302 :	1111111111110100;
	301 :	0000000000100000;
	300 :	0000000000001100;
	299 :	0000000000001100;
	298 :	0000000000010000;
	297 :	1111111111111100;
	296 :	0000000000000000;
	295 :	1111111111101110;
	294 :	0000000000001101;
	293 :	0000000000001101;
	292 :	0000000000001000;
	291 :	1111111111101111;
	290 :	0000000000000000;
	289 :	1111111111100000;
	288 :	1111111111010000;
	287 :	1111111111110011;
	286 :	0000000000010111;
	285 :	0000000000000100;
	284 :	0000000000000101;
	283 :	0000000000000111;
	282 :	0000000000001010;
	281 :	0000000000010110;
	280 :	1111111111110110;
	279 :	1111111111101001;
	278 :	0000000000000110;
	277 :	0000000000111011;
	276 :	0000000000110001;
	275 :	0000000000100001;
	274 :	1111111111111010;
	273 :	1111111111111100;
	272 :	0000000000000011;
	271 :	1111111111110110;
	270 :	0000000000001111;
	269 :	0000000000000100;
	268 :	1111111111110110;
	267 :	0000000000001000;
	266 :	0000000000011011;
	265 :	0000000000010000;
	264 :	1111111111110111;
	263 :	1111111111101110;
	262 :	1111111111110111;
	261 :	0000000000000000;
	260 :	0000000000000100;
	259 :	0000000000000111;
	258 :	0000000000000010;
	257 :	0000000000001000;
	256 :	1111111111110010;
	255 :	1111111111110100;
	254 :	1111111111111001;
	253 :	0000000000010110;
	252 :	0000000000001100;
	251 :	0000000000000000;
	250 :	0000000000011111;
	249 :	0000000000011110;
	248 :	1111111111000100;
	247 :	1111111110111011;
	246 :	1111111111100110;
	245 :	1111111111100110;
	244 :	1111111111110111;
	243 :	1111111111100000;
	242 :	1111111111110001;
	241 :	1111111111101001;
	240 :	1111111111011010;
	239 :	1111111111100100;
	238 :	0000000000010011;
	237 :	0000000000010010;
	236 :	0000000000000100;
	235 :	0000000000001001;
	234 :	1111111111110111;
	233 :	1111111111011101;
	232 :	0000000000001000;
	231 :	0000000000000010;
	230 :	1111111111110111;
	229 :	1111111111101100;
	228 :	1111111111101001;
	227 :	1111111111101001;
	226 :	0000000000001100;
	225 :	1111111111111110;
	224 :	0000000000010011;
	223 :	1111111111110100;
	222 :	0000000000011010;
	221 :	1111111111010101;
	220 :	1111111111000000;
	219 :	1111111111000010;
	218 :	1111111111100011;
	217 :	1111111111111011;
	216 :	1111111111111000;
	215 :	1111111111110010;
	214 :	1111111111101110;
	213 :	1111111111101010;
	212 :	1111111111111100;
	211 :	0000000000000101;
	210 :	0000000000001000;
	209 :	1111111111111111;
	208 :	1111111111111001;
	207 :	0000000000010001;
	206 :	1111111111110011;
	205 :	1111111111100111;
	204 :	0000000000000101;
	203 :	1111111111100011;
	202 :	1111111111101010;
	201 :	0000000000000100;
	200 :	0000000000001100;
	199 :	0000000000001000;
	198 :	0000000000000111;
	197 :	1111111111110110;
	196 :	1111111111110011;
	195 :	0000000000010100;
	194 :	1111111111111000;
	193 :	1111111111110100;
	192 :	1111111111011000;
	191 :	1111111111001101;
	190 :	1111111111111000;
	189 :	1111111111011011;
	188 :	1111111111111011;
	187 :	0000000000001010;
	186 :	1111111111100110;
	185 :	1111111111011101;
	184 :	1111111111100101;
	183 :	0000000000010010;
	182 :	0000000000010000;
	181 :	0000000000011000;
	180 :	1111111111110110;
	179 :	1111111111100001;
	178 :	0000000000010010;
	177 :	0000000000000110;
	176 :	0000000000010000;
	175 :	1111111111110010;
	174 :	0000000000011100;
	173 :	0000000000110111;
	172 :	0000000000001111;
	171 :	0000000000000000;
	170 :	0000000000001000;
	169 :	0000000000000011;
	168 :	0000000000001101;
	167 :	1111111111110001;
	166 :	0000000000000000;
	165 :	1111111111110100;
	164 :	1111111111111011;
	163 :	1111111111101110;
	162 :	0000000000011011;
	161 :	1111111111100010;
	160 :	0000000000000110;
	159 :	1111111111110111;
	158 :	1111111111110100;
	157 :	1111111111101111;
	156 :	0000000000001001;
	155 :	0000000000011000;
	154 :	1111111111011010;
	153 :	1111111111101111;
	152 :	1111111111010000;
	151 :	1111111111111001;
	150 :	1111111111110001;
	149 :	1111111111111001;
	148 :	1111111111100111;
	147 :	0000000000000101;
	146 :	0000000000010001;
	145 :	0000000000001011;
	144 :	1111111111100101;
	143 :	0000000000010110;
	142 :	1111111111101101;
	141 :	1111111111110011;
	140 :	1111111111101011;
	139 :	0000000000001000;
	138 :	0000000000000001;
	137 :	0000000000010110;
	136 :	0000000000000111;
	135 :	0000000000001111;
	134 :	0000000000001010;
	133 :	0000000000010110;
	132 :	0000000000000100;
	131 :	0000000000010001;
	130 :	0000000000011100;
	129 :	0000000000000110;
	128 :	1111111111111010;
	127 :	1111111111111010;
	126 :	1111111111010100;
	125 :	1111111110111111;
	124 :	1111111111110000;
	123 :	1111111111101011;
	122 :	0000000000010010;
	121 :	1111111111111111;
	120 :	1111111111111110;
	119 :	0000000000101110;
	118 :	1111111111110110;
	117 :	0000000000011000;
	116 :	1111111111111000;
	115 :	1111111111110010;
	114 :	0000000000000101;
	113 :	1111111111111110;
	112 :	1111111111111111;
	111 :	1111111111101011;
	110 :	0000000000001001;
	109 :	0000000000011001;
	108 :	1111111111110011;
	107 :	0000000000100010;
	106 :	0000000000111100;
	105 :	0000000000001011;
	104 :	0000000000001110;
	103 :	1111111111110100;
	102 :	1111111111111000;
	101 :	0000000000001100;
	100 :	1111111111111100;
	99 :	1111111111100111;
	98 :	1111111111011111;
	97 :	1111111111100101;
	96 :	1111111111111110;
	95 :	0000000000011100;
	94 :	0000000000010011;
	93 :	0000000000010010;
	92 :	0000000000011011;
	91 :	0000000000011110;
	90 :	1111111111111110;
	89 :	1111111111111111;
	88 :	0000000000001111;
	87 :	1111111111111100;
	86 :	1111111111111111;
	85 :	1111111111111110;
	84 :	0000000000010100;
	83 :	1111111111111101;
	82 :	1111111111101010;
	81 :	0000000000001101;
	80 :	0000000000010101;
	79 :	0000000001000101;
	78 :	0000000001001101;
	77 :	0000000000001110;
	76 :	0000000000010111;
	75 :	0000000000100101;
	74 :	1111111111111101;
	73 :	0000000000010100;
	72 :	0000000000001010;
	71 :	0000000000010110;
	70 :	0000000000000011;
	69 :	0000000000100010;
	68 :	1111111111110011;
	67 :	0000000000110110;
	66 :	1111111111010101;
	65 :	0000000000101000;
	64 :	1111111111101111;
	63 :	0000000000010111;
	62 :	0000000000010101;
	61 :	1111111111111100;
	60 :	1111111111111010;
	59 :	0000000000001000;
	58 :	0000000000001100;
	57 :	0000000000010100;
	56 :	1111111111110101;
	55 :	1111111111111000;
	54 :	0000000000010001;
	53 :	1111111111110011;
	52 :	0000000000010001;
	51 :	1111111111111001;
	50 :	1111111111110000;
	49 :	0000000000010101;
	48 :	0000000000000111;
	47 :	0000000000001110;
	46 :	0000000000001100;
	45 :	0000000000111100;
	44 :	0000000000011011;
	43 :	1111111111100110;
	42 :	1111111111110010;
	41 :	1111111111111010;
	40 :	0000000000011001;
	39 :	0000000000010000;
	38 :	1111111111110011;
	37 :	1111111111111100;
	36 :	0000000000001010;
	35 :	1111111111101011;
	34 :	0000000000000010;
	33 :	0000000000010011;
	32 :	0000000000010101;
	31 :	0000000000010101;
	30 :	1111111111111010;
	29 :	1111111111101011;
	28 :	0000000000000000;
	27 :	0000000000010010;
	26 :	1111111111111011;
	25 :	1111111111111101;
	24 :	0000000000001110;
	23 :	1111111111101100;
	22 :	0000000000010001;
	21 :	0000000000000111;
	20 :	1111111111110011;
	19 :	0000000000000011;
	18 :	0000000000000100;
	17 :	1111111111111010;
	16 :	1111111111110011;
	15 :	1111111111111100;
	14 :	0000000000001011;
	13 :	1111111111111100;
	12 :	1111111111110111;
	11 :	1111111111101011;
	10 :	0000000000000010;
	9 :	0000000000010000;
	8 :	1111111111110011;
	7 :	0000000000000000;
	6 :	0000000000001011;
	5 :	1111111111111100;
	4 :	1111111111111000;
	3 :	1111111111110000;
	2 :	1111111111110101;
	1 :	1111111111101111;
	0 :	0000000000001110;
END;
