-- begin_signature
-- weights(numWeights
-- 16
-- neuronNumber
-- 0
-- layerNumber
-- 3
-- addressWidth
-- 4
-- dataWidth
-- 16
-- weightFile
-- "weights/weight_L3_N0.mif")
-- end_signature
WIDTH=16;
DEPTH=16;

ADDRESS_RADIX=UNS;
DATA_RADIX=BIN;

CONTENT BEGIN
	15 :	1111111111010100;
	14 :	0000000001010101;
	13 :	0000000001100110;
	12 :	0000000001000111;
	11 :	0000000000010110;
	10 :	1111111110001011;
	9 :	1111111111100011;
	8 :	1111111111011001;
	7 :	0000000000110000;
	6 :	1111111111001110;
	5 :	1111111110110110;
	4 :	1111111110110110;
	3 :	1111111110111000;
	2 :	0000000001001001;
	1 :	0000000000010110;
	0 :	1111111111001011;
END;
