-- begin_signature
-- weights(numWeights
-- 16
-- neuronNumber
-- 9
-- layerNumber
-- 2
-- addressWidth
-- 4
-- dataWidth
-- 16
-- weightFile
-- "weights/weight_L2_N9.mif")
-- end_signature
WIDTH=16;
DEPTH=16;

ADDRESS_RADIX=UNS;
DATA_RADIX=BIN;

CONTENT BEGIN
	15 :	0000000000101000;
	14 :	1111111111001101;
	13 :	1111111110011111;
	12 :	0000000000110110;
	11 :	0000000000010111;
	10 :	1111111111101010;
	9 :	1111111111000100;
	8 :	0000000000001111;
	7 :	1111111111111010;
	6 :	0000000000100100;
	5 :	0000000001101100;
	4 :	0000000000011001;
	3 :	1111111111101000;
	2 :	1111111111001000;
	1 :	0000000000101110;
	0 :	1111111111110100;
END;
