-- begin_signature
-- weights(numWeights
-- 16
-- neuronNumber
-- 8
-- layerNumber
-- 1
-- addressWidth
-- 4
-- dataWidth
-- 16
-- weightFile
-- "weights/weight_L1_N8.mif")
-- end_signature
WIDTH=16;
DEPTH=16;

ADDRESS_RADIX=UNS;
DATA_RADIX=BIN;

CONTENT BEGIN
	15 :	0000000000111011;
	14 :	1111111101111111;
	13 :	0000000001011001;
	12 :	1111111110010110;
	11 :	1111111111111011;
	10 :	1111111111100110;
	9 :	1111111111101100;
	8 :	1111111111010010;
	7 :	0000000000001011;
	6 :	1111111111001110;
	5 :	0000000000001101;
	4 :	0000000000000011;
	3 :	1111111110010001;
	2 :	0000000000110101;
	1 :	1111111111111111;
	0 :	0000000000110011;
END;
