-- begin_signature
-- weights(numWeights
-- 16
-- neuronNumber
-- 5
-- layerNumber
-- 2
-- addressWidth
-- 4
-- dataWidth
-- 16
-- weightFile
-- "weights/weight_L2_N5.mif")
-- end_signature
WIDTH=16;
DEPTH=16;

ADDRESS_RADIX=UNS;
DATA_RADIX=BIN;

CONTENT BEGIN
	15 :	0000000000100110;
	14 :	0000000000010110;
	13 :	0000000001011001;
	12 :	1111111110111001;
	11 :	0000000000101101;
	10 :	1111111111000001;
	9 :	1111111111000110;
	8 :	1111111110100010;
	7 :	1111111111111011;
	6 :	0000000000100110;
	5 :	1111111111101001;
	4 :	1111111111110100;
	3 :	0000000000010001;
	2 :	0000000001000101;
	1 :	1111111111011100;
	0 :	0000000000111100;
END;
