-- begin_signature
-- weights(numWeights
-- 784
-- neuronNumber
-- 6
-- layerNumber
-- 0
-- addressWidth
-- 10
-- dataWidth
-- 16
-- weightFile
-- "weights/weight_L0_N6.mif")
-- end_signature
WIDTH=16;
DEPTH=784;

ADDRESS_RADIX=UNS;
DATA_RADIX=BIN;

CONTENT BEGIN
	783 :	0000000000001110;
	782 :	0000000000001111;
	781 :	1111111111110100;
	780 :	1111111111101110;
	779 :	1111111111111011;
	778 :	0000000000000111;
	777 :	0000000000001110;
	776 :	1111111111110101;
	775 :	0000000000001101;
	774 :	1111111111110000;
	773 :	1111111111011101;
	772 :	1111111111101111;
	771 :	1111111111111110;
	770 :	0000000000000101;
	769 :	1111111111111010;
	768 :	0000000000001100;
	767 :	0000000000010111;
	766 :	0000000000001101;
	765 :	0000000000001111;
	764 :	1111111111110011;
	763 :	1111111111101111;
	762 :	0000000000000101;
	761 :	0000000000000011;
	760 :	1111111111110001;
	759 :	1111111111110011;
	758 :	1111111111111010;
	757 :	1111111111111111;
	756 :	1111111111110101;
	755 :	1111111111111010;
	754 :	1111111111111010;
	753 :	1111111111101110;
	752 :	0000000000000000;
	751 :	0000000000010000;
	750 :	0000000000011011;
	749 :	0000000000011111;
	748 :	1111111111100010;
	747 :	0000000000001100;
	746 :	1111111111101101;
	745 :	0000000000110111;
	744 :	0000000000101010;
	743 :	1111111111101100;
	742 :	0000000000010011;
	741 :	1111111111101111;
	740 :	0000000000101001;
	739 :	0000000000011101;
	738 :	0000000000001001;
	737 :	0000000000010011;
	736 :	1111111111010011;
	735 :	1111111111010110;
	734 :	1111111111110101;
	733 :	1111111111100100;
	732 :	0000000000000001;
	731 :	1111111111110010;
	730 :	0000000000000000;
	729 :	0000000000001010;
	728 :	0000000000010011;
	727 :	1111111111110100;
	726 :	1111111111110000;
	725 :	0000000000010001;
	724 :	0000000000010100;
	723 :	0000000000100011;
	722 :	0000000000010110;
	721 :	0000000000100010;
	720 :	0000000000010101;
	719 :	0000000001001110;
	718 :	1111111111111011;
	717 :	0000000000011110;
	716 :	0000000000000100;
	715 :	1111111111000011;
	714 :	1111111111110100;
	713 :	1111111111101010;
	712 :	0000000000000100;
	711 :	1111111111010111;
	710 :	1111111111010101;
	709 :	1111111111110001;
	708 :	1111111111100111;
	707 :	0000000000000000;
	706 :	1111111111100101;
	705 :	1111111111001100;
	704 :	1111111111011101;
	703 :	1111111111111000;
	702 :	1111111111101100;
	701 :	1111111111110110;
	700 :	0000000000000010;
	699 :	1111111111101011;
	698 :	1111111111111100;
	697 :	0000000000001001;
	696 :	0000000000110011;
	695 :	0000000000010000;
	694 :	1111111110110111;
	693 :	1111111111010110;
	692 :	1111111111101000;
	691 :	1111111111111010;
	690 :	0000000000000101;
	689 :	1111111111110101;
	688 :	1111111111101110;
	687 :	0000000000000101;
	686 :	0000000000000100;
	685 :	1111111111110010;
	684 :	1111111111111110;
	683 :	1111111111110100;
	682 :	1111111111110100;
	681 :	0000000000001001;
	680 :	1111111111110000;
	679 :	1111111111011110;
	678 :	0000000000010011;
	677 :	0000000000001001;
	676 :	1111111111011111;
	675 :	1111111111100101;
	674 :	1111111111110101;
	673 :	0000000000010001;
	672 :	0000000000001111;
	671 :	0000000000000010;
	670 :	1111111111111001;
	669 :	0000000001000000;
	668 :	0000000000011011;
	667 :	1111111111111110;
	666 :	0000000000001010;
	665 :	1111111111101110;
	664 :	0000000000000010;
	663 :	0000000000001011;
	662 :	0000000000010000;
	661 :	0000000000000000;
	660 :	0000000000000110;
	659 :	0000000000001011;
	658 :	0000000000001011;
	657 :	0000000000001101;
	656 :	0000000000000100;
	655 :	1111111111110101;
	654 :	1111111111101010;
	653 :	0000000000001100;
	652 :	1111111111111101;
	651 :	1111111111110010;
	650 :	0000000000000001;
	649 :	0000000000000001;
	648 :	0000000000010101;
	647 :	1111111111001101;
	646 :	1111111111101110;
	645 :	1111111111110110;
	644 :	1111111111110101;
	643 :	0000000000010010;
	642 :	1111111111110110;
	641 :	0000000000100110;
	640 :	0000000001000000;
	639 :	0000000000011001;
	638 :	0000000000001111;
	637 :	1111111111111000;
	636 :	0000000000100101;
	635 :	0000000000001010;
	634 :	1111111111111101;
	633 :	0000000000010001;
	632 :	0000000000000100;
	631 :	0000000000000100;
	630 :	0000000000001100;
	629 :	0000000000001011;
	628 :	1111111111111100;
	627 :	0000000000000100;
	626 :	0000000000001101;
	625 :	1111111111110011;
	624 :	0000000000000011;
	623 :	1111111111101110;
	622 :	1111111111110000;
	621 :	0000000000001100;
	620 :	0000000000100101;
	619 :	1111111111011001;
	618 :	1111111111111001;
	617 :	0000000000000110;
	616 :	1111111111101110;
	615 :	1111111111111001;
	614 :	0000000000110110;
	613 :	1111111111111000;
	612 :	0000000000011011;
	611 :	0000000000001000;
	610 :	1111111111110000;
	609 :	0000000000010010;
	608 :	0000000000100001;
	607 :	0000000000101011;
	606 :	0000000000010000;
	605 :	1111111111111111;
	604 :	0000000000011110;
	603 :	0000000000010100;
	602 :	0000000000001000;
	601 :	0000000000000001;
	600 :	0000000000011110;
	599 :	1111111111110111;
	598 :	1111111111101101;
	597 :	0000000000010111;
	596 :	1111111111110111;
	595 :	0000000000010110;
	594 :	0000000000001001;
	593 :	0000000000001001;
	592 :	0000000000100111;
	591 :	1111111111100111;
	590 :	0000000000000001;
	589 :	1111111111101000;
	588 :	1111111111110110;
	587 :	1111111111111110;
	586 :	0000000000011011;
	585 :	0000000000100001;
	584 :	0000000000101011;
	583 :	0000000000001110;
	582 :	0000000000011110;
	581 :	0000000000001011;
	580 :	0000000000000010;
	579 :	0000000000010000;
	578 :	0000000000001100;
	577 :	0000000000010010;
	576 :	0000000000010000;
	575 :	0000000000001000;
	574 :	0000000000001011;
	573 :	0000000000010010;
	572 :	1111111111111101;
	571 :	0000000000010000;
	570 :	0000000000001011;
	569 :	1111111111111000;
	568 :	1111111111111100;
	567 :	1111111111100110;
	566 :	0000000000010000;
	565 :	1111111111110111;
	564 :	0000000000001100;
	563 :	1111111111011110;
	562 :	0000000000110010;
	561 :	1111111111101000;
	560 :	1111111111110100;
	559 :	1111111111101101;
	558 :	0000000000001000;
	557 :	1111111111100100;
	556 :	1111111111110110;
	555 :	0000000000010101;
	554 :	0000000000000110;
	553 :	0000000000010110;
	552 :	1111111111111010;
	551 :	0000000000010111;
	550 :	0000000000000100;
	549 :	0000000000000101;
	548 :	0000000000010001;
	547 :	0000000000010011;
	546 :	0000000000100010;
	545 :	0000000000010001;
	544 :	0000000000000100;
	543 :	0000000000000001;
	542 :	1111111111110110;
	541 :	0000000000001110;
	540 :	0000000000000011;
	539 :	1111111111100111;
	538 :	0000000000000011;
	537 :	0000000000010001;
	536 :	0000000000000010;
	535 :	1111111111100101;
	534 :	0000000000011110;
	533 :	0000000000000001;
	532 :	1111111111101110;
	531 :	0000000000001111;
	530 :	1111111111101100;
	529 :	1111111111000010;
	528 :	1111111111010101;
	527 :	0000000000000000;
	526 :	0000000000001001;
	525 :	0000000000001010;
	524 :	0000000000001001;
	523 :	1111111111110110;
	522 :	1111111111111001;
	521 :	0000000000000101;
	520 :	1111111111111101;
	519 :	0000000000010100;
	518 :	0000000000011101;
	517 :	0000000000000100;
	516 :	1111111111110011;
	515 :	1111111111011111;
	514 :	0000000000001100;
	513 :	0000000000001010;
	512 :	1111111111111110;
	511 :	0000000000010110;
	510 :	1111111111100101;
	509 :	0000000000001011;
	508 :	0000000000010001;
	507 :	0000000000100011;
	506 :	1111111111000110;
	505 :	1111111111100101;
	504 :	1111111111111101;
	503 :	1111111111101110;
	502 :	1111111111101111;
	501 :	1111111111100101;
	500 :	1111111111111011;
	499 :	1111111111100011;
	498 :	0000000000011111;
	497 :	0000000000000010;
	496 :	0000000000001010;
	495 :	1111111111101010;
	494 :	0000000000011110;
	493 :	1111111111111011;
	492 :	1111111111110110;
	491 :	1111111111111001;
	490 :	0000000000010011;
	489 :	1111111111101110;
	488 :	1111111111100000;
	487 :	1111111111110101;
	486 :	0000000000010100;
	485 :	0000000000010100;
	484 :	0000000000001100;
	483 :	0000000000000100;
	482 :	0000000000100000;
	481 :	0000000000000110;
	480 :	1111111111101000;
	479 :	1111111111110111;
	478 :	1111111111001011;
	477 :	0000000000001100;
	476 :	1111111111111100;
	475 :	1111111111111011;
	474 :	1111111111011000;
	473 :	1111111111110010;
	472 :	0000000000100000;
	471 :	1111111111111101;
	470 :	0000000000010100;
	469 :	1111111111101100;
	468 :	0000000000000110;
	467 :	1111111111111110;
	466 :	1111111111110110;
	465 :	1111111111111110;
	464 :	1111111111110110;
	463 :	0000000000011100;
	462 :	0000000000011010;
	461 :	1111111111111110;
	460 :	1111111111110110;
	459 :	1111111111110111;
	458 :	1111111111110001;
	457 :	1111111111111111;
	456 :	1111111111111001;
	455 :	0000000000000010;
	454 :	1111111111100001;
	453 :	1111111111110000;
	452 :	1111111111101010;
	451 :	1111111111101001;
	450 :	1111111111101001;
	449 :	1111111111111100;
	448 :	0000000000000011;
	447 :	1111111111110011;
	446 :	1111111111101110;
	445 :	1111111111111110;
	444 :	0000000000100111;
	443 :	0000000000000100;
	442 :	1111111111101000;
	441 :	0000000000001001;
	440 :	0000000000011010;
	439 :	1111111111100100;
	438 :	0000000000011000;
	437 :	0000000000000011;
	436 :	0000000000001001;
	435 :	0000000000010010;
	434 :	0000000000000110;
	433 :	1111111111111101;
	432 :	0000000000000101;
	431 :	1111111111110100;
	430 :	0000000000000000;
	429 :	0000000000010010;
	428 :	0000000000011000;
	427 :	1111111111110100;
	426 :	0000000000000001;
	425 :	0000000000001100;
	424 :	1111111111010100;
	423 :	1111111111011111;
	422 :	0000000000000111;
	421 :	0000000000001001;
	420 :	0000000000000001;
	419 :	1111111111111011;
	418 :	0000000000001001;
	417 :	1111111111100101;
	416 :	1111111111110100;
	415 :	1111111111110010;
	414 :	1111111111101001;
	413 :	1111111111010111;
	412 :	0000000000010000;
	411 :	0000000000001000;
	410 :	0000000000000000;
	409 :	1111111111101001;
	408 :	0000000000001111;
	407 :	1111111111111111;
	406 :	0000000000010010;
	405 :	0000000000000001;
	404 :	1111111111111001;
	403 :	0000000000000111;
	402 :	1111111111110011;
	401 :	1111111111101111;
	400 :	1111111111111111;
	399 :	0000000000001110;
	398 :	1111111111101101;
	397 :	1111111111001010;
	396 :	1111111111110111;
	395 :	1111111111111010;
	394 :	1111111111101111;
	393 :	0000000000010000;
	392 :	0000000000010010;
	391 :	0000000000100001;
	390 :	1111111111101110;
	389 :	1111111111011101;
	388 :	1111111110110010;
	387 :	1111111110100001;
	386 :	1111111111110111;
	385 :	1111111111010101;
	384 :	1111111111111011;
	383 :	0000000000001011;
	382 :	0000000000001000;
	381 :	0000000000001001;
	380 :	1111111111111001;
	379 :	0000000000100000;
	378 :	0000000000000010;
	377 :	1111111111110101;
	376 :	0000000000010011;
	375 :	0000000000000010;
	374 :	1111111111101010;
	373 :	1111111111111100;
	372 :	0000000000010110;
	371 :	0000000000100011;
	370 :	0000000000001110;
	369 :	1111111111011011;
	368 :	0000000000000100;
	367 :	1111111111100001;
	366 :	1111111111100101;
	365 :	1111111111110001;
	364 :	0000000000010101;
	363 :	1111111111110110;
	362 :	0000000000001000;
	361 :	1111111111010110;
	360 :	1111111110011111;
	359 :	1111111110100000;
	358 :	1111111110001111;
	357 :	1111111110101100;
	356 :	1111111111001100;
	355 :	1111111111010110;
	354 :	0000000000000000;
	353 :	0000000000000101;
	352 :	0000000000000000;
	351 :	1111111111110001;
	350 :	1111111111111010;
	349 :	0000000000001111;
	348 :	1111111111110000;
	347 :	0000000000010111;
	346 :	1111111111111011;
	345 :	1111111111101110;
	344 :	1111111111111011;
	343 :	0000000000001011;
	342 :	0000000000010000;
	341 :	1111111111111111;
	340 :	0000000000000110;
	339 :	1111111111111001;
	338 :	1111111111100000;
	337 :	1111111111111000;
	336 :	0000000000001000;
	335 :	0000000000010001;
	334 :	0000000001000001;
	333 :	1111111111111100;
	332 :	1111111110101001;
	331 :	1111111110001010;
	330 :	1111111110001000;
	329 :	1111111101110101;
	328 :	1111111101101100;
	327 :	1111111110011101;
	326 :	1111111111001000;
	325 :	1111111111100011;
	324 :	1111111111100100;
	323 :	1111111111100101;
	322 :	0000000000000000;
	321 :	1111111111111100;
	320 :	1111111111111100;
	319 :	1111111111110000;
	318 :	1111111111101010;
	317 :	1111111111101101;
	316 :	1111111111011100;
	315 :	1111111111111011;
	314 :	0000000000010011;
	313 :	1111111111101001;
	312 :	1111111111111011;
	311 :	1111111111101101;
	310 :	1111111111110100;
	309 :	1111111111100101;
	308 :	1111111111110101;
	307 :	0000000000101001;
	306 :	0000000000110000;
	305 :	0000000000001011;
	304 :	1111111111010100;
	303 :	1111111111000000;
	302 :	1111111110001111;
	301 :	1111111110110000;
	300 :	1111111110011000;
	299 :	1111111101111001;
	298 :	1111111110000100;
	297 :	1111111110111100;
	296 :	1111111111000010;
	295 :	1111111111101010;
	294 :	1111111111110011;
	293 :	0000000000000011;
	292 :	0000000000000000;
	291 :	0000000000011011;
	290 :	0000000000000010;
	289 :	0000000000001011;
	288 :	0000000000000001;
	287 :	1111111111110001;
	286 :	1111111111010001;
	285 :	1111111110100110;
	284 :	0000000000011000;
	283 :	1111111111100000;
	282 :	0000000000010111;
	281 :	1111111111111110;
	280 :	0000000000001001;
	279 :	1111111111110000;
	278 :	1111111111101100;
	277 :	0000000000011100;
	276 :	0000000001000111;
	275 :	0000000000000001;
	274 :	0000000000000000;
	273 :	0000000000000100;
	272 :	1111111111111100;
	271 :	1111111111011111;
	270 :	1111111111011011;
	269 :	1111111111011100;
	268 :	1111111111110111;
	267 :	1111111111111110;
	266 :	1111111111111001;
	265 :	0000000000001011;
	264 :	0000000000000110;
	263 :	0000000000001110;
	262 :	1111111111110100;
	261 :	1111111111110000;
	260 :	1111111111110000;
	259 :	1111111111110011;
	258 :	1111111111100010;
	257 :	1111111111000001;
	256 :	1111111111010011;
	255 :	1111111111001110;
	254 :	1111111111101010;
	253 :	0000000000000110;
	252 :	0000000000001000;
	251 :	1111111111111111;
	250 :	1111111111111001;
	249 :	0000000000110000;
	248 :	0000000000110011;
	247 :	0000000000011101;
	246 :	0000000000001001;
	245 :	0000000001001100;
	244 :	0000000000011101;
	243 :	0000000000111000;
	242 :	0000000000100100;
	241 :	0000000000000111;
	240 :	1111111111111101;
	239 :	1111111111111001;
	238 :	0000000000000011;
	237 :	0000000000010010;
	236 :	0000000000010110;
	235 :	1111111111101111;
	234 :	1111111111110001;
	233 :	1111111111111101;
	232 :	1111111111100111;
	231 :	1111111111110111;
	230 :	0000000000000011;
	229 :	1111111111000101;
	228 :	1111111111001100;
	227 :	1111111111010000;
	226 :	1111111111010011;
	225 :	0000000000010100;
	224 :	0000000000001100;
	223 :	0000000000001001;
	222 :	0000000001000110;
	221 :	0000000000011010;
	220 :	0000000000100111;
	219 :	0000000000011100;
	218 :	0000000000101001;
	217 :	0000000000100011;
	216 :	0000000000110011;
	215 :	0000000000010001;
	214 :	0000000000010100;
	213 :	0000000000000111;
	212 :	0000000000001100;
	211 :	0000000000001111;
	210 :	0000000000000001;
	209 :	0000000000000000;
	208 :	0000000000000110;
	207 :	0000000000000001;
	206 :	1111111111111110;
	205 :	1111111111111100;
	204 :	1111111111010001;
	203 :	1111111111000100;
	202 :	1111111111101000;
	201 :	1111111111010000;
	200 :	1111111111011111;
	199 :	1111111111000010;
	198 :	1111111111001100;
	197 :	1111111111101110;
	196 :	1111111111110110;
	195 :	0000000000111101;
	194 :	0000000000111100;
	193 :	0000000000111011;
	192 :	0000000001011101;
	191 :	0000000000011100;
	190 :	0000000000000110;
	189 :	0000000000000001;
	188 :	0000000000001011;
	187 :	0000000000000001;
	186 :	0000000000010111;
	185 :	0000000000001101;
	184 :	1111111111111100;
	183 :	1111111111111001;
	182 :	1111111111111010;
	181 :	1111111111111000;
	180 :	0000000000001100;
	179 :	1111111111110110;
	178 :	1111111111110101;
	177 :	1111111111000101;
	176 :	1111111111111000;
	175 :	1111111111110000;
	174 :	1111111111011000;
	173 :	1111111111010010;
	172 :	1111111111001001;
	171 :	1111111110100101;
	170 :	1111111111110111;
	169 :	1111111111110010;
	168 :	0000000000000111;
	167 :	0000000000010010;
	166 :	0000000001001011;
	165 :	0000000001001101;
	164 :	0000000000011000;
	163 :	0000000000011101;
	162 :	0000000000010000;
	161 :	1111111111111100;
	160 :	0000000000011011;
	159 :	1111111111111110;
	158 :	0000000000001100;
	157 :	0000000000000100;
	156 :	0000000000001100;
	155 :	0000000000000110;
	154 :	1111111111111100;
	153 :	1111111111100010;
	152 :	1111111111011101;
	151 :	1111111111110011;
	150 :	1111111111110001;
	149 :	1111111111101101;
	148 :	1111111111000010;
	147 :	1111111111000111;
	146 :	1111111110100100;
	145 :	1111111111010111;
	144 :	1111111111000010;
	143 :	1111111111100010;
	142 :	1111111111110011;
	141 :	1111111111110110;
	140 :	1111111111111111;
	139 :	1111111111110010;
	138 :	0000000000110110;
	137 :	0000000000101111;
	136 :	0000000000000010;
	135 :	0000000000100010;
	134 :	1111111111101011;
	133 :	0000000000001011;
	132 :	1111111111101000;
	131 :	0000000000011010;
	130 :	1111111111111111;
	129 :	1111111111110110;
	128 :	1111111111111101;
	127 :	0000000000000100;
	126 :	1111111111111011;
	125 :	0000000000000100;
	124 :	1111111111101010;
	123 :	1111111111111010;
	122 :	1111111111010000;
	121 :	1111111111001000;
	120 :	1111111110100110;
	119 :	1111111111011010;
	118 :	1111111111100000;
	117 :	0000000000000011;
	116 :	1111111111110111;
	115 :	0000000000001001;
	114 :	1111111111110111;
	113 :	1111111111101011;
	112 :	1111111111110000;
	111 :	1111111111110011;
	110 :	0000000000010011;
	109 :	0000000000000100;
	108 :	0000000000100100;
	107 :	0000000000100110;
	106 :	0000000000001110;
	105 :	0000000000000101;
	104 :	0000000000010101;
	103 :	0000000000000000;
	102 :	0000000000011010;
	101 :	1111111111111010;
	100 :	0000000000011010;
	99 :	0000000000001000;
	98 :	1111111111100101;
	97 :	0000000000001001;
	96 :	1111111111101100;
	95 :	1111111110111101;
	94 :	1111111111010001;
	93 :	1111111111110001;
	92 :	1111111111101100;
	91 :	1111111111110001;
	90 :	0000000000000111;
	89 :	0000000000000010;
	88 :	0000000000000011;
	87 :	1111111111111001;
	86 :	0000000000100011;
	85 :	1111111111101111;
	84 :	1111111111101111;
	83 :	1111111111101100;
	82 :	0000000000000110;
	81 :	1111111111110111;
	80 :	0000000000010010;
	79 :	0000000000011101;
	78 :	0000000000111010;
	77 :	1111111111110110;
	76 :	0000000000000011;
	75 :	0000000001001010;
	74 :	0000000000000011;
	73 :	0000000000010010;
	72 :	0000000000000100;
	71 :	0000000000011010;
	70 :	1111111111011011;
	69 :	1111111111100001;
	68 :	1111111111111111;
	67 :	1111111111010000;
	66 :	1111111111000100;
	65 :	1111111111100111;
	64 :	0000000000100101;
	63 :	1111111111110111;
	62 :	0000000000011000;
	61 :	1111111111111011;
	60 :	0000000000011101;
	59 :	0000000000000000;
	58 :	0000000000000001;
	57 :	0000000000000000;
	56 :	0000000000010011;
	55 :	1111111111110000;
	54 :	0000000000000011;
	53 :	0000000000001111;
	52 :	1111111111110101;
	51 :	0000000000000101;
	50 :	0000000000001110;
	49 :	0000000000010001;
	48 :	0000000000000011;
	47 :	1111111111111100;
	46 :	0000000000001100;
	45 :	0000000000000001;
	44 :	0000000000000000;
	43 :	0000000000110000;
	42 :	1111111111101001;
	41 :	0000000000010010;
	40 :	0000000000100111;
	39 :	1111111111110011;
	38 :	0000000000010100;
	37 :	0000000000010110;
	36 :	1111111111110100;
	35 :	1111111111101111;
	34 :	1111111111110000;
	33 :	1111111111110011;
	32 :	1111111111111000;
	31 :	1111111111110111;
	30 :	1111111111110010;
	29 :	0000000000001000;
	28 :	1111111111110110;
	27 :	0000000000000111;
	26 :	0000000000001001;
	25 :	1111111111111011;
	24 :	1111111111111011;
	23 :	0000000000010100;
	22 :	1111111111110111;
	21 :	1111111111101011;
	20 :	1111111111111101;
	19 :	1111111111111111;
	18 :	1111111111111110;
	17 :	0000000000000111;
	16 :	1111111111101101;
	15 :	1111111111110000;
	14 :	1111111111111010;
	13 :	0000000000000100;
	12 :	1111111111101100;
	11 :	0000000000001000;
	10 :	0000000000010001;
	9 :	0000000000001001;
	8 :	1111111111111111;
	7 :	0000000000010010;
	6 :	0000000000001100;
	5 :	1111111111101101;
	4 :	0000000000000110;
	3 :	1111111111101111;
	2 :	1111111111101101;
	1 :	0000000000000011;
	0 :	1111111111110011;
END;
