-- begin_signature
-- weights(numWeights
-- 16
-- neuronNumber
-- 4
-- layerNumber
-- 1
-- addressWidth
-- 4
-- dataWidth
-- 16
-- weightFile
-- "weights/weight_L1_N4.mif")
-- end_signature
WIDTH=16;
DEPTH=16;

ADDRESS_RADIX=UNS;
DATA_RADIX=BIN;

CONTENT BEGIN
	15 :	0000000000000111;
	14 :	0000000000111100;
	13 :	1111111111010111;
	12 :	1111111111000000;
	11 :	1111111111010100;
	10 :	1111111110011100;
	9 :	0000000000000001;
	8 :	1111111110010001;
	7 :	1111111111110001;
	6 :	0000000000000100;
	5 :	1111111111111001;
	4 :	0000000000100100;
	3 :	0000000001101100;
	2 :	0000000000000011;
	1 :	0000000000110011;
	0 :	1111111111111010;
END;
