-- begin_signature
-- weights(numWeights
-- 16
-- neuronNumber
-- 13
-- layerNumber
-- 1
-- addressWidth
-- 4
-- dataWidth
-- 16
-- weightFile
-- "weights/weight_L1_N13.mif")
-- end_signature
WIDTH=16;
DEPTH=16;

ADDRESS_RADIX=UNS;
DATA_RADIX=BIN;

CONTENT BEGIN
	15 :	0000000001010110;
	14 :	0000000000100100;
	13 :	1111111111111001;
	12 :	1111111111111110;
	11 :	1111111111111001;
	10 :	0000000000001110;
	9 :	1111111111010100;
	8 :	0000000000111100;
	7 :	1111111110000100;
	6 :	1111111111111000;
	5 :	0000000001010110;
	4 :	1111111111110000;
	3 :	1111111110110101;
	2 :	0000000000000111;
	1 :	0000000000111100;
	0 :	0000000001000111;
END;
