-- begin_signature
-- weights(numWeights
-- 16
-- neuronNumber
-- 12
-- layerNumber
-- 1
-- addressWidth
-- 4
-- dataWidth
-- 16
-- weightFile
-- "weights/weight_L1_N12.mif")
-- end_signature
WIDTH=16;
DEPTH=16;

ADDRESS_RADIX=UNS;
DATA_RADIX=BIN;

CONTENT BEGIN
	15 :	1111111111101001;
	14 :	0000000001001000;
	13 :	1111111111110111;
	12 :	0000000000110000;
	11 :	1111111111110000;
	10 :	0000000000000000;
	9 :	1111111111010011;
	8 :	1111111110011110;
	7 :	0000000000100000;
	6 :	1111111110110110;
	5 :	1111111111111101;
	4 :	0000000000100000;
	3 :	1111111111010001;
	2 :	0000000000110001;
	1 :	0000000000100111;
	0 :	1111111111101000;
END;
