-- begin_signature
-- weights(numWeights
-- 16
-- neuronNumber
-- 9
-- layerNumber
-- 3
-- addressWidth
-- 4
-- dataWidth
-- 16
-- weightFile
-- "weights/weight_L3_N9.mif")
-- end_signature
WIDTH=16;
DEPTH=16;

ADDRESS_RADIX=UNS;
DATA_RADIX=BIN;

CONTENT BEGIN
	15 :	0000000000111100;
	14 :	1111111111101000;
	13 :	0000000001011111;
	12 :	0000000000010111;
	11 :	1111111111011010;
	10 :	1111111110000110;
	9 :	0000000001111001;
	8 :	0000000000001111;
	7 :	0000000000111000;
	6 :	1111111111110011;
	5 :	0000000001000001;
	4 :	0000000000000111;
	3 :	0000000000010100;
	2 :	0000000000000110;
	1 :	1111111111110100;
	0 :	1111111110101000;
END;
