-- begin_signature
-- weights(numWeights
-- 16
-- neuronNumber
-- 0
-- layerNumber
-- 2
-- addressWidth
-- 4
-- dataWidth
-- 16
-- weightFile
-- "weights/weight_L2_N0.mif")
-- end_signature
WIDTH=16;
DEPTH=16;

ADDRESS_RADIX=UNS;
DATA_RADIX=BIN;

CONTENT BEGIN
	15 :	0000000000100000;
	14 :	0000000001001011;
	13 :	1111111110110001;
	12 :	0000000000100101;
	11 :	0000000001000010;
	10 :	0000000000011110;
	9 :	0000000001010001;
	8 :	1111111111100100;
	7 :	1111111111011101;
	6 :	0000000000100101;
	5 :	0000000000100110;
	4 :	1111111111111101;
	3 :	0000000001001100;
	2 :	0000000001000110;
	1 :	0000000000011000;
	0 :	0000000000001100;
END;
