-- begin_signature
-- weights(numWeights
-- 16
-- neuronNumber
-- 4
-- layerNumber
-- 3
-- addressWidth
-- 4
-- dataWidth
-- 16
-- weightFile
-- "weights/weight_L3_N4.mif")
-- end_signature
WIDTH=16;
DEPTH=16;

ADDRESS_RADIX=UNS;
DATA_RADIX=BIN;

CONTENT BEGIN
	15 :	0000000000110001;
	14 :	0000000000010101;
	13 :	1111111111110000;
	12 :	1111111111000110;
	11 :	1111111111101001;
	10 :	1111111111010111;
	9 :	0000000000010000;
	8 :	0000000000001111;
	7 :	0000000000001101;
	6 :	0000000001111001;
	5 :	1111111111100110;
	4 :	0000000001101010;
	3 :	1111111111001010;
	2 :	1111111111010010;
	1 :	1111111111110101;
	0 :	1111111111001010;
END;
