-- begin_signature
-- weights(numWeights
-- 16
-- neuronNumber
-- 12
-- layerNumber
-- 2
-- addressWidth
-- 4
-- dataWidth
-- 16
-- weightFile
-- "weights/weight_L2_N12.mif")
-- end_signature
WIDTH=16;
DEPTH=16;

ADDRESS_RADIX=UNS;
DATA_RADIX=BIN;

CONTENT BEGIN
	15 :	1111111111111010;
	14 :	0000000001011101;
	13 :	1111111111011000;
	12 :	1111111111011001;
	11 :	0000000001001011;
	10 :	1111111111000010;
	9 :	0000000001011111;
	8 :	1111111111101100;
	7 :	0000000000110011;
	6 :	0000000000011111;
	5 :	0000000000010000;
	4 :	0000000000000111;
	3 :	1111111110110101;
	2 :	0000000000001111;
	1 :	0000000001011011;
	0 :	0000000000010111;
END;
