-- begin_signature
-- weights(numWeights
-- 784
-- neuronNumber
-- 7
-- layerNumber
-- 0
-- addressWidth
-- 10
-- dataWidth
-- 16
-- weightFile
-- "weights/weight_L0_N7.mif")
-- end_signature
WIDTH=16;
DEPTH=784;

ADDRESS_RADIX=UNS;
DATA_RADIX=BIN;

CONTENT BEGIN
	783 :	1111111111110111;
	782 :	0000000000001100;
	781 :	0000000000001101;
	780 :	0000000000001111;
	779 :	1111111111111011;
	778 :	0000000000000010;
	777 :	1111111111111001;
	776 :	1111111111101110;
	775 :	1111111111100110;
	774 :	1111111111101100;
	773 :	0000000000001010;
	772 :	1111111111100110;
	771 :	1111111111110010;
	770 :	1111111111111001;
	769 :	1111111111101100;
	768 :	1111111111010110;
	767 :	1111111111011001;
	766 :	1111111111100100;
	765 :	1111111111101001;
	764 :	0000000000000011;
	763 :	1111111111110101;
	762 :	1111111111110111;
	761 :	1111111111010010;
	760 :	0000000000010011;
	759 :	1111111111110101;
	758 :	1111111111111100;
	757 :	0000000000010010;
	756 :	1111111111111001;
	755 :	1111111111101011;
	754 :	0000000000001011;
	753 :	0000000000001110;
	752 :	0000000000010001;
	751 :	0000000000001100;
	750 :	1111111111111100;
	749 :	1111111111111011;
	748 :	1111111111101001;
	747 :	1111111111101101;
	746 :	1111111111110101;
	745 :	1111111111100000;
	744 :	0000000000010010;
	743 :	0000000000001010;
	742 :	1111111111000101;
	741 :	1111111111100001;
	740 :	1111111111011000;
	739 :	0000000000011001;
	738 :	0000000000100100;
	737 :	0000000000011000;
	736 :	1111111110101111;
	735 :	1111111111000010;
	734 :	1111111111011000;
	733 :	1111111111011011;
	732 :	1111111111101001;
	731 :	0000000000001101;
	730 :	0000000000001000;
	729 :	0000000000010010;
	728 :	1111111111111001;
	727 :	1111111111110101;
	726 :	1111111111101111;
	725 :	0000000000001011;
	724 :	0000000000001010;
	723 :	0000000000110011;
	722 :	1111111111110111;
	721 :	1111111111110100;
	720 :	1111111111100010;
	719 :	0000000000010010;
	718 :	1111111111101001;
	717 :	1111111111100011;
	716 :	1111111111011111;
	715 :	1111111111101110;
	714 :	1111111111001101;
	713 :	1111111111100100;
	712 :	0000000000000001;
	711 :	1111111111111101;
	710 :	1111111111111001;
	709 :	1111111111001011;
	708 :	1111111111100000;
	707 :	1111111111100110;
	706 :	0000000000001011;
	705 :	1111111110111100;
	704 :	1111111111111000;
	703 :	0000000000111010;
	702 :	1111111111110110;
	701 :	1111111111111101;
	700 :	0000000000000101;
	699 :	0000000000010011;
	698 :	0000000000001001;
	697 :	0000000000010100;
	696 :	0000000000011110;
	695 :	0000000000001101;
	694 :	0000000000100100;
	693 :	1111111111110010;
	692 :	1111111111110110;
	691 :	1111111111100100;
	690 :	0000000000000100;
	689 :	0000000000000101;
	688 :	0000000000010000;
	687 :	1111111111110111;
	686 :	0000000000001010;
	685 :	0000000000001101;
	684 :	0000000000010010;
	683 :	1111111111111011;
	682 :	1111111111111000;
	681 :	0000000000000000;
	680 :	0000000000011011;
	679 :	0000000000000011;
	678 :	0000000000100001;
	677 :	1111111111111011;
	676 :	0000000000100110;
	675 :	1111111111110010;
	674 :	0000000000100000;
	673 :	1111111111111100;
	672 :	1111111111101100;
	671 :	0000000000001000;
	670 :	0000000000000101;
	669 :	1111111111111000;
	668 :	1111111111011010;
	667 :	0000000000001001;
	666 :	0000000000000011;
	665 :	0000000000100010;
	664 :	0000000000100011;
	663 :	0000000000001101;
	662 :	0000000000011101;
	661 :	0000000000011001;
	660 :	0000000000010001;
	659 :	0000000000010111;
	658 :	0000000000101001;
	657 :	0000000000011100;
	656 :	0000000000001010;
	655 :	0000000000010110;
	654 :	0000000000011010;
	653 :	0000000000001100;
	652 :	0000000000001000;
	651 :	0000000000001101;
	650 :	0000000000000100;
	649 :	1111111111101001;
	648 :	0000000000001110;
	647 :	0000000000010111;
	646 :	0000000000000001;
	645 :	1111111111101011;
	644 :	0000000000001011;
	643 :	1111111111110000;
	642 :	0000000000010011;
	641 :	1111111111001001;
	640 :	1111111111000110;
	639 :	0000000000100001;
	638 :	0000000000000100;
	637 :	0000000000000011;
	636 :	1111111111111100;
	635 :	0000000000001100;
	634 :	0000000000001101;
	633 :	0000000000001010;
	632 :	0000000000101101;
	631 :	0000000000001101;
	630 :	0000000000000100;
	629 :	0000000000100000;
	628 :	0000000000001010;
	627 :	0000000000001101;
	626 :	0000000000011111;
	625 :	0000000000011111;
	624 :	0000000000010100;
	623 :	0000000000000100;
	622 :	0000000000001001;
	621 :	1111111111110000;
	620 :	1111111111011111;
	619 :	0000000001000110;
	618 :	1111111111111011;
	617 :	0000000000010100;
	616 :	0000000000000001;
	615 :	1111111111101110;
	614 :	0000000000011010;
	613 :	1111111111000100;
	612 :	1111111111101111;
	611 :	0000000000101011;
	610 :	0000000000101001;
	609 :	0000000000001110;
	608 :	1111111111111001;
	607 :	0000000000001011;
	606 :	0000000000000001;
	605 :	0000000000001001;
	604 :	0000000000000101;
	603 :	0000000000100001;
	602 :	0000000000001011;
	601 :	0000000000011000;
	600 :	0000000000101111;
	599 :	0000000000100011;
	598 :	0000000000011100;
	597 :	0000000000011000;
	596 :	0000000000101010;
	595 :	0000000000010100;
	594 :	0000000000010001;
	593 :	0000000000100001;
	592 :	0000000000000101;
	591 :	0000000000111100;
	590 :	0000000000010100;
	589 :	0000000000100000;
	588 :	0000000000000110;
	587 :	0000000000001101;
	586 :	1111111111100111;
	585 :	1111111111010011;
	584 :	1111111111111100;
	583 :	0000000000111101;
	582 :	0000000000010000;
	581 :	0000000000000010;
	580 :	1111111111111110;
	579 :	1111111111111011;
	578 :	1111111111111111;
	577 :	0000000000001010;
	576 :	0000000000001111;
	575 :	1111111111111110;
	574 :	0000000000001010;
	573 :	0000000000100011;
	572 :	0000000000101011;
	571 :	0000000000011101;
	570 :	0000000000101011;
	569 :	0000000000010001;
	568 :	0000000000011001;
	567 :	0000000000100010;
	566 :	0000000000110001;
	565 :	0000000000101010;
	564 :	0000000000000010;
	563 :	0000000000111010;
	562 :	1111111111111011;
	561 :	1111111111110100;
	560 :	0000000000000001;
	559 :	1111111111111011;
	558 :	1111111111110111;
	557 :	1111111111010111;
	556 :	0000000000011010;
	555 :	1111111111101111;
	554 :	0000000000000111;
	553 :	1111111111111101;
	552 :	0000000000011000;
	551 :	1111111111110100;
	550 :	1111111111111011;
	549 :	0000000000001101;
	548 :	1111111111110000;
	547 :	0000000000000000;
	546 :	0000000000001000;
	545 :	0000000000000001;
	544 :	0000000000011101;
	543 :	0000000000000111;
	542 :	0000000000010111;
	541 :	0000000000010010;
	540 :	0000000000100000;
	539 :	0000000000011011;
	538 :	0000000000110010;
	537 :	0000000000100110;
	536 :	0000000000000010;
	535 :	0000000000011100;
	534 :	0000000000100011;
	533 :	1111111111101111;
	532 :	0000000000001000;
	531 :	0000000000011001;
	530 :	1111111111110010;
	529 :	0000000000111000;
	528 :	0000000000101011;
	527 :	1111111111111110;
	526 :	0000000000010001;
	525 :	0000000000000101;
	524 :	1111111111100001;
	523 :	0000000000000110;
	522 :	1111111111110111;
	521 :	0000000000001001;
	520 :	0000000000001011;
	519 :	1111111111101000;
	518 :	1111111111101001;
	517 :	1111111111011100;
	516 :	1111111111001011;
	515 :	1111111111101010;
	514 :	1111111111110011;
	513 :	0000000000001011;
	512 :	0000000000000010;
	511 :	0000000000001011;
	510 :	1111111111101111;
	509 :	1111111111101011;
	508 :	1111111111100111;
	507 :	0000000001010100;
	506 :	0000000000000100;
	505 :	1111111111110111;
	504 :	0000000000000101;
	503 :	1111111111110110;
	502 :	1111111111100100;
	501 :	1111111111111101;
	500 :	0000000000000111;
	499 :	0000000000000000;
	498 :	0000000000000001;
	497 :	0000000000000111;
	496 :	1111111111111001;
	495 :	1111111111111011;
	494 :	1111111111111110;
	493 :	0000000000000101;
	492 :	1111111111101000;
	491 :	1111111111100101;
	490 :	1111111111001000;
	489 :	1111111111100111;
	488 :	1111111111001010;
	487 :	1111111111010001;
	486 :	1111111111101000;
	485 :	1111111111001001;
	484 :	1111111111011111;
	483 :	1111111111110010;
	482 :	1111111111101000;
	481 :	1111111111110010;
	480 :	1111111111010100;
	479 :	0000000000110011;
	478 :	0000000000010001;
	477 :	1111111111110011;
	476 :	0000000000000010;
	475 :	0000000000100111;
	474 :	0000000000110110;
	473 :	1111111111100101;
	472 :	0000000000101000;
	471 :	0000000000010100;
	470 :	0000000000011101;
	469 :	0000000000010000;
	468 :	0000000000000101;
	467 :	0000000000010000;
	466 :	1111111111111010;
	465 :	1111111111110110;
	464 :	1111111111111110;
	463 :	1111111111101001;
	462 :	1111111111101110;
	461 :	1111111111100100;
	460 :	1111111111110001;
	459 :	1111111111010111;
	458 :	1111111111000101;
	457 :	1111111110101011;
	456 :	1111111111000011;
	455 :	1111111110110011;
	454 :	1111111110110100;
	453 :	1111111111100110;
	452 :	1111111111010000;
	451 :	1111111111010111;
	450 :	0000000000101101;
	449 :	1111111111111101;
	448 :	0000000000010010;
	447 :	0000000000001000;
	446 :	0000000000011110;
	445 :	1111111111100010;
	444 :	0000000000011011;
	443 :	1111111111101101;
	442 :	1111111111111110;
	441 :	0000000000010010;
	440 :	0000000000000011;
	439 :	0000000000000101;
	438 :	1111111111111110;
	437 :	1111111111100110;
	436 :	1111111111100110;
	435 :	1111111111101111;
	434 :	1111111111110110;
	433 :	1111111111101101;
	432 :	1111111111111010;
	431 :	1111111111101010;
	430 :	1111111111110001;
	429 :	1111111111101000;
	428 :	1111111111010010;
	427 :	1111111111111101;
	426 :	1111111111110000;
	425 :	1111111111100011;
	424 :	1111111111101101;
	423 :	1111111111010110;
	422 :	1111111111110111;
	421 :	0000000000000011;
	420 :	1111111111111011;
	419 :	0000000000001110;
	418 :	0000000000000011;
	417 :	1111111111010101;
	416 :	0000000000000000;
	415 :	1111111111111100;
	414 :	1111111111111100;
	413 :	1111111111101110;
	412 :	0000000000000011;
	411 :	1111111111110110;
	410 :	1111111111111100;
	409 :	1111111111111001;
	408 :	1111111111101011;
	407 :	0000000000000000;
	406 :	0000000000001101;
	405 :	1111111111100110;
	404 :	1111111111111101;
	403 :	1111111111110101;
	402 :	1111111111111010;
	401 :	1111111111111101;
	400 :	1111111111110001;
	399 :	0000000000100001;
	398 :	1111111111010101;
	397 :	1111111111100011;
	396 :	1111111111101101;
	395 :	1111111111010111;
	394 :	1111111111110101;
	393 :	1111111111110000;
	392 :	1111111111101101;
	391 :	1111111111101101;
	390 :	0000000000000011;
	389 :	1111111111110011;
	388 :	1111111111011001;
	387 :	0000000000010001;
	386 :	1111111111111010;
	385 :	0000000000010000;
	384 :	1111111111110000;
	383 :	1111111111101111;
	382 :	1111111111101100;
	381 :	1111111111111111;
	380 :	1111111111100010;
	379 :	1111111111100110;
	378 :	1111111111101111;
	377 :	1111111111101000;
	376 :	1111111111111001;
	375 :	1111111111111111;
	374 :	0000000000001001;
	373 :	0000000000001001;
	372 :	0000000000000111;
	371 :	1111111111101010;
	370 :	1111111111110000;
	369 :	0000000000000011;
	368 :	1111111111111100;
	367 :	0000000000010000;
	366 :	1111111111111011;
	365 :	1111111111110101;
	364 :	0000000000010011;
	363 :	1111111111110001;
	362 :	0000000000010000;
	361 :	1111111111010100;
	360 :	1111111111010001;
	359 :	1111111111110001;
	358 :	1111111111100101;
	357 :	1111111111010111;
	356 :	1111111111110001;
	355 :	1111111111110011;
	354 :	1111111111110101;
	353 :	1111111111101011;
	352 :	1111111111101001;
	351 :	1111111111100110;
	350 :	1111111111100010;
	349 :	1111111111111011;
	348 :	1111111111111011;
	347 :	0000000000001000;
	346 :	0000000000010000;
	345 :	0000000000001100;
	344 :	0000000000010011;
	343 :	0000000000010100;
	342 :	1111111111110110;
	341 :	1111111111100110;
	340 :	0000000000000000;
	339 :	0000000000000111;
	338 :	1111111111100101;
	337 :	1111111111011101;
	336 :	1111111111100011;
	335 :	0000000000001101;
	334 :	0000000000010011;
	333 :	1111111111111011;
	332 :	1111111111101100;
	331 :	1111111111100001;
	330 :	0000000000000011;
	329 :	1111111111100111;
	328 :	1111111111101001;
	327 :	1111111111111101;
	326 :	0000000000011100;
	325 :	0000000000000011;
	324 :	1111111111101001;
	323 :	1111111111110011;
	322 :	1111111111011111;
	321 :	1111111111111001;
	320 :	0000000000010101;
	319 :	0000000000000111;
	318 :	0000000000001111;
	317 :	1111111111110001;
	316 :	0000000000001100;
	315 :	0000000000000110;
	314 :	0000000000000110;
	313 :	0000000000001111;
	312 :	0000000000011101;
	311 :	1111111111111110;
	310 :	1111111111110010;
	309 :	1111111111011111;
	308 :	1111111111110001;
	307 :	0000000000011101;
	306 :	0000000000011000;
	305 :	1111111111100101;
	304 :	1111111111111100;
	303 :	1111111111101100;
	302 :	0000000000011010;
	301 :	1111111111110110;
	300 :	0000000000000010;
	299 :	1111111111101011;
	298 :	1111111111110000;
	297 :	1111111111110110;
	296 :	0000000000000011;
	295 :	0000000000000001;
	294 :	1111111111101011;
	293 :	0000000000001001;
	292 :	0000000000000101;
	291 :	0000000000000001;
	290 :	1111111111110100;
	289 :	1111111111110101;
	288 :	0000000000000011;
	287 :	1111111111110110;
	286 :	0000000000011000;
	285 :	1111111111101001;
	284 :	1111111111011111;
	283 :	1111111111111101;
	282 :	0000000000010011;
	281 :	1111111111011001;
	280 :	1111111111111001;
	279 :	0000000000000011;
	278 :	1111111111011100;
	277 :	0000000000000010;
	276 :	0000000000000000;
	275 :	0000000000001001;
	274 :	1111111111110101;
	273 :	1111111111111011;
	272 :	1111111111100110;
	271 :	1111111111111011;
	270 :	0000000000001101;
	269 :	1111111111111001;
	268 :	0000000000000111;
	267 :	0000000000000110;
	266 :	1111111111100010;
	265 :	1111111111111011;
	264 :	1111111111111100;
	263 :	1111111111110000;
	262 :	0000000000001011;
	261 :	0000000000001011;
	260 :	1111111111110110;
	259 :	0000000000001000;
	258 :	0000000000001011;
	257 :	0000000000000100;
	256 :	1111111111111110;
	255 :	1111111111111010;
	254 :	0000000000001011;
	253 :	1111111111100001;
	252 :	1111111111110010;
	251 :	0000000000011100;
	250 :	1111111111101101;
	249 :	0000000000001111;
	248 :	1111111111100100;
	247 :	1111111111111100;
	246 :	1111111111101001;
	245 :	1111111111111100;
	244 :	1111111111111101;
	243 :	0000000000000000;
	242 :	1111111111111000;
	241 :	0000000000000000;
	240 :	0000000000010101;
	239 :	0000000000000100;
	238 :	0000000000000110;
	237 :	1111111111110010;
	236 :	1111111111111010;
	235 :	0000000000000001;
	234 :	0000000000000010;
	233 :	1111111111111011;
	232 :	0000000000000110;
	231 :	1111111111111011;
	230 :	1111111111110100;
	229 :	0000000000010110;
	228 :	0000000000001010;
	227 :	0000000000001011;
	226 :	0000000000001000;
	225 :	1111111111101011;
	224 :	0000000000000000;
	223 :	0000000000011101;
	222 :	0000000000101001;
	221 :	0000000001000000;
	220 :	0000000000010100;
	219 :	0000000000000101;
	218 :	0000000000000011;
	217 :	1111111111111010;
	216 :	0000000000010000;
	215 :	0000000000010101;
	214 :	0000000000010101;
	213 :	0000000000001110;
	212 :	0000000000010000;
	211 :	1111111111111010;
	210 :	0000000000001100;
	209 :	0000000000001010;
	208 :	1111111111111110;
	207 :	0000000000011010;
	206 :	1111111111111001;
	205 :	0000000000001010;
	204 :	0000000000001100;
	203 :	1111111111110111;
	202 :	0000000000010010;
	201 :	1111111111111110;
	200 :	0000000000000010;
	199 :	0000000000110000;
	198 :	1111111111001011;
	197 :	0000000000001000;
	196 :	0000000000001011;
	195 :	0000000000100100;
	194 :	0000000000100111;
	193 :	0000000001100011;
	192 :	0000000000110101;
	191 :	1111111111111011;
	190 :	0000000000001010;
	189 :	0000000000000001;
	188 :	1111111111111001;
	187 :	0000000000001000;
	186 :	0000000000011000;
	185 :	1111111111111010;
	184 :	1111111111111010;
	183 :	0000000000001010;
	182 :	0000000000001100;
	181 :	0000000000001110;
	180 :	0000000000000010;
	179 :	1111111111101110;
	178 :	0000000000001010;
	177 :	0000000000010110;
	176 :	0000000000001001;
	175 :	0000000000001110;
	174 :	0000000000010011;
	173 :	1111111111101100;
	172 :	0000000000011001;
	171 :	0000000000001000;
	170 :	1111111111011000;
	169 :	1111111111101110;
	168 :	1111111111110100;
	167 :	1111111111111111;
	166 :	0000000000001001;
	165 :	0000000000100111;
	164 :	1111111111010110;
	163 :	0000000000111000;
	162 :	0000000000010111;
	161 :	0000000000011011;
	160 :	0000000000001100;
	159 :	1111111111111101;
	158 :	1111111111111101;
	157 :	0000000000000101;
	156 :	0000000000010100;
	155 :	0000000000010110;
	154 :	0000000000000100;
	153 :	0000000000000011;
	152 :	0000000000001111;
	151 :	0000000000011000;
	150 :	0000000000010101;
	149 :	1111111111111111;
	148 :	0000000000000011;
	147 :	1111111111101001;
	146 :	0000000000010111;
	145 :	0000000000101010;
	144 :	1111111111000101;
	143 :	1111111111111010;
	142 :	0000000000010010;
	141 :	0000000000001000;
	140 :	1111111111101010;
	139 :	1111111111110000;
	138 :	0000000000001101;
	137 :	1111111111011001;
	136 :	1111111111001111;
	135 :	0000000000000111;
	134 :	1111111111111011;
	133 :	0000000000010010;
	132 :	1111111111111000;
	131 :	1111111111111101;
	130 :	0000000000011000;
	129 :	0000000000010110;
	128 :	0000000000000100;
	127 :	0000000000011100;
	126 :	0000000000001110;
	125 :	0000000000001011;
	124 :	0000000000011011;
	123 :	0000000000101100;
	122 :	0000000000011001;
	121 :	0000000000010111;
	120 :	0000000000000100;
	119 :	0000000000010000;
	118 :	0000000000001010;
	117 :	0000000000001110;
	116 :	1111111111100001;
	115 :	0000000000001100;
	114 :	0000000000001011;
	113 :	0000000000001100;
	112 :	0000000000010001;
	111 :	1111111111110111;
	110 :	0000000000001001;
	109 :	0000000000100101;
	108 :	0000000000100101;
	107 :	0000000000001011;
	106 :	1111111111000101;
	105 :	1111111111011000;
	104 :	0000000000100001;
	103 :	1111111111111011;
	102 :	1111111111011110;
	101 :	1111111111111111;
	100 :	0000000000001111;
	99 :	0000000000000001;
	98 :	0000000000110000;
	97 :	0000000000110011;
	96 :	0000000000011110;
	95 :	1111111111011011;
	94 :	0000000000001110;
	93 :	1111111111110001;
	92 :	0000000000000100;
	91 :	1111111111110111;
	90 :	1111111111111001;
	89 :	1111111111110001;
	88 :	1111111111110110;
	87 :	1111111111110010;
	86 :	0000000000000011;
	85 :	1111111111101111;
	84 :	0000000000000010;
	83 :	0000000000010010;
	82 :	1111111111111110;
	81 :	0000000000000111;
	80 :	1111111111101011;
	79 :	1111111110111000;
	78 :	1111111111001000;
	77 :	1111111111110100;
	76 :	1111111111010110;
	75 :	0000000000001011;
	74 :	0000000000000100;
	73 :	1111111111101010;
	72 :	1111111111111101;
	71 :	0000000000100111;
	70 :	1111111111010101;
	69 :	1111111111011111;
	68 :	1111111110100110;
	67 :	1111111111000110;
	66 :	1111111111101111;
	65 :	1111111111010110;
	64 :	1111111111101010;
	63 :	1111111111111101;
	62 :	0000000000001011;
	61 :	1111111111101101;
	60 :	1111111111101010;
	59 :	0000000000001011;
	58 :	1111111111110101;
	57 :	1111111111110010;
	56 :	0000000000001000;
	55 :	1111111111101011;
	54 :	1111111111110101;
	53 :	0000000000000101;
	52 :	1111111111101100;
	51 :	0000000000000010;
	50 :	0000000000010000;
	49 :	1111111111111110;
	48 :	0000000000001011;
	47 :	0000000000010101;
	46 :	0000000000010011;
	45 :	1111111111110101;
	44 :	1111111111001001;
	43 :	1111111111101111;
	42 :	0000000000100110;
	41 :	0000000000000110;
	40 :	1111111111101111;
	39 :	0000000000010100;
	38 :	0000000000001000;
	37 :	1111111111111100;
	36 :	0000000000000110;
	35 :	1111111111111111;
	34 :	0000000000001110;
	33 :	0000000000000101;
	32 :	0000000000001000;
	31 :	0000000000000110;
	30 :	1111111111101100;
	29 :	0000000000001101;
	28 :	0000000000001000;
	27 :	1111111111110101;
	26 :	1111111111111110;
	25 :	0000000000000000;
	24 :	0000000000000010;
	23 :	0000000000010010;
	22 :	0000000000001101;
	21 :	0000000000010011;
	20 :	1111111111101100;
	19 :	0000000000001100;
	18 :	0000000000000110;
	17 :	0000000000010101;
	16 :	0000000000001001;
	15 :	1111111111110110;
	14 :	0000000000000111;
	13 :	1111111111110001;
	12 :	0000000000010000;
	11 :	0000000000001010;
	10 :	1111111111111101;
	9 :	0000000000001010;
	8 :	0000000000000010;
	7 :	1111111111110011;
	6 :	1111111111111110;
	5 :	0000000000001101;
	4 :	1111111111110101;
	3 :	0000000000010001;
	2 :	0000000000010011;
	1 :	1111111111101111;
	0 :	1111111111111110;
END;
