-- begin_signature
-- weights(numWeights
-- 784
-- neuronNumber
-- 12
-- layerNumber
-- 0
-- addressWidth
-- 10
-- dataWidth
-- 16
-- weightFile
-- "weights/weight_L0_N12.mif")
-- end_signature
WIDTH=16;
DEPTH=784;

ADDRESS_RADIX=UNS;
DATA_RADIX=BIN;

CONTENT BEGIN
	783 :	0000000000000011;
	782 :	0000000000010011;
	781 :	1111111111111101;
	780 :	1111111111101101;
	779 :	1111111111110001;
	778 :	1111111111100011;
	777 :	0000000000000011;
	776 :	0000000000010100;
	775 :	1111111111110111;
	774 :	1111111111001001;
	773 :	1111111111110010;
	772 :	1111111111101111;
	771 :	0000000000011000;
	770 :	0000000000011011;
	769 :	1111111111110001;
	768 :	1111111111110010;
	767 :	1111111111110100;
	766 :	0000000000000001;
	765 :	1111111111110110;
	764 :	0000000000100011;
	763 :	0000000000001101;
	762 :	1111111111100100;
	761 :	1111111111100110;
	760 :	0000000000001000;
	759 :	0000000000001010;
	758 :	1111111111111100;
	757 :	0000000000001011;
	756 :	0000000000000110;
	755 :	1111111111111011;
	754 :	0000000000000011;
	753 :	1111111111110010;
	752 :	1111111111110001;
	751 :	1111111111010011;
	750 :	1111111111101000;
	749 :	0000000000011110;
	748 :	1111111111111110;
	747 :	0000000000011110;
	746 :	1111111111101011;
	745 :	1111111111111000;
	744 :	1111111111010101;
	743 :	0000000000010100;
	742 :	1111111111101000;
	741 :	1111111111100011;
	740 :	1111111111100101;
	739 :	1111111111001110;
	738 :	1111111111111101;
	737 :	1111111111001000;
	736 :	1111111111110001;
	735 :	1111111111010111;
	734 :	0000000000010011;
	733 :	0000000000100001;
	732 :	1111111111001111;
	731 :	1111111111110100;
	730 :	0000000000000110;
	729 :	0000000000001010;
	728 :	0000000000010110;
	727 :	1111111111101100;
	726 :	1111111111110101;
	725 :	0000000000010100;
	724 :	0000000000010111;
	723 :	1111111111111010;
	722 :	1111111111100111;
	721 :	1111111111101110;
	720 :	1111111111010111;
	719 :	0000000000010001;
	718 :	1111111111011110;
	717 :	1111111111100000;
	716 :	1111111111001001;
	715 :	1111111111100011;
	714 :	1111111110111110;
	713 :	1111111111010101;
	712 :	1111111111010100;
	711 :	1111111111011100;
	710 :	1111111111010111;
	709 :	1111111111000100;
	708 :	1111111111010110;
	707 :	1111111110110000;
	706 :	1111111111110111;
	705 :	0000000000100000;
	704 :	1111111111110011;
	703 :	1111111111100001;
	702 :	0000000000010010;
	701 :	1111111111110111;
	700 :	0000000000010010;
	699 :	1111111111111000;
	698 :	1111111111111010;
	697 :	0000000000011001;
	696 :	0000000000011010;
	695 :	0000000000000100;
	694 :	1111111111100110;
	693 :	0000000000000110;
	692 :	1111111111100011;
	691 :	0000000000000011;
	690 :	0000000000001010;
	689 :	0000000000001101;
	688 :	1111111111110000;
	687 :	0000000000000011;
	686 :	1111111111100010;
	685 :	0000000000010100;
	684 :	0000000000000010;
	683 :	0000000000001110;
	682 :	0000000000001010;
	681 :	1111111111111111;
	680 :	0000000000001100;
	679 :	0000000000000001;
	678 :	0000000000000011;
	677 :	1111111111010000;
	676 :	1111111111110100;
	675 :	1111111110011011;
	674 :	0000000000000100;
	673 :	0000000000000100;
	672 :	1111111111110001;
	671 :	0000000000000011;
	670 :	1111111111110110;
	669 :	1111111110110000;
	668 :	1111111111100010;
	667 :	0000000000011101;
	666 :	0000000001010001;
	665 :	1111111111110111;
	664 :	1111111111011111;
	663 :	1111111111110001;
	662 :	1111111111111001;
	661 :	1111111111110111;
	660 :	0000000000010011;
	659 :	1111111111111001;
	658 :	0000000000000000;
	657 :	0000000000001001;
	656 :	0000000000000110;
	655 :	0000000000001001;
	654 :	0000000000001100;
	653 :	1111111111111100;
	652 :	0000000000011011;
	651 :	1111111111111010;
	650 :	0000000000001110;
	649 :	1111111111101111;
	648 :	1111111111001111;
	647 :	1111111111010011;
	646 :	1111111111111110;
	645 :	0000000000001010;
	644 :	1111111111111000;
	643 :	0000000000001101;
	642 :	0000000000011110;
	641 :	1111111111000110;
	640 :	0000000000000101;
	639 :	1111111111101010;
	638 :	0000000000011000;
	637 :	1111111111110010;
	636 :	0000000000000011;
	635 :	0000000000000100;
	634 :	0000000000000001;
	633 :	1111111111110101;
	632 :	0000000000001010;
	631 :	0000000000000010;
	630 :	1111111111111010;
	629 :	0000000000000110;
	628 :	0000000000001010;
	627 :	0000000000000010;
	626 :	0000000000010110;
	625 :	0000000000000000;
	624 :	0000000000001010;
	623 :	0000000000001011;
	622 :	0000000000101110;
	621 :	1111111111110001;
	620 :	1111111111011101;
	619 :	0000000000011011;
	618 :	0000000000101100;
	617 :	1111111111111010;
	616 :	0000000000000111;
	615 :	1111111111110011;
	614 :	0000000000010010;
	613 :	0000000000000100;
	612 :	1111111111001011;
	611 :	0000000000011001;
	610 :	1111111111111110;
	609 :	0000000000000111;
	608 :	0000000000000000;
	607 :	0000000000000101;
	606 :	1111111111111100;
	605 :	1111111111111000;
	604 :	0000000000010001;
	603 :	0000000000000010;
	602 :	0000000000000100;
	601 :	1111111111111010;
	600 :	1111111111110110;
	599 :	0000000000010001;
	598 :	0000000000000011;
	597 :	0000000000000111;
	596 :	0000000000000110;
	595 :	1111111111111011;
	594 :	0000000000001101;
	593 :	1111111111111110;
	592 :	0000000000100001;
	591 :	0000000000111100;
	590 :	0000000000001110;
	589 :	0000000000001011;
	588 :	0000000000000000;
	587 :	0000000000001110;
	586 :	0000000000001011;
	585 :	1111111111110001;
	584 :	1111111111001110;
	583 :	0000000000000111;
	582 :	1111111111111010;
	581 :	0000000000001011;
	580 :	0000000000000000;
	579 :	0000000000000110;
	578 :	1111111111111011;
	577 :	1111111111110011;
	576 :	1111111111111101;
	575 :	1111111111110111;
	574 :	1111111111111010;
	573 :	0000000000000111;
	572 :	0000000000011010;
	571 :	0000000000001000;
	570 :	0000000000011011;
	569 :	0000000000000011;
	568 :	0000000000010000;
	567 :	0000000000001101;
	566 :	1111111111111001;
	565 :	0000000000010010;
	564 :	1111111111111110;
	563 :	1111111111110110;
	562 :	0000000000010111;
	561 :	0000000000101100;
	560 :	1111111111101100;
	559 :	1111111111111111;
	558 :	0000000000101110;
	557 :	0000000000111110;
	556 :	1111111111100011;
	555 :	1111111111000110;
	554 :	0000000000001111;
	553 :	0000000000010010;
	552 :	0000000000001011;
	551 :	1111111111110011;
	550 :	0000000000000110;
	549 :	0000000000001110;
	548 :	1111111111110100;
	547 :	0000000000000010;
	546 :	1111111111111101;
	545 :	0000000000000010;
	544 :	0000000000001111;
	543 :	0000000000011010;
	542 :	0000000000010111;
	541 :	0000000000001000;
	540 :	1111111111111100;
	539 :	0000000000001010;
	538 :	0000000000001111;
	537 :	1111111111101111;
	536 :	1111111111111110;
	535 :	1111111111000100;
	534 :	1111111111101101;
	533 :	1111111111101110;
	532 :	1111111111110111;
	531 :	0000000000110010;
	530 :	0000000000001010;
	529 :	0000000000101010;
	528 :	1111111111111110;
	527 :	1111111111110001;
	526 :	0000000000101010;
	525 :	0000000000000110;
	524 :	1111111111110011;
	523 :	1111111111110111;
	522 :	0000000000000011;
	521 :	0000000000000011;
	520 :	0000000000000001;
	519 :	1111111111111011;
	518 :	1111111111110111;
	517 :	1111111111101011;
	516 :	1111111111111010;
	515 :	0000000000011011;
	514 :	0000000000101001;
	513 :	0000000000011000;
	512 :	0000000000011001;
	511 :	1111111111111011;
	510 :	1111111111111000;
	509 :	1111111111101011;
	508 :	0000000000001000;
	507 :	1111111111010100;
	506 :	0000000000101111;
	505 :	0000000000010100;
	504 :	0000000000010101;
	503 :	1111111111110010;
	502 :	0000000001000001;
	501 :	0000000000100010;
	500 :	1111111111111110;
	499 :	0000000000000010;
	498 :	0000000000001000;
	497 :	0000000000001100;
	496 :	0000000000000000;
	495 :	0000000000001011;
	494 :	1111111111110100;
	493 :	0000000000001011;
	492 :	0000000000001101;
	491 :	1111111111111101;
	490 :	1111111111110011;
	489 :	1111111111110100;
	488 :	0000000000001000;
	487 :	0000000000011010;
	486 :	0000000000100010;
	485 :	0000000000101001;
	484 :	0000000000011111;
	483 :	0000000000000111;
	482 :	0000000000011000;
	481 :	0000000000000101;
	480 :	0000000000000011;
	479 :	0000000000001111;
	478 :	1111111111110111;
	477 :	1111111111110001;
	476 :	0000000000010010;
	475 :	0000000000111101;
	474 :	0000000001000101;
	473 :	0000000000010110;
	472 :	1111111111110100;
	471 :	0000000000010100;
	470 :	0000000000000011;
	469 :	1111111111111011;
	468 :	0000000000000110;
	467 :	1111111111110111;
	466 :	1111111111101010;
	465 :	0000000000001111;
	464 :	1111111111111101;
	463 :	1111111111100101;
	462 :	1111111111101001;
	461 :	1111111111110011;
	460 :	0000000000000000;
	459 :	0000000000011000;
	458 :	0000000000100000;
	457 :	0000000000110110;
	456 :	0000000000101000;
	455 :	0000000000010010;
	454 :	0000000000010101;
	453 :	0000000000010100;
	452 :	1111111111111100;
	451 :	0000000000000100;
	450 :	0000000000100001;
	449 :	0000000000000111;
	448 :	0000000000000001;
	447 :	0000000000101111;
	446 :	0000000000101100;
	445 :	1111111111111001;
	444 :	0000000000101101;
	443 :	0000000000011011;
	442 :	1111111111100111;
	441 :	0000000000001010;
	440 :	0000000000001010;
	439 :	1111111111111001;
	438 :	1111111111111100;
	437 :	0000000000000010;
	436 :	1111111111101000;
	435 :	1111111111111011;
	434 :	1111111111101111;
	433 :	1111111111101001;
	432 :	1111111111101100;
	431 :	0000000000000001;
	430 :	0000000000010101;
	429 :	0000000000100000;
	428 :	0000000000011110;
	427 :	0000000000101110;
	426 :	0000000000001010;
	425 :	0000000000111000;
	424 :	0000000000101100;
	423 :	1111111111011100;
	422 :	1111111111010111;
	421 :	1111111111110110;
	420 :	1111111111110111;
	419 :	1111111111111100;
	418 :	0000000001000110;
	417 :	0000000000000111;
	416 :	0000000001000110;
	415 :	0000000000010010;
	414 :	1111111111111111;
	413 :	0000000000000100;
	412 :	1111111111111110;
	411 :	1111111111100101;
	410 :	1111111111110100;
	409 :	1111111111110000;
	408 :	1111111111010010;
	407 :	1111111111101011;
	406 :	1111111111111110;
	405 :	1111111111110011;
	404 :	1111111111111010;
	403 :	1111111111110100;
	402 :	1111111111110010;
	401 :	0000000000001000;
	400 :	0000000000010010;
	399 :	0000000000101100;
	398 :	0000000000100100;
	397 :	0000000000101001;
	396 :	0000000000011100;
	395 :	0000000000000001;
	394 :	1111111111011100;
	393 :	0000000000010000;
	392 :	0000000000010000;
	391 :	1111111111100010;
	390 :	1111111110111011;
	389 :	0000000000100001;
	388 :	0000000000010101;
	387 :	0000000000100011;
	386 :	0000000000011001;
	385 :	1111111111110110;
	384 :	1111111111111100;
	383 :	1111111111101011;
	382 :	1111111111100000;
	381 :	1111111111100000;
	380 :	1111111111011100;
	379 :	1111111111100010;
	378 :	1111111111110110;
	377 :	1111111111011100;
	376 :	1111111111011110;
	375 :	0000000000001110;
	374 :	0000000000001101;
	373 :	0000000000001010;
	372 :	0000000000011110;
	371 :	0000000000010101;
	370 :	0000000000101010;
	369 :	0000000000001101;
	368 :	1111111111101101;
	367 :	1111111111101110;
	366 :	1111111111100110;
	365 :	1111111111111011;
	364 :	1111111111101100;
	363 :	1111111111001110;
	362 :	1111111111010110;
	361 :	1111111111101100;
	360 :	0000000000110101;
	359 :	0000000000000001;
	358 :	0000000000001010;
	357 :	0000000000000110;
	356 :	1111111111101111;
	355 :	1111111111111111;
	354 :	1111111111101001;
	353 :	1111111111111011;
	352 :	1111111111011011;
	351 :	1111111111011010;
	350 :	1111111111101000;
	349 :	0000000000000001;
	348 :	0000000000001011;
	347 :	0000000000000001;
	346 :	0000000000001000;
	345 :	0000000000001000;
	344 :	1111111111110011;
	343 :	1111111111100100;
	342 :	0000000000010100;
	341 :	1111111111010001;
	340 :	1111111111110101;
	339 :	1111111111010111;
	338 :	1111111111101011;
	337 :	1111111111110000;
	336 :	0000000000010011;
	335 :	1111111111110010;
	334 :	1111111111001110;
	333 :	1111111111011011;
	332 :	0000000000000100;
	331 :	1111111111111111;
	330 :	0000000000001100;
	329 :	0000000000001110;
	328 :	1111111111111011;
	327 :	1111111111111110;
	326 :	0000000000000011;
	325 :	1111111111100011;
	324 :	1111111111011100;
	323 :	1111111111001110;
	322 :	1111111111110101;
	321 :	0000000000001001;
	320 :	1111111111100100;
	319 :	1111111111110111;
	318 :	1111111111101001;
	317 :	0000000000000110;
	316 :	1111111111111100;
	315 :	0000000000001001;
	314 :	1111111111110101;
	313 :	1111111111011111;
	312 :	1111111111010111;
	311 :	1111111111110101;
	310 :	0000000000000111;
	309 :	1111111111101101;
	308 :	0000000000001010;
	307 :	1111111111011101;
	306 :	1111111110111101;
	305 :	1111111111001011;
	304 :	0000000000001101;
	303 :	0000000000010000;
	302 :	0000000000001101;
	301 :	0000000000000011;
	300 :	0000000000010111;
	299 :	0000000000001110;
	298 :	0000000000001100;
	297 :	0000000000000110;
	296 :	0000000000010010;
	295 :	0000000000000010;
	294 :	1111111111111110;
	293 :	0000000000001110;
	292 :	1111111111101010;
	291 :	0000000000011000;
	290 :	1111111111111101;
	289 :	0000000000001001;
	288 :	1111111111101010;
	287 :	1111111111100101;
	286 :	0000000000000000;
	285 :	0000000000101110;
	284 :	1111111111100101;
	283 :	1111111110111111;
	282 :	1111111111111011;
	281 :	0000000000000110;
	280 :	1111111111111011;
	279 :	0000000000000011;
	278 :	1111111111000101;
	277 :	1111111110010110;
	276 :	0000000000000110;
	275 :	1111111111111110;
	274 :	1111111111110110;
	273 :	1111111111101001;
	272 :	0000000000001011;
	271 :	0000000000011100;
	270 :	0000000000101111;
	269 :	0000000000100001;
	268 :	0000000000010000;
	267 :	1111111111110100;
	266 :	0000000000000101;
	265 :	0000000000101000;
	264 :	1111111111101111;
	263 :	1111111111110000;
	262 :	0000000000000000;
	261 :	1111111111101001;
	260 :	1111111111100100;
	259 :	1111111111110010;
	258 :	1111111111111000;
	257 :	1111111111111110;
	256 :	0000000000010011;
	255 :	0000000000001000;
	254 :	1111111111101101;
	253 :	1111111111101001;
	252 :	0000000000000011;
	251 :	1111111111111001;
	250 :	1111111110111111;
	249 :	1111111110111011;
	248 :	1111111111111011;
	247 :	0000000000000001;
	246 :	0000000000001000;
	245 :	0000000000010011;
	244 :	0000000000101100;
	243 :	0000000000010001;
	242 :	0000000000100001;
	241 :	0000000000100001;
	240 :	0000000000011011;
	239 :	0000000000011100;
	238 :	0000000000010000;
	237 :	0000000000001000;
	236 :	0000000000001101;
	235 :	1111111111110111;
	234 :	1111111111111100;
	233 :	1111111111110010;
	232 :	1111111111011000;
	231 :	1111111111111111;
	230 :	0000000000000110;
	229 :	1111111111001111;
	228 :	1111111111011100;
	227 :	0000000000010001;
	226 :	1111111111011000;
	225 :	0000000000001101;
	224 :	0000000000010000;
	223 :	0000000000001001;
	222 :	1111111111010011;
	221 :	1111111111000001;
	220 :	0000000000010101;
	219 :	0000000000001011;
	218 :	0000000000100111;
	217 :	0000000000000100;
	216 :	0000000000000000;
	215 :	1111111111111011;
	214 :	1111111111111100;
	213 :	0000000000001100;
	212 :	0000000000010000;
	211 :	0000000000000110;
	210 :	1111111111111011;
	209 :	1111111111111111;
	208 :	0000000000010011;
	207 :	0000000000010001;
	206 :	0000000000000101;
	205 :	1111111111111100;
	204 :	1111111111011101;
	203 :	1111111111101100;
	202 :	1111111111111111;
	201 :	1111111110101011;
	200 :	0000000000000101;
	199 :	0000000000000110;
	198 :	0000000000100100;
	197 :	0000000000001011;
	196 :	0000000000000011;
	195 :	1111111111110010;
	194 :	1111111111100110;
	193 :	1111111111110001;
	192 :	0000000000010100;
	191 :	1111111111100101;
	190 :	0000000000000101;
	189 :	0000000000000010;
	188 :	1111111111111010;
	187 :	1111111111111101;
	186 :	0000000000000101;
	185 :	0000000000011000;
	184 :	0000000000011011;
	183 :	0000000000000001;
	182 :	0000000000000100;
	181 :	0000000000000010;
	180 :	0000000000000110;
	179 :	1111111111010010;
	178 :	1111111111101011;
	177 :	1111111111011011;
	176 :	1111111111101000;
	175 :	1111111111100100;
	174 :	1111111111100101;
	173 :	1111111111101000;
	172 :	1111111111100101;
	171 :	0000000000100001;
	170 :	1111111111110101;
	169 :	0000000000010000;
	168 :	1111111111101100;
	167 :	1111111111110001;
	166 :	0000000000101010;
	165 :	1111111111110100;
	164 :	1111111111100011;
	163 :	1111111111011101;
	162 :	1111111111110111;
	161 :	1111111111110011;
	160 :	0000000000000000;
	159 :	0000000000000011;
	158 :	0000000000100011;
	157 :	0000000000001101;
	156 :	1111111111111010;
	155 :	0000000000001111;
	154 :	0000000000011000;
	153 :	0000000000010000;
	152 :	1111111111111110;
	151 :	1111111111110001;
	150 :	1111111111111111;
	149 :	1111111111111010;
	148 :	0000000000010100;
	147 :	1111111111101110;
	146 :	1111111111111000;
	145 :	1111111111000110;
	144 :	1111111111010111;
	143 :	0000000000001101;
	142 :	0000000000001001;
	141 :	1111111111101101;
	140 :	0000000000010010;
	139 :	1111111111110000;
	138 :	1111111110111110;
	137 :	1111111111011111;
	136 :	1111111110001011;
	135 :	1111111111101001;
	134 :	0000000000001001;
	133 :	1111111111100110;
	132 :	0000000000000001;
	131 :	0000000000000011;
	130 :	0000000000001101;
	129 :	0000000000001111;
	128 :	1111111111111110;
	127 :	0000000000001010;
	126 :	0000000000000101;
	125 :	0000000000011111;
	124 :	0000000000010100;
	123 :	0000000000110100;
	122 :	0000000000110011;
	121 :	1111111111110111;
	120 :	1111111111010111;
	119 :	0000000000001100;
	118 :	1111111111101011;
	117 :	1111111111100101;
	116 :	1111111111011001;
	115 :	0000000000001110;
	114 :	1111111111110000;
	113 :	1111111111110111;
	112 :	0000000000001011;
	111 :	1111111111111110;
	110 :	1111111111101100;
	109 :	1111111111110001;
	108 :	0000000000010010;
	107 :	1111111111101110;
	106 :	1111111111101000;
	105 :	1111111111001101;
	104 :	1111111111101001;
	103 :	1111111111111000;
	102 :	1111111111110001;
	101 :	0000000000001000;
	100 :	1111111111111101;
	99 :	0000000000011001;
	98 :	0000000000111011;
	97 :	0000000000111110;
	96 :	0000000000010111;
	95 :	0000000001000100;
	94 :	0000000000101010;
	93 :	0000000000100000;
	92 :	1111111111101011;
	91 :	1111111111011001;
	90 :	1111111111111101;
	89 :	1111111111011110;
	88 :	0000000000001010;
	87 :	0000000000001111;
	86 :	1111111111100110;
	85 :	1111111111110100;
	84 :	0000000000000100;
	83 :	0000000000001010;
	82 :	1111111111110110;
	81 :	0000000000000100;
	80 :	0000000000000111;
	79 :	0000000000001010;
	78 :	1111111111100100;
	77 :	0000000000011000;
	76 :	1111111111110001;
	75 :	1111111110111101;
	74 :	1111111111011111;
	73 :	1111111111000001;
	72 :	1111111111111110;
	71 :	1111111111100010;
	70 :	1111111111000001;
	69 :	0000000000001011;
	68 :	0000000000100110;
	67 :	1111111111100101;
	66 :	1111111111100001;
	65 :	0000000000011111;
	64 :	1111111111010100;
	63 :	0000000000100111;
	62 :	0000000000001011;
	61 :	0000000000010011;
	60 :	1111111111011101;
	59 :	1111111111101101;
	58 :	1111111111111111;
	57 :	1111111111101100;
	56 :	1111111111111000;
	55 :	0000000000001011;
	54 :	1111111111111111;
	53 :	0000000000000110;
	52 :	0000000000000111;
	51 :	0000000000011101;
	50 :	0000000000010101;
	49 :	1111111111100011;
	48 :	1111111111100011;
	47 :	1111111111111110;
	46 :	1111111111100110;
	45 :	1111111111001001;
	44 :	0000000000101100;
	43 :	1111111111001110;
	42 :	1111111111001111;
	41 :	1111111111100100;
	40 :	0000000000011011;
	39 :	1111111111100010;
	38 :	1111111111110001;
	37 :	0000000000010001;
	36 :	0000000000010110;
	35 :	0000000000000001;
	34 :	1111111111111100;
	33 :	0000000000010010;
	32 :	1111111111111011;
	31 :	1111111111111100;
	30 :	0000000000001001;
	29 :	1111111111111101;
	28 :	0000000000010100;
	27 :	1111111111101111;
	26 :	1111111111101111;
	25 :	1111111111111011;
	24 :	1111111111111110;
	23 :	1111111111110101;
	22 :	1111111111111101;
	21 :	0000000000001000;
	20 :	1111111111110101;
	19 :	0000000000010010;
	18 :	0000000000010100;
	17 :	1111111111111111;
	16 :	1111111111110001;
	15 :	1111111111110100;
	14 :	0000000000111001;
	13 :	0000000000010101;
	12 :	1111111111110111;
	11 :	0000000000010100;
	10 :	0000000000001100;
	9 :	1111111111111101;
	8 :	1111111111111111;
	7 :	1111111111110100;
	6 :	1111111111101111;
	5 :	1111111111111011;
	4 :	1111111111101100;
	3 :	1111111111110101;
	2 :	1111111111111111;
	1 :	0000000000000010;
	0 :	0000000000001110;
END;
