-- begin_signature
-- weights(numWeights
-- 16
-- neuronNumber
-- 15
-- layerNumber
-- 1
-- addressWidth
-- 4
-- dataWidth
-- 16
-- weightFile
-- "weights/weight_L1_N15.mif")
-- end_signature
WIDTH=16;
DEPTH=16;

ADDRESS_RADIX=UNS;
DATA_RADIX=BIN;

CONTENT BEGIN
	15 :	0000000001100000;
	14 :	1111111111010100;
	13 :	0000000000011100;
	12 :	1111111111010000;
	11 :	1111111111101111;
	10 :	1111111111010101;
	9 :	1111111101101001;
	8 :	0000000000010101;
	7 :	0000000000101010;
	6 :	0000000000101001;
	5 :	1111111110010011;
	4 :	1111111111110100;
	3 :	1111111111001111;
	2 :	0000000000000111;
	1 :	0000000000101001;
	0 :	0000000000011001;
END;
