-- begin_signature
-- weights(numWeights
-- 784
-- neuronNumber
-- 1
-- layerNumber
-- 0
-- addressWidth
-- 10
-- dataWidth
-- 16
-- weightFile
-- "weights/weight_L0_N1.mif")
-- end_signature
WIDTH=16;
DEPTH=784;

ADDRESS_RADIX=UNS;
DATA_RADIX=BIN;

CONTENT BEGIN
	783 :	1111111111110011;
	782 :	0000000000001100;
	781 :	0000000000000011;
	780 :	0000000000000100;
	779 :	0000000000001011;
	778 :	1111111111111010;
	777 :	0000000000001010;
	776 :	1111111111110100;
	775 :	0000000000011011;
	774 :	1111111111110000;
	773 :	0000000000000110;
	772 :	1111111111110110;
	771 :	0000000000001010;
	770 :	1111111111011001;
	769 :	1111111111100110;
	768 :	1111111111011100;
	767 :	1111111111011011;
	766 :	1111111111111111;
	765 :	1111111111111000;
	764 :	0000000000100000;
	763 :	0000000000100011;
	762 :	0000000000010001;
	761 :	1111111111110010;
	760 :	0000000000010011;
	759 :	1111111111101011;
	758 :	0000000000001110;
	757 :	0000000000000010;
	756 :	0000000000000001;
	755 :	0000000000001011;
	754 :	0000000000000111;
	753 :	1111111111111110;
	752 :	1111111111111001;
	751 :	0000000001000101;
	750 :	0000000001000011;
	749 :	0000000001000110;
	748 :	0000000000011001;
	747 :	0000000000010101;
	746 :	0000000000000110;
	745 :	1111111111110111;
	744 :	1111111111101011;
	743 :	0000000000010111;
	742 :	0000000000010110;
	741 :	0000000000000001;
	740 :	1111111111111111;
	739 :	1111111111010101;
	738 :	1111111111111010;
	737 :	1111111111111101;
	736 :	0000000000000010;
	735 :	0000000000010001;
	734 :	0000000000001000;
	733 :	1111111111110000;
	732 :	0000000000000100;
	731 :	0000000000001111;
	730 :	1111111111110111;
	729 :	0000000000000111;
	728 :	1111111111110001;
	727 :	1111111111110000;
	726 :	0000000000001111;
	725 :	1111111111111110;
	724 :	1111111111111101;
	723 :	0000000000011111;
	722 :	1111111111011000;
	721 :	1111111111110000;
	720 :	0000000000101110;
	719 :	0000000000001101;
	718 :	1111111111111010;
	717 :	0000000000100110;
	716 :	0000000000000010;
	715 :	1111111111101101;
	714 :	1111111111100011;
	713 :	1111111111101011;
	712 :	1111111111010011;
	711 :	1111111111000111;
	710 :	1111111111101100;
	709 :	0000000000011101;
	708 :	1111111111011101;
	707 :	1111111111110111;
	706 :	1111111111111110;
	705 :	0000000000001110;
	704 :	1111111111101100;
	703 :	0000000000001010;
	702 :	0000000000001001;
	701 :	0000000000010100;
	700 :	0000000000001100;
	699 :	1111111111111011;
	698 :	1111111111101011;
	697 :	1111111111010000;
	696 :	1111111111111011;
	695 :	0000000001001001;
	694 :	0000000000110101;
	693 :	1111111111101100;
	692 :	0000000000101001;
	691 :	0000000000010110;
	690 :	0000000000011001;
	689 :	0000000000001000;
	688 :	0000000000000000;
	687 :	0000000000010010;
	686 :	0000000000000000;
	685 :	1111111111111010;
	684 :	1111111111001000;
	683 :	1111111111010100;
	682 :	1111111111100111;
	681 :	0000000000000011;
	680 :	1111111111010110;
	679 :	1111111111011000;
	678 :	0000000000010000;
	677 :	0000000000001110;
	676 :	0000000000000011;
	675 :	0000000000010101;
	674 :	0000000000000010;
	673 :	1111111111110011;
	672 :	1111111111101011;
	671 :	0000000000010001;
	670 :	1111111111110101;
	669 :	0000000000011010;
	668 :	0000000000011110;
	667 :	0000000000110100;
	666 :	0000000000101101;
	665 :	1111111111100010;
	664 :	0000000000010100;
	663 :	1111111111110011;
	662 :	1111111111111011;
	661 :	0000000000000001;
	660 :	1111111111101001;
	659 :	0000000000001000;
	658 :	0000000000001100;
	657 :	0000000000011000;
	656 :	0000000000001101;
	655 :	1111111111110100;
	654 :	0000000000010000;
	653 :	1111111111111100;
	652 :	0000000000010111;
	651 :	1111111111010101;
	650 :	1111111111010100;
	649 :	0000000000010010;
	648 :	1111111111110000;
	647 :	1111111111111100;
	646 :	0000000000010001;
	645 :	0000000000000001;
	644 :	0000000000010011;
	643 :	0000000000000110;
	642 :	0000000000001011;
	641 :	0000000000101100;
	640 :	0000000000111100;
	639 :	0000000000010111;
	638 :	0000000000010001;
	637 :	1111111111101010;
	636 :	1111111111111001;
	635 :	1111111111110111;
	634 :	1111111111110110;
	633 :	0000000000000010;
	632 :	0000000000100100;
	631 :	0000000000000000;
	630 :	1111111111111110;
	629 :	0000000000000110;
	628 :	1111111111100001;
	627 :	1111111111011100;
	626 :	1111111111101111;
	625 :	0000000000011010;
	624 :	0000000000010010;
	623 :	1111111111110010;
	622 :	1111111111110111;
	621 :	0000000000001110;
	620 :	0000000000010111;
	619 :	1111111111110101;
	618 :	1111111111111100;
	617 :	1111111111110010;
	616 :	0000000000001111;
	615 :	0000000000000001;
	614 :	1111111111101111;
	613 :	0000000000110101;
	612 :	0000000001000110;
	611 :	1111111111110011;
	610 :	0000000000000001;
	609 :	1111111111101011;
	608 :	0000000000000010;
	607 :	1111111111111111;
	606 :	1111111111111011;
	605 :	1111111111111111;
	604 :	1111111111101111;
	603 :	0000000000000001;
	602 :	1111111111101100;
	601 :	1111111111100001;
	600 :	1111111110110111;
	599 :	1111111111101101;
	598 :	1111111111100000;
	597 :	1111111111100101;
	596 :	1111111111110110;
	595 :	1111111111111011;
	594 :	1111111111110011;
	593 :	0000000000011110;
	592 :	0000000000001101;
	591 :	0000000000011101;
	590 :	0000000000000010;
	589 :	0000000000000010;
	588 :	1111111111110010;
	587 :	0000000000010101;
	586 :	1111111110101111;
	585 :	0000000001100000;
	584 :	0000000001000010;
	583 :	0000000000000100;
	582 :	0000000000001001;
	581 :	1111111111101001;
	580 :	1111111111110100;
	579 :	0000000000000100;
	578 :	0000000000011110;
	577 :	1111111111111011;
	576 :	1111111111111011;
	575 :	0000000000001000;
	574 :	1111111111101111;
	573 :	1111111110111011;
	572 :	1111111111001110;
	571 :	1111111111011011;
	570 :	1111111111001111;
	569 :	1111111111010111;
	568 :	1111111111111010;
	567 :	1111111111110001;
	566 :	1111111111010101;
	565 :	1111111111010011;
	564 :	0000000000000011;
	563 :	1111111111101010;
	562 :	0000000000001101;
	561 :	1111111111110010;
	560 :	0000000000010010;
	559 :	1111111111110010;
	558 :	1111111111100001;
	557 :	1111111111111011;
	556 :	1111111111111011;
	555 :	0000000000010001;
	554 :	1111111111100100;
	553 :	1111111111110010;
	552 :	0000000000010010;
	551 :	0000000000010101;
	550 :	1111111111111101;
	549 :	1111111111101111;
	548 :	0000000000001001;
	547 :	0000000000001101;
	546 :	1111111111101000;
	545 :	1111111111011000;
	544 :	0000000000001110;
	543 :	0000000000000011;
	542 :	1111111111111100;
	541 :	0000000000001011;
	540 :	0000000000000110;
	539 :	1111111111111000;
	538 :	1111111111011001;
	537 :	1111111110111101;
	536 :	0000000000010011;
	535 :	0000000000010010;
	534 :	0000000000001101;
	533 :	1111111111111110;
	532 :	1111111111111010;
	531 :	0000000000000001;
	530 :	1111111111011111;
	529 :	1111111111101101;
	528 :	1111111110111100;
	527 :	1111111111011111;
	526 :	1111111111100101;
	525 :	1111111111111011;
	524 :	0000000000000101;
	523 :	1111111111110010;
	522 :	0000000000000010;
	521 :	0000000000010010;
	520 :	0000000000000011;
	519 :	0000000000001011;
	518 :	1111111111101010;
	517 :	0000000000000000;
	516 :	0000000000001100;
	515 :	0000000000011011;
	514 :	0000000000011000;
	513 :	0000000000010001;
	512 :	0000000000010001;
	511 :	0000000000001110;
	510 :	1111111111111101;
	509 :	1111111111111111;
	508 :	0000000000100010;
	507 :	1111111111010011;
	506 :	1111111111101111;
	505 :	1111111111110000;
	504 :	0000000000001110;
	503 :	0000000000001011;
	502 :	0000000000000011;
	501 :	1111111111110000;
	500 :	1111111110101001;
	499 :	1111111111110110;
	498 :	1111111111111010;
	497 :	0000000000000000;
	496 :	1111111111100110;
	495 :	1111111111101111;
	494 :	0000000000001100;
	493 :	0000000000010000;
	492 :	1111111111110000;
	491 :	1111111111110011;
	490 :	1111111111011111;
	489 :	0000000000000111;
	488 :	0000000000011001;
	487 :	1111111111110100;
	486 :	0000000000011000;
	485 :	0000000000001101;
	484 :	1111111111110110;
	483 :	1111111111111101;
	482 :	0000000000100111;
	481 :	1111111111011110;
	480 :	1111111111101111;
	479 :	1111111111100100;
	478 :	0000000000000110;
	477 :	1111111111110100;
	476 :	0000000000001101;
	475 :	0000000000000110;
	474 :	0000000000001101;
	473 :	1111111111100001;
	472 :	1111111111000011;
	471 :	1111111111000101;
	470 :	1111111111101010;
	469 :	0000000000001110;
	468 :	1111111111110010;
	467 :	1111111111110100;
	466 :	0000000000101101;
	465 :	1111111111101110;
	464 :	0000000000001101;
	463 :	1111111111100001;
	462 :	1111111111110000;
	461 :	0000000000011010;
	460 :	0000000000010011;
	459 :	0000000000100001;
	458 :	1111111111011100;
	457 :	1111111111110010;
	456 :	1111111111111111;
	455 :	0000000000001100;
	454 :	0000000000100101;
	453 :	0000000000000011;
	452 :	0000000000010111;
	451 :	1111111111001011;
	450 :	0000000000000101;
	449 :	1111111111101100;
	448 :	1111111111110011;
	447 :	1111111111110110;
	446 :	1111111111101001;
	445 :	1111111111011000;
	444 :	1111111110111100;
	443 :	1111111111001001;
	442 :	0000000000001000;
	441 :	0000000000010110;
	440 :	0000000000000111;
	439 :	0000000000000011;
	438 :	0000000000000010;
	437 :	0000000000000111;
	436 :	0000000000000000;
	435 :	1111111111110110;
	434 :	1111111111110010;
	433 :	1111111111011010;
	432 :	0000000000001101;
	431 :	0000000000010010;
	430 :	1111111111100000;
	429 :	1111111111110010;
	428 :	0000000000001011;
	427 :	0000000000001011;
	426 :	0000000000011001;
	425 :	0000000000010111;
	424 :	0000000000100101;
	423 :	0000000000101101;
	422 :	1111111111111101;
	421 :	1111111111110010;
	420 :	1111111111110001;
	419 :	1111111111111111;
	418 :	0000000000000111;
	417 :	1111111111010111;
	416 :	1111111111100010;
	415 :	1111111111111010;
	414 :	1111111111100010;
	413 :	0000000000010100;
	412 :	0000000000010101;
	411 :	1111111111111100;
	410 :	0000000000010110;
	409 :	0000000000001101;
	408 :	0000000000000000;
	407 :	1111111111110000;
	406 :	1111111111101011;
	405 :	1111111111110101;
	404 :	1111111111110111;
	403 :	0000000000000100;
	402 :	1111111111110101;
	401 :	1111111111110110;
	400 :	0000000000000100;
	399 :	1111111111100110;
	398 :	0000000000000100;
	397 :	0000000000000101;
	396 :	0000000000111000;
	395 :	0000000000101110;
	394 :	1111111111101111;
	393 :	1111111111111100;
	392 :	0000000000001111;
	391 :	1111111111101110;
	390 :	1111111111111001;
	389 :	1111111111110101;
	388 :	1111111111011101;
	387 :	1111111110111000;
	386 :	1111111111011111;
	385 :	0000000000010000;
	384 :	0000000000101011;
	383 :	1111111111111000;
	382 :	0000000000010100;
	381 :	0000000000010101;
	380 :	0000000000101000;
	379 :	1111111111110011;
	378 :	1111111111111000;
	377 :	1111111111101000;
	376 :	1111111111111000;
	375 :	1111111111110010;
	374 :	0000000000000101;
	373 :	0000000000001011;
	372 :	1111111111111010;
	371 :	0000000000011111;
	370 :	0000000000100000;
	369 :	0000000000110010;
	368 :	1111111111110101;
	367 :	0000000000100001;
	366 :	0000000000000110;
	365 :	1111111111111000;
	364 :	1111111111101101;
	363 :	1111111111110110;
	362 :	0000000000010101;
	361 :	1111111111001000;
	360 :	1111111110100110;
	359 :	1111111110101100;
	358 :	1111111111100010;
	357 :	0000000000011001;
	356 :	1111111111101110;
	355 :	0000000000100001;
	354 :	0000000000001001;
	353 :	1111111111111000;
	352 :	0000000000001110;
	351 :	0000000000001011;
	350 :	0000000000001001;
	349 :	1111111111100110;
	348 :	1111111111111110;
	347 :	0000000000001001;
	346 :	1111111111100001;
	345 :	0000000000000010;
	344 :	0000000000010111;
	343 :	0000000000010000;
	342 :	0000000000001110;
	341 :	1111111111111111;
	340 :	0000000000111001;
	339 :	0000000000011011;
	338 :	1111111111101001;
	337 :	0000000000000100;
	336 :	0000000000011011;
	335 :	1111111111111111;
	334 :	1111111111111110;
	333 :	1111111111010001;
	332 :	1111111110100100;
	331 :	1111111111000011;
	330 :	1111111111011010;
	329 :	0000000000010111;
	328 :	1111111111111011;
	327 :	0000000000010010;
	326 :	1111111111111001;
	325 :	0000000000100111;
	324 :	0000000000100010;
	323 :	0000000000011101;
	322 :	1111111111111110;
	321 :	0000000000101010;
	320 :	0000000000011010;
	319 :	1111111111110100;
	318 :	0000000000000110;
	317 :	1111111111111110;
	316 :	0000000000000101;
	315 :	0000000000001101;
	314 :	0000000000011010;
	313 :	0000000000001000;
	312 :	0000000000010101;
	311 :	0000000000010001;
	310 :	1111111111101111;
	309 :	1111111111100111;
	308 :	0000000000001110;
	307 :	1111111111101100;
	306 :	0000000000010110;
	305 :	0000000000100001;
	304 :	0000000000001111;
	303 :	1111111111100111;
	302 :	1111111111100110;
	301 :	1111111111110111;
	300 :	1111111111101101;
	299 :	1111111111111110;
	298 :	0000000000000100;
	297 :	0000000000011101;
	296 :	0000000000000110;
	295 :	0000000000011111;
	294 :	0000000000010011;
	293 :	1111111111011010;
	292 :	1111111111100111;
	291 :	1111111111111001;
	290 :	0000000000000100;
	289 :	0000000000011101;
	288 :	0000000000011010;
	287 :	0000000000000100;
	286 :	0000000000000011;
	285 :	1111111111110100;
	284 :	1111111111111010;
	283 :	0000000000000000;
	282 :	0000000000010101;
	281 :	0000000000110001;
	280 :	1111111111111001;
	279 :	0000000000010100;
	278 :	0000000000010110;
	277 :	1111111111101100;
	276 :	1111111111111001;
	275 :	1111111111010010;
	274 :	1111111111010001;
	273 :	1111111111101000;
	272 :	1111111111010111;
	271 :	1111111111011101;
	270 :	0000000000000101;
	269 :	0000000000010111;
	268 :	1111111111001011;
	267 :	0000000000000001;
	266 :	1111111111101100;
	265 :	1111111111101010;
	264 :	1111111111101110;
	263 :	1111111111111110;
	262 :	0000000000101100;
	261 :	0000000000001101;
	260 :	0000000000100000;
	259 :	0000000000001000;
	258 :	0000000000001111;
	257 :	0000000000001100;
	256 :	0000000000100110;
	255 :	0000000000000011;
	254 :	0000000000010110;
	253 :	0000000000001000;
	252 :	0000000000000000;
	251 :	1111111111111110;
	250 :	0000000000001110;
	249 :	0000000000001110;
	248 :	0000000000100010;
	247 :	1111111111110001;
	246 :	0000000000011100;
	245 :	1111111111100111;
	244 :	1111111110111011;
	243 :	1111111111110110;
	242 :	1111111111011011;
	241 :	1111111111101100;
	240 :	1111111111010001;
	239 :	1111111111101111;
	238 :	0000000000000000;
	237 :	1111111111101100;
	236 :	0000000000110000;
	235 :	0000000000100001;
	234 :	1111111111111010;
	233 :	0000000000001000;
	232 :	1111111111111101;
	231 :	1111111111110010;
	230 :	1111111111111100;
	229 :	1111111111000100;
	228 :	0000000000000000;
	227 :	0000000000100000;
	226 :	0000000000110111;
	225 :	0000000000010111;
	224 :	0000000000010100;
	223 :	1111111111101110;
	222 :	0000000000001010;
	221 :	0000000000001010;
	220 :	0000000000000110;
	219 :	1111111111111100;
	218 :	1111111111001101;
	217 :	1111111111101001;
	216 :	1111111111010010;
	215 :	1111111110010001;
	214 :	1111111110110000;
	213 :	1111111111110101;
	212 :	1111111111001001;
	211 :	0000000000000010;
	210 :	0000000000010011;
	209 :	0000000000011101;
	208 :	0000000000011001;
	207 :	0000000000001000;
	206 :	0000000000000111;
	205 :	1111111111110010;
	204 :	1111111111110011;
	203 :	0000000000001110;
	202 :	1111111111111110;
	201 :	1111111111001011;
	200 :	0000000000111000;
	199 :	1111111111111000;
	198 :	0000000000100010;
	197 :	1111111111111101;
	196 :	1111111111101010;
	195 :	1111111111111010;
	194 :	1111111111110010;
	193 :	0000000000001100;
	192 :	0000000000000011;
	191 :	1111111110111011;
	190 :	0000000000000011;
	189 :	1111111110111110;
	188 :	1111111111101011;
	187 :	1111111111011100;
	186 :	1111111111000000;
	185 :	1111111111110101;
	184 :	1111111111111011;
	183 :	0000000000000010;
	182 :	0000000000011110;
	181 :	0000000001000111;
	180 :	0000000000000010;
	179 :	0000000000010110;
	178 :	0000000000001101;
	177 :	1111111111101011;
	176 :	1111111111011001;
	175 :	1111111111001100;
	174 :	1111111111001110;
	173 :	0000000000011110;
	172 :	0000000000010110;
	171 :	0000000000010100;
	170 :	0000000000011101;
	169 :	1111111111111001;
	168 :	1111111111101110;
	167 :	0000000000001110;
	166 :	1111111111111110;
	165 :	1111111111110011;
	164 :	1111111111111111;
	163 :	0000000000001101;
	162 :	0000000000100110;
	161 :	1111111111011110;
	160 :	1111111111110011;
	159 :	1111111111010111;
	158 :	1111111111110111;
	157 :	0000000000010111;
	156 :	0000000000000001;
	155 :	0000000000011001;
	154 :	0000000000001011;
	153 :	1111111111110011;
	152 :	1111111111110110;
	151 :	0000000000011010;
	150 :	1111111111111001;
	149 :	1111111111100110;
	148 :	0000000000000010;
	147 :	0000000000101001;
	146 :	1111111111110010;
	145 :	1111111111111001;
	144 :	0000000000000000;
	143 :	0000000000001101;
	142 :	0000000000010100;
	141 :	0000000000000011;
	140 :	1111111111111010;
	139 :	0000000000001111;
	138 :	1111111111100101;
	137 :	1111111111110001;
	136 :	0000000000011011;
	135 :	0000000000000100;
	134 :	1111111111111110;
	133 :	0000000000011101;
	132 :	1111111111011001;
	131 :	1111111111110001;
	130 :	1111111111111000;
	129 :	1111111111111001;
	128 :	1111111111100000;
	127 :	1111111111101110;
	126 :	1111111111001010;
	125 :	1111111110110001;
	124 :	1111111111001110;
	123 :	1111111111011011;
	122 :	1111111110101101;
	121 :	1111111110101101;
	120 :	1111111111011001;
	119 :	1111111111011100;
	118 :	1111111111010010;
	117 :	0000000000010010;
	116 :	0000000000100000;
	115 :	1111111111111011;
	114 :	1111111111110100;
	113 :	1111111111110001;
	112 :	1111111111101110;
	111 :	1111111111111101;
	110 :	1111111111110000;
	109 :	1111111111111011;
	108 :	1111111111111011;
	107 :	1111111111110100;
	106 :	1111111111111000;
	105 :	1111111111111011;
	104 :	1111111111010010;
	103 :	1111111111110110;
	102 :	1111111111111111;
	101 :	1111111111001011;
	100 :	1111111111101001;
	99 :	1111111111001101;
	98 :	1111111111100100;
	97 :	1111111111100111;
	96 :	1111111111111011;
	95 :	1111111111111010;
	94 :	1111111111111010;
	93 :	1111111111100111;
	92 :	1111111111110100;
	91 :	1111111111110101;
	90 :	0000000000000101;
	89 :	1111111111111000;
	88 :	0000000000010110;
	87 :	1111111111110101;
	86 :	0000000000000000;
	85 :	0000000000000110;
	84 :	1111111111101011;
	83 :	0000000000001011;
	82 :	0000000000001011;
	81 :	0000000000001101;
	80 :	1111111111111111;
	79 :	1111111111101100;
	78 :	1111111111110100;
	77 :	0000000000001011;
	76 :	1111111111110101;
	75 :	1111111111011100;
	74 :	1111111110101011;
	73 :	1111111111100110;
	72 :	1111111111101000;
	71 :	1111111111110000;
	70 :	1111111111010100;
	69 :	1111111111110000;
	68 :	1111111111101111;
	67 :	1111111111100110;
	66 :	1111111111100000;
	65 :	0000000000000100;
	64 :	1111111111110000;
	63 :	1111111111110101;
	62 :	1111111111111101;
	61 :	1111111111111111;
	60 :	1111111111110110;
	59 :	0000000000000011;
	58 :	0000000000010010;
	57 :	1111111111101101;
	56 :	0000000000001100;
	55 :	0000000000001110;
	54 :	0000000000000100;
	53 :	0000000000001001;
	52 :	1111111111111011;
	51 :	1111111111100100;
	50 :	1111111111111110;
	49 :	1111111111101010;
	48 :	1111111111101101;
	47 :	0000000000000001;
	46 :	0000000000010000;
	45 :	1111111111001100;
	44 :	1111111111110000;
	43 :	1111111111110110;
	42 :	1111111111011010;
	41 :	0000000000000010;
	40 :	1111111111001101;
	39 :	0000000000000010;
	38 :	1111111111011100;
	37 :	0000000000001111;
	36 :	1111111111101100;
	35 :	1111111111101000;
	34 :	1111111111111000;
	33 :	0000000000000010;
	32 :	1111111111110000;
	31 :	0000000000001101;
	30 :	0000000000001111;
	29 :	0000000000010110;
	28 :	0000000000000001;
	27 :	1111111111101011;
	26 :	1111111111110001;
	25 :	1111111111110000;
	24 :	1111111111110010;
	23 :	0000000000000011;
	22 :	0000000000000100;
	21 :	1111111111111111;
	20 :	1111111111110010;
	19 :	0000000000010001;
	18 :	0000000000010001;
	17 :	1111111111111100;
	16 :	1111111111101010;
	15 :	1111111111110111;
	14 :	0000000000010000;
	13 :	0000000000001000;
	12 :	1111111111101111;
	11 :	0000000000001111;
	10 :	1111111111111000;
	9 :	0000000000001000;
	8 :	0000000000001110;
	7 :	0000000000010100;
	6 :	1111111111111010;
	5 :	1111111111110110;
	4 :	0000000000010011;
	3 :	1111111111111100;
	2 :	1111111111111110;
	1 :	1111111111110110;
	0 :	0000000000000110;
END;
