-- begin_signature
-- weights(numWeights
-- 16
-- neuronNumber
-- 7
-- layerNumber
-- 1
-- addressWidth
-- 4
-- dataWidth
-- 16
-- weightFile
-- "weights/weight_L1_N7.mif")
-- end_signature
WIDTH=16;
DEPTH=16;

ADDRESS_RADIX=UNS;
DATA_RADIX=BIN;

CONTENT BEGIN
	15 :	1111111111111100;
	14 :	0000000001000010;
	13 :	0000000001010011;
	12 :	1111111111110111;
	11 :	1111111111101010;
	10 :	0000000001110001;
	9 :	0000000000110101;
	8 :	1111111111010010;
	7 :	1111111111000110;
	6 :	0000000000101110;
	5 :	0000000000101011;
	4 :	1111111110111011;
	3 :	1111111111101010;
	2 :	0000000001000010;
	1 :	1111111111010110;
	0 :	0000000000010001;
END;
