-- begin_signature
-- weights(numWeights
-- 16
-- neuronNumber
-- 8
-- layerNumber
-- 2
-- addressWidth
-- 4
-- dataWidth
-- 16
-- weightFile
-- "weights/weight_L2_N8.mif")
-- end_signature
WIDTH=16;
DEPTH=16;

ADDRESS_RADIX=UNS;
DATA_RADIX=BIN;

CONTENT BEGIN
	15 :	0000000000010000;
	14 :	0000000000001100;
	13 :	0000000000101110;
	12 :	1111111111011010;
	11 :	1111111110001110;
	10 :	0000000001101111;
	9 :	0000000000001111;
	8 :	1111111110110111;
	7 :	1111111110111100;
	6 :	1111111111001100;
	5 :	0000000000100011;
	4 :	0000000000111011;
	3 :	1111111111100010;
	2 :	0000000000000010;
	1 :	1111111110110000;
	0 :	0000000000110000;
END;
