-- begin_signature
-- weights(numWeights
-- 784
-- neuronNumber
-- 9
-- layerNumber
-- 0
-- addressWidth
-- 10
-- dataWidth
-- 8
-- weightFile
-- "weights/weight_L0_N9.mif")
-- end_signature
WIDTH=8;
DEPTH=784;

ADDRESS_RADIX=UNS;
DATA_RADIX=BIN;

CONTENT BEGIN
	783 :	00001011;
	782 :	00001010;
	781 :	00001001;
	780 :	00001000;
	779 :	00000111;
	778 :	00000110;
	777 :	00000101;
	776 :	00000100;
	775 :	00000011;
	774 :	00000010;
	773 :	00000001;
	772 :	00000000;
	771 :	00001111;
	770 :	00001110;
	769 :	00001101;
	768 :	00001100;
	767 :	00001111;
	766 :	00001110;
	765 :	00001101;
	764 :	00001100;
	763 :	00001011;
	762 :	00001010;
	761 :	00001001;
	760 :	00001000;
	759 :	00000111;
	758 :	00000110;
	757 :	00000101;
	756 :	00000100;
	755 :	00000011;
	754 :	00000010;
	753 :	00000001;
	752 :	00000000;
	751 :	00001111;
	750 :	00001110;
	749 :	00001101;
	748 :	00001100;
	747 :	00001011;
	746 :	00001010;
	745 :	00001001;
	744 :	00001000;
	743 :	00000111;
	742 :	00000110;
	741 :	00000101;
	740 :	00000100;
	739 :	00000011;
	738 :	00000010;
	737 :	00000001;
	736 :	00000000;
	735 :	00001111;
	734 :	00001110;
	733 :	00001101;
	732 :	00001100;
	731 :	00001011;
	730 :	00001010;
	729 :	00001001;
	728 :	00001000;
	727 :	00000111;
	726 :	00000110;
	725 :	00000101;
	724 :	00000100;
	723 :	00000011;
	722 :	00000010;
	721 :	00000001;
	720 :	00000000;
	719 :	00001111;
	718 :	00001110;
	717 :	00001101;
	716 :	00001100;
	715 :	00001011;
	714 :	00001010;
	713 :	00001001;
	712 :	00001000;
	711 :	00000111;
	710 :	00000110;
	709 :	00000101;
	708 :	00000100;
	707 :	00000011;
	706 :	00000010;
	705 :	00000001;
	704 :	00000000;
	703 :	00001111;
	702 :	00001110;
	701 :	00001101;
	700 :	00001100;
	699 :	00001011;
	698 :	00001010;
	697 :	00001001;
	696 :	00001000;
	695 :	00000111;
	694 :	00000110;
	693 :	00000101;
	692 :	00000100;
	691 :	00000011;
	690 :	00000010;
	689 :	00000001;
	688 :	00000000;
	687 :	00001111;
	686 :	00001110;
	685 :	00001101;
	684 :	00001100;
	683 :	00001011;
	682 :	00001010;
	681 :	00001001;
	680 :	00001000;
	679 :	00000111;
	678 :	00000110;
	677 :	00000101;
	676 :	00000100;
	675 :	00000011;
	674 :	00000010;
	673 :	00000001;
	672 :	00000000;
	671 :	00001111;
	670 :	00001110;
	669 :	00001101;
	668 :	00001100;
	667 :	00001011;
	666 :	00001010;
	665 :	00001001;
	664 :	00001000;
	663 :	00000111;
	662 :	00000110;
	661 :	00000101;
	660 :	00000100;
	659 :	00000011;
	658 :	00000010;
	657 :	00000001;
	656 :	00000000;
	655 :	00001111;
	654 :	00001110;
	653 :	00001101;
	652 :	00001100;
	651 :	00001011;
	650 :	00001010;
	649 :	00001001;
	648 :	00001000;
	647 :	00000111;
	646 :	00000110;
	645 :	00000101;
	644 :	00000100;
	643 :	00000011;
	642 :	00000010;
	641 :	00000001;
	640 :	00000000;
	639 :	00001111;
	638 :	00001110;
	637 :	00001101;
	636 :	00001100;
	635 :	00001011;
	634 :	00001010;
	633 :	00001001;
	632 :	00001000;
	631 :	00000111;
	630 :	00000110;
	629 :	00000101;
	628 :	00000100;
	627 :	00000011;
	626 :	00000010;
	625 :	00000001;
	624 :	00000000;
	623 :	00001111;
	622 :	00001110;
	621 :	00001101;
	620 :	00001100;
	619 :	00001011;
	618 :	00001010;
	617 :	00001001;
	616 :	00001000;
	615 :	00000111;
	614 :	00000110;
	613 :	00000101;
	612 :	00000100;
	611 :	00000011;
	610 :	00000010;
	609 :	00000001;
	608 :	00000000;
	607 :	00001111;
	606 :	00001110;
	605 :	00001101;
	604 :	00001100;
	603 :	00001011;
	602 :	00001010;
	601 :	00001001;
	600 :	00001000;
	599 :	00000111;
	598 :	00000110;
	597 :	00000101;
	596 :	00000100;
	595 :	00000011;
	594 :	00000010;
	593 :	00000001;
	592 :	00000000;
	591 :	00001111;
	590 :	00001110;
	589 :	00001101;
	588 :	00001100;
	587 :	00001011;
	586 :	00001010;
	585 :	00001001;
	584 :	00001000;
	583 :	00000111;
	582 :	00000110;
	581 :	00000101;
	580 :	00000100;
	579 :	00000011;
	578 :	00000010;
	577 :	00000001;
	576 :	00000000;
	575 :	00001111;
	574 :	00001110;
	573 :	00001101;
	572 :	00001100;
	571 :	00001011;
	570 :	00001010;
	569 :	00001001;
	568 :	00001000;
	567 :	00000111;
	566 :	00000110;
	565 :	00000101;
	564 :	00000100;
	563 :	00000011;
	562 :	00000010;
	561 :	00000001;
	560 :	00000000;
	559 :	00001111;
	558 :	00001110;
	557 :	00001101;
	556 :	00001100;
	555 :	00001011;
	554 :	00001010;
	553 :	00001001;
	552 :	00001000;
	551 :	00000111;
	550 :	00000110;
	549 :	00000101;
	548 :	00000100;
	547 :	00000011;
	546 :	00000010;
	545 :	00000001;
	544 :	00000000;
	543 :	00001111;
	542 :	00001110;
	541 :	00001101;
	540 :	00001100;
	539 :	00001011;
	538 :	00001010;
	537 :	00001001;
	536 :	00001000;
	535 :	00000111;
	534 :	00000110;
	533 :	00000101;
	532 :	00000100;
	531 :	00000011;
	530 :	00000010;
	529 :	00000001;
	528 :	00000000;
	527 :	00001111;
	526 :	00001110;
	525 :	00001101;
	524 :	00001100;
	523 :	00001011;
	522 :	00001010;
	521 :	00001001;
	520 :	00001000;
	519 :	00000111;
	518 :	00000110;
	517 :	00000101;
	516 :	00000100;
	515 :	00000011;
	514 :	00000010;
	513 :	00000001;
	512 :	00000000;
	511 :	00001111;
	510 :	00001110;
	509 :	00001101;
	508 :	00001100;
	507 :	00001011;
	506 :	00001010;
	505 :	00001001;
	504 :	00001000;
	503 :	00000111;
	502 :	00000110;
	501 :	00000101;
	500 :	00000100;
	499 :	00000011;
	498 :	00000010;
	497 :	00000001;
	496 :	00000000;
	495 :	00001111;
	494 :	00001110;
	493 :	00001101;
	492 :	00001100;
	491 :	00001011;
	490 :	00001010;
	489 :	00001001;
	488 :	00001000;
	487 :	00000111;
	486 :	00000110;
	485 :	00000101;
	484 :	00000100;
	483 :	00000011;
	482 :	00000010;
	481 :	00000001;
	480 :	00000000;
	479 :	00001111;
	478 :	00001110;
	477 :	00001101;
	476 :	00001100;
	475 :	00001011;
	474 :	00001010;
	473 :	00001001;
	472 :	00001000;
	471 :	00000111;
	470 :	00000110;
	469 :	00000101;
	468 :	00000100;
	467 :	00000011;
	466 :	00000010;
	465 :	00000001;
	464 :	00000000;
	463 :	00001111;
	462 :	00001110;
	461 :	00001101;
	460 :	00001100;
	459 :	00001011;
	458 :	00001010;
	457 :	00001001;
	456 :	00001000;
	455 :	00000111;
	454 :	00000110;
	453 :	00000101;
	452 :	00000100;
	451 :	00000011;
	450 :	00000010;
	449 :	00000001;
	448 :	00000000;
	447 :	00001111;
	446 :	00001110;
	445 :	00001101;
	444 :	00001100;
	443 :	00001011;
	442 :	00001010;
	441 :	00001001;
	440 :	00001000;
	439 :	00000111;
	438 :	00000110;
	437 :	00000101;
	436 :	00000100;
	435 :	00000011;
	434 :	00000010;
	433 :	00000001;
	432 :	00000000;
	431 :	00001111;
	430 :	00001110;
	429 :	00001101;
	428 :	00001100;
	427 :	00001011;
	426 :	00001010;
	425 :	00001001;
	424 :	00001000;
	423 :	00000111;
	422 :	00000110;
	421 :	00000101;
	420 :	00000100;
	419 :	00000011;
	418 :	00000010;
	417 :	00000001;
	416 :	00000000;
	415 :	00001111;
	414 :	00001110;
	413 :	00001101;
	412 :	00001100;
	411 :	00001011;
	410 :	00001010;
	409 :	00001001;
	408 :	00001000;
	407 :	00000111;
	406 :	00000110;
	405 :	00000101;
	404 :	00000100;
	403 :	00000011;
	402 :	00000010;
	401 :	00000001;
	400 :	00000000;
	399 :	00001111;
	398 :	00001110;
	397 :	00001101;
	396 :	00001100;
	395 :	00001011;
	394 :	00001010;
	393 :	00001001;
	392 :	00001000;
	391 :	00000111;
	390 :	00000110;
	389 :	00000101;
	388 :	00000100;
	387 :	00000011;
	386 :	00000010;
	385 :	00000001;
	384 :	00000000;
	383 :	00001111;
	382 :	00001110;
	381 :	00001101;
	380 :	00001100;
	379 :	00001011;
	378 :	00001010;
	377 :	00001001;
	376 :	00001000;
	375 :	00000111;
	374 :	00000110;
	373 :	00000101;
	372 :	00000100;
	371 :	00000011;
	370 :	00000010;
	369 :	00000001;
	368 :	00000000;
	367 :	00001111;
	366 :	00001110;
	365 :	00001101;
	364 :	00001100;
	363 :	00001011;
	362 :	00001010;
	361 :	00001001;
	360 :	00001000;
	359 :	00000111;
	358 :	00000110;
	357 :	00000101;
	356 :	00000100;
	355 :	00000011;
	354 :	00000010;
	353 :	00000001;
	352 :	00000000;
	351 :	00001111;
	350 :	00001110;
	349 :	00001101;
	348 :	00001100;
	347 :	00001011;
	346 :	00001010;
	345 :	00001001;
	344 :	00001000;
	343 :	00000111;
	342 :	00000110;
	341 :	00000101;
	340 :	00000100;
	339 :	00000011;
	338 :	00000010;
	337 :	00000001;
	336 :	00000000;
	335 :	00001111;
	334 :	00001110;
	333 :	00001101;
	332 :	00001100;
	331 :	00001011;
	330 :	00001010;
	329 :	00001001;
	328 :	00001000;
	327 :	00000111;
	326 :	00000110;
	325 :	00000101;
	324 :	00000100;
	323 :	00000011;
	322 :	00000010;
	321 :	00000001;
	320 :	00000000;
	319 :	00001111;
	318 :	00001110;
	317 :	00001101;
	316 :	00001100;
	315 :	00001011;
	314 :	00001010;
	313 :	00001001;
	312 :	00001000;
	311 :	00000111;
	310 :	00000110;
	309 :	00000101;
	308 :	00000100;
	307 :	00000011;
	306 :	00000010;
	305 :	00000001;
	304 :	00000000;
	303 :	00001111;
	302 :	00001110;
	301 :	00001101;
	300 :	00001100;
	299 :	00001011;
	298 :	00001010;
	297 :	00001001;
	296 :	00001000;
	295 :	00000111;
	294 :	00000110;
	293 :	00000101;
	292 :	00000100;
	291 :	00000011;
	290 :	00000010;
	289 :	00000001;
	288 :	00000000;
	287 :	00001111;
	286 :	00001110;
	285 :	00001101;
	284 :	00001100;
	283 :	00001011;
	282 :	00001010;
	281 :	00001001;
	280 :	00001000;
	279 :	00000111;
	278 :	00000110;
	277 :	00000101;
	276 :	00000100;
	275 :	00000011;
	274 :	00000010;
	273 :	00000001;
	272 :	00000000;
	271 :	00001111;
	270 :	00001110;
	269 :	00001101;
	268 :	00001100;
	267 :	00001011;
	266 :	00001010;
	265 :	00001001;
	264 :	00001000;
	263 :	00000111;
	262 :	00000110;
	261 :	00000101;
	260 :	00000100;
	259 :	00000011;
	258 :	00000010;
	257 :	00000001;
	256 :	00000000;
	255 :	00001111;
	254 :	00001110;
	253 :	00001101;
	252 :	00001100;
	251 :	00001011;
	250 :	00001010;
	249 :	00001001;
	248 :	00001000;
	247 :	00000111;
	246 :	00000110;
	245 :	00000101;
	244 :	00000100;
	243 :	00000011;
	242 :	00000010;
	241 :	00000001;
	240 :	00000000;
	239 :	00001111;
	238 :	00001110;
	237 :	00001101;
	236 :	00001100;
	235 :	00001011;
	234 :	00001010;
	233 :	00001001;
	232 :	00001000;
	231 :	00000111;
	230 :	00000110;
	229 :	00000101;
	228 :	00000100;
	227 :	00000011;
	226 :	00000010;
	225 :	00000001;
	224 :	00000000;
	223 :	00001111;
	222 :	00001110;
	221 :	00001101;
	220 :	00001100;
	219 :	00001011;
	218 :	00001010;
	217 :	00001001;
	216 :	00001000;
	215 :	00000111;
	214 :	00000110;
	213 :	00000101;
	212 :	00000100;
	211 :	00000011;
	210 :	00000010;
	209 :	00000001;
	208 :	00000000;
	207 :	00001111;
	206 :	00001110;
	205 :	00001101;
	204 :	00001100;
	203 :	00001011;
	202 :	00001010;
	201 :	00001001;
	200 :	00001000;
	199 :	00000111;
	198 :	00000110;
	197 :	00000101;
	196 :	00000100;
	195 :	00000011;
	194 :	00000010;
	193 :	00000001;
	192 :	00000000;
	191 :	00001111;
	190 :	00001110;
	189 :	00001101;
	188 :	00001100;
	187 :	00001011;
	186 :	00001010;
	185 :	00001001;
	184 :	00001000;
	183 :	00000111;
	182 :	00000110;
	181 :	00000101;
	180 :	00000100;
	179 :	00000011;
	178 :	00000010;
	177 :	00000001;
	176 :	00000000;
	175 :	00001111;
	174 :	00001110;
	173 :	00001101;
	172 :	00001100;
	171 :	00001011;
	170 :	00001010;
	169 :	00001001;
	168 :	00001000;
	167 :	00000111;
	166 :	00000110;
	165 :	00000101;
	164 :	00000100;
	163 :	00000011;
	162 :	00000010;
	161 :	00000001;
	160 :	00000000;
	159 :	00001111;
	158 :	00001110;
	157 :	00001101;
	156 :	00001100;
	155 :	00001011;
	154 :	00001010;
	153 :	00001001;
	152 :	00001000;
	151 :	00000111;
	150 :	00000110;
	149 :	00000101;
	148 :	00000100;
	147 :	00000011;
	146 :	00000010;
	145 :	00000001;
	144 :	00000000;
	143 :	00001111;
	142 :	00001110;
	141 :	00001101;
	140 :	00001100;
	139 :	00001011;
	138 :	00001010;
	137 :	00001001;
	136 :	00001000;
	135 :	00000111;
	134 :	00000110;
	133 :	00000101;
	132 :	00000100;
	131 :	00000011;
	130 :	00000010;
	129 :	00000001;
	128 :	00000000;
	127 :	00001111;
	126 :	00001110;
	125 :	00001101;
	124 :	00001100;
	123 :	00001011;
	122 :	00001010;
	121 :	00001001;
	120 :	00001000;
	119 :	00000111;
	118 :	00000110;
	117 :	00000101;
	116 :	00000100;
	115 :	00000011;
	114 :	00000010;
	113 :	00000001;
	112 :	00000000;
	111 :	00001111;
	110 :	00001110;
	109 :	00001101;
	108 :	00001100;
	107 :	00001011;
	106 :	00001010;
	105 :	00001001;
	104 :	00001000;
	103 :	00000111;
	102 :	00000110;
	101 :	00000101;
	100 :	00000100;
	99 :	00000011;
	98 :	00000010;
	97 :	00000001;
	96 :	00000000;
	95 :	00001111;
	94 :	00001110;
	93 :	00001101;
	92 :	00001100;
	91 :	00001011;
	90 :	00001010;
	89 :	00001001;
	88 :	00001000;
	87 :	00000111;
	86 :	00000110;
	85 :	00000101;
	84 :	00000100;
	83 :	00000011;
	82 :	00000010;
	81 :	00000001;
	80 :	00000000;
	79 :	00001111;
	78 :	00001110;
	77 :	00001101;
	76 :	00001100;
	75 :	00001011;
	74 :	00001010;
	73 :	00001001;
	72 :	00001000;
	71 :	00000111;
	70 :	00000110;
	69 :	00000101;
	68 :	00000100;
	67 :	00000011;
	66 :	00000010;
	65 :	00000001;
	64 :	00000000;
	63 :	00001111;
	62 :	00001110;
	61 :	00001101;
	60 :	00001100;
	59 :	00001011;
	58 :	00001010;
	57 :	00001001;
	56 :	00001000;
	55 :	00000111;
	54 :	00000110;
	53 :	00000101;
	52 :	00000100;
	51 :	00000011;
	50 :	00000010;
	49 :	00000001;
	48 :	00000000;
	47 :	00001111;
	46 :	00001110;
	45 :	00001101;
	44 :	00001100;
	43 :	00001011;
	42 :	00001010;
	41 :	00001001;
	40 :	00001000;
	39 :	00000111;
	38 :	00000110;
	37 :	00000101;
	36 :	00000100;
	35 :	00000011;
	34 :	00000010;
	33 :	00000001;
	32 :	00000000;
	31 :	00001111;
	30 :	00001110;
	29 :	00001101;
	28 :	00001100;
	27 :	00001011;
	26 :	00001010;
	25 :	00001001;
	24 :	00001000;
	23 :	00000111;
	22 :	00000110;
	21 :	00000101;
	20 :	00000100;
	19 :	00000011;
	18 :	00000010;
	17 :	00000001;
	16 :	00000000;
	15 :	00001111;
	14 :	00001110;
	13 :	00001101;
	12 :	00001100;
	11 :	00001011;
	10 :	00001010;
	9 :	00001001;
	8 :	00001000;
	7 :	00000111;
	6 :	00000110;
	5 :	00000101;
	4 :	00000100;
	3 :	00000011;
	2 :	00000010;
	1 :	00000001;
	0 :	00000000;
END;
