-- begin_signature
-- weights(numWeights
-- 16
-- neuronNumber
-- 3
-- layerNumber
-- 2
-- addressWidth
-- 4
-- dataWidth
-- 16
-- weightFile
-- "weights/weight_L2_N3.mif")
-- end_signature
WIDTH=16;
DEPTH=16;

ADDRESS_RADIX=UNS;
DATA_RADIX=BIN;

CONTENT BEGIN
	15 :	1111111111110010;
	14 :	0000000000010000;
	13 :	1111111110111101;
	12 :	1111111111111011;
	11 :	0000000000000111;
	10 :	0000000001001110;
	9 :	1111111111110100;
	8 :	0000000000001101;
	7 :	0000000000011101;
	6 :	1111111111110100;
	5 :	0000000001100111;
	4 :	0000000001000011;
	3 :	0000000000000110;
	2 :	1111111111010110;
	1 :	1111111111101110;
	0 :	0000000000110010;
END;
