-- begin_signature
-- weights(numWeights
-- 16
-- neuronNumber
-- 3
-- layerNumber
-- 1
-- addressWidth
-- 4
-- dataWidth
-- 16
-- weightFile
-- "weights/weight_L1_N3.mif")
-- end_signature
WIDTH=16;
DEPTH=16;

ADDRESS_RADIX=UNS;
DATA_RADIX=BIN;

CONTENT BEGIN
	15 :	0000000000001000;
	14 :	0000000000101110;
	13 :	0000000001010100;
	12 :	0000000000100011;
	11 :	0000000010100111;
	10 :	1111111111100100;
	9 :	1111111111100010;
	8 :	1111111110100101;
	7 :	1111111111111000;
	6 :	1111111110011010;
	5 :	1111111110101010;
	4 :	1111111111110110;
	3 :	0000000000100011;
	2 :	1111111111011100;
	1 :	1111111111100101;
	0 :	1111111110111100;
END;
