-- begin_signature
-- weights(numWeights
-- 16
-- neuronNumber
-- 11
-- layerNumber
-- 2
-- addressWidth
-- 4
-- dataWidth
-- 16
-- weightFile
-- "weights/weight_L2_N11.mif")
-- end_signature
WIDTH=16;
DEPTH=16;

ADDRESS_RADIX=UNS;
DATA_RADIX=BIN;

CONTENT BEGIN
	15 :	1111111111010010;
	14 :	0000000000011110;
	13 :	0000000000001000;
	12 :	0000000000101010;
	11 :	0000000000010010;
	10 :	1111111111110001;
	9 :	0000000000100101;
	8 :	0000000000001001;
	7 :	1111111111110010;
	6 :	1111111111101010;
	5 :	0000000000111110;
	4 :	0000000001011101;
	3 :	0000000000101111;
	2 :	0000000000000110;
	1 :	0000000000001011;
	0 :	0000000000001110;
END;
