-- begin_signature
-- weights(numWeights
-- 784
-- neuronNumber
-- 11
-- layerNumber
-- 0
-- addressWidth
-- 10
-- dataWidth
-- 16
-- weightFile
-- "weights/weight_L0_N11.mif")
-- end_signature
WIDTH=16;
DEPTH=784;

ADDRESS_RADIX=UNS;
DATA_RADIX=BIN;

CONTENT BEGIN
	783 :	0000000000001111;
	782 :	1111111111111110;
	781 :	1111111111110101;
	780 :	1111111111110011;
	779 :	1111111111101010;
	778 :	1111111111001011;
	777 :	0000000000010001;
	776 :	1111111111110111;
	775 :	1111111111110011;
	774 :	1111111111101011;
	773 :	1111111111101111;
	772 :	0000000000010001;
	771 :	0000000000000000;
	770 :	1111111111111101;
	769 :	0000000000011100;
	768 :	0000000000010111;
	767 :	0000000000110011;
	766 :	0000000000011011;
	765 :	1111111111110100;
	764 :	1111111111111110;
	763 :	1111111111110100;
	762 :	1111111111110001;
	761 :	1111111111110100;
	760 :	0000000000001000;
	759 :	1111111111101100;
	758 :	1111111111110010;
	757 :	1111111111111111;
	756 :	1111111111110101;
	755 :	0000000000000011;
	754 :	0000000000000100;
	753 :	0000000000000000;
	752 :	0000000000001011;
	751 :	1111111111110000;
	750 :	0000000000000010;
	749 :	1111111110110110;
	748 :	1111111111001110;
	747 :	1111111111100101;
	746 :	1111111111000010;
	745 :	1111111111011101;
	744 :	1111111111111111;
	743 :	0000000000000011;
	742 :	1111111111110100;
	741 :	0000000000001110;
	740 :	0000000000010001;
	739 :	0000000000010111;
	738 :	0000000000111111;
	737 :	0000000000011010;
	736 :	0000000000001001;
	735 :	0000000000001101;
	734 :	1111111111011100;
	733 :	1111111111001001;
	732 :	1111111111110100;
	731 :	1111111111110000;
	730 :	0000000000001110;
	729 :	0000000000000010;
	728 :	1111111111110001;
	727 :	0000000000001001;
	726 :	0000000000010011;
	725 :	1111111111101101;
	724 :	0000000000010011;
	723 :	1111111111110000;
	722 :	1111111111101100;
	721 :	1111111110110100;
	720 :	1111111110111110;
	719 :	1111111110101001;
	718 :	1111111110100001;
	717 :	0000000000010000;
	716 :	0000000000000011;
	715 :	0000000000101010;
	714 :	0000000000000010;
	713 :	1111111111111101;
	712 :	0000000000010000;
	711 :	1111111111101110;
	710 :	1111111111100101;
	709 :	0000000000100000;
	708 :	0000000000010110;
	707 :	0000000000011010;
	706 :	0000000000010000;
	705 :	0000000000001011;
	704 :	0000000000010010;
	703 :	0000000000011110;
	702 :	1111111111110001;
	701 :	1111111111110101;
	700 :	0000000000001010;
	699 :	0000000000001100;
	698 :	1111111111110110;
	697 :	0000000001001100;
	696 :	0000000000101000;
	695 :	1111111111001000;
	694 :	1111111111111100;
	693 :	1111111111100000;
	692 :	0000000000000100;
	691 :	1111111111101011;
	690 :	1111111111011011;
	689 :	0000000000000000;
	688 :	1111111111110011;
	687 :	1111111111110111;
	686 :	0000000000001110;
	685 :	0000000000000000;
	684 :	0000000000000000;
	683 :	1111111111111101;
	682 :	0000000000000011;
	681 :	0000000000000000;
	680 :	1111111111101110;
	679 :	0000000000010001;
	678 :	1111111111100000;
	677 :	0000000000000001;
	676 :	1111111111111000;
	675 :	1111111111001000;
	674 :	1111111111110101;
	673 :	0000000000010101;
	672 :	0000000000000000;
	671 :	0000000000001100;
	670 :	1111111111110000;
	669 :	1111111111100111;
	668 :	0000000001000111;
	667 :	0000000001000011;
	666 :	0000000000101101;
	665 :	0000000000001101;
	664 :	0000000000100010;
	663 :	0000000000000101;
	662 :	0000000000001101;
	661 :	1111111111100001;
	660 :	1111111111100101;
	659 :	0000000000000010;
	658 :	1111111111111000;
	657 :	0000000000000010;
	656 :	1111111111111110;
	655 :	0000000000000011;
	654 :	1111111111110000;
	653 :	0000000000000000;
	652 :	1111111111110111;
	651 :	0000000000010011;
	650 :	0000000000010000;
	649 :	0000000000100110;
	648 :	1111111111111110;
	647 :	1111111111000011;
	646 :	0000000000011101;
	645 :	1111111111111000;
	644 :	0000000000000010;
	643 :	0000000000001111;
	642 :	0000000000001111;
	641 :	0000000000100100;
	640 :	0000000000001011;
	639 :	1111111111101011;
	638 :	0000000000000101;
	637 :	0000000000010010;
	636 :	0000000000110100;
	635 :	0000000000010010;
	634 :	0000000000010111;
	633 :	0000000000000000;
	632 :	1111111111111010;
	631 :	1111111111110111;
	630 :	1111111111110011;
	629 :	1111111111110101;
	628 :	1111111111111000;
	627 :	0000000000000001;
	626 :	1111111111111110;
	625 :	0000000000001100;
	624 :	0000000000001110;
	623 :	0000000000011010;
	622 :	1111111111111111;
	621 :	0000000000100001;
	620 :	0000000000110100;
	619 :	0000000000110001;
	618 :	0000000000110010;
	617 :	0000000000001100;
	616 :	1111111111111000;
	615 :	0000000000000100;
	614 :	1111111111110111;
	613 :	0000000001101101;
	612 :	0000000000011111;
	611 :	0000000000100110;
	610 :	0000000000010100;
	609 :	0000000000010001;
	608 :	0000000000001000;
	607 :	0000000000011110;
	606 :	0000000000010111;
	605 :	0000000000011011;
	604 :	1111111111110110;
	603 :	1111111111111111;
	602 :	1111111111101010;
	601 :	1111111111111110;
	600 :	0000000000001001;
	599 :	0000000000000110;
	598 :	0000000000000110;
	597 :	0000000000000111;
	596 :	0000000000000010;
	595 :	1111111111111001;
	594 :	1111111111111011;
	593 :	0000000000001100;
	592 :	0000000000000010;
	591 :	0000000000100011;
	590 :	0000000000010100;
	589 :	0000000000100011;
	588 :	1111111111101100;
	587 :	1111111111111001;
	586 :	0000000000110000;
	585 :	0000000001000101;
	584 :	0000000000110001;
	583 :	0000000000011011;
	582 :	0000000000000101;
	581 :	0000000000001111;
	580 :	0000000000000011;
	579 :	0000000000001110;
	578 :	0000000000010100;
	577 :	0000000000010010;
	576 :	1111111111111110;
	575 :	1111111111111110;
	574 :	1111111111111111;
	573 :	1111111111111110;
	572 :	0000000000000010;
	571 :	0000000000000011;
	570 :	1111111111111110;
	569 :	0000000000001001;
	568 :	0000000000000010;
	567 :	1111111111111011;
	566 :	1111111111111010;
	565 :	0000000000000101;
	564 :	0000000000001100;
	563 :	0000000000110000;
	562 :	1111111111110001;
	561 :	1111111111101100;
	560 :	0000000000000100;
	559 :	1111111111101100;
	558 :	0000000001000011;
	557 :	0000000001001011;
	556 :	0000000000011111;
	555 :	1111111111111100;
	554 :	0000000000110100;
	553 :	0000000000001101;
	552 :	0000000000011111;
	551 :	0000000000100110;
	550 :	1111111111111011;
	549 :	0000000000010001;
	548 :	0000000000100010;
	547 :	0000000000011110;
	546 :	0000000000010110;
	545 :	0000000000011010;
	544 :	1111111111111110;
	543 :	0000000000000010;
	542 :	1111111111111101;
	541 :	0000000000000101;
	540 :	1111111111111110;
	539 :	0000000000010101;
	538 :	0000000000001110;
	537 :	1111111111101011;
	536 :	1111111111111111;
	535 :	1111111111101010;
	534 :	1111111111111001;
	533 :	0000000000001100;
	532 :	0000000000001100;
	531 :	0000000000111110;
	530 :	0000000000111101;
	529 :	0000000001100100;
	528 :	0000000001001001;
	527 :	0000000000100110;
	526 :	0000000000000110;
	525 :	0000000000001001;
	524 :	0000000000000110;
	523 :	0000000000001000;
	522 :	0000000000000111;
	521 :	0000000000001110;
	520 :	0000000000001011;
	519 :	0000000000010010;
	518 :	0000000000011110;
	517 :	0000000000100111;
	516 :	0000000000100100;
	515 :	1111111111111100;
	514 :	0000000000010001;
	513 :	0000000000000010;
	512 :	0000000000000010;
	511 :	0000000000011100;
	510 :	0000000000011111;
	509 :	0000000000001011;
	508 :	0000000000001011;
	507 :	0000000000001011;
	506 :	0000000000010110;
	505 :	1111111111110100;
	504 :	0000000000010110;
	503 :	1111111111110100;
	502 :	0000000001010000;
	501 :	0000000001011111;
	500 :	0000000000011010;
	499 :	1111111111110110;
	498 :	0000000000011001;
	497 :	0000000000000010;
	496 :	0000000000000001;
	495 :	0000000000001000;
	494 :	0000000000001010;
	493 :	1111111111110011;
	492 :	0000000000000010;
	491 :	0000000000001101;
	490 :	0000000000100000;
	489 :	0000000000101011;
	488 :	0000000000011111;
	487 :	0000000000001110;
	486 :	0000000000001100;
	485 :	0000000000010110;
	484 :	0000000000010110;
	483 :	0000000000000011;
	482 :	0000000000010010;
	481 :	0000000000011100;
	480 :	0000000000000000;
	479 :	0000000000000010;
	478 :	0000000000011110;
	477 :	1111111111110001;
	476 :	0000000000000000;
	475 :	0000000001001010;
	474 :	0000000001000001;
	473 :	0000000001011001;
	472 :	0000000000100110;
	471 :	1111111111110001;
	470 :	0000000000011000;
	469 :	0000000000010111;
	468 :	1111111111111010;
	467 :	1111111111110010;
	466 :	0000000000000010;
	465 :	0000000000000101;
	464 :	0000000000000010;
	463 :	0000000000000110;
	462 :	0000000000100010;
	461 :	0000000000011101;
	460 :	0000000000011101;
	459 :	0000000000010011;
	458 :	0000000000100001;
	457 :	0000000000011011;
	456 :	0000000000100000;
	455 :	0000000000011100;
	454 :	0000000000100110;
	453 :	0000000000111111;
	452 :	0000000000010010;
	451 :	0000000000101000;
	450 :	0000000000000010;
	449 :	0000000000000111;
	448 :	0000000000010011;
	447 :	0000000001001010;
	446 :	0000000000101101;
	445 :	0000000000010000;
	444 :	0000000000001111;
	443 :	1111111111111101;
	442 :	1111111111100111;
	441 :	1111111111111101;
	440 :	1111111111101110;
	439 :	0000000000000001;
	438 :	0000000000001000;
	437 :	1111111111101011;
	436 :	0000000000001110;
	435 :	0000000000010010;
	434 :	0000000000001001;
	433 :	0000000000100101;
	432 :	0000000000000100;
	431 :	0000000000010100;
	430 :	0000000000010011;
	429 :	1111111111111100;
	428 :	0000000000100100;
	427 :	0000000000001100;
	426 :	0000000000100101;
	425 :	0000000000100000;
	424 :	0000000000010011;
	423 :	0000000000000100;
	422 :	1111111111100101;
	421 :	1111111111011111;
	420 :	0000000000000110;
	419 :	0000000000000000;
	418 :	0000000001010010;
	417 :	0000000000011111;
	416 :	0000000000001100;
	415 :	1111111111101000;
	414 :	0000000000000011;
	413 :	1111111111101100;
	412 :	1111111111111110;
	411 :	0000000000010010;
	410 :	0000000000000111;
	409 :	0000000000000100;
	408 :	0000000000001011;
	407 :	0000000000000001;
	406 :	0000000000011001;
	405 :	0000000000001001;
	404 :	1111111111111101;
	403 :	0000000000000000;
	402 :	0000000000001000;
	401 :	0000000000010000;
	400 :	0000000000011000;
	399 :	0000000000100010;
	398 :	1111111111111011;
	397 :	1111111111101010;
	396 :	1111111111110111;
	395 :	1111111111110111;
	394 :	1111111111100001;
	393 :	0000000000001110;
	392 :	0000000000001001;
	391 :	1111111111101011;
	390 :	1111111111101100;
	389 :	0000000000110011;
	388 :	0000000000010010;
	387 :	1111111111101110;
	386 :	0000000000000000;
	385 :	1111111111111001;
	384 :	1111111111101011;
	383 :	1111111111111101;
	382 :	1111111111111010;
	381 :	1111111111110101;
	380 :	0000000000000100;
	379 :	1111111111111011;
	378 :	0000000000001101;
	377 :	0000000000000001;
	376 :	0000000000000011;
	375 :	1111111111100011;
	374 :	1111111111101100;
	373 :	1111111111010011;
	372 :	1111111111011011;
	371 :	1111111110100110;
	370 :	1111111110101111;
	369 :	1111111110000101;
	368 :	1111111110110011;
	367 :	1111111111001110;
	366 :	0000000000000101;
	365 :	1111111111100100;
	364 :	1111111111110010;
	363 :	0000000000100000;
	362 :	0000000001000010;
	361 :	0000000000101001;
	360 :	1111111111010101;
	359 :	1111111111101110;
	358 :	1111111111011111;
	357 :	1111111111011011;
	356 :	1111111111110100;
	355 :	1111111111100011;
	354 :	1111111111110101;
	353 :	1111111111100100;
	352 :	1111111111111011;
	351 :	1111111111110010;
	350 :	1111111111100111;
	349 :	1111111111001111;
	348 :	1111111111100001;
	347 :	1111111111010111;
	346 :	1111111111010001;
	345 :	1111111111000001;
	344 :	1111111110011010;
	343 :	1111111101111101;
	342 :	1111111101100001;
	341 :	1111111110110010;
	340 :	1111111110101000;
	339 :	1111111110111000;
	338 :	1111111111000101;
	337 :	0000000000000000;
	336 :	0000000000001110;
	335 :	0000000000011111;
	334 :	1111111111011110;
	333 :	0000000000000011;
	332 :	1111111111000101;
	331 :	1111111111101101;
	330 :	1111111111110111;
	329 :	1111111111100011;
	328 :	0000000000000110;
	327 :	1111111111111010;
	326 :	1111111111101110;
	325 :	1111111111101101;
	324 :	1111111111110100;
	323 :	1111111111100101;
	322 :	1111111111010110;
	321 :	1111111110100100;
	320 :	1111111111001001;
	319 :	1111111110101100;
	318 :	1111111110101100;
	317 :	1111111111000000;
	316 :	1111111111000010;
	315 :	1111111111001101;
	314 :	1111111111011000;
	313 :	1111111111101101;
	312 :	1111111111001000;
	311 :	1111111111011101;
	310 :	1111111111001011;
	309 :	0000000000001100;
	308 :	1111111111101100;
	307 :	1111111111101110;
	306 :	1111111111101000;
	305 :	1111111111111010;
	304 :	1111111111111110;
	303 :	1111111111010100;
	302 :	1111111111101111;
	301 :	1111111111100111;
	300 :	1111111111100000;
	299 :	1111111111111110;
	298 :	0000000000000010;
	297 :	0000000000000001;
	296 :	0000000000000001;
	295 :	1111111111110110;
	294 :	1111111111010100;
	293 :	1111111111000011;
	292 :	1111111111101000;
	291 :	1111111111100111;
	290 :	1111111111110000;
	289 :	1111111111101100;
	288 :	1111111111100100;
	287 :	1111111111101101;
	286 :	0000000000011001;
	285 :	0000000000000011;
	284 :	1111111111011010;
	283 :	1111111111110101;
	282 :	0000000000001010;
	281 :	1111111111100100;
	280 :	1111111111110111;
	279 :	1111111111110100;
	278 :	1111111111011010;
	277 :	1111111111000110;
	276 :	1111111111010111;
	275 :	1111111111011101;
	274 :	1111111111111100;
	273 :	0000000000000100;
	272 :	1111111111111110;
	271 :	0000000000000110;
	270 :	1111111111111101;
	269 :	0000000000001101;
	268 :	0000000000000000;
	267 :	0000000000001101;
	266 :	1111111111111001;
	265 :	1111111111100101;
	264 :	0000000000000110;
	263 :	0000000000000001;
	262 :	1111111111110000;
	261 :	0000000000001000;
	260 :	1111111111111010;
	259 :	1111111111110110;
	258 :	1111111111101101;
	257 :	0000000000010011;
	256 :	0000000000000111;
	255 :	0000000000101111;
	254 :	1111111111111110;
	253 :	0000000000010010;
	252 :	0000000000000000;
	251 :	1111111111111001;
	250 :	0000000000010100;
	249 :	0000000000000011;
	248 :	1111111110001101;
	247 :	0000000000000110;
	246 :	1111111111111111;
	245 :	1111111111101101;
	244 :	1111111111110010;
	243 :	0000000000010110;
	242 :	1111111111111110;
	241 :	0000000000000111;
	240 :	0000000000000001;
	239 :	1111111111110101;
	238 :	0000000000011011;
	237 :	0000000000000110;
	236 :	1111111111111100;
	235 :	0000000000010011;
	234 :	0000000000010001;
	233 :	0000000000000010;
	232 :	0000000000000101;
	231 :	0000000000000001;
	230 :	1111111111111111;
	229 :	1111111111111001;
	228 :	0000000000111110;
	227 :	0000000000000010;
	226 :	1111111111111110;
	225 :	1111111111111111;
	224 :	1111111111110001;
	223 :	1111111111101010;
	222 :	0000000000010011;
	221 :	1111111111011000;
	220 :	1111111111111110;
	219 :	1111111111010100;
	218 :	0000000000000011;
	217 :	0000000000000011;
	216 :	0000000000001101;
	215 :	0000000000001101;
	214 :	1111111111110011;
	213 :	0000000000000110;
	212 :	0000000000001011;
	211 :	1111111111111011;
	210 :	0000000000001001;
	209 :	0000000000001110;
	208 :	0000000000000100;
	207 :	0000000000001011;
	206 :	0000000000000010;
	205 :	1111111111111010;
	204 :	0000000000000101;
	203 :	1111111111111110;
	202 :	0000000000010100;
	201 :	1111111111110111;
	200 :	0000000000110111;
	199 :	1111111111110001;
	198 :	0000000001000110;
	197 :	0000000000011101;
	196 :	1111111111101011;
	195 :	0000000000010011;
	194 :	0000000000110110;
	193 :	1111111111010111;
	192 :	1111111111110010;
	191 :	1111111111110000;
	190 :	1111111111111011;
	189 :	1111111111110101;
	188 :	1111111111111101;
	187 :	0000000000000100;
	186 :	0000000000000111;
	185 :	1111111111100010;
	184 :	0000000000010000;
	183 :	1111111111111010;
	182 :	1111111111111110;
	181 :	0000000000001010;
	180 :	0000000000001101;
	179 :	0000000000001110;
	178 :	0000000000011001;
	177 :	0000000000011001;
	176 :	1111111111110001;
	175 :	0000000000100011;
	174 :	0000000000000001;
	173 :	0000000000000010;
	172 :	0000000000110000;
	171 :	0000000000011001;
	170 :	1111111111011010;
	169 :	1111111111101111;
	168 :	0000000000001110;
	167 :	0000000000000111;
	166 :	1111111111001011;
	165 :	1111111111101000;
	164 :	1111111111011110;
	163 :	0000000000011010;
	162 :	0000000000100000;
	161 :	1111111111110110;
	160 :	0000000000010001;
	159 :	0000000000000010;
	158 :	1111111111111010;
	157 :	1111111111110010;
	156 :	0000000000000010;
	155 :	1111111111101010;
	154 :	0000000000000110;
	153 :	0000000000010000;
	152 :	0000000000000000;
	151 :	0000000000011100;
	150 :	0000000000010100;
	149 :	0000000000001101;
	148 :	0000000000000010;
	147 :	0000000000010011;
	146 :	1111111111110010;
	145 :	0000000000001111;
	144 :	0000000000110010;
	143 :	1111111111101000;
	142 :	0000000000000100;
	141 :	0000000000010011;
	140 :	1111111111110011;
	139 :	1111111111110000;
	138 :	0000000000001010;
	137 :	0000000000011111;
	136 :	1111111111100110;
	135 :	1111111111100001;
	134 :	1111111111111011;
	133 :	1111111111101111;
	132 :	0000000000000010;
	131 :	0000000000000000;
	130 :	0000000000000001;
	129 :	1111111111111111;
	128 :	0000000000001000;
	127 :	1111111111111011;
	126 :	0000000000011101;
	125 :	0000000000010000;
	124 :	0000000000011111;
	123 :	1111111111110001;
	122 :	0000000000100110;
	121 :	0000000000010110;
	120 :	0000000000010011;
	119 :	0000000000000001;
	118 :	0000000000101110;
	117 :	0000000000000100;
	116 :	0000000000000101;
	115 :	0000000000000011;
	114 :	0000000000011111;
	113 :	1111111111111110;
	112 :	0000000000001011;
	111 :	0000000000000001;
	110 :	1111111111111110;
	109 :	0000000000000001;
	108 :	1111111111110111;
	107 :	1111111111010110;
	106 :	1111111111101010;
	105 :	0000000000001101;
	104 :	1111111111100010;
	103 :	0000000000001011;
	102 :	1111111111111100;
	101 :	1111111111111010;
	100 :	0000000000001101;
	99 :	1111111111111010;
	98 :	1111111111110010;
	97 :	0000000000000110;
	96 :	1111111111111001;
	95 :	0000000000011111;
	94 :	0000000000001010;
	93 :	0000000000001100;
	92 :	0000000000010001;
	91 :	0000000000001101;
	90 :	0000000000010011;
	89 :	0000000000000101;
	88 :	0000000000001001;
	87 :	0000000000010101;
	86 :	0000000000111000;
	85 :	1111111111110100;
	84 :	1111111111111010;
	83 :	1111111111111110;
	82 :	1111111111111111;
	81 :	0000000000010110;
	80 :	0000000000000111;
	79 :	0000000000100000;
	78 :	1111111111110011;
	77 :	1111111111111100;
	76 :	0000000000000100;
	75 :	1111111110110111;
	74 :	0000000000110001;
	73 :	0000000000100011;
	72 :	0000000001010001;
	71 :	0000000000101011;
	70 :	0000000000100010;
	69 :	1111111111110001;
	68 :	0000000000100000;
	67 :	1111111111111010;
	66 :	0000000000000010;
	65 :	0000000000011001;
	64 :	1111111111011100;
	63 :	0000000000010110;
	62 :	0000000000001001;
	61 :	1111111111110001;
	60 :	1111111111110011;
	59 :	0000000000010100;
	58 :	1111111111110000;
	57 :	0000000000000001;
	56 :	1111111111111110;
	55 :	0000000000000001;
	54 :	0000000000000101;
	53 :	0000000000000001;
	52 :	0000000000000100;
	51 :	0000000000101001;
	50 :	0000000000000111;
	49 :	0000000000010010;
	48 :	0000000000000110;
	47 :	0000000000001010;
	46 :	0000000000001110;
	45 :	0000000000000011;
	44 :	0000000000100110;
	43 :	1111111111111110;
	42 :	1111111111101110;
	41 :	1111111111100111;
	40 :	1111111111110010;
	39 :	1111111111011011;
	38 :	1111111111100110;
	37 :	0000000000000001;
	36 :	1111111111110110;
	35 :	0000000000000111;
	34 :	0000000000011001;
	33 :	0000000000000000;
	32 :	1111111111110010;
	31 :	0000000000001101;
	30 :	1111111111101101;
	29 :	1111111111110101;
	28 :	1111111111110011;
	27 :	1111111111111001;
	26 :	0000000000000110;
	25 :	0000000000001100;
	24 :	0000000000000101;
	23 :	1111111111110000;
	22 :	0000000000000110;
	21 :	1111111111111101;
	20 :	1111111111110101;
	19 :	0000000000001110;
	18 :	0000000000001101;
	17 :	0000000000000000;
	16 :	1111111111111100;
	15 :	0000000000001110;
	14 :	0000000000111111;
	13 :	1111111111110110;
	12 :	0000000000001110;
	11 :	0000000000001010;
	10 :	1111111111110110;
	9 :	0000000000000001;
	8 :	0000000000000110;
	7 :	1111111111110111;
	6 :	1111111111101011;
	5 :	1111111111101010;
	4 :	1111111111101111;
	3 :	0000000000000010;
	2 :	1111111111110101;
	1 :	0000000000000010;
	0 :	1111111111111001;
END;
