-- begin_signature
-- weights(numWeights
-- 16
-- neuronNumber
-- 7
-- layerNumber
-- 3
-- addressWidth
-- 4
-- dataWidth
-- 16
-- weightFile
-- "weights/weight_L3_N7.mif")
-- end_signature
WIDTH=16;
DEPTH=16;

ADDRESS_RADIX=UNS;
DATA_RADIX=BIN;

CONTENT BEGIN
	15 :	0000000001100111;
	14 :	0000000000001001;
	13 :	1111111111011111;
	12 :	0000000000000011;
	11 :	1111111111100110;
	10 :	0000000000101011;
	9 :	1111111111011101;
	8 :	0000000000110101;
	7 :	1111111111000000;
	6 :	0000000000000010;
	5 :	1111111111101100;
	4 :	1111111111010001;
	3 :	1111111111100000;
	2 :	0000000000110100;
	1 :	0000000001011000;
	0 :	1111111111111011;
END;
