-- begin_signature
-- weights(numWeights
-- 784
-- neuronNumber
-- 0
-- layerNumber
-- 0
-- addressWidth
-- 10
-- dataWidth
-- 16
-- weightFile
-- "weights/weight_L0_N0.mif")
-- end_signature
WIDTH=16;
DEPTH=784;

ADDRESS_RADIX=UNS;
DATA_RADIX=BIN;

CONTENT BEGIN
	783 :	1111111111101101;
	782 :	1111111111111001;
	781 :	1111111111111000;
	780 :	0000000000001110;
	779 :	1111111111110000;
	778 :	0000000000100011;
	777 :	1111111111101001;
	776 :	0000000000100000;
	775 :	0000000000000001;
	774 :	1111111110101001;
	773 :	0000000000011001;
	772 :	0000000000001111;
	771 :	1111111110101110;
	770 :	1111111111000110;
	769 :	0000000000000010;
	768 :	1111111111100001;
	767 :	1111111111100001;
	766 :	0000000000000011;
	765 :	1111111111110111;
	764 :	0000000000000100;
	763 :	1111111111011011;
	762 :	0000000000000110;
	761 :	0000000000001111;
	760 :	1111111111111100;
	759 :	0000000000010101;
	758 :	0000000000001000;
	757 :	0000000000010011;
	756 :	1111111111110100;
	755 :	1111111111101110;
	754 :	1111111111111000;
	753 :	1111111111111011;
	752 :	1111111111110001;
	751 :	0000000000001001;
	750 :	1111111111001001;
	749 :	0000000000000000;
	748 :	0000000000001000;
	747 :	1111111111110110;
	746 :	1111111111001111;
	745 :	1111111110011001;
	744 :	1111111111010111;
	743 :	1111111111100100;
	742 :	1111111111011111;
	741 :	0000000000010000;
	740 :	0000000000001111;
	739 :	1111111111000110;
	738 :	1111111111000010;
	737 :	0000000000000111;
	736 :	0000000000011001;
	735 :	0000000001001101;
	734 :	0000000001011010;
	733 :	0000000001010011;
	732 :	1111111111110111;
	731 :	1111111111111011;
	730 :	1111111111110010;
	729 :	0000000000010010;
	728 :	1111111111110101;
	727 :	1111111111101010;
	726 :	1111111111101111;
	725 :	1111111111101111;
	724 :	1111111111001110;
	723 :	1111111111100010;
	722 :	1111111111110000;
	721 :	0000000001001000;
	720 :	1111111111110000;
	719 :	1111111111100111;
	718 :	1111111111011111;
	717 :	1111111111101010;
	716 :	0000000000000001;
	715 :	1111111111100001;
	714 :	1111111111010111;
	713 :	1111111111101110;
	712 :	0000000000000010;
	711 :	1111111111111000;
	710 :	1111111111110010;
	709 :	1111111111101101;
	708 :	1111111111100011;
	707 :	0000000000010100;
	706 :	0000000000100010;
	705 :	0000000000101011;
	704 :	1111111111100000;
	703 :	0000000000010101;
	702 :	0000000000000010;
	701 :	0000000000000111;
	700 :	1111111111110111;
	699 :	1111111111101101;
	698 :	1111111111101100;
	697 :	1111111111001000;
	696 :	1111111111111111;
	695 :	0000000001011110;
	694 :	0000000000111011;
	693 :	1111111111101100;
	692 :	0000000000011111;
	691 :	0000000000001100;
	690 :	1111111111111111;
	689 :	0000000000000010;
	688 :	1111111111111010;
	687 :	1111111111111101;
	686 :	1111111111111011;
	685 :	1111111111111110;
	684 :	0000000000010111;
	683 :	0000000000000100;
	682 :	0000000000000111;
	681 :	0000000000000011;
	680 :	1111111111100101;
	679 :	0000000000000011;
	678 :	0000000001001010;
	677 :	0000000000001101;
	676 :	1111111111011001;
	675 :	0000000000101000;
	674 :	1111111111101010;
	673 :	1111111111101011;
	672 :	1111111111111100;
	671 :	1111111111111011;
	670 :	0000000000010000;
	669 :	1111111111110111;
	668 :	0000000000000101;
	667 :	1111111110111110;
	666 :	1111111111111110;
	665 :	0000000000110101;
	664 :	0000000000000110;
	663 :	0000000000000111;
	662 :	1111111111111111;
	661 :	1111111111111001;
	660 :	0000000000000001;
	659 :	0000000000011100;
	658 :	0000000000010110;
	657 :	1111111111111010;
	656 :	1111111111111110;
	655 :	0000000000000000;
	654 :	0000000000001001;
	653 :	1111111111001010;
	652 :	1111111111111111;
	651 :	0000000000001110;
	650 :	0000000000011001;
	649 :	1111111111111101;
	648 :	1111111110111100;
	647 :	0000000000000011;
	646 :	0000000000001000;
	645 :	0000000000000101;
	644 :	1111111111101101;
	643 :	0000000000010100;
	642 :	1111111111110100;
	641 :	1111111111110000;
	640 :	0000000000100000;
	639 :	0000000000111110;
	638 :	0000000000000011;
	637 :	0000000000100011;
	636 :	0000000000000010;
	635 :	0000000000100111;
	634 :	0000000000010101;
	633 :	0000000000000111;
	632 :	1111111111111011;
	631 :	0000000000000101;
	630 :	0000000000011000;
	629 :	0000000000010000;
	628 :	0000000000000110;
	627 :	0000000000000011;
	626 :	0000000000001100;
	625 :	1111111111011101;
	624 :	1111111111011001;
	623 :	1111111111111000;
	622 :	1111111111101011;
	621 :	0000000000001011;
	620 :	1111111111000011;
	619 :	0000000000010000;
	618 :	0000000000000100;
	617 :	0000000000001001;
	616 :	0000000000001000;
	615 :	1111111111111010;
	614 :	0000000000000110;
	613 :	1111111111001101;
	612 :	0000000001000111;
	611 :	1111111111011010;
	610 :	0000000000010011;
	609 :	0000000000001100;
	608 :	0000000000000100;
	607 :	0000000000001100;
	606 :	0000000000001000;
	605 :	0000000000001101;
	604 :	0000000000001100;
	603 :	0000000000000110;
	602 :	0000000000001011;
	601 :	1111111111111001;
	600 :	0000000000000101;
	599 :	1111111111100110;
	598 :	1111111111100011;
	597 :	1111111111010110;
	596 :	1111111111110101;
	595 :	1111111111110111;
	594 :	1111111111110110;
	593 :	0000000000000100;
	592 :	1111111111100011;
	591 :	1111111111111100;
	590 :	0000000000010111;
	589 :	1111111111101011;
	588 :	1111111111110111;
	587 :	1111111111101101;
	586 :	1111111111110001;
	585 :	1111111110111101;
	584 :	1111111111111000;
	583 :	1111111111111001;
	582 :	1111111111110111;
	581 :	1111111111101001;
	580 :	0000000000011001;
	579 :	0000000000001110;
	578 :	0000000000010101;
	577 :	0000000000010000;
	576 :	0000000000000011;
	575 :	1111111111110000;
	574 :	1111111111111101;
	573 :	1111111111111101;
	572 :	0000000000001100;
	571 :	1111111111111001;
	570 :	1111111111101010;
	569 :	1111111111100000;
	568 :	1111111111101111;
	567 :	0000000000000011;
	566 :	1111111111011100;
	565 :	1111111111100100;
	564 :	1111111111101001;
	563 :	1111111111111101;
	562 :	0000000000001101;
	561 :	0000000000011011;
	560 :	0000000000010010;
	559 :	1111111111101100;
	558 :	1111111111011101;
	557 :	1111111111010010;
	556 :	1111111111111100;
	555 :	1111111111111000;
	554 :	0000000000010000;
	553 :	0000000000000101;
	552 :	0000000000010100;
	551 :	0000000000000011;
	550 :	0000000000010110;
	549 :	0000000000000000;
	548 :	0000000000010000;
	547 :	0000000000010010;
	546 :	0000000000000101;
	545 :	1111111111110101;
	544 :	0000000000000111;
	543 :	0000000000001110;
	542 :	0000000000001010;
	541 :	0000000000100100;
	540 :	0000000000010001;
	539 :	0000000000011000;
	538 :	1111111111101010;
	537 :	1111111111111111;
	536 :	1111111111101010;
	535 :	0000000000011100;
	534 :	0000000000101101;
	533 :	0000000000010101;
	532 :	1111111111110101;
	531 :	1111111111010001;
	530 :	1111111111000111;
	529 :	1111111111111101;
	528 :	1111111111100111;
	527 :	0000000000001100;
	526 :	0000000000001111;
	525 :	0000000000000010;
	524 :	0000000000011101;
	523 :	0000000000010001;
	522 :	0000000000010001;
	521 :	0000000000011100;
	520 :	0000000000000011;
	519 :	1111111111111010;
	518 :	0000000000000100;
	517 :	1111111111111011;
	516 :	0000000000010011;
	515 :	0000000000010110;
	514 :	0000000000110110;
	513 :	0000000000010110;
	512 :	0000000000011000;
	511 :	0000000000101000;
	510 :	0000000000000010;
	509 :	1111111111110001;
	508 :	0000000000000100;
	507 :	1111111111100111;
	506 :	1111111111100000;
	505 :	0000000000000001;
	504 :	0000000000010010;
	503 :	1111111111111000;
	502 :	1111111110101000;
	501 :	0000000000111011;
	500 :	0000000000001011;
	499 :	0000000000001010;
	498 :	0000000000011011;
	497 :	1111111111111000;
	496 :	0000000000001011;
	495 :	0000000000100010;
	494 :	0000000000010011;
	493 :	0000000000100100;
	492 :	1111111111110100;
	491 :	1111111111010111;
	490 :	0000000000000110;
	489 :	0000000000001101;
	488 :	0000000000001010;
	487 :	1111111111110101;
	486 :	0000000000010010;
	485 :	0000000000010010;
	484 :	0000000000010000;
	483 :	0000000000100011;
	482 :	0000000000001101;
	481 :	1111111111111110;
	480 :	1111111111101110;
	479 :	0000000000000001;
	478 :	0000000000100000;
	477 :	0000000000001100;
	476 :	1111111111101101;
	475 :	1111111111010001;
	474 :	1111111111111100;
	473 :	0000000000010010;
	472 :	0000000000100010;
	471 :	1111111111111101;
	470 :	0000000000011011;
	469 :	0000000000101100;
	468 :	0000000000010100;
	467 :	1111111111111110;
	466 :	0000000000001100;
	465 :	0000000000001101;
	464 :	1111111111110110;
	463 :	1111111111111001;
	462 :	1111111111101001;
	461 :	0000000000000111;
	460 :	1111111111111110;
	459 :	1111111111111110;
	458 :	0000000000110110;
	457 :	0000000000011100;
	456 :	0000000000111010;
	455 :	0000000000111011;
	454 :	0000000000101010;
	453 :	0000000000111110;
	452 :	0000000000000000;
	451 :	0000000000000001;
	450 :	0000000000001010;
	449 :	0000000000010010;
	448 :	0000000000000111;
	447 :	1111111111111000;
	446 :	0000000000001001;
	445 :	1111111111001011;
	444 :	1111111111110011;
	443 :	0000000000001111;
	442 :	0000000000011111;
	441 :	0000000000000100;
	440 :	0000000000010111;
	439 :	0000000000000010;
	438 :	0000000000010111;
	437 :	0000000000001011;
	436 :	1111111111110011;
	435 :	1111111111101111;
	434 :	1111111111100111;
	433 :	1111111111100011;
	432 :	1111111111110101;
	431 :	0000000000000000;
	430 :	0000000000010011;
	429 :	0000000000100011;
	428 :	0000000001000111;
	427 :	0000000000101011;
	426 :	0000000000010110;
	425 :	0000000000011101;
	424 :	0000000000011010;
	423 :	0000000000001011;
	422 :	1111111111111000;
	421 :	1111111111100111;
	420 :	0000000000001110;
	419 :	0000000000010001;
	418 :	1111111111001010;
	417 :	0000000000000001;
	416 :	0000000000101111;
	415 :	0000000000001011;
	414 :	0000000000001000;
	413 :	0000000000001010;
	412 :	1111111111111111;
	411 :	0000000000000110;
	410 :	0000000000010101;
	409 :	0000000000010001;
	408 :	1111111111111011;
	407 :	1111111111100000;
	406 :	1111111111100011;
	405 :	1111111110111010;
	404 :	1111111111010001;
	403 :	0000000000010011;
	402 :	0000000000000111;
	401 :	0000000000011010;
	400 :	0000000000011100;
	399 :	0000000000101110;
	398 :	0000000000100000;
	397 :	0000000000001000;
	396 :	0000000000101101;
	395 :	0000000000100010;
	394 :	1111111111110011;
	393 :	1111111111101011;
	392 :	0000000000010100;
	391 :	1111111111110010;
	390 :	0000000000000110;
	389 :	1111111111101101;
	388 :	1111111111011110;
	387 :	0000000000010100;
	386 :	0000000000000110;
	385 :	1111111111110101;
	384 :	1111111111110000;
	383 :	1111111111111111;
	382 :	1111111111110110;
	381 :	0000000000001101;
	380 :	0000000000001000;
	379 :	1111111111100110;
	378 :	1111111111011010;
	377 :	1111111110111001;
	376 :	1111111111011000;
	375 :	1111111111110111;
	374 :	0000000000001101;
	373 :	0000000000010101;
	372 :	0000000000000101;
	371 :	0000000000010011;
	370 :	0000000000100000;
	369 :	0000000000011100;
	368 :	0000000000100010;
	367 :	0000000000010100;
	366 :	1111111111001110;
	365 :	0000000000001000;
	364 :	0000000000000011;
	363 :	1111111111101001;
	362 :	1111111111100110;
	361 :	1111111111010111;
	360 :	1111111111010011;
	359 :	0000000000011100;
	358 :	0000000000010011;
	357 :	1111111111110100;
	356 :	1111111111101000;
	355 :	1111111111101001;
	354 :	0000000000000011;
	353 :	1111111111100111;
	352 :	1111111111110101;
	351 :	1111111111011110;
	350 :	1111111111001000;
	349 :	1111111110101011;
	348 :	1111111111100100;
	347 :	1111111111101010;
	346 :	1111111111111010;
	345 :	0000000000001011;
	344 :	1111111111110011;
	343 :	1111111111110000;
	342 :	0000000000110010;
	341 :	0000000000011011;
	340 :	1111111111111010;
	339 :	0000000000000100;
	338 :	1111111111000111;
	337 :	0000000000010000;
	336 :	0000000000010101;
	335 :	1111111111110100;
	334 :	1111111111100100;
	333 :	1111111111101100;
	332 :	1111111111101011;
	331 :	1111111111111001;
	330 :	1111111111111111;
	329 :	0000000000010110;
	328 :	1111111111101111;
	327 :	1111111111101100;
	326 :	1111111111110011;
	325 :	1111111111100011;
	324 :	0000000000011100;
	323 :	1111111111100110;
	322 :	1111111110110100;
	321 :	1111111111011010;
	320 :	1111111111101000;
	319 :	0000000000000001;
	318 :	1111111111111101;
	317 :	0000000000000011;
	316 :	1111111111101001;
	315 :	1111111111110000;
	314 :	0000000000000110;
	313 :	1111111111110001;
	312 :	1111111111101110;
	311 :	0000000000001100;
	310 :	1111111111100001;
	309 :	1111111111101001;
	308 :	1111111111110111;
	307 :	0000000000001101;
	306 :	1111111111011011;
	305 :	0000000000001011;
	304 :	1111111111110010;
	303 :	1111111111110011;
	302 :	1111111111111010;
	301 :	0000000000000100;
	300 :	1111111111111011;
	299 :	0000000000001001;
	298 :	0000000000010100;
	297 :	0000000000100110;
	296 :	0000000000000010;
	295 :	1111111111101000;
	294 :	1111111111010001;
	293 :	1111111111011111;
	292 :	0000000000000111;
	291 :	1111111111101111;
	290 :	1111111111111011;
	289 :	0000000000000101;
	288 :	1111111111100011;
	287 :	0000000000001011;
	286 :	1111111111111101;
	285 :	0000000000010101;
	284 :	1111111111010111;
	283 :	0000000000000101;
	282 :	0000000000101001;
	281 :	0000000001000100;
	280 :	1111111111111110;
	279 :	1111111111010000;
	278 :	0000000000001001;
	277 :	1111111111010100;
	276 :	1111111111100011;
	275 :	0000000000001100;
	274 :	1111111111101100;
	273 :	0000000000010111;
	272 :	0000000000010011;
	271 :	0000000000001111;
	270 :	0000000000010110;
	269 :	0000000000001000;
	268 :	0000000000000011;
	267 :	1111111111010000;
	266 :	1111111111100100;
	265 :	0000000000001101;
	264 :	1111111111110011;
	263 :	0000000000000011;
	262 :	0000000000000000;
	261 :	0000000000000010;
	260 :	1111111111100011;
	259 :	1111111111111110;
	258 :	0000000000000101;
	257 :	1111111111101000;
	256 :	0000000000100011;
	255 :	1111111111100011;
	254 :	0000000000010100;
	253 :	1111111111101111;
	252 :	1111111111111100;
	251 :	1111111111111110;
	250 :	1111111111110011;
	249 :	1111111111100010;
	248 :	0000000000011100;
	247 :	1111111111011010;
	246 :	1111111111101001;
	245 :	0000000000100010;
	244 :	0000000000001111;
	243 :	0000000000100011;
	242 :	0000000000100101;
	241 :	1111111111111001;
	240 :	0000000000000000;
	239 :	1111111111110011;
	238 :	1111111111110010;
	237 :	1111111111111010;
	236 :	0000000000000100;
	235 :	1111111111101010;
	234 :	1111111111110101;
	233 :	1111111111111111;
	232 :	0000000000000100;
	231 :	1111111111010100;
	230 :	1111111111100011;
	229 :	0000000000111011;
	228 :	0000000000100010;
	227 :	1111111110111111;
	226 :	1111111111100110;
	225 :	1111111111101101;
	224 :	1111111111110010;
	223 :	1111111111110000;
	222 :	1111111111110001;
	221 :	1111111111010001;
	220 :	0000000000001010;
	219 :	0000000000101101;
	218 :	0000000000001010;
	217 :	1111111111101101;
	216 :	0000000000010111;
	215 :	0000000000000011;
	214 :	0000000000011001;
	213 :	0000000000000100;
	212 :	0000000000000001;
	211 :	1111111111101111;
	210 :	1111111111110001;
	209 :	0000000000010011;
	208 :	1111111111100101;
	207 :	0000000000001000;
	206 :	0000000000001110;
	205 :	1111111111110110;
	204 :	1111111111101111;
	203 :	0000000000010000;
	202 :	0000000000000001;
	201 :	0000000000000000;
	200 :	0000000000000000;
	199 :	1111111111101101;
	198 :	1111111111101101;
	197 :	1111111111110010;
	196 :	0000000000001001;
	195 :	1111111111001100;
	194 :	1111111111001010;
	193 :	1111111111101111;
	192 :	0000000000010000;
	191 :	0000000000000101;
	190 :	0000000000010011;
	189 :	0000000000010010;
	188 :	0000000000011011;
	187 :	0000000000011001;
	186 :	0000000000000000;
	185 :	1111111111101101;
	184 :	1111111111111000;
	183 :	1111111111111100;
	182 :	0000000000000001;
	181 :	0000000000000000;
	180 :	0000000000000011;
	179 :	0000000000000111;
	178 :	0000000000010000;
	177 :	0000000000000000;
	176 :	1111111111100100;
	175 :	0000000000100101;
	174 :	0000000000100111;
	173 :	1111111111111110;
	172 :	0000000000000001;
	171 :	0000000000101100;
	170 :	1111111111011000;
	169 :	0000000000001100;
	168 :	0000000000000010;
	167 :	1111111111110001;
	166 :	1111111111111001;
	165 :	1111111110111111;
	164 :	0000000001000000;
	163 :	0000000000000010;
	162 :	1111111111110100;
	161 :	0000000000001111;
	160 :	1111111111101101;
	159 :	1111111111111011;
	158 :	1111111111011011;
	157 :	1111111111101111;
	156 :	1111111111100101;
	155 :	1111111111110000;
	154 :	1111111111111011;
	153 :	1111111111111010;
	152 :	1111111111110011;
	151 :	0000000000001101;
	150 :	0000000000001010;
	149 :	0000000000000101;
	148 :	0000000000010000;
	147 :	0000000000010110;
	146 :	0000000000011000;
	145 :	0000000000000000;
	144 :	1111111111100011;
	143 :	0000000000001001;
	142 :	0000000000000000;
	141 :	1111111111111111;
	140 :	1111111111111011;
	139 :	0000000000001100;
	138 :	0000000000100010;
	137 :	1111111111100001;
	136 :	0000000000101010;
	135 :	0000000001000110;
	134 :	0000000001011111;
	133 :	0000000001000001;
	132 :	0000000000010111;
	131 :	1111111111111101;
	130 :	1111111111101110;
	129 :	0000000000000110;
	128 :	1111111111101100;
	127 :	0000000000000110;
	126 :	1111111111100010;
	125 :	0000000000001101;
	124 :	0000000000000110;
	123 :	0000000000011100;
	122 :	1111111111010011;
	121 :	1111111111101001;
	120 :	0000000000000011;
	119 :	0000000000000000;
	118 :	1111111111010011;
	117 :	1111111111010011;
	116 :	1111111111101000;
	115 :	1111111111111000;
	114 :	0000000000001000;
	113 :	1111111111111110;
	112 :	1111111111110100;
	111 :	1111111111110001;
	110 :	0000000000000111;
	109 :	0000000000001011;
	108 :	1111111111110100;
	107 :	1111111111110101;
	106 :	0000000000010101;
	105 :	0000000000001100;
	104 :	1111111111010000;
	103 :	1111111111101101;
	102 :	1111111111011101;
	101 :	1111111111111111;
	100 :	1111111111110101;
	99 :	1111111111101000;
	98 :	0000000000000010;
	97 :	1111111111111001;
	96 :	1111111111110001;
	95 :	0000000000010111;
	94 :	1111111111010110;
	93 :	1111111111110110;
	92 :	1111111111100001;
	91 :	1111111111011111;
	90 :	1111111111010011;
	89 :	1111111111111000;
	88 :	0000000000000100;
	87 :	1111111111101100;
	86 :	0000000000000011;
	85 :	0000000000001100;
	84 :	1111111111111110;
	83 :	1111111111110010;
	82 :	0000000000010001;
	81 :	1111111111011111;
	80 :	1111111111011000;
	79 :	1111111111100000;
	78 :	0000000000010001;
	77 :	1111111111101010;
	76 :	1111111111101100;
	75 :	1111111111111111;
	74 :	1111111111001101;
	73 :	1111111111110001;
	72 :	1111111111111111;
	71 :	0000000000011101;
	70 :	0000000000101010;
	69 :	1111111111111110;
	68 :	1111111111011011;
	67 :	0000000000000011;
	66 :	0000000000111100;
	65 :	1111111111110111;
	64 :	0000000000001011;
	63 :	0000000000011011;
	62 :	1111111111000100;
	61 :	1111111111110100;
	60 :	0000000000100100;
	59 :	0000000000000000;
	58 :	1111111111101101;
	57 :	0000000000001001;
	56 :	1111111111111001;
	55 :	0000000000001110;
	54 :	1111111111111010;
	53 :	1111111111110111;
	52 :	1111111111101111;
	51 :	1111111111101100;
	50 :	1111111111000001;
	49 :	1111111111101101;
	48 :	0000000000001110;
	47 :	1111111111010110;
	46 :	0000000000000110;
	45 :	0000000000011100;
	44 :	1111111111100011;
	43 :	1111111111111011;
	42 :	0000000000110011;
	41 :	0000000000101100;
	40 :	1111111111110011;
	39 :	0000000000011111;
	38 :	0000000000010000;
	37 :	0000000000000010;
	36 :	1111111111101011;
	35 :	1111111111100001;
	34 :	1111111111111111;
	33 :	1111111111110010;
	32 :	0000000000001001;
	31 :	1111111111110101;
	30 :	0000000000001011;
	29 :	0000000000010011;
	28 :	1111111111101111;
	27 :	1111111111110110;
	26 :	0000000000001111;
	25 :	1111111111111100;
	24 :	1111111111110100;
	23 :	1111111111111000;
	22 :	1111111111101101;
	21 :	1111111111111100;
	20 :	1111111111101110;
	19 :	0000000000001011;
	18 :	0000000000001100;
	17 :	0000000000001001;
	16 :	1111111111111001;
	15 :	1111111111101101;
	14 :	1111111111100101;
	13 :	1111111111100111;
	12 :	1111111111110011;
	11 :	0000000000000110;
	10 :	1111111111110100;
	9 :	0000000000000101;
	8 :	1111111111111011;
	7 :	0000000000000100;
	6 :	0000000000001111;
	5 :	0000000000001101;
	4 :	1111111111111100;
	3 :	0000000000001110;
	2 :	1111111111111001;
	1 :	0000000000001001;
	0 :	1111111111101011;
END;
