-- begin_signature
-- weights(numWeights
-- 16
-- neuronNumber
-- 14
-- layerNumber
-- 2
-- addressWidth
-- 4
-- dataWidth
-- 16
-- weightFile
-- "weights/weight_L2_N14.mif")
-- end_signature
WIDTH=16;
DEPTH=16;

ADDRESS_RADIX=UNS;
DATA_RADIX=BIN;

CONTENT BEGIN
	15 :	0000000000101110;
	14 :	1111111111011111;
	13 :	1111111110101101;
	12 :	0000000000101000;
	11 :	0000000000100000;
	10 :	0000000000100100;
	9 :	1111111111110110;
	8 :	1111111111111110;
	7 :	0000000001010101;
	6 :	1111111111011010;
	5 :	1111111110110100;
	4 :	0000000000010111;
	3 :	0000000000110100;
	2 :	1111111111100000;
	1 :	0000000000000100;
	0 :	1111111111101001;
END;
